{
  "version": "1.0",
  "truncation": null,
  "padding": null,
  "added_tokens": [
    {
      "id": 0,
      "content": "[UNK]",
      "single_word": false,
      "lstrip": false,
      "rstrip": false,
      "normalized": false,
      "special": true
    },
    {
      "id": 1,
      "content": "[CLS]",
      "single_word": false,
      "lstrip": false,
      "rstrip": false,
      "normalized": false,
      "special": true
    },
    {
      "id": 2,
      "content": "[SEP]",
      "single_word": false,
      "lstrip": false,
      "rstrip": false,
      "normalized": false,
      "special": true
    },
    {
      "id": 3,
      "content": "[PAD]",
      "single_word": false,
      "lstrip": false,
      "rstrip": false,
      "normalized": false,
      "special": true
    },
    {
      "id": 4,
      "content": "[MASK]",
      "single_word": false,
      "lstrip": false,
      "rstrip": false,
      "normalized": false,
      "special": true
    },
    {
      "id": 62030,
      "content": " ",
      "single_word": false,
      "lstrip": false,
      "rstrip": false,
      "normalized": true,
      "special": false
    }
  ],
  "normalizer": null,
  "pre_tokenizer": {
    "type": "WhitespaceSplit"
  },
  "post_processor": {
    "type": "TemplateProcessing",
    "single": [
      {
        "Sequence": {
          "id": "A",
          "type_id": 0
        }
      }
    ],
    "pair": [
      {
        "Sequence": {
          "id": "A",
          "type_id": 0
        }
      },
      {
        "Sequence": {
          "id": "B",
          "type_id": 1
        }
      }
    ],
    "special_tokens": {}
  },
  "decoder": null,
  "model": {
    "type": "BPE",
    "dropout": null,
    "unk_token": "[UNK]",
    "continuing_subword_prefix": null,
    "end_of_word_suffix": null,
    "fuse_unk": false,
    "byte_fallback": false,
    "ignore_merges": false,
    "vocab": {
      "[UNK]": 0,
      "[CLS]": 1,
      "[SEP]": 2,
      "[PAD]": 3,
      "[MASK]": 4,
      "'": 5,
      "-": 6,
      ".": 7,
      "/": 8,
      "0": 9,
      "1": 10,
      "2": 11,
      "3": 12,
      "4": 13,
      "5": 14,
      "6": 15,
      "7": 16,
      "8": 17,
      "9": 18,
      ">": 19,
      "_": 20,
      "a": 21,
      "b": 22,
      "c": 23,
      "d": 24,
      "e": 25,
      "f": 26,
      "g": 27,
      "h": 28,
      "i": 29,
      "j": 30,
      "k": 31,
      "l": 32,
      "m": 33,
      "n": 34,
      "o": 35,
      "p": 36,
      "q": 37,
      "r": 38,
      "s": 39,
      "t": 40,
      "u": 41,
      "v": 42,
      "w": 43,
      "x": 44,
      "y": 45,
      "z": 46,
      ".0": 47,
      ".n": 48,
      ".n.0": 49,
      "er": 50,
      ".n.01": 51,
      "at": 52,
      "on": 53,
      "re": 54,
      "al": 55,
      "ym": 56,
      "or": 57,
      "_h": 58,
      "ion": 59,
      ".v": 60,
      ".v.0": 61,
      "per": 62,
      "yper": 63,
      "nym": 64,
      "_hyper": 65,
      "_hypernym": 66,
      "_d": 67,
      "ation": 68,
      "ate": 69,
      "d_": 70,
      "iv": 71,
      "ly": 72,
      "for": 73,
      "_re": 74,
      "form": 75,
      "late": 76,
      "ational": 77,
      "eriv": 78,
      "_deriv": 79,
      "lated_": 80,
      "ly_re": 81,
      "ationally_re": 82,
      "_derivationally_re": 83,
      "lated_form": 84,
      "_derivationally_related_form": 85,
      "in": 86,
      "an": 87,
      ".v.01": 88,
      "en": 89,
      "ar": 90,
      "st": 91,
      "_m": 92,
      ".n.02": 93,
      "e.n.01": 94,
      "ic": 95,
      "em": 96,
      "it": 97,
      "om": 98,
      "s.n.01": 99,
      "se": 100,
      "ber": 101,
      ".v.02": 102,
      "ac": 103,
      "as": 104,
      "ember": 105,
      "ro": 106,
      "_member": 107,
      "le": 108,
      "id": 109,
      "a.n.01": 110,
      "ch": 111,
      "eron": 112,
      "eronym": 113,
      "_meronym": 114,
      "_member_meronym": 115,
      "is": 116,
      "er.n.01": 117,
      "art": 118,
      "ce": 119,
      "_p": 120,
      "y.n.01": 121,
      "un": 122,
      "ing": 123,
      "op": 124,
      ".n.03": 125,
      "of": 126,
      "il": 127,
      "am": 128,
      "ain": 129,
      "ent": 130,
      "_of": 131,
      "ol": 132,
      ".a": 133,
      ".a.0": 134,
      "ae.n.01": 135,
      "de": 136,
      "_part": 137,
      "_has": 138,
      "_has_part": 139,
      "us.n.01": 140,
      "_s": 141,
      "ot": 142,
      "omain": 143,
      "us": 144,
      "_domain": 145,
      "_t": 146,
      "gen": 147,
      "ur": 148,
      ".v.03": 149,
      "el": 150,
      ".a.01": 151,
      "e.v.01": 152,
      "ap": 153,
      "ag": 154,
      "ut": 155,
      "et": 156,
      "ct": 157,
      "iz": 158,
      "ance": 159,
      "yn": 160,
      "_in": 161,
      "im": 162,
      "con": 163,
      "set": 164,
      "um": 165,
      "ad": 166,
      "lo": 167,
      "ist": 168,
      ".n.04": 169,
      "ation.n.01": 170,
      "ul": 171,
      "opic": 172,
      "_syn": 173,
      "_domain_t": 174,
      "set_domain_t": 175,
      "opic_of": 176,
      "_synset_domain_t": 177,
      "_synset_domain_topic_of": 178,
      "_inst": 179,
      "tr": 180,
      "ver": 181,
      "ir": 182,
      "ance_hypernym": 183,
      "_instance_hypernym": 184,
      "up": 185,
      "co": 186,
      "es": 187,
      "com": 188,
      "ant": 189,
      "ab": 190,
      "ing.n.01": 191,
      "ig": 192,
      "ter": 193,
      "po": 194,
      "genus.n.01": 195,
      ".v.04": 196,
      "idae.n.01": 197,
      "sp": 198,
      "ia.n.01": 199,
      "sh": 200,
      "so": 201,
      "ace": 202,
      "pl": 203,
      "if": 204,
      "_genus.n.01": 205,
      "d.n.01": 206,
      "qu": 207,
      "ip": 208,
      "th": 209,
      "ex": 210,
      "ion.n.01": 211,
      "ast": 212,
      "ang": 213,
      "ph": 214,
      "pro": 215,
      "e.v.02": 216,
      "res": 217,
      "aceae.n.01": 218,
      "og": 219,
      "act": 220,
      ".1": 221,
      "ent.n.01": 222,
      "_g": 223,
      "ity.n.01": 224,
      "ish": 225,
      "oc": 226,
      "ub": 227,
      "ed": 228,
      "est": 229,
      "av": 230,
      "od": 231,
      "al_": 232,
      ".n.05": 233,
      "t.n.01": 234,
      "cl": 235,
      ".v.05": 236,
      "ation.n.02": 237,
      "cr": 238,
      "an.n.01": 239,
      "ak": 240,
      "ate.v.01": 241,
      "_member_of": 242,
      "_member_of_domain": 243,
      "ure": 244,
      "on.n.01": 245,
      "str": 246,
      "y.n.02": 247,
      "dis": 248,
      "_al": 249,
      "or.n.01": 250,
      "see": 251,
      "es.n.01": 252,
      "e_": 253,
      "br": 254,
      "and": 255,
      "ill": 256,
      "al.n.01": 257,
      "ot_genus.n.01": 258,
      "ce.n.01": 259,
      "dr": 260,
      "_f": 261,
      "_see": 262,
      "aw": 263,
      "roup": 264,
      "so_see": 265,
      "_also_see": 266,
      "all": 267,
      "ass": 268,
      "ist.n.01": 269,
      "mo": 270,
      ".v.1": 271,
      "_group": 272,
      "ci": 273,
      "ed_": 274,
      "bo": 275,
      "ect": 276,
      "pr": 277,
      "unit": 278,
      "verb": 279,
      "ly.n.01": 280,
      "um.n.01": 281,
      "car": 282,
      "ack": 283,
      "_verb": 284,
      "e.n.02": 285,
      "ib": 286,
      "_verb_group": 287,
      ".n.06": 288,
      "ize.v.01": 289,
      "ami": 290,
      "end": 291,
      "er.n.02": 292,
      "be": 293,
      "is.n.01": 294,
      "ess.n.01": 295,
      "gr": 296,
      "comm": 297,
      "icot_genus.n.01": 298,
      "he": 299,
      "ay": 300,
      "ne": 301,
      "m.n.01": 302,
      "amily.n.01": 303,
      "ck": 304,
      "bl": 305,
      "ive": 306,
      "sc": 307,
      "ath": 308,
      "ind": 309,
      ".v.06": 310,
      "id_d": 311,
      "ion.n.02": 312,
      "und": 313,
      "ud": 314,
      "fr": 315,
      "_reg": 316,
      "col": 317,
      "ine.n.01": 318,
      "_region": 319,
      "_member_of_domain_region": 320,
      "ate.v.02": 321,
      "ress": 322,
      "ord": 323,
      "mon": 324,
      "os": 325,
      "pt": 326,
      "ian": 327,
      "le.n.01": 328,
      "ort": 329,
      "age": 330,
      "ho": 331,
      "hy": 332,
      "wor": 333,
      "sit": 334,
      "genus": 335,
      "ug": 336,
      "low": 337,
      "igh": 338,
      "fl": 339,
      "are": 340,
      "ge": 341,
      "te": 342,
      "id_dicot_genus.n.01": 343,
      "her": 344,
      "uct": 345,
      ".n.07": 346,
      "comp": 347,
      "_c": 348,
      "olog": 349,
      "ow": 350,
      "ell": 351,
      "ust": 352,
      "ff": 353,
      "chang": 354,
      "ss": 355,
      "k.n.01": 356,
      "y.v.01": 357,
      "ess": 358,
      "united_": 359,
      "we": 360,
      "fish": 361,
      "pe": 362,
      "ation.n.03": 363,
      "pers": 364,
      "ine": 365,
      "att": 366,
      "int": 367,
      "ism.n.01": 368,
      "ach": 369,
      "dom": 370,
      "ment": 371,
      "ob": 372,
      "ing.n.02": 373,
      "_b": 374,
      "state": 375,
      "o.n.01": 376,
      "ll": 377,
      "ve": 378,
      "ilit": 379,
      "ant.n.01": 380,
      "se.v.01": 381,
      "me": 382,
      "ization.n.01": 383,
      "ous": 384,
      "ment.n.01": 385,
      "cor": 386,
      "pre": 387,
      "mar": 388,
      "_family.n.01": 389,
      "par": 390,
      ".a.02": 391,
      "org": 392,
      "cre": 393,
      "ric": 394,
      "_us": 395,
      "mal": 396,
      "ail": 397,
      ".v.07": 398,
      "in.n.01": 399,
      "_member_of_domain_us": 400,
      "_member_of_domain_usage": 401,
      "ade": 402,
      "ep": 403,
      "li": 404,
      "di": 405,
      "y_": 406,
      "bir": 407,
      "ens": 408,
      "man": 409,
      "fer": 410,
      "ev": 411,
      "h.n.01": 412,
      "ser": 413,
      "ok": 414,
      "t.v.01": 415,
      ".n.1": 416,
      "cont": 417,
      "le.v.01": 418,
      "ign": 419,
      "posit": 420,
      "ure.n.01": 421,
      "inter": 422,
      "i.n.01": 423,
      "ness.n.01": 424,
      "rap": 425,
      "ial": 426,
      "king": 427,
      "uc": 428,
      "ic.n.01": 429,
      "fo": 430,
      "yst": 431,
      "ar.n.01": 432,
      "milit": 433,
      "rel": 434,
      "ick": 435,
      "person.n.01": 436,
      "sub": 437,
      "min": 438,
      "militar": 439,
      "bre": 440,
      "coun": 441,
      "ium.n.01": 442,
      "ard": 443,
      "sl": 444,
      "lect": 445,
      "ize.v.02": 446,
      "le.a.01": 447,
      "ian.n.01": 448,
      "ax": 449,
      "ical": 450,
      "air": 451,
      "tran": 452,
      "ion.n.03": 453,
      "er.v.01": 454,
      "iss": 455,
      "arm": 456,
      "e.v.03": 457,
      "cap": 458,
      "over": 459,
      "city.n.01": 460,
      "to": 461,
      "organ": 462,
      "hro": 463,
      "ase": 464,
      "ire": 465,
      "row": 466,
      "kingdom": 467,
      "id.n.01": 468,
      "out": 469,
      "ink": 470,
      "ic_": 471,
      "ator.n.01": 472,
      "urn": 473,
      "cul": 474,
      "ence.n.01": 475,
      "ise": 476,
      "ict": 477,
      "and.n.01": 478,
      "ater": 479,
      "law": 480,
      "ry.n.01": 481,
      "ance.n.01": 482,
      "kingdom.n.01": 483,
      "united_kingdom.n.01": 484,
      "cal": 485,
      "ulate": 486,
      "fe": 487,
      "d_genus.n.01": 488,
      "ific": 489,
      "_n": 490,
      "ship": 491,
      "ash": 492,
      "leg": 493,
      "sm": 494,
      "hor": 495,
      "sol": 496,
      "aster": 497,
      "ical_": 498,
      "anim": 499,
      "ight": 500,
      "gre": 501,
      "af": 502,
      "gl": 503,
      "char": 504,
      "ann": 505,
      "atch": 506,
      "exp": 507,
      "it.n.01": 508,
      "ide": 509,
      "age.n.01": 510,
      "vi": 511,
      "ros": 512,
      "iaceae.n.01": 513,
      "ate.n.01": 514,
      "order.n.01": 515,
      "a.n.02": 516,
      "ay.n.01": 517,
      "y.v.02": 518,
      "ke": 519,
      "pres": 520,
      "at.n.01": 521,
      "az": 522,
      "rit": 523,
      "ch.n.01": 524,
      "ung": 525,
      "wh": 526,
      "sw": 527,
      "pol": 528,
      "_pro": 529,
      "mam": 530,
      "cy": 531,
      "sal": 532,
      ".v.08": 533,
      "an_": 534,
      "tre": 535,
      "su": 536,
      "amer": 537,
      "mus": 538,
      "el.n.01": 539,
      "n.n.01": 540,
      "part": 541,
      "ograp": 542,
      "gu": 543,
      "let": 544,
      "_of_": 545,
      "che": 546,
      ".n.08": 547,
      "sup": 548,
      "struct": 549,
      "cer": 550,
      "family.n.01": 551,
      "yl": 552,
      ".n.09": 553,
      "hropo": 554,
      "ement.n.01": 555,
      "ology.n.01": 556,
      "ystem": 557,
      "ify.v.01": 558,
      "genus_": 559,
      "yr": 560,
      "oph": 561,
      "au": 562,
      "cond": 563,
      "ales.n.01": 564,
      "et.n.01": 565,
      "ator": 566,
      "ics.n.01": 567,
      "spe": 568,
      "rop": 569,
      "arthropo": 570,
      "commun": 571,
      "ive.a.01": 572,
      "bu": 573,
      "sn": 574,
      "ys": 575,
      "cent": 576,
      "ic.a.01": 577,
      "le.v.02": 578,
      "ame.n.01": 579,
      ".v.10": 580,
      "port": 581,
      "ice.n.01": 582,
      "ing_": 583,
      ".v.09": 584,
      "ement": 585,
      "ong": 586,
      "ren": 587,
      ".v.": 588,
      "do": 589,
      "jo": 590,
      "ate.v.03": 591,
      "por": 592,
      "ence": 593,
      "rub": 594,
      "military.n.01": 595,
      "bar": 596,
      "monoc": 597,
      "ess.n.02": 598,
      "ograph": 599,
      "ile": 600,
      "b.n.01": 601,
      "ship.n.01": 602,
      "y.n.03": 603,
      "law.n.01": 604,
      "amp": 605,
      "sk": 606,
      "cur": 607,
      "ush": 608,
      "ror": 609,
      "sur": 610,
      "od.n.01": 611,
      "cons": 612,
      "cle": 613,
      "inv": 614,
      "def": 615,
      "del": 616,
      "med": 617,
      "rom": 618,
      "americ": 619,
      "har": 620,
      "alk": 621,
      "arch": 622,
      "unit.n.01": 623,
      "put": 624,
      "_pl": 625,
      "div": 626,
      "aut": 627,
      "cover": 628,
      "cy.n.01": 629,
      "isl": 630,
      "ock": 631,
      "ef": 632,
      "ion.n.04": 633,
      "dist": 634,
      "hol": 635,
      "plant": 636,
      "unt": 637,
      "play": 638,
      "al.a.01": 639,
      "mot": 640,
      "ophy": 641,
      "vis": 642,
      "able.a.01": 643,
      "soci": 644,
      "id_": 645,
      "terror": 646,
      "trade": 647,
      "ron": 648,
      "cut": 649,
      "ger": 650,
      "en.v.01": 651,
      "_up": 652,
      "bod": 653,
      "add": 654,
      "go": 655,
      "writ": 656,
      "y.a.01": 657,
      "x.n.01": 658,
      "am.n.01": 659,
      "asterid_dicot_genus.n.01": 660,
      "met": 661,
      "ball": 662,
      "sign": 663,
      "chem": 664,
      "l.n.01": 665,
      "ore": 666,
      "_system": 667,
      "united_state": 668,
      "e.v.04": 669,
      "ation.n.04": 670,
      "el.v.01": 671,
      "ad.n.01": 672,
      "ular": 673,
      "scr": 674,
      "eness.n.01": 675,
      "ot.n.01": 676,
      "en.n.01": 677,
      "agn": 678,
      "change.v.01": 679,
      "bird_genus.n.01": 680,
      "monocot_genus.n.01": 681,
      "ith": 682,
      "pal": 683,
      "er.n.03": 684,
      "per.n.01": 685,
      "cess": 686,
      "work": 687,
      "aff": 688,
      "clo": 689,
      "ri": 690,
      "ple": 691,
      "press": 692,
      "eni": 693,
      "can": 694,
      "vol": 695,
      "d_family.n.01": 696,
      "new": 697,
      "_tre": 698,
      "ost": 699,
      "ism": 700,
      "ject": 701,
      "equ": 702,
      "pass": 703,
      "ont": 704,
      "ility.n.01": 705,
      "eu": 706,
      "ew": 707,
      "du": 708,
      "ity.n.02": 709,
      "reg": 710,
      "tract": 711,
      "mammal": 712,
      "lab": 713,
      "class": 714,
      "val": 715,
      "communic": 716,
      "_system.n.01": 717,
      "as.n.01": 718,
      "fish.n.01": 719,
      "ase.n.01": 720,
      "aur": 721,
      "fre": 722,
      "fin": 723,
      "ard.n.01": 724,
      "it.v.01": 725,
      "ili": 726,
      "mer": 727,
      "test": 728,
      "bi": 729,
      "use": 730,
      "ent.a.01": 731,
      "fi": 732,
      "fic": 733,
      "opter": 734,
      "ify.v.02": 735,
      "mammal_genus.n.01": 736,
      "kn": 737,
      "break": 738,
      "sect": 739,
      "ake": 740,
      "duct": 741,
      "dem": 742,
      "ces": 743,
      "ult": 744,
      "anth": 745,
      "shrub": 746,
      "comput": 747,
      "flow": 748,
      "pi": 749,
      "'s": 750,
      "arr": 751,
      "change": 752,
      "get": 753,
      "water": 754,
      "trav": 755,
      "composit": 756,
      "herb.n.01": 757,
      "countr": 758,
      "rosid_dicot_genus.n.01": 759,
      "ful": 760,
      "elect": 761,
      "ov": 762,
      "ild": 763,
      "ina.n.01": 764,
      "_th": 765,
      "ox": 766,
      "erv": 767,
      "ot_family.n.01": 768,
      "shrub.n.01": 769,
      "at.v.01": 770,
      "ae": 771,
      "ual": 772,
      "wo": 773,
      "atur": 774,
      "ing.n.03": 775,
      "one.n.01": 776,
      "formes.n.01": 777,
      "conf": 778,
      "own": 779,
      "sy": 780,
      "app": 781,
      "mov": 782,
      "_name.n.01": 783,
      "trade_name.n.01": 784,
      "om.n.01": 785,
      "cir": 786,
      "trans": 787,
      "ain.n.01": 788,
      "dill": 789,
      "ter.n.01": 790,
      "enn": 791,
      "eng": 792,
      "ive.n.01": 793,
      "and_": 794,
      "acter": 795,
      "ce.v.01": 796,
      "ull": 797,
      "ition.n.01": 798,
      "gener": 799,
      "ank": 800,
      "ech": 801,
      "dicot_genus.n.01": 802,
      "cept": 803,
      "oth": 804,
      "_tree.n.01": 805,
      "dilleni": 806,
      "draw": 807,
      "animal_": 808,
      "gro": 809,
      "land": 810,
      "nor": 811,
      "squ": 812,
      "tim": 813,
      "rh": 814,
      "back": 815,
      "mis": 816,
      "iver.n.01": 817,
      "itch": 818,
      "bur": 819,
      "ital": 820,
      "itut": 821,
      "ret": 822,
      "fish_genus.n.01": 823,
      "cro": 824,
      "iidae.n.01": 825,
      "lic": 826,
      "inn": 827,
      "the": 828,
      "le.n.02": 829,
      "dev": 830,
      "fil": 831,
      "sor": 832,
      "ive_": 833,
      ".n.10": 834,
      "bel": 835,
      "rid": 836,
      "umb": 837,
      "cast": 838,
      "sch": 839,
      "war": 840,
      "peri": 841,
      "pert": 842,
      "mat": 843,
      "ion.n.06": 844,
      "bro": 845,
      "call": 846,
      "dic": 847,
      "jud": 848,
      "ra": 849,
      "cit": 850,
      "oper": 851,
      "uff": 852,
      "ense": 853,
      "ump": 854,
      "phys": 855,
      "organization.n.01": 856,
      "less": 857,
      "ment.n.02": 858,
      "fol": 859,
      "under": 860,
      "area.n.01": 861,
      "animal_order.n.01": 862,
      "pur": 863,
      "cour": 864,
      "not": 865,
      "run": 866,
      "fung": 867,
      "oun": 868,
      "ol.n.01": 869,
      "th.n.01": 870,
      "ulate.v.01": 871,
      "cess.n.01": 872,
      "il.n.01": 873,
      "_the_": 874,
      "lim": 875,
      "amb": 876,
      "log": 877,
      ".v.2": 878,
      "anc": 879,
      "ah": 880,
      "ument.n.01": 881,
      "ake.n.01": 882,
      "color": 883,
      "ness.n.02": 884,
      "vent": 885,
      "crim": 886,
      "ident": 887,
      "spir": 888,
      "ous.a.01": 889,
      "united_states.n.01": 890,
      "ation.n.05": 891,
      "phal": 892,
      "ry": 893,
      "imm": 894,
      "afr": 895,
      "ste": 896,
      "roll": 897,
      "port.n.01": 898,
      "a_": 899,
      "ace.n.01": 900,
      "dec": 901,
      "ge.n.01": 902,
      "t.n.02": 903,
      "ins": 904,
      "amin": 905,
      "ery.n.01": 906,
      "_to": 907,
      "_process.n.01": 908,
      "rad": 909,
      "ton": 910,
      "ization.n.02": 911,
      "arthropod_genus.n.01": 912,
      "ial.n.01": 913,
      "syn": 914,
      "ue.n.01": 915,
      "lock": 916,
      "ica.n.01": 917,
      "ass.n.01": 918,
      "ha": 919,
      "tw": 920,
      "iness.n.01": 921,
      "uth": 922,
      "bal": 923,
      "ler.n.01": 924,
      "orch": 925,
      "_plant.n.01": 926,
      ".s": 927,
      "der": 928,
      "dress": 929,
      "ish.n.01": 930,
      "centr": 931,
      "use.n.01": 932,
      "ism.n.02": 933,
      "den": 934,
      "national": 935,
      "uck": 936,
      ".s.0": 937,
      "bet": 938,
      "plan": 939,
      ".v.12": 940,
      "sych": 941,
      "pet": 942,
      "medic": 943,
      "_w": 944,
      "stitut": 945,
      "ida.n.01": 946,
      "amm": 947,
      "drive": 948,
      "hon": 949,
      "hel": 950,
      "dilleniid_dicot_genus.n.01": 951,
      "ca": 952,
      "computer": 953,
      "emat": 954,
      "dig": 955,
      "hum": 956,
      "ran": 957,
      "ber.n.01": 958,
      "end.v.01": 959,
      "serv": 960,
      "cop": 961,
      "uch": 962,
      "black": 963,
      "ge.v.01": 964,
      "swe": 965,
      "on.v.01": 966,
      "read": 967,
      "emor": 968,
      "sel": 969,
      "post": 970,
      "sound": 971,
      "tele": 972,
      "magn": 973,
      "turn": 974,
      "y.n.04": 975,
      "ary.n.01": 976,
      "aint": 977,
      "compositae.n.01": 978,
      "just": 979,
      "no": 980,
      "psych": 981,
      "ance.n.02": 982,
      "point": 983,
      "action.n.01": 984,
      "fal": 985,
      "iformes.n.01": 986,
      "se.n.01": 987,
      "bit": 988,
      "e.n.04": 989,
      "perm": 990,
      "idaceae.n.01": 991,
      "present": 992,
      "my": 993,
      "pop": 994,
      "rept": 995,
      "ize.v.03": 996,
      "phil": 997,
      "cav": 998,
      "land.n.01": 999,
      "alize.v.01": 1000,
      "aria.n.01": 1001,
      "ula.n.01": 1002,
      "tur": 1003,
      "utter": 1004,
      "loc": 1005,
      "cience.n.01": 1006,
      "cat": 1007,
      "ed.n.01": 1008,
      "hom": 1009,
      "k.n.02": 1010,
      "pin": 1011,
      "cell": 1012,
      ".v.11": 1013,
      "ugh": 1014,
      "fungus": 1015,
      "gn": 1016,
      "orn": 1017,
      "stand": 1018,
      "prom": 1019,
      "geograph": 1020,
      "country.n.01": 1021,
      "e.n.03": 1022,
      "natur": 1023,
      "ide.n.01": 1024,
      "compo": 1025,
      "agen": 1026,
      "omat": 1027,
      "rog": 1028,
      "comb": 1029,
      "ure.n.02": 1030,
      "man.n.01": 1031,
      "ari": 1032,
      "ect.v.01": 1033,
      "head": 1034,
      "worl": 1035,
      "state.n.01": 1036,
      "sym": 1037,
      "ref": 1038,
      "ability.n.01": 1039,
      "prov": 1040,
      "ible.a.01": 1041,
      "oide": 1042,
      "anch": 1043,
      "ich": 1044,
      "rot": 1045,
      "unct": 1046,
      "ext": 1047,
      "aud": 1048,
      "ey": 1049,
      "hal": 1050,
      "mol": 1051,
      "sle": 1052,
      "an.n.02": 1053,
      "_out": 1054,
      "ster": 1055,
      "de.v.01": 1056,
      "cel": 1057,
      "amph": 1058,
      "qual": 1059,
      "ical_area.n.01": 1060,
      "ez": 1061,
      "walk": 1062,
      "yt": 1063,
      "rest": 1064,
      "eld": 1065,
      "terrorism.n.01": 1066,
      "e.v.05": 1067,
      "flo": 1068,
      "mel": 1069,
      "order": 1070,
      "meas": 1071,
      "american_": 1072,
      "ate.v.04": 1073,
      "infl": 1074,
      "conver": 1075,
      "beg": 1076,
      "whit": 1077,
      "deter": 1078,
      "ur.n.01": 1079,
      "hand": 1080,
      "sil": 1081,
      "ly.v.01": 1082,
      "anal": 1083,
      "ary": 1084,
      "ifer": 1085,
      "cary": 1086,
      "common": 1087,
      "mark": 1088,
      "geographical_area.n.01": 1089,
      "cup": 1090,
      "pub": 1091,
      "sen": 1092,
      "izer.n.01": 1093,
      "fish_family.n.01": 1094,
      "circ": 1095,
      "hen": 1096,
      "ix": 1097,
      "line": 1098,
      "rang": 1099,
      ".a.03": 1100,
      "poly": 1101,
      "arthropod_family.n.01": 1102,
      "or.n.02": 1103,
      "quest": 1104,
      "contro": 1105,
      "t.v.02": 1106,
      "ers": 1107,
      "rec": 1108,
      "rock": 1109,
      "ce.v.02": 1110,
      "liber": 1111,
      "ification.n.01": 1112,
      "lar": 1113,
      "int.n.01": 1114,
      "ary_": 1115,
      "sport": 1116,
      "activ": 1117,
      "new_": 1118,
      "omy": 1119,
      "adv": 1120,
      "istry.n.01": 1121,
      "_up.v.01": 1122,
      "ty": 1123,
      "atter": 1124,
      "lov": 1125,
      "are.n.01": 1126,
      "u.n.01": 1127,
      "inf": 1128,
      "ine.n.02": 1129,
      "off": 1130,
      "cook": 1131,
      "think": 1132,
      "_cap": 1133,
      ".n.11": 1134,
      "relig": 1135,
      "tap": 1136,
      "rect": 1137,
      "ion.v.01": 1138,
      "adem": 1139,
      "radi": 1140,
      "ele": 1141,
      "gol": 1142,
      "restr": 1143,
      "ask": 1144,
      "ile.n.01": 1145,
      "conn": 1146,
      "ify": 1147,
      "ure.v.01": 1148,
      "gym": 1149,
      "ru": 1150,
      "_science.n.01": 1151,
      "ulate.v.02": 1152,
      "support": 1153,
      "ball.n.01": 1154,
      "bot": 1155,
      "eg": 1156,
      "eff": 1157,
      "pap": 1158,
      "tem": 1159,
      "ance.n.03": 1160,
      "aver": 1161,
      "ious": 1162,
      "arn": 1163,
      "reptile": 1164,
      "ness": 1165,
      "pa": 1166,
      "pot": 1167,
      "rem": 1168,
      "ops": 1169,
      "elop": 1170,
      "bon": 1171,
      "ben": 1172,
      "lor": 1173,
      "ue": 1174,
      "zo": 1175,
      "ic.n.02": 1176,
      "anti": 1177,
      "spor": 1178,
      "pan": 1179,
      "plic": 1180,
      "neg": 1181,
      "hold": 1182,
      "base": 1183,
      "al.n.02": 1184,
      "arp": 1185,
      "dest": 1186,
      "ut.n.01": 1187,
      "gram": 1188,
      "class.n.07": 1189,
      "ital.n.01": 1190,
      "charge": 1191,
      "_l": 1192,
      "tast": 1193,
      "_dise": 1194,
      "aker.n.01": 1195,
      "ologist.n.01": 1196,
      "contin": 1197,
      "check": 1198,
      "ia": 1199,
      "ier.n.01": 1200,
      "ma": 1201,
      "ide.v.01": 1202,
      "sing": 1203,
      "vir": 1204,
      "ive.v.01": 1205,
      "ing.n.04": 1206,
      "urb": 1207,
      "agin": 1208,
      "indu": 1209,
      "ight.n.01": 1210,
      "agency.n.01": 1211,
      "world_": 1212,
      "tax": 1213,
      "it.v.02": 1214,
      "acc": 1215,
      "asp": 1216,
      "caryophy": 1217,
      "_disease.n.01": 1218,
      "bul": 1219,
      "miss": 1220,
      "num": 1221,
      "sum": 1222,
      "pow": 1223,
      "ug.n.01": 1224,
      "organiz": 1225,
      "doct": 1226,
      "chemistry.n.01": 1227,
      "fast": 1228,
      "ik": 1229,
      "on.n.02": 1230,
      "ans": 1231,
      "ist_": 1232,
      "beat": 1233,
      "liqu": 1234,
      "ification.n.02": 1235,
      "uit": 1236,
      "wash": 1237,
      "ch.v.01": 1238,
      "enter": 1239,
      "_off": 1240,
      "plac": 1241,
      "ish.v.01": 1242,
      "untain": 1243,
      "_de": 1244,
      "ite.n.01": 1245,
      "pod": 1246,
      "ack.n.01": 1247,
      "ian.a.01": 1248,
      "minist": 1249,
      "explo": 1250,
      "ence.n.02": 1251,
      "ad_": 1252,
      "dif": 1253,
      "icot_family.n.01": 1254,
      "itt": 1255,
      "ent.n.02": 1256,
      "det": 1257,
      "age.n.02": 1258,
      "spect": 1259,
      "avor": 1260,
      "id_dicot_family.n.01": 1261,
      "iales.n.01": 1262,
      "grow": 1263,
      "mic": 1264,
      "o.n.02": 1265,
      "river.n.01": 1266,
      "iver": 1267,
      "late.v.01": 1268,
      "separ": 1269,
      "le.v.03": 1270,
      "lead": 1271,
      "bird_family.n.01": 1272,
      "mamm": 1273,
      "ator.n.02": 1274,
      "batt": 1275,
      "l.v.01": 1276,
      "ven": 1277,
      "wil": 1278,
      "ingu": 1279,
      "decor": 1280,
      "depart": 1281,
      "us.n.02": 1282,
      "phot": 1283,
      "product": 1284,
      "tree.n.01": 1285,
      "fact": 1286,
      "ior": 1287,
      "sco": 1288,
      "ater.n.01": 1289,
      "ory.n.01": 1290,
      "ider": 1291,
      "_sh": 1292,
      "uss": 1293,
      "gence": 1294,
      "ural.n.01": 1295,
      "thr": 1296,
      "fall": 1297,
      "icle.n.01": 1298,
      "ilar": 1299,
      "sett": 1300,
      "abl": 1301,
      "prop": 1302,
      "low.n.01": 1303,
      "dro": 1304,
      "lif": 1305,
      "non": 1306,
      "ician.n.01": 1307,
      "able": 1308,
      "ack.v.01": 1309,
      "bol": 1310,
      "k.v.01": 1311,
      "lin": 1312,
      "cet": 1313,
      "ant.a.01": 1314,
      "plural.n.01": 1315,
      "ress.n.01": 1316,
      "act.v.01": 1317,
      "ian.n.02": 1318,
      "crease": 1319,
      "equip": 1320,
      "perty.n.01": 1321,
      "use.v.01": 1322,
      "iveness.n.01": 1323,
      "imp": 1324,
      "athemat": 1325,
      "optera.n.01": 1326,
      "ten": 1327,
      "appro": 1328,
      "agon": 1329,
      "ther": 1330,
      "ai": 1331,
      "ata.n.01": 1332,
      "inc": 1333,
      "inform": 1334,
      "emp": 1335,
      "lex": 1336,
      "aph": 1337,
      "sho": 1338,
      "shap": 1339,
      "domin": 1340,
      "position.n.06": 1341,
      "foot": 1342,
      "put.v.01": 1343,
      "flower.n.01": 1344,
      "het": 1345,
      "happ": 1346,
      "vo": 1347,
      "orph": 1348,
      "bow": 1349,
      "ful.a.01": 1350,
      "red": 1351,
      "_dis": 1352,
      "fort": 1353,
      "ced": 1354,
      "_tr": 1355,
      "vers": 1356,
      "net": 1357,
      "s_": 1358,
      "alization.n.01": 1359,
      "_dev": 1360,
      "ter.n.02": 1361,
      "polit": 1362,
      "euro": 1363,
      "fly": 1364,
      "fire": 1365,
      "gest": 1366,
      "mod": 1367,
      "path": 1368,
      "sat": 1369,
      "_pe": 1370,
      "age.v.01": 1371,
      "angu": 1372,
      "ibut": 1373,
      "ement.n.03": 1374,
      "terrorist_": 1375,
      "travel": 1376,
      "gymn": 1377,
      "ban": 1378,
      "ory": 1379,
      "se.v.03": 1380,
      "ise.n.01": 1381,
      "op.n.01": 1382,
      "person": 1383,
      "europe": 1384,
      "nav": 1385,
      "tro": 1386,
      "ination.n.01": 1387,
      "idd": 1388,
      "chr": 1389,
      "administ": 1390,
      "educ": 1391,
      "ill.n.01": 1392,
      "fern": 1393,
      "clean": 1394,
      "_order.n.01": 1395,
      "_unit.n.01": 1396,
      "iat": 1397,
      "mathemat": 1398,
      "pen": 1399,
      "west": 1400,
      "sex": 1401,
      "se.v.02": 1402,
      "let.n.01": 1403,
      "_offic": 1404,
      "ist.n.02": 1405,
      "spin": 1406,
      "ple.n.01": 1407,
      "process": 1408,
      "dram": 1409,
      "commer": 1410,
      "ve.v.03": 1411,
      ".s.01": 1412,
      "stim": 1413,
      "offic": 1414,
      "_of_the_": 1415,
      "act.n.01": 1416,
      "burn": 1417,
      "don": 1418,
      "tell": 1419,
      "wr": 1420,
      "rep": 1421,
      "_down": 1422,
      "actor.n.01": 1423,
      "model": 1424,
      "car.n.01": 1425,
      "collect": 1426,
      "ail.n.01": 1427,
      "view": 1428,
      "sect.n.01": 1429,
      "drop": 1430,
      "rine.n.01": 1431,
      "s.n.02": 1432,
      "erg": 1433,
      "ation.n.06": 1434,
      "eth": 1435,
      "quart": 1436,
      "meet": 1437,
      "travel.v.01": 1438,
      "terrorist_organization.n.01": 1439,
      "_r": 1440,
      "fac": 1441,
      "la": 1442,
      "lam": 1443,
      "lili": 1444,
      "tor": 1445,
      "cho": 1446,
      "appe": 1447,
      "ument": 1448,
      "spl": 1449,
      ".v.14": 1450,
      "transport": 1451,
      "condition.n.01": 1452,
      "cot": 1453,
      "camp": 1454,
      "arg": 1455,
      "room.n.01": 1456,
      "irm": 1457,
      "suff": 1458,
      "roman": 1459,
      "ase.v.01": 1460,
      "e.a.01": 1461,
      "ger.n.01": 1462,
      "give": 1463,
      "hav": 1464,
      "od_": 1465,
      "osc": 1466,
      "rup": 1467,
      "sof": 1468,
      "sim": 1469,
      "uro": 1470,
      "atom": 1471,
      "le.n.03": 1472,
      "ather": 1473,
      "ach.v.01": 1474,
      "consum": 1475,
      "labor": 1476,
      "computer_science.n.01": 1477,
      "natural": 1478,
      "but": 1479,
      "dish": 1480,
      "fem": 1481,
      "mut": 1482,
      "perform": 1483,
      "ice.v.01": 1484,
      "berry.n.01": 1485,
      "south": 1486,
      "prot": 1487,
      "cial": 1488,
      "ian_": 1489,
      "ire.n.01": 1490,
      "lap": 1491,
      "aro": 1492,
      "stock": 1493,
      "eder": 1494,
      "ak.n.01": 1495,
      "ive.a.02": 1496,
      "scre": 1497,
      "structure.n.01": 1498,
      "body": 1499,
      "gress": 1500,
      "onia.n.01": 1501,
      "en.v.02": 1502,
      "_po": 1503,
      "clim": 1504,
      "osperm": 1505,
      "ense.n.01": 1506,
      "overn": 1507,
      "american": 1508,
      "ee.n.01": 1509,
      "ie": 1510,
      "init": 1511,
      "ening.n.01": 1512,
      "academ": 1513,
      "conv": 1514,
      "uls": 1515,
      "al_family.n.01": 1516,
      "ure.n.04": 1517,
      "president": 1518,
      "_capital.n.01": 1519,
      "mammal_family.n.01": 1520,
      "aim": 1521,
      "bas": 1522,
      "hem": 1523,
      "er_": 1524,
      "red_": 1525,
      "ment.n.03": 1526,
      "cret": 1527,
      "y_unit.n.01": 1528,
      "feel": 1529,
      "gar": 1530,
      "ling.n.01": 1531,
      "pat": 1532,
      "remov": 1533,
      "oma.n.01": 1534,
      "lob": 1535,
      "ella.n.01": 1536,
      "capt": 1537,
      "austr": 1538,
      "volut": 1539,
      "bor": 1540,
      "pac": 1541,
      "rat": 1542,
      "van": 1543,
      "ale": 1544,
      "inidae.n.01": 1545,
      "state.v.01": 1546,
      "stud": 1547,
      "od.n.02": 1548,
      "cle.n.01": 1549,
      "age.n.03": 1550,
      "touch": 1551,
      "reptile_genus.n.01": 1552,
      "_ch": 1553,
      "din": 1554,
      "fab": 1555,
      "ner": 1556,
      "pull": 1557,
      "talk": 1558,
      "represent": 1559,
      "ion.n.05": 1560,
      "omb": 1561,
      "dep": 1562,
      "ance.v.01": 1563,
      "um.n.02": 1564,
      "end.v.02": 1565,
      "_cal": 1566,
      "own.n.01": 1567,
      "express": 1568,
      "oideae.n.01": 1569,
      "_out.v.01": 1570,
      "e-": 1571,
      "f.n.01": 1572,
      "fail": 1573,
      "ier": 1574,
      "ped": 1575,
      "sem": 1576,
      "ori": 1577,
      "ark": 1578,
      "ill.v.01": 1579,
      "pri": 1580,
      "build": 1581,
      ".v.3": 1582,
      "divis": 1583,
      "sorb": 1584,
      "connect": 1585,
      "_device.n.01": 1586,
      "han": 1587,
      "hes": 1588,
      "ue.v.01": 1589,
      "inate.v.01": 1590,
      "ush.n.01": 1591,
      "agre": 1592,
      "prof": 1593,
      "weed.n.01": 1594,
      "aft": 1595,
      "rope.n.01": 1596,
      "harmon": 1597,
      "electric": 1598,
      "period.n.01": 1599,
      "ham": 1600,
      "mail": 1601,
      "nut": 1602,
      "wild": 1603,
      "engl": 1604,
      "iter": 1605,
      "it.n.02": 1606,
      "artery.n.01": 1607,
      "ilion": 1608,
      "old_": 1609,
      ".n.12": 1610,
      "military": 1611,
      "ical.a.01": 1612,
      "greg": 1613,
      "german": 1614,
      "block": 1615,
      "ridae.n.01": 1616,
      "rev": 1617,
      "omet": 1618,
      "und.n.01": 1619,
      "urt": 1620,
      "ed.a.01": 1621,
      "branch": 1622,
      "social": 1623,
      "africa.n.01": 1624,
      "_be": 1625,
      "_person.n.01": 1626,
      "catch": 1627,
      "e.v.06": 1628,
      "llo": 1629,
      "long": 1630,
      "mor": 1631,
      "with": 1632,
      "itor.n.01": 1633,
      "asc": 1634,
      "associ": 1635,
      "design": 1636,
      "ip.n.01": 1637,
      "ang.n.02": 1638,
      "cler": 1639,
      ".v.13": 1640,
      "iferae.n.01": 1641,
      "aqu": 1642,
      "ii.n.01": 1643,
      "ta": 1644,
      "way.n.01": 1645,
      "chan": 1646,
      "loss": 1647,
      "print": 1648,
      "ay.v.01": 1649,
      "athol": 1650,
      "_bir": 1651,
      "ise.v.02": 1652,
      "ement.n.02": 1653,
      "north": 1654,
      "sweet": 1655,
      "sleep": 1656,
      "amphib": 1657,
      "cus.n.01": 1658,
      "rac": 1659,
      "ra.n.01": 1660,
      "yz": 1661,
      "_mon": 1662,
      "sequ": 1663,
      "sell": 1664,
      "cephal": 1665,
      "quant": 1666,
      "exe": 1667,
      ".v.15": 1668,
      "ology.n.02": 1669,
      "develop": 1670,
      "determin": 1671,
      "sensit": 1672,
      "caryophyllo": 1673,
      "ram": 1674,
      "sci": 1675,
      "system": 1676,
      "arab": 1677,
      "ison": 1678,
      "ain.v.01": 1679,
      "adm": 1680,
      "up.n.01": 1681,
      "club": 1682,
      "brid": 1683,
      "_property.n.01": 1684,
      "islam": 1685,
      "och": 1686,
      "pter": 1687,
      "ry.n.02": 1688,
      "whe": 1689,
      "watch": 1690,
      "reform": 1691,
      "ale.n.01": 1692,
      "ici": 1693,
      "icul": 1694,
      "embr": 1695,
      "seat": 1696,
      "ago.n.01": 1697,
      "spr": 1698,
      "ocarp": 1699,
      ".v.16": 1700,
      "osoph": 1701,
      "vein.n.01": 1702,
      "serve": 1703,
      "counter": 1704,
      "aterial.n.01": 1705,
      "an_country.n.01": 1706,
      "_officer.n.01": 1707,
      "_for": 1708,
      "bab": 1709,
      "dog": 1710,
      "govern": 1711,
      "iev": 1712,
      "mac": 1713,
      "til": 1714,
      "ypt": 1715,
      "inia.n.01": 1716,
      "emon": 1717,
      "ille": 1718,
      "she": 1719,
      "examin": 1720,
      "ake_": 1721,
      "command": 1722,
      "animal.n.01": 1723,
      "gree": 1724,
      "supp": 1725,
      "aen": 1726,
      "ah.n.01": 1727,
      "bacter": 1728,
      "dam": 1729,
      "group": 1730,
      "match": 1731,
      "pun": 1732,
      "rail": 1733,
      "orig": 1734,
      "instr": 1735,
      "deal": 1736,
      ".v.19": 1737,
      "tegr": 1738,
      "physics.n.01": 1739,
      "_st": 1740,
      "hib": 1741,
      "pitch": 1742,
      "vict": 1743,
      "per.n.02": 1744,
      "_dr": 1745,
      "ice": 1746,
      "plat": 1747,
      "oda.n.01": 1748,
      "cruc": 1749,
      "ible": 1750,
      "grav": 1751,
      "osis.n.01": 1752,
      "change.v.02": 1753,
      "parag": 1754,
      "fore": 1755,
      "island.n.01": 1756,
      "judg": 1757,
      "philosoph": 1758,
      "celer": 1759,
      "public": 1760,
      "equipment.n.01": 1761,
      "dip": 1762,
      "jap": 1763,
      "jew": 1764,
      "rim": 1765,
      "rate.v.01": 1766,
      "ude": 1767,
      "ves": 1768,
      "ond": 1769,
      "al.v.01": 1770,
      "ionist.n.01": 1771,
      "_mo": 1772,
      "ash.n.01": 1773,
      "lev": 1774,
      "oli": 1775,
      "umin": 1776,
      "coc": 1777,
      "aw.n.01": 1778,
      "board": 1779,
      "end.v.03": 1780,
      "object": 1781,
      "ise.n.02": 1782,
      "afric": 1783,
      "papilion": 1784,
      "a.n.03": 1785,
      "cart": 1786,
      "gam": 1787,
      "sus": 1788,
      "uit.n.01": 1789,
      "ate.n.02": 1790,
      "ate.v.05": 1791,
      "ice.n.02": 1792,
      "ick.n.01": 1793,
      "sed": 1794,
      "lease": 1795,
      "gence.n.01": 1796,
      "et.v.01": 1797,
      "est.n.01": 1798,
      "hydro": 1799,
      "cult": 1800,
      "idea.n.01": 1801,
      "worker.n.01": 1802,
      "arrang": 1803,
      "_calend": 1804,
      "gal": 1805,
      "ial_": 1806,
      "list": 1807,
      "sac": 1808,
      "take": 1809,
      "wast": 1810,
      "wind": 1811,
      "reas": 1812,
      "_mus": 1813,
      "aint.n.01": 1814,
      "_sim": 1815,
      "ant.v.01": 1816,
      "ast.n.01": 1817,
      "_group.n.01": 1818,
      "ay.v.02": 1819,
      "ather.n.01": 1820,
      "und.v.01": 1821,
      "ach.n.01": 1822,
      "bird.n.01": 1823,
      "invest": 1824,
      "film": 1825,
      "activity.n.01": 1826,
      "papilionoideae.n.01": 1827,
      "hab": 1828,
      "nerv": 1829,
      "pick": 1830,
      "er.n.04": 1831,
      "ane": 1832,
      "asia.n.01": 1833,
      "rob": 1834,
      "contr": 1835,
      "sour": 1836,
      "occup": 1837,
      "ble.n.01": 1838,
      "veh": 1839,
      "slang.n.02": 1840,
      "ax.n.01": 1841,
      "ire.v.01": 1842,
      "cular": 1843,
      "follow": 1844,
      "cooking.n.01": 1845,
      "bone.n.01": 1846,
      "d.v.01": 1847,
      "rag": 1848,
      "vin": 1849,
      "yel": 1850,
      "alia.n.01": 1851,
      "lep": 1852,
      "opt": 1853,
      "decl": 1854,
      "ett": 1855,
      "produ": 1856,
      "change_": 1857,
      "obstruct": 1858,
      "ade.v.01": 1859,
      "doub": 1860,
      "biology.n.01": 1861,
      "anthus.n.01": 1862,
      "cross": 1863,
      "quality.n.01": 1864,
      "control": 1865,
      "ilar_to": 1866,
      "_similar_to": 1867,
      "kin": 1868,
      "sap": 1869,
      "yc": 1870,
      "ern": 1871,
      "atic": 1872,
      "ative.n.01": 1873,
      "re.n.01": 1874,
      "_he": 1875,
      "search": 1876,
      "accoun": 1877,
      "ot.v.01": 1878,
      "etic": 1879,
      "_instr": 1880,
      "able.n.01": 1881,
      "spot": 1882,
      "fract": 1883,
      "front": 1884,
      "ial.a.01": 1885,
      "clear": 1886,
      "moll": 1887,
      "sport.n.01": 1888,
      "vehicle.n.01": 1889,
      "hop": 1890,
      "high": 1891,
      "hair": 1892,
      "myr": 1893,
      "memor": 1894,
      "uk": 1895,
      "rever": 1896,
      "inate.v.02": 1897,
      "ster.n.01": 1898,
      "chlor": 1899,
      "amel": 1900,
      "ament.n.01": 1901,
      "ace.v.02": 1902,
      "astro": 1903,
      "hydr": 1904,
      "vey": 1905,
      "green": 1906,
      "distr": 1907,
      "knock": 1908,
      "execut": 1909,
      "caryophylloid_dicot_genus.n.01": 1910,
      "supply.v.01": 1911,
      "care": 1912,
      "san": 1913,
      "spo": 1914,
      "yg": 1915,
      "late.v.02": 1916,
      "ar.v.01": 1917,
      "stop": 1918,
      "acqu": 1919,
      "element.n.01": 1920,
      "lod": 1921,
      "tra": 1922,
      "antic": 1923,
      "odont": 1924,
      "discover": 1925,
      "mountain": 1926,
      "genus_c": 1927,
      "time_": 1928,
      "fals": 1929,
      "liliid_": 1930,
      "remove.v.01": 1931,
      "_instrument.n.01": 1932,
      "aid": 1933,
      "blo": 1934,
      "men": 1935,
      "mast": 1936,
      "mix": 1937,
      "n.v.01": 1938,
      "oid.n.01": 1939,
      "sun": 1940,
      "ative.a.01": 1941,
      "omy.n.01": 1942,
      "acy.n.01": 1943,
      "is.n.02": 1944,
      "ophor": 1945,
      "ent.v.01": 1946,
      "verte": 1947,
      "cogn": 1948,
      "cloth": 1949,
      "ure.n.03": 1950,
      "substitut": 1951,
      "id_fish.n.01": 1952,
      "writer.n.01": 1953,
      "mathematics.n.01": 1954,
      "vertebr": 1955,
      "_0": 1956,
      "ble": 1957,
      "iet": 1958,
      "jur": 1959,
      "mur": 1960,
      "pack": 1961,
      "ux": 1962,
      "alist.n.01": 1963,
      "_day.n.01": 1964,
      "ancy.n.01": 1965,
      "se.n.02": 1966,
      "ceiver.n.01": 1967,
      "cod": 1968,
      "proto": 1969,
      "carry": 1970,
      "commiss": 1971,
      "sman.n.01": 1972,
      "author": 1973,
      "orchidaceae.n.01": 1974,
      "ness.n.03": 1975,
      "gymnosperm": 1976,
      "fabric": 1977,
      "ay.n.02": 1978,
      "econ": 1979,
      "mes": 1980,
      "som": 1981,
      "ti": 1982,
      "attract": 1983,
      "perco": 1984,
      "leav": 1985,
      "pos": 1986,
      "grad": 1987,
      "organ.n.01": 1988,
      "military_": 1989,
      "calc": 1990,
      "human": 1991,
      "bil": 1992,
      "brow": 1993,
      "fat": 1994,
      "gent": 1995,
      "mil": 1996,
      "tex": 1997,
      "refer": 1998,
      "late.n.01": 1999,
      "chur": 2000,
      "ing.a.01": 2001,
      "ize.v.04": 2002,
      "udd": 2003,
      "ility.n.02": 2004,
      "super": 2005,
      "consider": 2006,
      "motor": 2007,
      "crime.n.01": 2008,
      "better": 2009,
      "fungus_genus.n.01": 2010,
      "number": 2011,
      "power": 2012,
      "south_": 2013,
      "_point.n.01": 2014,
      "mollus": 2015,
      "cab": 2016,
      "hang": 2017,
      "ios": 2018,
      "sam": 2019,
      "ual_": 2020,
      "yp": 2021,
      "era.n.01": 2022,
      "ly.a.01": 2023,
      "stor": 2024,
      "omen": 2025,
      "compl": 2026,
      "illa.n.01": 2027,
      "'s_": 2028,
      "national_capital.n.01": 2029,
      "magnoli": 2030,
      "germany.n.01": 2031,
      "blow": 2032,
      "cann": 2033,
      "igence": 2034,
      "tu": 2035,
      "resp": 2036,
      "enc": 2037,
      "em.n.01": 2038,
      "concentr": 2039,
      "phon": 2040,
      "disci": 2041,
      "book": 2042,
      "prim": 2043,
      "osaur": 2044,
      "ucle": 2045,
      "conduct": 2046,
      "ush.v.01": 2047,
      "christ": 2048,
      "yellow": 2049,
      "bell": 2050,
      "e.n.05": 2051,
      "ge.v.02": 2052,
      "io": 2053,
      "jer": 2054,
      "rip": 2055,
      "ta.n.01": 2056,
      "top": 2057,
      "wom": 2058,
      "ward": 2059,
      "atl": 2060,
      "step": 2061,
      "_me": 2062,
      "ity.n.03": 2063,
      "ing.n.05": 2064,
      "_the": 2065,
      "agent.n.01": 2066,
      "claim": 2067,
      "box": 2068,
      "_cathol": 2069,
      "feed": 2070,
      "wood.n.01": 2071,
      "measure": 2072,
      "leader.n.01": 2073,
      "department": 2074,
      "roman_cathol": 2075,
      "aug": 2076,
      "doc": 2077,
      "dict": 2078,
      "ear.n.01": 2079,
      "haw": 2080,
      "must": 2081,
      "mess": 2082,
      "nit": 2083,
      "ole": 2084,
      "patch": 2085,
      "smo": 2086,
      "ate.a.01": 2087,
      "ing_m": 2088,
      "ization.n.03": 2089,
      "contract": 2090,
      "esia.n.01": 2091,
      "grass.n.01": 2092,
      "scop": 2093,
      "compan": 2094,
      "rict.n.01": 2095,
      "interpre": 2096,
      "ialism.n.01": 2097,
      "plant_order.n.01": 2098,
      "communication.n.01": 2099,
      "dicot_family.n.01": 2100,
      "wild_": 2101,
      "fern_genus.n.01": 2102,
      "north_": 2103,
      "ais": 2104,
      "gon": 2105,
      "ia.n.02": 2106,
      "ke.n.01": 2107,
      "mach": 2108,
      "ring": 2109,
      "real": 2110,
      "ine.v.01": 2111,
      "stat": 2112,
      "ition.n.02": 2113,
      "le_": 2114,
      "leag": 2115,
      "china.n.01": 2116,
      "des": 2117,
      "et.n.02": 2118,
      "const": 2119,
      "look": 2120,
      "exer": 2121,
      "ck.n.01": 2122,
      "compress": 2123,
      "marsh": 2124,
      "cali": 2125,
      "keep": 2126,
      "divers": 2127,
      "ore.n.01": 2128,
      "ground": 2129,
      "crimin": 2130,
      "differ": 2131,
      "photograph": 2132,
      "cas": 2133,
      "farm": 2134,
      "gas": 2135,
      "lil": 2136,
      "suc": 2137,
      "tick": 2138,
      "yth": 2139,
      "ink.n.01": 2140,
      "ency.n.01": 2141,
      "ar.v.02": 2142,
      "stre": 2143,
      "it.v.03": 2144,
      ".a.04": 2145,
      "loqu": 2146,
      "drink": 2147,
      "ight.v.01": 2148,
      "transm": 2149,
      "ship.n.02": 2150,
      "fulness.n.01": 2151,
      "move.v.02": 2152,
      "beginn": 2153,
      "_bird.n.01": 2154,
      "amphibian": 2155,
      "roman_catholic.n.02": 2156,
      "bun": 2157,
      "cidae.n.01": 2158,
      "nam": 2159,
      "ok.n.01": 2160,
      "sens": 2161,
      "tun": 2162,
      "at.v.02": 2163,
      "revolut": 2164,
      "al_d": 2165,
      "ational.a.01": 2166,
      "inus.n.01": 2167,
      "open": 2168,
      "amn": 2169,
      "adjust": 2170,
      "spher": 2171,
      "shop": 2172,
      "show": 2173,
      "estim": 2174,
      "clus": 2175,
      "brit": 2176,
      ".v.18": 2177,
      "ect.n.01": 2178,
      "work.n.01": 2179,
      "attack": 2180,
      "veget": 2181,
      "cypr": 2182,
      "ence.v.01": 2183,
      "insula.n.01": 2184,
      "omycet": 2185,
      "typ": 2186,
      "aul": 2187,
      "ble.v.01": 2188,
      "face": 2189,
      "gall": 2190,
      "jack": 2191,
      "light": 2192,
      "make": 2193,
      "oct": 2194,
      "ya.n.01": 2195,
      "er.v.02": 2196,
      "al.n.03": 2197,
      "ion.n.07": 2198,
      "energ": 2199,
      "start": 2200,
      "ide.v.02": 2201,
      "de.v.02": 2202,
      "ape.n.01": 2203,
      "spread": 2204,
      "ibility.n.01": 2205,
      "genus_p": 2206,
      "ust.v.01": 2207,
      "mechan": 2208,
      "know": 2209,
      "talk.v.02": 2210,
      "time_period.n.01": 2211,
      "cam": 2212,
      "langu": 2213,
      "pain": 2214,
      "pip": 2215,
      "sia.n.01": 2216,
      "or.v.01": 2217,
      "stab": 2218,
      "itation.n.01": 2219,
      "accept": 2220,
      "roph": 2221,
      "ceed": 2222,
      "ap.n.01": 2223,
      "construct": 2224,
      "istan.n.01": 2225,
      "cool": 2226,
      "clin": 2227,
      "pron": 2228,
      "ender.n.01": 2229,
      "fruit": 2230,
      "slip": 2231,
      "kelet": 2232,
      "music": 2233,
      "atory": 2234,
      "archit": 2235,
      "good": 2236,
      "metric": 2237,
      "help": 2238,
      "baseball.n.01": 2239,
      "battle.n.01": 2240,
      "_disorder.n.01": 2241,
      "be.v.01": 2242,
      "iot": 2243,
      "mas": 2244,
      "w.n.01": 2245,
      "well": 2246,
      "allow": 2247,
      "force": 2248,
      "increase": 2249,
      "acid.n.01": 2250,
      "cele": 2251,
      "unw": 2252,
      "desc": 2253,
      "appoint": 2254,
      "place": 2255,
      "crit": 2256,
      "ure.v.02": 2257,
      "fri": 2258,
      "get.v.01": 2259,
      "religious": 2260,
      "decorate.v.01": 2261,
      "dramat": 2262,
      "quarter": 2263,
      "protect": 2264,
      "distribut": 2265,
      "liliid_monocot_genus.n.01": 2266,
      "econom": 2267,
      "omenon.n.01": 2268,
      "e.v.07": 2269,
      "gul": 2270,
      "ief": 2271,
      "jug": 2272,
      "kill": 2273,
      "lingu": 2274,
      "pay": 2275,
      "sar": 2276,
      "tit": 2277,
      "vine.n.01": 2278,
      "ero": 2279,
      "ana.n.01": 2280,
      "rod": 2281,
      "decre": 2282,
      "_insect.n.01": 2283,
      "ime.n.01": 2284,
      "istics.n.01": 2285,
      "escap": 2286,
      "tera.n.01": 2287,
      "ift": 2288,
      "phyl": 2289,
      "ishment.n.01": 2290,
      "colloqu": 2291,
      "worth": 2292,
      "subst": 2293,
      "calcul": 2294,
      "character": 2295,
      "spec": 2296,
      "buff": 2297,
      "computer.n.01": 2298,
      "spirit": 2299,
      "cell.n.01": 2300,
      "opsida.n.01": 2301,
      "soft": 2302,
      "colloquialism.n.01": 2303,
      "bus": 2304,
      "crow": 2305,
      "fle": 2306,
      "ies.n.01": 2307,
      "lay": 2308,
      "line.n.01": 2309,
      "paint": 2310,
      "saur": 2311,
      "tub": 2312,
      "ude.v.01": 2313,
      "ve.v.01": 2314,
      "yo": 2315,
      "ert": 2316,
      "ating.n.01": 2317,
      "ature.n.01": 2318,
      "onom": 2319,
      "al.v.02": 2320,
      "intr": 2321,
      "emer": 2322,
      "_phen": 2323,
      "urus.n.01": 2324,
      "istic": 2325,
      "absorb": 2326,
      "edi": 2327,
      "ave.n.01": 2328,
      "defense": 2329,
      "island": 2330,
      "valu": 2331,
      "fiel": 2332,
      "transfer": 2333,
      "medicine.n.02": 2334,
      "fungus_family.n.01": 2335,
      "publ": 2336,
      "gramine": 2337,
      "administr": 2338,
      "bind": 2339,
      "cate": 2340,
      "der.n.01": 2341,
      "ih": 2342,
      "ield": 2343,
      "ju": 2344,
      "mind": 2345,
      "pens": 2346,
      "ality.n.01": 2347,
      "access": 2348,
      "leaf": 2349,
      "cham": 2350,
      "_sn": 2351,
      "istic.a.01": 2352,
      "ulation.n.01": 2353,
      "excav": 2354,
      "edible": 2355,
      "strip": 2356,
      "ciformes.n.01": 2357,
      "indic": 2358,
      "direct": 2359,
      "capital": 2360,
      "_up.v.02": 2361,
      "clos": 2362,
      "acteria.n.01": 2363,
      "device.n.01": 2364,
      "immun": 2365,
      "record": 2366,
      "score": 2367,
      "withdraw": 2368,
      "change_state.v.01": 2369,
      "gir": 2370,
      "iform": 2371,
      "ius.n.01": 2372,
      "mit": 2373,
      "mak": 2374,
      "myst": 2375,
      "pul": 2376,
      "pict": 2377,
      "rav": 2378,
      "uate.v.02": 2379,
      "vas": 2380,
      "am.v.01": 2381,
      "_serv": 2382,
      "adul": 2383,
      "esis.n.01": 2384,
      "igu": 2385,
      "oder": 2386,
      "france.n.01": 2387,
      "domest": 2388,
      "cred": 2389,
      "cert": 2390,
      "special": 2391,
      "visual": 2392,
      "address": 2393,
      "press.v.01": 2394,
      "wood": 2395,
      "court": 2396,
      "inflamm": 2397,
      "destro": 2398,
      "_on.v.01": 2399,
      "bat": 2400,
      "ge.n.02": 2401,
      "io.n.01": 2402,
      "ise.v.01": 2403,
      "liv": 2404,
      "oid": 2405,
      "vul": 2406,
      "wall": 2407,
      "yor": 2408,
      "inqu": 2409,
      "ard_": 2410,
      "ition": 2411,
      "learn": 2412,
      "chron": 2413,
      "arth": 2414,
      "und_": 2415,
      "ing.v.01": 2416,
      "ainer.n.01": 2417,
      "entr": 2418,
      "other": 2419,
      "_intell": 2420,
      "vert": 2421,
      "ipt": 2422,
      "ang.n.01": 2423,
      "_gland.n.01": 2424,
      "owl.n.01": 2425,
      "weight": 2426,
      "states.n.01": 2427,
      "ousness.n.01": 2428,
      "corn": 2429,
      "birth": 2430,
      "horn": 2431,
      "solut": 2432,
      "music.n.01": 2433,
      "scrib": 2434,
      "pleas": 2435,
      "promot": 2436,
      "unction.n.01": 2437,
      "white": 2438,
      "micro": 2439,
      "clothing.n.01": 2440,
      "mollusk": 2441,
      "_on": 2442,
      "_bo": 2443,
      "bid": 2444,
      "hist": 2445,
      "ry.v.01": 2446,
      "sent": 2447,
      "request": 2448,
      "omorph": 2449,
      "les.n.01": 2450,
      "ison.n.01": 2451,
      "_pen": 2452,
      "deser": 2453,
      "etle.n.01": 2454,
      "convey": 2455,
      "ter.v.01": 2456,
      "ifier.n.01": 2457,
      "_fo": 2458,
      "scor": 2459,
      "ordin": 2460,
      "hood.n.01": 2461,
      "mean": 2462,
      "ous_insect.n.01": 2463,
      "diet": 2464,
      "fern.n.01": 2465,
      "ash.v.01": 2466,
      "join": 2467,
      "virg": 2468,
      "natural_process.n.01": 2469,
      "protoct": 2470,
      "aign": 2471,
      "fig": 2472,
      "obl": 2473,
      "w.v.01": 2474,
      "ion_": 2475,
      "perf": 2476,
      "perciformes.n.01": 2477,
      "iner.n.01": 2478,
      "eness.n.02": 2479,
      "icidae.n.01": 2480,
      "art.n.02": 2481,
      "_pal": 2482,
      "el.n.02": 2483,
      "el.v.02": 2484,
      "ade.n.01": 2485,
      "cohol": 2486,
      "shell": 2487,
      "est.v.01": 2488,
      "crypt": 2489,
      "assum": 2490,
      "pract": 2491,
      "scul": 2492,
      "eval": 2493,
      "ification.n.03": 2494,
      "cycl": 2495,
      "structure.n.04": 2496,
      "metall": 2497,
      "europe.n.01": 2498,
      "fix": 2499,
      "engine": 2500,
      "theolog": 2501,
      "continu": 2502,
      "dishon": 2503,
      "president_of_the_": 2504,
      "discipl": 2505,
      "_se": 2506,
      "fel": 2507,
      "foc": 2508,
      "hot": 2509,
      "hed": 2510,
      "lub": 2511,
      "master": 2512,
      "ogen": 2513,
      "sav": 2514,
      "sug": 2515,
      "vot": 2516,
      "arrow": 2517,
      "ision.n.01": 2518,
      "il.n.02": 2519,
      "decrease": 2520,
      "_thro": 2521,
      "import": 2522,
      "ante": 2523,
      "ab.n.01": 2524,
      "spill": 2525,
      "resist": 2526,
      "carri": 2527,
      "colon": 2528,
      "flag": 2529,
      "flavor": 2530,
      "ow.n.01": 2531,
      "weak": 2532,
      "over.v.01": 2533,
      "aterial": 2534,
      "aft.n.01": 2535,
      "treat": 2536,
      "speech": 2537,
      "ysis.n.01": 2538,
      "ong.n.01": 2539,
      ".v.4": 2540,
      "covering.n.01": 2541,
      "duce.v.01": 2542,
      "ancing.n.01": 2543,
      "combin": 2544,
      "oidea.n.01": 2545,
      "range.n.04": 2546,
      "restrict": 2547,
      "ify.v.03": 2548,
      "politic": 2549,
      "british": 2550,
      "pronoun": 2551,
      "_phenomenon.n.01": 2552,
      "gramineae.n.01": 2553,
      "ec": 2554,
      "hyper": 2555,
      "nia.n.01": 2556,
      "ool": 2557,
      "pon": 2558,
      "pil": 2559,
      "sin": 2560,
      "sman": 2561,
      "vari": 2562,
      "reject": 2563,
      "per.v.01": 2564,
      "ivil": 2565,
      "ind.n.01": 2566,
      "ston": 2567,
      "icaceae.n.01": 2568,
      "led": 2569,
      "chil": 2570,
      "conce": 2571,
      "cost": 2572,
      "mous": 2573,
      "grade": 2574,
      "host": 2575,
      "change.n.01": 2576,
      "ine.n.03": 2577,
      "relax": 2578,
      "key.n.01": 2579,
      "suck": 2580,
      "musical_": 2581,
      "freez": 2582,
      "field": 2583,
      "less.a.01": 2584,
      "medicine.n.01": 2585,
      "analyz": 2586,
      "bott": 2587,
      "growth.n.01": 2588,
      "depend": 2589,
      "sculpt": 2590,
      "bill": 2591,
      "fu": 2592,
      "gain": 2593,
      "hard": 2594,
      "hunt": 2595,
      "jok": 2596,
      "lem": 2597,
      "mand": 2598,
      "son": 2599,
      "sid": 2600,
      "ion.n.08": 2601,
      "inct": 2602,
      "inser": 2603,
      "insect": 2604,
      "se.v.04": 2605,
      "ola.n.01": 2606,
      "death": 2607,
      "apt": 2608,
      "load": 2609,
      "trust": 2610,
      "abr": 2611,
      "thy": 2612,
      "exic": 2613,
      "bound": 2614,
      "bler.n.01": 2615,
      "blue": 2616,
      "compens": 2617,
      "meg": 2618,
      "switch": 2619,
      "ophyll": 2620,
      "chemical_": 2621,
      "country.n.02": 2622,
      "taxonom": 2623,
      "troub": 2624,
      "commerce.n.01": 2625,
      "cruciferae.n.01": 2626,
      "reason": 2627,
      "commission": 2628,
      "magnoliid_dicot_genus.n.01": 2629,
      "dir": 2630,
      "f-": 2631,
      "fing": 2632,
      "mass": 2633,
      "midd": 2634,
      "pyr": 2635,
      "rig": 2636,
      "sne": 2637,
      "vest": 2638,
      "ze": 2639,
      "zz": 2640,
      "eria.n.01": 2641,
      "eral.n.01": 2642,
      "review": 2643,
      "_def": 2644,
      "ane.n.01": 2645,
      "ener.n.01": 2646,
      "arct": 2647,
      "ary.a.01": 2648,
      "sty": 2649,
      "ity.n.04": 2650,
      "deposit": 2651,
      "deleg": 2652,
      "urg": 2653,
      "ir.n.01": 2654,
      "ant.n.02": 2655,
      "pose.v.01": 2656,
      "ifer.n.01": 2657,
      "iph": 2658,
      "actyl": 2659,
      "ish.v.02": 2660,
      "ave.v.01": 2661,
      "move.v.03": 2662,
      "cial_": 2663,
      "preci": 2664,
      "ep.n.01": 2665,
      "air.n.01": 2666,
      "cheer": 2667,
      "use.v.03": 2668,
      "electron": 2669,
      "catal": 2670,
      "rog.n.01": 2671,
      "ify.v.04": 2672,
      "enterpr": 2673,
      "collection.n.01": 2674,
      "league.n.01": 2675,
      "_service.n.01": 2676,
      "bed": 2677,
      "eub": 2678,
      "fight": 2679,
      "lad": 2680,
      "oce": 2681,
      "sa": 2682,
      "sand": 2683,
      "sax": 2684,
      "alcohol": 2685,
      "ive.v.02": 2686,
      "integr": 2687,
      "en.v.03": 2688,
      "ict.v.01": 2689,
      "empt": 2690,
      "it.n.03": 2691,
      "it.v.04": 2692,
      "itis.n.01": 2693,
      "le.v.04": 2694,
      "ame": 2695,
      "_sp": 2696,
      "ota.n.01": 2697,
      "ap.v.01": 2698,
      "agi": 2699,
      "que": 2700,
      "throw": 2701,
      "angios": 2702,
      "proph": 2703,
      "crack": 2704,
      "weap": 2705,
      "intro": 2706,
      "ous_plant.n.01": 2707,
      ".n.15": 2708,
      "breath": 2709,
      "cere": 2710,
      "new_world_": 2711,
      "doctrine.n.01": 2712,
      "stimulate": 2713,
      "rupt": 2714,
      "orient": 2715,
      "instrument.n.01": 2716,
      "_through": 2717,
      "angiosper": 2718,
      "_k": 2719,
      "bic": 2720,
      "cort": 2721,
      "d.n.02": 2722,
      "fill": 2723,
      "gun": 2724,
      "lag": 2725,
      "ma.n.01": 2726,
      "py": 2727,
      "push": 2728,
      "syl": 2729,
      "ton.n.01": 2730,
      "y.v.03": 2731,
      "onidae.n.01": 2732,
      "reli": 2733,
      "alth": 2734,
      "orth": 2735,
      "inst": 2736,
      "itch.n.01": 2737,
      "root.n.01": 2738,
      "chor": 2739,
      "ole.n.01": 2740,
      "ute.v.01": 2741,
      "impl": 2742,
      "imagin": 2743,
      "ada.n.01": 2744,
      "co.n.01": 2745,
      "esthet": 2746,
      "aking.n.01": 2747,
      "atter.n.01": 2748,
      "snap": 2749,
      "ophyta.n.01": 2750,
      "orchid.n.01": 2751,
      "compound": 2752,
      "american_state.n.01": 2753,
      "influ": 2754,
      "opsis.n.01": 2755,
      "_off.v.01": 2756,
      "initi": 2757,
      "bank": 2758,
      "bomb": 2759,
      "eut": 2760,
      "mu": 2761,
      "ostr": 2762,
      "ram.n.01": 2763,
      "scar": 2764,
      "ern.n.01": 2765,
      "ont.n.01": 2766,
      "repe": 2767,
      "alt": 2768,
      "orship.n.01": 2769,
      "_rel": 2770,
      "ary.n.02": 2771,
      "itation.n.02": 2772,
      "acidae.n.01": 2773,
      "acceler": 2774,
      "idi": 2775,
      "cher": 2776,
      "ch.v.02": 2777,
      "unt.v.01": 2778,
      "opoda.n.01": 2779,
      "ain.v.02": 2780,
      "ether": 2781,
      "ipit": 2782,
      "establ": 2783,
      "clam": 2784,
      "cru": 2785,
      "cryst": 2786,
      "carn": 2787,
      "behav": 2788,
      "color.n.01": 2789,
      "wort.n.01": 2790,
      "cord.n.01": 2791,
      "labiat": 2792,
      "walk.v.01": 2793,
      "taste": 2794,
      "building.n.01": 2795,
      "lepid": 2796,
      "liliaceae.n.01": 2797,
      "islands.n.01": 2798,
      "president_of_the_united_states.n.01": 2799,
      "flavorer.n.01": 2800,
      "labiatae.n.01": 2801,
      "butter": 2802,
      "cin": 2803,
      "dal": 2804,
      "eup": 2805,
      "find": 2806,
      "mid": 2807,
      "o_": 2808,
      "pse": 2809,
      "pig": 2810,
      "rab": 2811,
      "vic": 2812,
      "atidae.n.01": 2813,
      "formation.n.01": 2814,
      "ene.n.01": 2815,
      "ening.n.02": 2816,
      "_memor": 2817,
      "icular": 2818,
      "chel": 2819,
      "chok": 2820,
      "deb": 2821,
      "age.v.02": 2822,
      "uth.n.01": 2823,
      "iment": 2824,
      "resid": 2825,
      "act.n.02": 2826,
      "crust": 2827,
      "_fru": 2828,
      "head.n.01": 2829,
      "oss": 2830,
      "genus_s": 2831,
      "smell": 2832,
      "expect": 2833,
      "poll": 2834,
      "social_": 2835,
      "palm": 2836,
      "italy.n.01": 2837,
      "synth": 2838,
      "false": 2839,
      "_peak.n.01": 2840,
      "climb": 2841,
      "england.n.01": 2842,
      "_mountain": 2843,
      "odontidae.n.01": 2844,
      "calculate.v.01": 2845,
      "igence_": 2846,
      "_peninsula.n.01": 2847,
      "a_b": 2848,
      "band": 2849,
      "cub": 2850,
      "game.n.01": 2851,
      "hindu": 2852,
      "mim": 2853,
      "nic": 2854,
      "p.v.01": 2855,
      "tal": 2856,
      "vidae.n.01": 2857,
      "y.n.05": 2858,
      "al-": 2859,
      "alization.n.02": 2860,
      "_des": 2861,
      "ation_": 2862,
      "ac.n.01": 2863,
      "devi": 2864,
      "constitut": 2865,
      "trip": 2866,
      "shak": 2867,
      "shock": 2868,
      "iff": 2869,
      "quil": 2870,
      "thor": 2871,
      "ast.v.01": 2872,
      "phy": 2873,
      "phab": 2874,
      "ocr": 2875,
      "craft": 2876,
      "coll": 2877,
      "hyp": 2878,
      "ighte": 2879,
      "ge.v.03": 2880,
      "statement.n.01": 2881,
      "ard.n.02": 2882,
      "icales.n.01": 2883,
      "announ": 2884,
      "viol": 2885,
      "pie": 2886,
      "pope.n.01": 2887,
      "natural_": 2888,
      "begin": 2889,
      "analysis.n.01": 2890,
      "religion.n.01": 2891,
      "campaign": 2892,
      "austral": 2893,
      "gymnosperm_genus.n.01": 2894,
      "aet": 2895,
      "eer.n.01": 2896,
      "hens": 2897,
      "ie.n.01": 2898,
      "o.v.01": 2899,
      "os.n.01": 2900,
      "pent": 2901,
      "rust": 2902,
      "tot": 2903,
      "z.n.01": 2904,
      "atize.v.01": 2905,
      "respect": 2906,
      "ory.n.02": 2907,
      "_hor": 2908,
      "in.n.02": 2909,
      "ench": 2910,
      "ark.n.01": 2911,
      "star": 2912,
      "rout": 2913,
      "chn": 2914,
      "ch.n.02": 2915,
      "unf": 2916,
      "uncul": 2917,
      "olut": 2918,
      "_part.n.01": 2919,
      "oty": 2920,
      "oth.n.01": 2921,
      "_tran": 2922,
      "agar": 2923,
      "poison": 2924,
      "exc": 2925,
      "angel": 2926,
      "disparag": 2927,
      "carbon": 2928,
      "heat": 2929,
      "worm": 2930,
      "flu": 2931,
      "obedi": 2932,
      "statesman.n.01": 2933,
      "ail.v.01": 2934,
      "position.n.01": 2935,
      "rel.n.01": 2936,
      "submer": 2937,
      "legisl": 2938,
      "salv": 2939,
      "trem": 2940,
      "ence.n.03": 2941,
      "monocot_family.n.01": 2942,
      "america.n.01": 2943,
      "cover.v.01": 2944,
      "regist": 2945,
      "regular": 2946,
      "use.v.02": 2947,
      "aea.n.01": 2948,
      "confirm": 2949,
      "confeder": 2950,
      "burg": 2951,
      "ump.v.01": 2952,
      "dress.v.02": 2953,
      "digest": 2954,
      "maj": 2955,
      "separate": 2956,
      "satis": 2957,
      "ocarpus.n.01": 2958,
      "african_country.n.01": 2959,
      "produce.v.02": 2960,
      "exico.n.01": 2961,
      "_fruit.n.01": 2962,
      "bang": 2963,
      "d.a.01": 2964,
      "ear": 2965,
      "eper.n.01": 2966,
      "fir": 2967,
      "fami": 2968,
      "gard": 2969,
      "iate.v.01": 2970,
      "irel": 2971,
      "mart": 2972,
      "sight": 2973,
      "tol": 2974,
      "uate.v.01": 2975,
      "alleg": 2976,
      "_ho": 2977,
      "ivor": 2978,
      "ivity.n.01": 2979,
      "ine_": 2980,
      "arist": 2981,
      "emia.n.01": 2982,
      "uridae.n.01": 2983,
      "im.n.01": 2984,
      "impress": 2985,
      "tri": 2986,
      "coup": 2987,
      "abol": 2988,
      "exter": 2989,
      "astron": 2990,
      "phas": 2991,
      "dry": 2992,
      "mobil": 2993,
      "boil": 2994,
      "hook": 2995,
      "rich": 2996,
      "issue.n.01": 2997,
      "annel": 2998,
      "motiv": 2999,
      "united_states": 3000,
      "oste": 3001,
      "fresh": 3002,
      "general.n.01": 3003,
      "circum": 3004,
      "singer.n.01": 3005,
      "doctor.n.01": 3006,
      "heter": 3007,
      "wrong": 3008,
      "greece.n.01": 3009,
      "object.n.01": 3010,
      "_01": 3011,
      "domestic": 3012,
      "family": 3013,
      "bad": 3014,
      "cuc": 3015,
      "cili": 3016,
      "dock": 3017,
      "give_": 3018,
      "last": 3019,
      "mist": 3020,
      "nat": 3021,
      "o-": 3022,
      "righte": 3023,
      "sib": 3024,
      "tar": 3025,
      "tag": 3026,
      "vit": 3027,
      "er.n.05": 3028,
      "ation.n.07": 3029,
      "iness.n.02": 3030,
      "ens.n.01": 3031,
      "_mov": 3032,
      "emot": 3033,
      "se.n.03": 3034,
      "acet": 3035,
      "lean": 3036,
      "art.n.01": 3037,
      "ceive.v.01": 3038,
      "unci": 3039,
      "apy.n.01": 3040,
      "appl": 3041,
      "trap": 3042,
      "prote": 3043,
      "_gr": 3044,
      "odon.n.01": 3045,
      "_fern.n.01": 3046,
      "india.n.01": 3047,
      "ological_": 3048,
      "ment.n.04": 3049,
      "content": 3050,
      "organic": 3051,
      "ic_element.n.01": 3052,
      "solid": 3053,
      "animal": 3054,
      "anno": 3055,
      "buck": 3056,
      "plant.n.02": 3057,
      "body.n.01": 3058,
      "oxid": 3059,
      "operation.n.06": 3060,
      "lessness.n.01": 3061,
      "temper": 3062,
      "organization": 3063,
      "torment": 3064,
      "ian_country.n.01": 3065,
      "profess": 3066,
      "ieve.v.01": 3067,
      "protoctist": 3068,
      "metallic_element.n.01": 3069,
      "pseud": 3070,
      "bag": 3071,
      "bib": 3072,
      "dup": 3073,
      "mill": 3074,
      "ny": 3075,
      "nov": 3076,
      "wa": 3077,
      "wal": 3078,
      "er.v.03": 3079,
      "atus.n.01": 3080,
      "report": 3081,
      "orize.v.01": 3082,
      "ines.n.01": 3083,
      "ark.n.02": 3084,
      "empl": 3085,
      "omer": 3086,
      "union.n.01": 3087,
      "ain.n.02": 3088,
      "elago.n.01": 3089,
      "etr": 3090,
      "_in.v.01": 3091,
      "constr": 3092,
      "conserv": 3093,
      "abstr": 3094,
      "_go": 3095,
      "_gu": 3096,
      "dissol": 3097,
      "ander.n.01": 3098,
      "_fish.n.01": 3099,
      "bear": 3100,
      "word.n.01": 3101,
      "worm.n.01": 3102,
      "ine.v.03": 3103,
      "ine.v.04": 3104,
      "attach": 3105,
      "joint": 3106,
      "skille": 3107,
      "plant_genus.n.01": 3108,
      "sound.v.02": 3109,
      "ornith": 3110,
      "linear": 3111,
      "shoot": 3112,
      "aquatic": 3113,
      "_calendar.n.01": 3114,
      "account": 3115,
      "omycetes.n.01": 3116,
      "cic": 3117,
      "cath": 3118,
      "dre": 3119,
      "deriv": 3120,
      "day": 3121,
      "flex": 3122,
      "hym": 3123,
      "past": 3124,
      "sul": 3125,
      "schem": 3126,
      "saint": 3127,
      "saint.n.01": 3128,
      "tip": 3129,
      "ver.n.01": 3130,
      "vet": 3131,
      "who": 3132,
      "ying.n.01": 3133,
      "ering.n.01": 3134,
      "refin": 3135,
      "ival.n.01": 3136,
      "ar_mon": 3137,
      "secret": 3138,
      "unk": 3139,
      "usion.n.01": 3140,
      "_tissue.n.01": 3141,
      "ura.n.01": 3142,
      "_inter": 3143,
      "aden": 3144,
      "shr": 3145,
      "tho": 3146,
      "exist": 3147,
      "ish.v.03": 3148,
      "ody.n.01": 3149,
      "cran": 3150,
      "mouth": 3151,
      "board.n.01": 3152,
      "end.v.06": 3153,
      "ath.n.01": 3154,
      "colum": 3155,
      "collabor": 3156,
      "attend": 3157,
      "correct": 3158,
      "fertil": 3159,
      "army.n.01": 3160,
      "viet": 3161,
      "snake.n.01": 3162,
      "archip": 3163,
      "affect": 3164,
      "duct.n.01": 3165,
      "uck.n.01": 3166,
      "sympath": 3167,
      "advoc": 3168,
      "benef": 3169,
      "inform.v.01": 3170,
      "navig": 3171,
      "appear": 3172,
      "patron": 3173,
      "islamic": 3174,
      "percoid_fish.n.01": 3175,
      "scope.n.01": 3176,
      "fruit_tree.n.01": 3177,
      "disparagement.n.01": 3178,
      "_movement.n.01": 3179,
      "ar_month.n.01": 3180,
      "by": 3181,
      "cust": 3182,
      "crop": 3183,
      "dil": 3184,
      "f_": 3185,
      "face.n.01": 3186,
      "giv": 3187,
      "hog": 3188,
      "ker.n.01": 3189,
      "lit": 3190,
      "las": 3191,
      "ode": 3192,
      "sag": 3193,
      "want": 3194,
      "orh": 3195,
      "or.n.03": 3196,
      "an.a.01": 3197,
      "store": 3198,
      "eman.n.01": 3199,
      "sess": 3200,
      "secut": 3201,
      "idol": 3202,
      "amar": 3203,
      "aps": 3204,
      "ages.n.01": 3205,
      "ance.n.04": 3206,
      "tradem": 3207,
      "spain.n.01": 3208,
      "drug": 3209,
      "ed_battle.n.01": 3210,
      "priv": 3211,
      "grind": 3212,
      "iance.n.01": 3213,
      "are.v.01": 3214,
      "intens": 3215,
      "subshrub.n.01": 3216,
      "rench": 3217,
      "automat": 3218,
      "body_": 3219,
      "close": 3220,
      "composition.n.01": 3221,
      "land.n.04": 3222,
      "ump.n.01": 3223,
      "yte.n.01": 3224,
      "measur": 3225,
      "new_yor": 3226,
      "botan": 3227,
      "education.n.01": 3228,
      "pitched_battle.n.01": 3229,
      "document": 3230,
      "worthy.a.01": 3231,
      "make.v.03": 3232,
      "virginia.n.01": 3233,
      "mous_tree.n.01": 3234,
      "_mountains.n.01": 3235,
      "skilled_": 3236,
      "archipelago.n.01": 3237,
      "big": 3238,
      "cen": 3239,
      "das": 3240,
      "ech.n.01": 3241,
      "furn": 3242,
      "gastro": 3243,
      "hn": 3244,
      "hex": 3245,
      "ium": 3246,
      "iator.n.01": 3247,
      "ix.n.01": 3248,
      "jam": 3249,
      "n.v.02": 3250,
      "rus.n.01": 3251,
      "right": 3252,
      "russ": 3253,
      "scler": 3254,
      "skelet": 3255,
      "uation.n.01": 3256,
      "iness": 3257,
      "anatom": 3258,
      "ome.n.01": 3259,
      "seas": 3260,
      "ledon": 3261,
      "union": 3262,
      "destruct": 3263,
      "apor": 3264,
      "termin": 3265,
      "move": 3266,
      "beetle.n.01": 3267,
      "commod": 3268,
      "heav": 3269,
      "blast": 3270,
      "ption.n.01": 3271,
      "iana.n.01": 3272,
      "ugg": 3273,
      "compet": 3274,
      "fish.n.02": 3275,
      "prevent": 3276,
      "presid": 3277,
      "john": 3278,
      "invent": 3279,
      "definit": 3280,
      "use.n.02": 3281,
      "broad": 3282,
      "synchron": 3283,
      "utter.v.02": 3284,
      "reptile_family.n.01": 3285,
      "fasten.v.01": 3286,
      "califor": 3287,
      "architect": 3288,
      "theologian.n.01": 3289,
      "eubacteria.n.01": 3290,
      "otyledon": 3291,
      "cad": 3292,
      "dyn": 3293,
      "dle.v.01": 3294,
      "down": 3295,
      "ea.n.01": 3296,
      "fa": 3297,
      "fund": 3298,
      "feder": 3299,
      "gather": 3300,
      "iation.n.01": 3301,
      "mag": 3302,
      "nucle": 3303,
      "pace": 3304,
      "ve.n.01": 3305,
      "al.a.02": 3306,
      "arm.n.01": 3307,
      "stom": 3308,
      "itate.v.01": 3309,
      "asian_country.n.01": 3310,
      "chip": 3311,
      "us_": 3312,
      "improv": 3313,
      "_institut": 3314,
      "anther": 3315,
      "thick": 3316,
      "expl": 3317,
      "act.v.03": 3318,
      "ocument.n.01": 3319,
      "strik": 3320,
      "ass.v.01": 3321,
      "neuro": 3322,
      "blem": 3323,
      "blend.v.03": 3324,
      "genus_m": 3325,
      "ge.v.04": 3326,
      "obac": 3327,
      "_back": 3328,
      "relation.n.01": 3329,
      "mineral.n.01": 3330,
      "_noun": 3331,
      "solan": 3332,
      "guar": 3333,
      "chew": 3334,
      "ophil": 3335,
      "deliver": 3336,
      "affirm": 3337,
      "lands.n.01": 3338,
      "normal": 3339,
      "return": 3340,
      "schol": 3341,
      "haul": 3342,
      "self-": 3343,
      "ichthy": 3344,
      "neglect": 3345,
      "caryophyll": 3346,
      "liquid": 3347,
      "incip": 3348,
      "cota.n.01": 3349,
      "femal": 3350,
      "pacif": 3351,
      "sequence.n.01": 3352,
      "cultiv": 3353,
      "investig": 3354,
      "habit": 3355,
      "ophora.n.01": 3356,
      "amphibian_genus.n.01": 3357,
      "stabil": 3358,
      "ief.n.01": 3359,
      "edible_fruit.n.01": 3360,
      "_palm.n.01": 3361,
      "lubric": 3362,
      "middle_": 3363,
      "phabet.n.01": 3364,
      "trademark.n.02": 3365,
      "cuss": 3366,
      "earth": 3367,
      "gloss": 3368,
      "iop": 3369,
      "iel": 3370,
      "lac": 3371,
      "lip": 3372,
      "lux": 3373,
      "scom": 3374,
      "tort": 3375,
      "vac": 3376,
      "wit": 3377,
      "y.v.04": 3378,
      "eration.n.01": 3379,
      "er.v.04": 3380,
      "ert.n.01": 3381,
      "atmo": 3382,
      "ona.n.01": 3383,
      "al_s": 3384,
      "ena.n.01": 3385,
      "ar.n.02": 3386,
      "acanth": 3387,
      "isra": 3388,
      "ain.v.03": 3389,
      "ent.n.03": 3390,
      "elim": 3391,
      "ape.v.01": 3392,
      "applic": 3393,
      "impart": 3394,
      "adow": 3395,
      "ulation.n.02": 3396,
      "tric": 3397,
      "train": 3398,
      "ver.n.03": 3399,
      "cow": 3400,
      "shel": 3401,
      "experi": 3402,
      "excit": 3403,
      "proof": 3404,
      "protest": 3405,
      "isher.n.01": 3406,
      "and.n.02": 3407,
      "neut": 3408,
      "frag": 3409,
      "hyth": 3410,
      "genus_d": 3411,
      "complet": 3412,
      "intell": 3413,
      "rent": 3414,
      "plant.v.01": 3415,
      "write.v.01": 3416,
      "classify.v.01": 3417,
      "change_of_": 3418,
      "physical_": 3419,
      "twist": 3420,
      "myth": 3421,
      "handle.n.01": 3422,
      "silver": 3423,
      "infect": 3424,
      "remember": 3425,
      "_deity.n.01": 3426,
      "explos": 3427,
      "propag": 3428,
      "hamamel": 3429,
      "wildflower.n.01": 3430,
      "quantity.n.01": 3431,
      "japan.n.02": 3432,
      "nervous": 3433,
      "ency.n.02": 3434,
      "atlant": 3435,
      "mustel": 3436,
      "interpret": 3437,
      "friend": 3438,
      "young": 3439,
      "angiospermous_tree.n.01": 3440,
      "ostrac": 3441,
      "broadcast": 3442,
      "atmospher": 3443,
      "cu": 3444,
      "gamb": 3445,
      "haz": 3446,
      "i.n.02": 3447,
      "puff": 3448,
      "ron.n.01": 3449,
      "tyr": 3450,
      "ual.n.01": 3451,
      "erup": 3452,
      "erate.v.01": 3453,
      "ating": 3454,
      "alize.v.02": 3455,
      "alth.n.01": 3456,
      "inj": 3457,
      "end.n.01": 3458,
      "ition.n.03": 3459,
      "sea": 3460,
      "sea.n.01": 3461,
      "sever": 3462,
      "artment.n.01": 3463,
      "cock": 3464,
      "comfor": 3465,
      "aband": 3466,
      "ock.n.01": 3467,
      "est.a.01": 3468,
      "clar": 3469,
      "strat": 3470,
      "assem": 3471,
      "assist": 3472,
      "bob": 3473,
      "princip": 3474,
      "ibb": 3475,
      "being.n.01": 3476,
      "graz": 3477,
      "ayer.n.01": 3478,
      "scand": 3479,
      "athlet": 3480,
      "colub": 3481,
      "ologize.v.02": 3482,
      "observ": 3483,
      "state.n.02": 3484,
      "ade.n.02": 3485,
      "dipl": 3486,
      "foot.n.01": 3487,
      "whip": 3488,
      "salt": 3489,
      "atory.n.01": 3490,
      "defam": 3491,
      "district.n.01": 3492,
      "motion.n.03": 3493,
      "united_states_": 3494,
      "script": 3495,
      "palat": 3496,
      "opterous_insect.n.01": 3497,
      "school": 3498,
      "raise.v.02": 3499,
      "pursu": 3500,
      "televis": 3501,
      "shape.v.02": 3502,
      "fortun": 3503,
      "_down.v.01": 3504,
      "rupt.v.01": 3505,
      "origin": 3506,
      "mountain_peak.n.01": 3507,
      "fabric.n.01": 3508,
      "department_of": 3509,
      "ing_material.n.01": 3510,
      "_snake.n.01": 3511,
      "dasy": 3512,
      "otyledones.n.01": 3513,
      "_and_": 3514,
      "bust": 3515,
      "cence.n.01": 3516,
      "dy": 3517,
      "fur": 3518,
      "i_": 3519,
      "lym": 3520,
      "litt": 3521,
      "mult": 3522,
      "nut.n.01": 3523,
      "tan": 3524,
      "tab": 3525,
      "war.n.01": 3526,
      "yer.n.01": 3527,
      "ership.n.01": 3528,
      "percept": 3529,
      "_dist": 3530,
      "indr": 3531,
      "stuff": 3532,
      "iter.n.01": 3533,
      "itud": 3534,
      "aco": 3535,
      "ace.v.01": 3536,
      "ididae.n.01": 3537,
      "chus.n.01": 3538,
      "articul": 3539,
      ".a.05": 3540,
      "_sub": 3541,
      "_time.n.01": 3542,
      "elap": 3543,
      "apple.n.01": 3544,
      "agus.n.01": 3545,
      "ule.n.01": 3546,
      "trib": 3547,
      "spur": 3548,
      "spell": 3549,
      "short": 3550,
      "shout": 3551,
      "ift.n.01": 3552,
      "que.n.01": 3553,
      "exper": 3554,
      "reserv": 3555,
      "braz": 3556,
      "anda.n.01": 3557,
      "drum": 3558,
      "assign": 3559,
      "grat": 3560,
      "ney.n.01": 3561,
      "ort.v.01": 3562,
      "genus_h": 3563,
      "flor": 3564,
      "aren": 3565,
      "complex": 3566,
      "mark.n.01": 3567,
      "breed": 3568,
      "slop": 3569,
      "issu": 3570,
      "great": 3571,
      "condense": 3572,
      "distingu": 3573,
      "writing.n.01": 3574,
      "demon": 3575,
      "'s-": 3576,
      "circul": 3577,
      "transgress": 3578,
      "echin": 3579,
      "dilleniid_dicot_family.n.01": 3580,
      "rhin": 3581,
      "umbell": 3582,
      "juda": 3583,
      "physical": 3584,
      "decis": 3585,
      "_to.v.01": 3586,
      "anti-": 3587,
      "happening.n.01": 3588,
      "victim": 3589,
      "_muscle.n.01": 3590,
      "vertebrate.n.01": 3591,
      "celebr": 3592,
      "vascular": 3593,
      "pronounce.v.01": 3594,
      "_over.v.01": 3595,
      "aq": 3596,
      "bask": 3597,
      "frog.n.01": 3598,
      "go.n.01": 3599,
      "iro": 3600,
      "jun": 3601,
      "lat": 3602,
      "narr": 3603,
      "ose": 3604,
      "rain": 3605,
      "voc": 3606,
      "winter": 3607,
      ".n.": 3608,
      "reproduct": 3609,
      "ate.v.06": 3610,
      "ivid": 3611,
      "araceae.n.01": 3612,
      "arize.v.01": 3613,
      "argu": 3614,
      "ice.v.02": 3615,
      "itz": 3616,
      "lex.n.01": 3617,
      "artif": 3618,
      "unpleas": 3619,
      "ingness.n.01": 3620,
      "_of_m": 3621,
      "old.n.01": 3622,
      "deput": 3623,
      "el.v.03": 3624,
      "eter.n.01": 3625,
      "etary_": 3626,
      "ance.v.02": 3627,
      "advent": 3628,
      "progress": 3629,
      "og.n.01": 3630,
      "discharge": 3631,
      "carol": 3632,
      "fring": 3633,
      "ress.v.01": 3634,
      "hyl": 3635,
      "inter.n.01": 3636,
      "pregn": 3637,
      "ission.n.01": 3638,
      "ash.n.02": 3639,
      "ograph.n.01": 3640,
      "ator.n.03": 3641,
      "speaker.n.01": 3642,
      "barric": 3643,
      "skin": 3644,
      "distill": 3645,
      "cut.v.01": 3646,
      "palest": 3647,
      "communicate.v.01": 3648,
      "anthem": 3649,
      "steer.v.01": 3650,
      "effect": 3651,
      "detect.v.01": 3652,
      "lift": 3653,
      "body_part.n.01": 3654,
      "text.n.01": 3655,
      "woman.n.01": 3656,
      "language.n.01": 3657,
      "major": 3658,
      "duplic": 3659,
      "skilled_worker.n.01": 3660,
      "artifact.n.01": 3661,
      "_organ.n.01": 3662,
      "border": 3663,
      "ca.n.01": 3664,
      "civil": 3665,
      "e.n.06": 3666,
      "lib": 3667,
      "nom": 3668,
      "ps.n.01": 3669,
      "rate.n.01": 3670,
      "sist": 3671,
      "ve.v.02": 3672,
      "water.n.01": 3673,
      "recr": 3674,
      "read.n.01": 3675,
      "orang": 3676,
      "_dep": 3677,
      "insur": 3678,
      "stro": 3679,
      "stance.n.01": 3680,
      "itter.n.01": 3681,
      "berry.n.02": 3682,
      "achy": 3683,
      "asian.n.01": 3684,
      "ember.n.01": 3685,
      "root": 3686,
      "ch.n.03": 3687,
      "chrom": 3688,
      "ington": 3689,
      "_of_p": 3690,
      "_sal": 3691,
      "_squ": 3692,
      "ulidae.n.01": 3693,
      "traver": 3694,
      "spon": 3695,
      "prob": 3696,
      "ogg": 3697,
      "ube.n.01": 3698,
      "discolor": 3699,
      "e_b": 3700,
      "book.n.01": 3701,
      "commit": 3702,
      "techn": 3703,
      "peop": 3704,
      "attle.n.01": 3705,
      "int.v.01": 3706,
      "intern": 3707,
      "armor.n.01": 3708,
      "organism.n.01": 3709,
      "_nut.n.01": 3710,
      "legal_d": 3711,
      "polym": 3712,
      "musician.n.01": 3713,
      "surv": 3714,
      "invit": 3715,
      "communicator.n.01": 3716,
      "wood_": 3717,
      "sque": 3718,
      "back.v.01": 3719,
      "war_": 3720,
      "perturb": 3721,
      "steam": 3722,
      "humor": 3723,
      "sweep": 3724,
      "sound.n.04": 3725,
      "location.n.01": 3726,
      "eye.n.01": 3727,
      "off.n.01": 3728,
      "ableness.n.01": 3729,
      "oscines.n.01": 3730,
      "print.v.01": 3731,
      "_calendar_month.n.01": 3732,
      "trait.n.01": 3733,
      "better.v.02": 3734,
      "exerci": 3735,
      "categ": 3736,
      "restrict.v.03": 3737,
      "child.n.01": 3738,
      "_relation.n.01": 3739,
      "wrongdo": 3740,
      "linear_unit.n.01": 3741,
      "bast": 3742,
      "bull": 3743,
      "cate.v.01": 3744,
      "cand": 3745,
      "da": 3746,
      "eb": 3747,
      "iber": 3748,
      "lith": 3749,
      "pad": 3750,
      "ping.n.01": 3751,
      "penn": 3752,
      "sic": 3753,
      "syr": 3754,
      "tug": 3755,
      "wav": 3756,
      "eros": 3757,
      "on.n.03": 3758,
      "respir": 3759,
      "ional.a.01": 3760,
      "_doct": 3761,
      "anus.n.01": 3762,
      "ania.n.01": 3763,
      "arian.n.01": 3764,
      "sting": 3765,
      "sew": 3766,
      "chatter": 3767,
      "opin": 3768,
      "ental_": 3769,
      "deduct": 3770,
      "dehydr": 3771,
      "deceiver.n.01": 3772,
      "urer.n.01": 3773,
      "ural_": 3774,
      "appre": 3775,
      "impr": 3776,
      "ulus.n.01": 3777,
      "iraq": 3778,
      "plagi": 3779,
      "thal": 3780,
      "aster.n.01": 3781,
      "ode.n.01": 3782,
      "clasp": 3783,
      "urement.n.01": 3784,
      "string": 3785,
      "ck.v.01": 3786,
      "tease": 3787,
      "_cent": 3788,
      "ust.n.01": 3789,
      "malv": 3790,
      "manip": 3791,
      "ire.v.02": 3792,
      "out.n.01": 3793,
      "key": 3794,
      "let.n.02": 3795,
      "communicate.v.02": 3796,
      "oxy": 3797,
      "locate.v.01": 3798,
      "paym": 3799,
      "poda.n.01": 3800,
      "able.a.02": 3801,
      "european_country.n.01": 3802,
      "book.n.10": 3803,
      "_meas": 3804,
      "suggest": 3805,
      "enterprise.n.02": 3806,
      "implement.n.01": 3807,
      "organic_process.n.01": 3808,
      "california.n.01": 3809,
      "_institution.n.01": 3810,
      "_o": 3811,
      "bure": 3812,
      "dur": 3813,
      "down.n.01": 3814,
      "ever": 3815,
      "fly.n.01": 3816,
      "gad": 3817,
      "hur": 3818,
      "hand.n.01": 3819,
      "hand_": 3820,
      "ious.a.01": 3821,
      "job": 3822,
      "kind": 3823,
      "kick": 3824,
      "ler": 3825,
      "lan": 3826,
      "light.n.01": 3827,
      "ris": 3828,
      "ris.n.01": 3829,
      "rush": 3830,
      "sink": 3831,
      "sense": 3832,
      "tet": 3833,
      "tail": 3834,
      "tenn": 3835,
      "vill": 3836,
      "wel": 3837,
      "y-": 3838,
      "eridae.n.01": 3839,
      "ival": 3840,
      "ly.n.02": 3841,
      "inae.n.01": 3842,
      "arch.n.01": 3843,
      "ice_": 3844,
      "ic.a.02": 3845,
      "iture.n.01": 3846,
      "seal": 3847,
      "chick": 3848,
      "ce.v.04": 3849,
      "amine.n.01": 3850,
      "_integr": 3851,
      "consequence.n.01": 3852,
      "locom": 3853,
      "trad": 3854,
      "irish": 3855,
      "ese.n.01": 3856,
      "plunder": 3857,
      "anger.n.01": 3858,
      "pharm": 3859,
      "project": 3860,
      "ogloss": 3861,
      "ed.n.02": 3862,
      "aves.n.01": 3863,
      "brush": 3864,
      "illidae.n.01": 3865,
      "prun": 3866,
      "hear": 3867,
      "house": 3868,
      "tee.n.01": 3869,
      "attent": 3870,
      "observe": 3871,
      "prec": 3872,
      "ade.v.02": 3873,
      "die.v.01": 3874,
      "oke.v.02": 3875,
      "submiss": 3876,
      "counc": 3877,
      "ard.v.02": 3878,
      "ical_device.n.01": 3879,
      "tool.n.01": 3880,
      "iction.n.02": 3881,
      "small": 3882,
      "horse": 3883,
      "animalia.n.01": 3884,
      "rosid_dicot_family.n.01": 3885,
      "whir": 3886,
      "render": 3887,
      "scratch": 3888,
      "opteryg": 3889,
      "raise": 3890,
      "course.n.01": 3891,
      "ancer.n.01": 3892,
      "plane.n.01": 3893,
      "medicine.n.03": 3894,
      "standard": 3895,
      "compound.n.01": 3896,
      "supporter.n.01": 3897,
      "_line.n.01": 3898,
      "placent": 3899,
      "diff": 3900,
      "equip.v.01": 3901,
      "chrys": 3902,
      "fern_family.n.01": 3903,
      "femin": 3904,
      "academic": 3905,
      "bacteria": 3906,
      "instrument": 3907,
      "measure.v.04": 3908,
      "vegetable.n.01": 3909,
      "phylum.n.02": 3910,
      "saxif": 3911,
      "_grass.n.01": 3912,
      "hymen": 3913,
      "botany.n.02": 3914,
      "elimin": 3915,
      "erupt": 3916,
      "basket": 3917,
      "legal_document.n.01": 3918,
      "locomot": 3919,
      "aber": 3920,
      "cord": 3921,
      "der.v.01": 3922,
      "dwell": 3923,
      "eas": 3924,
      "fet": 3925,
      "ile.a.01": 3926,
      "kid": 3927,
      "king.n.01": 3928,
      "maur": 3929,
      "nas": 3930,
      "osp": 3931,
      "pir": 3932,
      "punct": 3933,
      "rhyth": 3934,
      "sip": 3935,
      "sail": 3936,
      "sau": 3937,
      "song": 3938,
      "tak": 3939,
      "ustr": 3940,
      "ufact": 3941,
      "ative": 3942,
      "release": 3943,
      "research": 3944,
      "alpin": 3945,
      "ine.v.02": 3946,
      "ener.n.02": 3947,
      "stren": 3948,
      "stamp": 3949,
      "_maker.n.01": 3950,
      "see.v.01": 3951,
      "second": 3952,
      "rost": 3953,
      "ider.n.01": 3954,
      "_pr": 3955,
      "un.n.01": 3956,
      "op.v.01": 3957,
      "ilation.n.02": 3958,
      "ama.n.01": 3959,
      "depress": 3960,
      "genetic": 3961,
      "elab": 3962,
      "appr": 3963,
      "appar": 3964,
      "iment.n.01": 3965,
      "ist.a.01": 3966,
      "ulg": 3967,
      "ulation.n.03": 3968,
      "up.v.01": 3969,
      "aceous_plant.n.01": 3970,
      "quity.n.01": 3971,
      "exha": 3972,
      "program": 3973,
      "resolut": 3974,
      "crash": 3975,
      "bry": 3976,
      "assert": 3977,
      "commemor": 3978,
      "individ": 3979,
      "genus_g": 3980,
      "ge.v.05": 3981,
      "malay": 3982,
      "maneu": 3983,
      ".n.14": 3984,
      "iction.n.01": 3985,
      "solic": 3986,
      "au.n.01": 3987,
      "atory.a.01": 3988,
      "joint.n.01": 3989,
      "portr": 3990,
      "ography.n.01": 3991,
      "amp.n.01": 3992,
      "skid": 3993,
      "disturb": 3994,
      "pale": 3995,
      "tract.n.01": 3996,
      "testament.n.01": 3997,
      "engine.n.01": 3998,
      "period": 3999,
      "fold": 4000,
      "central_": 4001,
      "advant": 4002,
      "tempt": 4003,
      "industr": 4004,
      "commercial_": 4005,
      "old_testament.n.01": 4006,
      "associate.v.01": 4007,
      "scient": 4008,
      "deal.v.06": 4009,
      "texas.n.01": 4010,
      "different": 4011,
      "protective_": 4012,
      "linguistics.n.01": 4013,
      "field.n.01": 4014,
      "leaf.n.01": 4015,
      "omorpha.n.01": 4016,
      "engineer.n.01": 4017,
      "ophyllum.n.01": 4018,
      "commissioned_": 4019,
      "anthera.n.01": 4020,
      "explor": 4021,
      "tyrann": 4022,
      "abandon": 4023,
      "maurit": 4024,
      "streng": 4025,
      "elabor": 4026,
      "bath": 4027,
      "cyn": 4028,
      "cact": 4029,
      "cau": 4030,
      "fair": 4031,
      "funct": 4032,
      "gi": 4033,
      "ging": 4034,
      "ghan": 4035,
      "him": 4036,
      "hip": 4037,
      "ies": 4038,
      "iology.n.01": 4039,
      "lact": 4040,
      "mort": 4041,
      "maker.n.01": 4042,
      "na.n.01": 4043,
      "nur": 4044,
      "pill": 4045,
      "rational": 4046,
      "rum": 4047,
      "rise": 4048,
      "tend": 4049,
      "ue_": 4050,
      "erer.n.01": 4051,
      "athe": 4052,
      "redu": 4053,
      "ality.n.02": 4054,
      "ory_": 4055,
      "anesthet": 4056,
      "enjo": 4057,
      "ariidae.n.01": 4058,
      "staff": 4059,
      "rough": 4060,
      "ley.n.01": 4061,
      "le.n.04": 4062,
      "lept": 4063,
      "id.a.01": 4064,
      "idate.v.01": 4065,
      "chal": 4066,
      "chin": 4067,
      "op.n.02": 4068,
      "user.n.01": 4069,
      "et.v.02": 4070,
      "impo": 4071,
      "advert": 4072,
      "trig": 4073,
      "coher": 4074,
      "anthro": 4075,
      "pose.v.03": 4076,
      "acea.n.01": 4077,
      "quar": 4078,
      "ogn": 4079,
      "actin": 4080,
      "clude": 4081,
      "craft.n.01": 4082,
      "_fron": 4083,
      "ass.n.02": 4084,
      "movi": 4085,
      "bovidae.n.01": 4086,
      "prick": 4087,
      "graph": 4088,
      "collap": 4089,
      "hood": 4090,
      "sitt": 4091,
      "georg": 4092,
      "ine.a.01": 4093,
      "ouse.n.01": 4094,
      "march": 4095,
      "malac": 4096,
      "air.v.03": 4097,
      "ict.v.02": 4098,
      "expans": 4099,
      "letter.n.02": 4100,
      "center": 4101,
      "door": 4102,
      "journ": 4103,
      "harp": 4104,
      "chemical": 4105,
      "finn": 4106,
      "run.v.2": 4107,
      "psychology.n.01": 4108,
      "flood": 4109,
      "holder.n.01": 4110,
      "aginaceae.n.01": 4111,
      "traveler.n.01": 4112,
      "oscine.n.01": 4113,
      "screen": 4114,
      "garment.n.01": 4115,
      "reformer.n.01": 4116,
      "church.n.01": 4117,
      "ypt.n.01": 4118,
      "hawai": 4119,
      "criminal.n.01": 4120,
      "estimate.v.01": 4121,
      "metric_": 4122,
      "girl.n.01": 4123,
      "mollusk_family.n.01": 4124,
      "discipline.n.01": 4125,
      "focus": 4126,
      "politician.n.02": 4127,
      "style.n.01": 4128,
      "guarante": 4129,
      "assistant.n.01": 4130,
      "demonstr": 4131,
      "etary_unit.n.01": 4132,
      "_measurement.n.01": 4133,
      "anthrop": 4134,
      "_action.n.01": 4135,
      "cant": 4136,
      "dol": 4137,
      "fan": 4138,
      "ily": 4139,
      "iod": 4140,
      "ike": 4141,
      "lur": 4142,
      "liz": 4143,
      "lamin": 4144,
      "nap": 4145,
      "ospor": 4146,
      "pic": 4147,
      "pak": 4148,
      "rib": 4149,
      "sper": 4150,
      "sant": 4151,
      "te.n.01": 4152,
      "yx.n.01": 4153,
      "refr": 4154,
      "alter": 4155,
      "_di": 4156,
      "inde": 4157,
      "inhal": 4158,
      "anag": 4159,
      "anidae.n.01": 4160,
      "enop": 4161,
      "icity.n.01": 4162,
      "see.n.01": 4163,
      "secur": 4164,
      "roof": 4165,
      "chim": 4166,
      "chast": 4167,
      "charm": 4168,
      "child": 4169,
      "ceae.n.01": 4170,
      "enth": 4171,
      "ent.v.02": 4172,
      "ot.n.02": 4173,
      "gen.n.01": 4174,
      "ur.v.01": 4175,
      "apple": 4176,
      "agit": 4177,
      "agement.n.01": 4178,
      "impro": 4179,
      "confer": 4180,
      "set.n.01": 4181,
      "plaster": 4182,
      "exh": 4183,
      "astr": 4184,
      "prosecut": 4185,
      "ogether": 4186,
      "dispatch": 4187,
      "_alphabet.n.01": 4188,
      "seed.n.01": 4189,
      "driv": 4190,
      "dron.n.01": 4191,
      "aware": 4192,
      "ed_fish.n.01": 4193,
      "columb": 4194,
      "house.n.01": 4195,
      "teach": 4196,
      "_body.n.01": 4197,
      ".n.13": 4198,
      "minim": 4199,
      "legum": 4200,
      "solar": 4201,
      "tren": 4202,
      "_of_american_": 4203,
      "ophyceae.n.01": 4204,
      "communication.n.02": 4205,
      "squir": 4206,
      "filtr": 4207,
      ".s.02": 4208,
      "_war.n.01": 4209,
      "computer_memor": 4210,
      "ranuncul": 4211,
      "turke": 4212,
      "compos": 4213,
      "symbol": 4214,
      "circulate.v.02": 4215,
      "offens": 4216,
      "golden": 4217,
      "continue.v.01": 4218,
      "induce.v.02": 4219,
      "world_war_": 4220,
      "doctor": 4221,
      "willow.n.01": 4222,
      "emplo": 4223,
      "shape.n.01": 4224,
      "cedure.n.01": 4225,
      "sexual": 4226,
      "old_world_": 4227,
      "islam.n.02": 4228,
      "jury.n.01": 4229,
      "church": 4230,
      "christian": 4231,
      "_intelligence_": 4232,
      "decrease.n.04": 4233,
      "musical_composition.n.01": 4234,
      "crystall": 4235,
      "organization_of_american_": 4236,
      "aquatic_plant.n.01": 4237,
      "israel.n.01": 4238,
      "itude.n.01": 4239,
      "_substance.n.01": 4240,
      ".n.2": 4241,
      "commercial_enterprise.n.02": 4242,
      "finned_fish.n.01": 4243,
      "ogether.v.01": 4244,
      "computer_memory_unit.n.01": 4245,
      "organization_of_american_states.n.01": 4246,
      "ba": 4247,
      "cz": 4248,
      "care.n.01": 4249,
      "dan": 4250,
      "dler.n.01": 4251,
      "hindr": 4252,
      "k.v.02": 4253,
      "max": 4254,
      "now": 4255,
      "ose.v.01": 4256,
      "pit": 4257,
      "pian": 4258,
      "ratt": 4259,
      "rank": 4260,
      "sick": 4261,
      "tib": 4262,
      "town.n.01": 4263,
      "take_": 4264,
      "will": 4265,
      "rehens": 4266,
      "_dancing.n.01": 4267,
      "ates.n.01": 4268,
      "ly_": 4269,
      "incomp": 4270,
      "ancial": 4271,
      "arach": 4272,
      "stick": 4273,
      "icism.n.01": 4274,
      "secr": 4275,
      "sea_": 4276,
      "cher.n.01": 4277,
      "ilator.n.01": 4278,
      "_of_measurement.n.01": 4279,
      "genet": 4280,
      "ety.n.01": 4281,
      "etic_": 4282,
      "concer": 4283,
      "conspir": 4284,
      "conclus": 4285,
      "ado.n.01": 4286,
      "track": 4287,
      "irrit": 4288,
      "cosm": 4289,
      "antib": 4290,
      "spark": 4291,
      "sod": 4292,
      "ex.n.01": 4293,
      "ast_": 4294,
      "prolong": 4295,
      "_gear.n.01": 4296,
      "dismiss": 4297,
      "e_quantity.n.01": 4298,
      "bring": 4299,
      "card_": 4300,
      "bean.n.02": 4301,
      "ive_system.n.01": 4302,
      "scall": 4303,
      "scatter": 4304,
      "udge.v.01": 4305,
      "front.n.01": 4306,
      "mone.n.01": 4307,
      "how": 4308,
      "ge.n.03": 4309,
      "compass": 4310,
      "wear.n.01": 4311,
      "create": 4312,
      "rel.v.01": 4313,
      "minor": 4314,
      "icality.n.01": 4315,
      "condens": 4316,
      "ement.n.06": 4317,
      "ographer.n.01": 4318,
      "consci": 4319,
      "gery.n.01": 4320,
      "knif": 4321,
      "ception.n.01": 4322,
      "cast.v.01": 4323,
      "dicotyledones.n.01": 4324,
      "court.n.01": 4325,
      "popular": 4326,
      "combat": 4327,
      "liberation": 4328,
      "radio": 4329,
      "egypt.n.01": 4330,
      "zoa.n.01": 4331,
      "antiquity.n.01": 4332,
      "fastener.n.02": 4333,
      "liquid_": 4334,
      "_shape.n.01": 4335,
      "clean.v.01": 4336,
      "suffoc": 4337,
      "electrical": 4338,
      "gregor": 4339,
      "hibitor.n.01": 4340,
      "_drug.n.01": 4341,
      "japane": 4342,
      "susp": 4343,
      "ette.n.01": 4344,
      "cross-": 4345,
      "masturb": 4346,
      "woman": 4347,
      "statistics.n.01": 4348,
      "beginning.n.05": 4349,
      "cyprin": 4350,
      "ceed.v.02": 4351,
      "scorpa": 4352,
      "british_": 4353,
      "dirt": 4354,
      "_through.v.01": 4355,
      "chelon": 4356,
      "emotion": 4357,
      "definite_quantity.n.01": 4358,
      "bureau": 4359,
      "apprais": 4360,
      "bus.n.01": 4361,
      "bon.n.01": 4362,
      "dart": 4363,
      "dance.v.02": 4364,
      "hurt": 4365,
      "ioc": 4366,
      "ker": 4367,
      "mus.n.01": 4368,
      "pel": 4369,
      "sab": 4370,
      "slow": 4371,
      "tact": 4372,
      "win": 4373,
      "zyg": 4374,
      "ative.a.02": 4375,
      "ony.n.01": 4376,
      "releg": 4377,
      "repet": 4378,
      "recogn": 4379,
      "al.n.04": 4380,
      "ion.v.02": 4381,
      "ano": 4382,
      "anom": 4383,
      "enfor": 4384,
      "enclo": 4385,
      "_mamm": 4386,
      "ite.v.01": 4387,
      "om.n.02": 4388,
      "acar": 4389,
      "ache": 4390,
      "lef": 4391,
      "chaet": 4392,
      "ing.n.06": 4393,
      "ing_instrument.n.01": 4394,
      "offer": 4395,
      "ilation.n.01": 4396,
      "olus.n.01": 4397,
      "depreci": 4398,
      "_ter": 4399,
      "el_": 4400,
      "apod": 4401,
      "apost": 4402,
      "agg": 4403,
      "imper": 4404,
      "confl": 4405,
      "concili": 4406,
      "ad.n.02": 4407,
      "los": 4408,
      "trump": 4409,
      "coer": 4410,
      "escence.n.01": 4411,
      "comy": 4412,
      "come.n.01": 4413,
      "ant_person.n.01": 4414,
      "ace.n.02": 4415,
      "property.n.01": 4416,
      "act.v.10": 4417,
      "_game.n.01": 4418,
      "edd": 4419,
      "esthes": 4420,
      "odium.n.01": 4421,
      "strong": 4422,
      "disagre": 4423,
      "mourn": 4424,
      "boat.n.01": 4425,
      "ending.n.01": 4426,
      "gram.n.01": 4427,
      "gramm": 4428,
      "hebre": 4429,
      "induct": 4430,
      "ose.n.01": 4431,
      "hole": 4432,
      "lla.n.01": 4433,
      "ous_": 4434,
      "pariet": 4435,
      "diagn": 4436,
      "manufact": 4437,
      "interest": 4438,
      "found": 4439,
      "ard.v.01": 4440,
      "air_for": 4441,
      "ic_acid.n.01": 4442,
      "ight.n.02": 4443,
      "gler.n.01": 4444,
      "swimm": 4445,
      "polar": 4446,
      "cerat": 4447,
      "snip": 4448,
      "portun": 4449,
      "written": 4450,
      "signal.n.01": 4451,
      "ulariaceae.n.01": 4452,
      "clog": 4453,
      "ism.n.03": 4454,
      "change.n.03": 4455,
      "rhiz": 4456,
      "lessness.n.02": 4457,
      "honor": 4458,
      "poster.n.01": 4459,
      "bitter": 4460,
      "range.n.01": 4461,
      "elev": 4462,
      "detect": 4463,
      "approach": 4464,
      "empire.n.01": 4465,
      "happen.v.01": 4466,
      "nether": 4467,
      "body_substance.n.01": 4468,
      "english": 4469,
      "admir": 4470,
      "sprink": 4471,
      "philosophy.n.02": 4472,
      "vessel": 4473,
      "uminos": 4474,
      "myrt": 4475,
      "sanct": 4476,
      "step.n.03": 4477,
      "department_of_": 4478,
      "message.n.02": 4479,
      "compress.v.02": 4480,
      "revolution": 4481,
      "music.n.03": 4482,
      "unwrap": 4483,
      "field_": 4484,
      "inflammatory.n.01": 4485,
      "inquir": 4486,
      "oblig": 4487,
      "palmae.n.01": 4488,
      "_desert.n.01": 4489,
      "quilizer.n.01": 4490,
      "piece": 4491,
      "obedient.a.01": 4492,
      "dissolve": 4493,
      "body_armor.n.01": 4494,
      "new_york.n.02": 4495,
      "neutr": 4496,
      "physical_condition.n.01": 4497,
      "_district.n.01": 4498,
      "anti-inflammatory.n.01": 4499,
      "recruit": 4500,
      "pakistan.n.01": 4501,
      "_mammal.n.01": 4502,
      "bival": 4503,
      "dor": 4504,
      "fare": 4505,
      "file": 4506,
      "fasc": 4507,
      "hik": 4508,
      "hunt.v.01": 4509,
      "ient": 4510,
      "iber.n.01": 4511,
      "ket": 4512,
      "ni": 4513,
      "nemat": 4514,
      "pau": 4515,
      "vom": 4516,
      "via.n.01": 4517,
      "xyl": 4518,
      "y_m": 4519,
      "err": 4520,
      "onic": 4521,
      "rece": 4522,
      "regener": 4523,
      "ation_system.n.01": 4524,
      "_reproduct": 4525,
      "_revolut": 4526,
      "in_": 4527,
      "insect.n.01": 4528,
      "inhabit": 4529,
      "ense.v.01": 4530,
      "stip": 4531,
      "omb.n.01": 4532,
      "accommod": 4533,
      "opus.n.01": 4534,
      "opod.n.01": 4535,
      "genital": 4536,
      "elia.n.01": 4537,
      "elm.n.01": 4538,
      "apoc": 4539,
      "ize.v.05": 4540,
      "conifer.n.01": 4541,
      "ulaceae.n.01": 4542,
      "trim": 4543,
      "trail": 4544,
      "complic": 4545,
      "absolut": 4546,
      "ter.n.03": 4547,
      "pose": 4548,
      "span": 4549,
      "sham": 4550,
      "acean.n.01": 4551,
      "plann": 4552,
      "play.n.01": 4553,
      "phen": 4554,
      "propert": 4555,
      "_gre": 4556,
      "disput": 4557,
      "e_unit.n.01": 4558,
      "draft": 4559,
      ".v.17": 4560,
      "boun": 4561,
      "acknow": 4562,
      "grant": 4563,
      "neces": 4564,
      "under.n.01": 4565,
      "flush": 4566,
      "pep": 4567,
      "attack.n.01": 4568,
      "inton": 4569,
      "like": 4570,
      "breast": 4571,
      "air.v.01": 4572,
      "transit": 4573,
      "armor": 4574,
      "capit": 4575,
      "tox": 4576,
      "inkle.n.01": 4577,
      "soldi": 4578,
      "suppress": 4579,
      "snuff": 4580,
      "consult": 4581,
      "defender.n.01": 4582,
      "moth.n.01": 4583,
      "bodily": 4584,
      "plex": 4585,
      "confess": 4586,
      ".v.21": 4587,
      "color.v.01": 4588,
      "caes": 4589,
      "justice.n.01": 4590,
      "psycho": 4591,
      "audit": 4592,
      "convert": 4593,
      "market": 4594,
      "control.n.01": 4595,
      "eleph": 4596,
      "shape.v.03": 4597,
      "fly.v.03": 4598,
      "european.n.01": 4599,
      "spinal_": 4600,
      "pull.v.01": 4601,
      "mail.v.01": 4602,
      "ometry.n.01": 4603,
      "club.n.02": 4604,
      "aenidae.n.01": 4605,
      "aid.n.02": 4606,
      "brown": 4607,
      "reference": 4608,
      "farming.n.01": 4609,
      "transmit.v.04": 4610,
      "decrease.v.01": 4611,
      "business": 4612,
      "visualize.v.01": 4613,
      "insecta.n.01": 4614,
      "ocrine": 4615,
      "astronomy.n.01": 4616,
      "family.n.06": 4617,
      "anatomy.n.01": 4618,
      "impart.v.03": 4619,
      "brazil.n.01": 4620,
      "umbelliferae.n.01": 4621,
      "_doctrine.n.01": 4622,
      "iraq.n.01": 4623,
      "dwelling.n.01": 4624,
      "strength": 4625,
      "movie.n.01": 4626,
      "gregorian": 4627,
      "japanese": 4628,
      "acknowled": 4629,
      "necessit": 4630,
      "_vehicle.n.01": 4631,
      "_league.n.01": 4632,
      "eur": 4633,
      "eject": 4634,
      "gang": 4635,
      "gath": 4636,
      "garr": 4637,
      "m.n.02": 4638,
      "mon.n.01": 4639,
      "material.n.01": 4640,
      "ner.n.01": 4641,
      "nig": 4642,
      "oil": 4643,
      "pom": 4644,
      "pt.n.01": 4645,
      "raf": 4646,
      "soph": 4647,
      "t.n.03": 4648,
      "tow": 4649,
      "tens": 4650,
      "tail.n.01": 4651,
      "ual.a.01": 4652,
      "ycl": 4653,
      "zon": 4654,
      "zod": 4655,
      "atri": 4656,
      "on.v.02": 4657,
      "_hy": 4658,
      "per.n.03": 4659,
      "d_up": 4660,
      "form.n.01": 4661,
      "late.v.03": 4662,
      "incit": 4663,
      "enclos": 4664,
      "ara.n.01": 4665,
      "ar.n.03": 4666,
      "aring.n.01": 4667,
      "_mar": 4668,
      "_myth": 4669,
      "icet": 4670,
      "iceman.n.01": 4671,
      "seg": 4672,
      "round.v.01": 4673,
      "chord": 4674,
      "channel": 4675,
      "isia.n.01": 4676,
      "_pine.n.01": 4677,
      "amus.n.01": 4678,
      "agger": 4679,
      "uture.n.01": 4680,
      "utter.n.01": 4681,
      "trace.v.02": 4682,
      "core": 4683,
      "absor": 4684,
      "ability.n.02": 4685,
      "pod.n.01": 4686,
      "shuff": 4687,
      "exam": 4688,
      "extract": 4689,
      "astring": 4690,
      "ishment.n.02": 4691,
      "edness.n.01": 4692,
      "ester.n.01": 4693,
      "cry.n.01": 4694,
      "crush": 4695,
      "see.v.05": 4696,
      "brass": 4697,
      "all.n.01": 4698,
      "mount": 4699,
      "carp": 4700,
      "carpet": 4701,
      "neigh": 4702,
      "blenn": 4703,
      "ptom.n.01": 4704,
      "hosp": 4705,
      "hypo": 4706,
      "_cor": 4707,
      "web": 4708,
      "ach.v.02": 4709,
      "obvi": 4710,
      "_bat.n.01": 4711,
      "state_capital.n.01": 4712,
      "ve.v.04": 4713,
      "predic": 4714,
      "ign.v.01": 4715,
      "transpl": 4716,
      "cultur": 4717,
      "solv": 4718,
      "guid": 4719,
      "inval": 4720,
      "visual_": 4721,
      "geran": 4722,
      "go_": 4723,
      "enna.n.01": 4724,
      "time": 4725,
      "belg": 4726,
      "operation.n.01": 4727,
      "understand": 4728,
      ".v.22": 4729,
      "orchest": 4730,
      "caus": 4731,
      "turn.v.01": 4732,
      "psychiat": 4733,
      "populate.v.01": 4734,
      "fungus_order.n.01": 4735,
      "symptom.n.01": 4736,
      "eze.n.01": 4737,
      "american_country.n.01": 4738,
      "convers": 4739,
      "commonwe": 4740,
      "question": 4741,
      "recip": 4742,
      "lover.n.01": 4743,
      "think.v.03": 4744,
      "negli": 4745,
      "liquef": 4746,
      "placement.n.01": 4747,
      "happy.a.01": 4748,
      "administrat": 4749,
      "western": 4750,
      "ulsion.n.02": 4751,
      "feeling.n.01": 4752,
      "representation.n.01": 4753,
      "tao": 4754,
      "ocarpaceae.n.01": 4755,
      "greek": 4756,
      "arrange.v.01": 4757,
      "sacred_": 4758,
      "double": 4759,
      "sapind": 4760,
      "cognit": 4761,
      "gentian": 4762,
      "phone.n.02": 4763,
      "photography.n.01": 4764,
      "soft-": 4765,
      "mollusk_genus.n.01": 4766,
      "perfect": 4767,
      "chemical_element.n.01": 4768,
      "synthes": 4769,
      "advocate.n.01": 4770,
      "ield.n.01": 4771,
      "anthemum.n.01": 4772,
      "whirl": 4773,
      "opterygii.n.01": 4774,
      "apparatus.n.01": 4775,
      "zodi": 4776,
      "_mythology.n.01": 4777,
      "_act.n.01": 4778,
      "bac": 4779,
      "bush.n.01": 4780,
      "cise.n.01": 4781,
      "daw": 4782,
      "dancing.n.01": 4783,
      "e.n.07": 4784,
      "gy.n.01": 4785,
      "gum": 4786,
      "his": 4787,
      "hind": 4788,
      "harm": 4789,
      "ilate.v.01": 4790,
      "liter": 4791,
      "lemon": 4792,
      "map": 4793,
      "mexico.n.01": 4794,
      "ou": 4795,
      "oz": 4796,
      "pall": 4797,
      "ration.n.01": 4798,
      "rum.n.01": 4799,
      "rhe": 4800,
      "rage.n.01": 4801,
      "right.n.01": 4802,
      "sain": 4803,
      "son.n.01": 4804,
      "wol": 4805,
      "way": 4806,
      "word": 4807,
      "wire": 4808,
      "yph": 4809,
      "yidd": 4810,
      "atic_": 4811,
      "ality.n.03": 4812,
      "yman.n.01": 4813,
      "d_vehicle.n.01": 4814,
      "inav": 4815,
      "an.v.01": 4816,
      "ande": 4817,
      "anism.n.01": 4818,
      "answ": 4819,
      "ensit": 4820,
      "_min": 4821,
      "icu": 4822,
      "aci": 4823,
      "roy": 4824,
      "idia.n.01": 4825,
      "chi": 4826,
      "chall": 4827,
      "arts.n.01": 4828,
      "ce.n.02": 4829,
      "ings.n.01": 4830,
      "opo": 4831,
      "opro": 4832,
      "entry.n.01": 4833,
      "_of_s": 4834,
      "deform": 4835,
      "decap": 4836,
      "otus.n.01": 4837,
      "ute.n.01": 4838,
      "ization.n.04": 4839,
      "adri": 4840,
      "louse.n.01": 4841,
      "abnormal": 4842,
      "spatter": 4843,
      "shift": 4844,
      "quot": 4845,
      "pher": 4846,
      "act.v.02": 4847,
      "active": 4848,
      "avel.n.01": 4849,
      "ak.v.01": 4850,
      "stra": 4851,
      "end.n.03": 4852,
      "beat.v.01": 4853,
      "heart": 4854,
      "nev": 4855,
      "neck": 4856,
      "scot": 4857,
      "indul": 4858,
      "udge.n.02": 4859,
      "hood.n.02": 4860,
      "_cir": 4861,
      "ological": 4862,
      "obsc": 4863,
      "evid": 4864,
      "container.n.01": 4865,
      "contend.v.06": 4866,
      "bread.n.01": 4867,
      "slav": 4868,
      "glut": 4869,
      "charadri": 4870,
      "whale.n.01": 4871,
      "partic": 4872,
      "suppress.v.01": 4873,
      "condem": 4874,
      "ing_agent.n.01": 4875,
      "_player.n.01": 4876,
      "_system.n.02": 4877,
      "work.v.01": 4878,
      "pled": 4879,
      "passage": 4880,
      "finish": 4881,
      "section.n.01": 4882,
      "democ": 4883,
      "oxide.n.01": 4884,
      "wood.n.02": 4885,
      "transform": 4886,
      "rhym": 4887,
      "ense.n.02": 4888,
      "folk": 4889,
      "limit": 4890,
      "log.v.01": 4891,
      "ah.n.02": 4892,
      "roll.v.01": 4893,
      "roll.v.12": 4894,
      "haem": 4895,
      "extens": 4896,
      "aud.v.01": 4897,
      "mold": 4898,
      "_out.v.02": 4899,
      "white_": 4900,
      "common_": 4901,
      "cup.n.01": 4902,
      "golf.n.01": 4903,
      "tempor": 4904,
      "destin": 4905,
      "podidae.n.01": 4906,
      "factor": 4907,
      "voice.v.01": 4908,
      "_travel.n.01": 4909,
      "_pea.n.01": 4910,
      "european_": 4911,
      "dramatur": 4912,
      "official.n.01": 4913,
      "give.v.03": 4914,
      "softw": 4915,
      "military_officer.n.01": 4916,
      "ometer.n.01": 4917,
      "macro": 4918,
      "match.v.01": 4919,
      "nerve.n.01": 4920,
      "contribut": 4921,
      "fracture": 4922,
      "smooth": 4923,
      "exercise.n.01": 4924,
      "dramatist.n.01": 4925,
      "perfum": 4926,
      "electronic_": 4927,
      "weapon": 4928,
      "weapon.n.01": 4929,
      "establish": 4930,
      "craftsman": 4931,
      "enchant": 4932,
      "first": 4933,
      "abstract": 4934,
      "shrink": 4935,
      "skeletal": 4936,
      "dynam": 4937,
      "gathering.n.01": 4938,
      "scandinav": 4939,
      "little": 4940,
      "_department.n.01": 4941,
      "genetic_disease.n.01": 4942,
      "exhaust": 4943,
      "protective_covering.n.01": 4944,
      "scorpaen": 4945,
      "unwrap.v.02": 4946,
      "yiddish.n.01": 4947,
      "_j": 4948,
      "bif": 4949,
      "bub": 4950,
      "bit.n.01": 4951,
      "balk": 4952,
      "dness.n.01": 4953,
      "favor": 4954,
      "fill.v.01": 4955,
      "hell": 4956,
      "hatch": 4957,
      "hung": 4958,
      "iant.a.01": 4959,
      "igence.n.01": 4960,
      "len": 4961,
      "leng": 4962,
      "m.v.01": 4963,
      "na": 4964,
      "nob": 4965,
      "pant": 4966,
      "ry.v.02": 4967,
      "side": 4968,
      "wing.n.01": 4969,
      "ys.n.01": 4970,
      "yield": 4971,
      "attr": 4972,
      "re.v.02": 4973,
      "alay": 4974,
      "nymphal": 4975,
      "inci": 4976,
      "enlist": 4977,
      "stem": 4978,
      "ication.n.01": 4979,
      "ithe": 4980,
      "segreg": 4981,
      "search.n.01": 4982,
      "accultur": 4983,
      "asion.n.01": 4984,
      "road": 4985,
      "idity.n.01": 4986,
      "ison.v.01": 4987,
      "ing_p": 4988,
      "ing_f": 4989,
      "am.n.02": 4990,
      "ent.n.04": 4991,
      "_test": 4992,
      "izer.n.02": 4993,
      "ancell": 4994,
      "conform": 4995,
      "convent": 4996,
      "lou": 4997,
      "traff": 4998,
      "coat.v.01": 4999,
      "antia.n.01": 5000,
      "abs": 5001,
      "soviet": 5002,
      "plug": 5003,
      "quer": 5004,
      "phr": 5005,
      "prostitut": 5006,
      "resc": 5007,
      "crab.n.01": 5008,
      "awl.v.01": 5009,
      "alli": 5010,
      "bos.n.01": 5011,
      "box.n.01": 5012,
      "beaut": 5013,
      "grap": 5014,
      "grip": 5015,
      "command.n.01": 5016,
      "health": 5017,
      "genus.n.02": 5018,
      "flat": 5019,
      "her.n.03": 5020,
      "persu": 5021,
      "marri": 5022,
      "ail.v.02": 5023,
      "lily.n.01": 5024,
      "lieut": 5025,
      "interrog": 5026,
      "raph": 5027,
      "ial.n.02": 5028,
      "ical_instrument.n.01": 5029,
      "airplane.n.01": 5030,
      "armen": 5031,
      "ulate.n.01": 5032,
      "legal_": 5033,
      "smut": 5034,
      "horb": 5035,
      "solm": 5036,
      "whis": 5037,
      "roptera.n.01": 5038,
      "american.n.01": 5039,
      "archa": 5040,
      "mete": 5041,
      "orea.n.01": 5042,
      "volum": 5043,
      "break_up": 5044,
      "run.v.06": 5045,
      "national_": 5046,
      "falcon": 5047,
      "reflex.n.01": 5048,
      "steroid": 5049,
      "rest.n.02": 5050,
      "determ": 5051,
      "large": 5052,
      "omycota.n.01": 5053,
      "accum": 5054,
      "battle": 5055,
      "settl": 5056,
      "appropri": 5057,
      "empt.n.01": 5058,
      "sexual_": 5059,
      "process.v.01": 5060,
      "process.n.05": 5061,
      "transport.v.02": 5062,
      "screw": 5063,
      "_bean.n.01": 5064,
      "group.n.01": 5065,
      "waste.n.01": 5066,
      "_music.n.01": 5067,
      "blood": 5068,
      "measurement.n.01": 5069,
      "augur": 5070,
      "success": 5071,
      "make.v.4": 5072,
      "rodent.n.01": 5073,
      "evaluate.v.02": 5074,
      "speech_act.n.01": 5075,
      "catalog": 5076,
      "sylvan": 5077,
      "euphorb": 5078,
      "ivora.n.01": 5079,
      "righteous.a.01": 5080,
      "solanaceae.n.01": 5081,
      "scholar.n.01": 5082,
      "dysp": 5083,
      "shout.v.02": 5084,
      "florida.n.01": 5085,
      "discolor.v.03": 5086,
      "_center.n.01": 5087,
      "placental.n.01": 5088,
      "saxifrag": 5089,
      "ranunculaceae.n.01": 5090,
      "turkey.n.02": 5091,
      "_intelligence_agency.n.01": 5092,
      "ocrine_gland.n.01": 5093,
      "lieuten": 5094,
      "-up.n.01": 5095,
      "bud": 5096,
      "day.n.01": 5097,
      "dark": 5098,
      "ek": 5099,
      "eer.v.01": 5100,
      "gia.n.01": 5101,
      "hit": 5102,
      "jump": 5103,
      "kil": 5104,
      "lav": 5105,
      "n.n.02": 5106,
      "pu": 5107,
      "plect": 5108,
      "ray": 5109,
      "rant.n.01": 5110,
      "rify.v.01": 5111,
      "table": 5112,
      "wis": 5113,
      "wrest": 5114,
      "w_alphabet.n.01": 5115,
      "atric": 5116,
      "re-": 5117,
      "refresh": 5118,
      "alism.n.01": 5119,
      "_house.n.01": 5120,
      "ations.n.01": 5121,
      "inject": 5122,
      "anch.n.01": 5123,
      "en_": 5124,
      "stup": 5125,
      "_man.n.01": 5126,
      "ic_group.n.01": 5127,
      "icopsida.n.01": 5128,
      "om.v.01": 5129,
      "acit": 5130,
      "round": 5131,
      "ross": 5132,
      "chidae.n.01": 5133,
      "chine": 5134,
      "chase.v.01": 5135,
      "artic": 5136,
      "_plate.n.01": 5137,
      "unt.n.01": 5138,
      "univer": 5139,
      "uniform": 5140,
      "ent_": 5141,
      "_of_the": 5142,
      "deity.n.01": 5143,
      "defe": 5144,
      "usion.n.02": 5145,
      "_ther": 5146,
      "urist.n.01": 5147,
      "aggress": 5148,
      "etric": 5149,
      "izing.n.01": 5150,
      "ize.v.06": 5151,
      "concav": 5152,
      "confront": 5153,
      "adi": 5154,
      "adher": 5155,
      "advers": 5156,
      "adapt": 5157,
      "lo.n.01": 5158,
      "local": 5159,
      "trich": 5160,
      "coct": 5161,
      "sphen": 5162,
      "sharp": 5163,
      "shadow": 5164,
      "so.n.01": 5165,
      "iped": 5166,
      "exempl": 5167,
      "ast.v.02": 5168,
      "angle.n.01": 5169,
      "angle.v.01": 5170,
      "ak.n.02": 5171,
      "discar": 5172,
      "branch.n.01": 5173,
      "drug.n.01": 5174,
      "away.v.01": 5175,
      "allot": 5176,
      "cardi": 5177,
      "neu": 5178,
      "neural_": 5179,
      "fluct": 5180,
      "are.v.03": 5181,
      "_city.n.01": 5182,
      "mention.v.01": 5183,
      "corrupt.v.01": 5184,
      "contact": 5185,
      "subsid": 5186,
      "military_unit.n.01": 5187,
      "row.n.01": 5188,
      "smash": 5189,
      "rosaceae.n.01": 5190,
      "ung.n.01": 5191,
      "tresp": 5192,
      "buil": 5193,
      "encephal": 5194,
      "invol": 5195,
      "romagn": 5196,
      "divide.v.01": 5197,
      "distort": 5198,
      "motion.n.06": 5199,
      "vision.n.01": 5200,
      "_up.v.04": 5201,
      "writing.n.02": 5202,
      "ularia.n.01": 5203,
      "regul": 5204,
      "merg": 5205,
      "electromagn": 5206,
      "general": 5207,
      "rhod": 5208,
      "sorcer": 5209,
      "warbler.n.01": 5210,
      "fungus.n.01": 5211,
      "logy.n.01": 5212,
      "tongu": 5213,
      "uch.v.01": 5214,
      "selfish": 5215,
      "magnet": 5216,
      "cavity.n.04": 5217,
      "locate.v.02": 5218,
      "homo.n.02": 5219,
      "omataceae.n.01": 5220,
      "provide.v.02": 5221,
      "melod": 5222,
      "type": 5223,
      "egg": 5224,
      "panel": 5225,
      "aspir": 5226,
      "photograph.n.01": 5227,
      "scout": 5228,
      "west.n.01": 5229,
      "_down.v.07": 5230,
      "butt": 5231,
      "mail.v.02": 5232,
      "catcher.n.01": 5233,
      "determine.v.02": 5234,
      "examination.n.01": 5235,
      "group_action.n.01": 5236,
      "jewel": 5237,
      "galvan": 5238,
      "film_maker.n.01": 5239,
      "fraction": 5240,
      "anticip": 5241,
      "vertebrata.n.01": 5242,
      "attract.v.01": 5243,
      "attacker.n.01": 5244,
      "gallin": 5245,
      "mechanical_device.n.01": 5246,
      "celest": 5247,
      "substant": 5248,
      "score.v.01": 5249,
      "picture.n.01": 5250,
      "adulter": 5251,
      "request.v.01": 5252,
      "carrier.n.01": 5253,
      "analyze.v.01": 5254,
      "taxonomic_group.n.01": 5255,
      "delegate.v.02": 5256,
      "campaign.n.02": 5257,
      "profession": 5258,
      "orhyn": 5259,
      "measuring_instrument.n.01": 5260,
      "russia": 5261,
      "atlantic.n.01": 5262,
      "individual": 5263,
      "ancial_institution.n.01": 5264,
      "card_game.n.01": 5265,
      "hebrew_alphabet.n.01": 5266,
      "dramaturgy.n.01": 5267,
      "meteor": 5268,
      "_ar": 5269,
      "ai.n.01": 5270,
      "bush": 5271,
      "bug.n.01": 5272,
      "cation.n.01": 5273,
      "coph": 5274,
      "duc": 5275,
      "ecol": 5276,
      "fest": 5277,
      "flog.v.01": 5278,
      "hall": 5279,
      "jab": 5280,
      "junct": 5281,
      "ku": 5282,
      "kill.v.01": 5283,
      "lot": 5284,
      "list.n.01": 5285,
      "ling.n.02": 5286,
      "luck": 5287,
      "light.v.01": 5288,
      "mul": 5289,
      "mant": 5290,
      "nip": 5291,
      "oh": 5292,
      "ococ": 5293,
      "pate": 5294,
      "pay.v.01": 5295,
      "riv": 5296,
      "rif": 5297,
      "uator.n.01": 5298,
      "uch.n.01": 5299,
      "va.n.01": 5300,
      "wip": 5301,
      "warm": 5302,
      "xen": 5303,
      "ycle.n.01": 5304,
      "eri": 5305,
      "ering.n.02": 5306,
      "atin.n.01": 5307,
      "requ": 5308,
      "real.a.01": 5309,
      "recept": 5310,
      "reduce.v.01": 5311,
      "algon": 5312,
      "ate.n.03": 5313,
      "ateness.n.01": 5314,
      "late.v.04": 5315,
      "late.v.05": 5316,
      "ino": 5317,
      "infer": 5318,
      "inclin": 5319,
      "ariaceae.n.01": 5320,
      "styl": 5321,
      "ity.v.01": 5322,
      "om.v.02": 5323,
      "accompl": 5324,
      "idium.n.01": 5325,
      "_pol": 5326,
      "ops.n.01": 5327,
      "opidae.n.01": 5328,
      "_tube.n.01": 5329,
      "approv": 5330,
      "etic.n.01": 5331,
      "_inhibitor.n.01": 5332,
      "imput": 5333,
      "imperson": 5334,
      "consecr": 5335,
      "iran.n.01": 5336,
      "up.n.02": 5337,
      "upset": 5338,
      "cog": 5339,
      "cole": 5340,
      "coil.n.02": 5341,
      "antagon": 5342,
      "plumb": 5343,
      "quad": 5344,
      "explic": 5345,
      "action.n.02": 5346,
      "disper": 5347,
      "brah": 5348,
      "drift": 5349,
      "ed_instrument.n.01": 5350,
      "boost": 5351,
      "unit_of_measurement.n.01": 5352,
      "ack.v.02": 5353,
      "fram": 5354,
      "collar": 5355,
      "flick": 5356,
      "heria.n.01": 5357,
      "_cer": 5358,
      "pede": 5359,
      "ache.n.01": 5360,
      "obst": 5361,
      "corro": 5362,
      "marsup": 5363,
      "man.n.02": 5364,
      "contamin": 5365,
      "food.n.01": 5366,
      "count": 5367,
      "slid": 5368,
      "iction": 5369,
      "gree.n.01": 5370,
      "affl": 5371,
      "swing": 5372,
      "cy.n.03": 5373,
      "guess": 5374,
      "suppl": 5375,
      "genus_st": 5376,
      "ophi": 5377,
      "curren": 5378,
      "playing_": 5379,
      "signific": 5380,
      "ular.a.02": 5381,
      "scrup": 5382,
      "work.v.02": 5383,
      "canada.n.01": 5384,
      "test.v.01": 5385,
      "fiber.n.01": 5386,
      "flower.n.02": 5387,
      "change_integr": 5388,
      "get_down.v.07": 5389,
      "appet": 5390,
      "ank.v.01": 5391,
      "back.n.01": 5392,
      ".v.23": 5393,
      ".v.24": 5394,
      "ancy.n.02": 5395,
      "decim": 5396,
      ".s.03": 5397,
      "digit": 5398,
      "psychological_": 5399,
      "measure.n.02": 5400,
      "radiation.n.01": 5401,
      "restrain": 5402,
      "ness.n.04": 5403,
      "baseball": 5404,
      "placement.n.03": 5405,
      "spectator.n.01": 5406,
      "decoration.n.01": 5407,
      "approval": 5408,
      "football.n.01": 5409,
      "political_": 5410,
      "face.v.01": 5411,
      "laugh": 5412,
      "liliaceous_plant.n.01": 5413,
      "suffer": 5414,
      "suffici": 5415,
      "give.v.18": 5416,
      "dish.n.02": 5417,
      "arouse.v.01": 5418,
      "nutrim": 5419,
      "moroc": 5420,
      "determine.v.01": 5421,
      "bridge": 5422,
      "government.n.02": 5423,
      "philosopher.n.01": 5424,
      "suspens": 5425,
      "atlantic": 5426,
      "machine.n.01": 5427,
      "sphere.n.01": 5428,
      "construct.v.01": 5429,
      "keleton.n.01": 5430,
      "distribute.v.01": 5431,
      "sauria.n.01": 5432,
      "administration.n.01": 5433,
      "record.v.01": 5434,
      "certific": 5435,
      "desert.n.01": 5436,
      "continuance.n.01": 5437,
      "trustworthy.a.01": 5438,
      "alcohol.n.01": 5439,
      "breathe.v.01": 5440,
      "compound.n.02": 5441,
      "burg.n.01": 5442,
      "ireland.n.01": 5443,
      "ireland.n.02": 5444,
      "termination.n.05": 5445,
      "strike.v.01": 5446,
      "_noun_01": 5447,
      "caryophyllaceae.n.01": 5448,
      "nervous_system.n.01": 5449,
      "injure.v.01": 5450,
      "transgress.v.01": 5451,
      "traverse.v.01": 5452,
      "daub": 5453,
      "malvaceae.n.01": 5454,
      "portray": 5455,
      "cactaceae.n.01": 5456,
      "netherlands.n.01": 5457,
      "apocyn": 5458,
      "property.n.02": 5459,
      "caesalpin": 5460,
      "psychiatry.n.01": 5461,
      "sacred_text.n.01": 5462,
      "bifur": 5463,
      "ecolog": 5464,
      "change_integrity.v.01": 5465,
      "nutriment.n.01": 5466,
      "aid.n.01": 5467,
      "bin": 5468,
      "da.n.01": 5469,
      "dab": 5470,
      "do.n.01": 5471,
      "ean": 5472,
      "eur.n.01": 5473,
      "far": 5474,
      "fudge.v.01": 5475,
      "fiction": 5476,
      "gel": 5477,
      "gag": 5478,
      "gaster": 5479,
      "hit.v.02": 5480,
      "iate.v.02": 5481,
      "jump.v.01": 5482,
      "ke.v.01": 5483,
      "lind": 5484,
      "mad": 5485,
      "mug": 5486,
      "morph": 5487,
      "material": 5488,
      "nid": 5489,
      "nus.n.01": 5490,
      "nel.n.01": 5491,
      "narrow": 5492,
      "oil.n.01": 5493,
      "pure": 5494,
      "pand": 5495,
      "paren": 5496,
      "samp": 5497,
      "savor": 5498,
      "ture.n.01": 5499,
      "ua.n.01": 5500,
      "viver": 5501,
      "wine.n.01": 5502,
      "wax": 5503,
      "winn": 5504,
      "waver": 5505,
      "zym": 5506,
      "erb": 5507,
      "ers.n.01": 5508,
      "ericaceae.n.01": 5509,
      "al.v.03": 5510,
      "orus.n.01": 5511,
      "_hol": 5512,
      "_dais": 5513,
      "ate_": 5514,
      "_rever": 5515,
      "incre": 5516,
      "en.n.02": 5517,
      "enum": 5518,
      "arous": 5519,
      "_med": 5520,
      "_material.n.01": 5521,
      "acia.n.01": 5522,
      "chap": 5523,
      "isch": 5524,
      "artist.n.01": 5525,
      "ilus.n.01": 5526,
      "enter.v.01": 5527,
      "depr": 5528,
      "_sur": 5529,
      "otis.n.01": 5530,
      "us.a.01": 5531,
      "_together.v.01": 5532,
      "elt.n.01": 5533,
      "ager": 5534,
      "ag.n.01": 5535,
      "etry.n.01": 5536,
      "impregn": 5537,
      "concoct": 5538,
      "adam": 5539,
      "loos": 5540,
      "ult.v.01": 5541,
      "true": 5542,
      "abst": 5543,
      "shev": 5544,
      "shov": 5545,
      "ace.n.03": 5546,
      "play.n.02": 5547,
      "ogram.n.01": 5548,
      "ish.n.02": 5549,
      "ish.v.04": 5550,
      "clip": 5551,
      "cram": 5552,
      "dissoci": 5553,
      "braid": 5554,
      "_fin": 5555,
      "_fly.n.01": 5556,
      "aw.n.02": 5557,
      "mouth.n.01": 5558,
      "bosc": 5559,
      "end.v.04": 5560,
      "head_": 5561,
      "need": 5562,
      "und.v.02": 5563,
      "mont": 5564,
      "monot": 5565,
      "genus_b": 5566,
      "ugh.n.01": 5567,
      "lower.n.01": 5568,
      "flash": 5569,
      "comprehens": 5570,
      "attest": 5571,
      "attempt.n.01": 5572,
      "mental": 5573,
      "coron": 5574,
      "mar.n.01": 5575,
      "marry.v.01": 5576,
      "ades.n.01": 5577,
      "libr": 5578,
      "diaceae.n.01": 5579,
      "evil": 5580,
      "food_": 5581,
      "count.v.01": 5582,
      "air_travel.n.01": 5583,
      "ise.n.03": 5584,
      "smack": 5585,
      "astern": 5586,
      "ross.n.01": 5587,
      "swind": 5588,
      "swell": 5589,
      "cyc": 5590,
      "partur": 5591,
      "_of_water.n.01": 5592,
      "ophis.n.01": 5593,
      "speci": 5594,
      "sniv": 5595,
      "renov": 5596,
      "rome.n.01": 5597,
      "play.v.01": 5598,
      "player.n.01": 5599,
      "canad": 5600,
      "ontidae.n.01": 5601,
      "anthaceae.n.01": 5602,
      "syll": 5603,
      "ground_": 5604,
      "belie": 5605,
      "umble.v.01": 5606,
      "sched": 5607,
      "log.v.02": 5608,
      ".v.20": 5609,
      "decay": 5610,
      "drive.n.08": 5611,
      "noise.n.01": 5612,
      "catap": 5613,
      "reflect": 5614,
      "steril": 5615,
      "yte.n.02": 5616,
      "cupress": 5617,
      "control.v.01": 5618,
      "omys.n.01": 5619,
      "thinking.n.01": 5620,
      "iousness.n.01": 5621,
      "bulge.n.01": 5622,
      "number.n.01": 5623,
      "summ": 5624,
      "washington": 5625,
      "entert": 5626,
      "bolshev": 5627,
      "voy": 5628,
      "cedar.n.01": 5629,
      "naval_": 5630,
      "body_of_water.n.01": 5631,
      "capture.v.02": 5632,
      "australia.n.01": 5633,
      "wilder": 5634,
      "withhold": 5635,
      "iever.n.01": 5636,
      "judgment": 5637,
      "gambl": 5638,
      "obstruct.v.02": 5639,
      "spot.n.05": 5640,
      "knock.v.06": 5641,
      "claim.v.01": 5642,
      "marsh_plant.n.01": 5643,
      "street": 5644,
      "revolutionist.n.01": 5645,
      "ault.n.01": 5646,
      "mascul": 5647,
      "speculate.v.01": 5648,
      "histor": 5649,
      "_foot": 5650,
      "stimulate.v.04": 5651,
      "crustacean.n.01": 5652,
      "appliance.n.01": 5653,
      "annoy.v.01": 5654,
      "bible.n.01": 5655,
      "nyct": 5656,
      "lymph": 5657,
      "unpleasant_person.n.01": 5658,
      "plagiar": 5659,
      "elaborate.v.01": 5660,
      "lizard.n.01": 5661,
      "refrig": 5662,
      "genetics.n.01": 5663,
      "enforc": 5664,
      "armor_plate.n.01": 5665,
      "psychoanalysis.n.01": 5666,
      "belgium.n.01": 5667,
      "break_up.v.16": 5668,
      "large_in": 5669,
      "build_up": 5670,
      "pedestr": 5671,
      "-e-": 5672,
      "aus": 5673,
      "auct": 5674,
      "cens": 5675,
      "der.n.02": 5676,
      "eleg": 5677,
      "function.n.01": 5678,
      "french": 5679,
      "ges": 5680,
      "gorg": 5681,
      "hir": 5682,
      "hat.n.01": 5683,
      "ilate.v.02": 5684,
      "ling": 5685,
      "lake.n.01": 5686,
      "mig": 5687,
      "may": 5688,
      "nal_": 5689,
      "name.n.01": 5690,
      "pion": 5691,
      "pist": 5692,
      "padd": 5693,
      "rack": 5694,
      "rho": 5695,
      "ride": 5696,
      "rumin": 5697,
      "sa.n.01": 5698,
      "sif": 5699,
      "sis.n.01": 5700,
      "sust": 5701,
      "science.n.01": 5702,
      "tine": 5703,
      "uation.n.02": 5704,
      "vil": 5705,
      "wing": 5706,
      "wick": 5707,
      "yro": 5708,
      "at.v.03": 5709,
      "one": 5710,
      "onesia.n.01": 5711,
      "rein": 5712,
      "ali": 5713,
      "alus.n.01": 5714,
      "alis.n.01": 5715,
      "alism.n.02": 5716,
      "or.n.04": 5717,
      "persever": 5718,
      "_do": 5719,
      "_dog.n.01": 5720,
      "iver.v.01": 5721,
      "ivers": 5722,
      "inity.n.01": 5723,
      "incl": 5724,
      "instruct": 5725,
      "inactiv": 5726,
      "injury.n.01": 5727,
      "envir": 5728,
      "endron.n.01": 5729,
      "st.n.01": 5730,
      "ic_f": 5731,
      "embo": 5732,
      "itude": 5733,
      "oming.n.01": 5734,
      "sept": 5735,
      "sel.n.01": 5736,
      "acin": 5737,
      "acaceae.n.01": 5738,
      "asmo": 5739,
      "asis.n.01": 5740,
      "roar": 5741,
      "idine.n.01": 5742,
      "artill": 5743,
      "ces.n.01": 5744,
      "_par": 5745,
      "_post": 5746,
      "opportun": 5747,
      ".a.06": 5748,
      "deliber": 5749,
      "deceler": 5750,
      "_sl": 5751,
      "_scho": 5752,
      "eli": 5753,
      "elae": 5754,
      "elasmo": 5755,
      "apologize.v.02": 5756,
      "iza.n.01": 5757,
      "yne.n.01": 5758,
      "_income.n.01": 5759,
      "implic": 5760,
      "consp": 5761,
      "adhes": 5762,
      "lox": 5763,
      "verse.v.01": 5764,
      "iran": 5765,
      "iris.n.01": 5766,
      "coat": 5767,
      "coal": 5768,
      "abhor": 5769,
      "territ": 5770,
      "shore": 5771,
      "sout": 5772,
      "place.n.01": 5773,
      "thir": 5774,
      "explan": 5775,
      "procr": 5776,
      "programm": 5777,
      "_gl": 5778,
      "ocer": 5779,
      "est.n.02": 5780,
      "cris": 5781,
      "cricet": 5782,
      "dispens": 5783,
      "disintegr": 5784,
      "brain": 5785,
      "bration.n.01": 5786,
      "brace": 5787,
      "brate.v.01": 5788,
      "drag": 5789,
      "_flo": 5790,
      "_from": 5791,
      "moon": 5792,
      "carbon.n.01": 5793,
      "ibility.n.02": 5794,
      "end.n.02": 5795,
      "commut": 5796,
      "scap": 5797,
      "scale": 5798,
      "scroph": 5799,
      "ath.n.02": 5800,
      "fruit.n.01": 5801,
      "mongol": 5802,
      "hous": 5803,
      "geology.n.01": 5804,
      "compar": 5805,
      "wear": 5806,
      "weather.n.01": 5807,
      "pret": 5808,
      "ail.n.02": 5809,
      "bird": 5810,
      "positiv": 5811,
      "cape_": 5812,
      "toed_": 5813,
      "ink.n.02": 5814,
      "leguminos": 5815,
      "ighten.v.01": 5816,
      "charge.v.02": 5817,
      "keeper.n.01": 5818,
      "azep": 5819,
      "unge.v.01": 5820,
      "whiner.n.01": 5821,
      "polemon": 5822,
      "cycle": 5823,
      "amerind.n.01": 5824,
      "guard": 5825,
      "atorship.n.01": 5826,
      "buy.v.01": 5827,
      "snow": 5828,
      "ing_arts.n.01": 5829,
      "barr": 5830,
      "invig": 5831,
      "autom": 5832,
      "mott": 5833,
      "new_test": 5834,
      "equili": 5835,
      "tractable.a.01": 5836,
      "valid": 5837,
      "biologist.n.01": 5838,
      "ficult": 5839,
      "break.v.4": 5840,
      "change_of": 5841,
      "electro": 5842,
      "oxic": 5843,
      "aeidae.n.01": 5844,
      "engag": 5845,
      "echanism.n.01": 5846,
      "ception.n.02": 5847,
      "notation.n.01": 5848,
      "uck.v.01": 5849,
      "philip": 5850,
      "turk": 5851,
      "utterance.n.01": 5852,
      "prompt": 5853,
      "melan": 5854,
      "handic": 5855,
      "advance": 5856,
      "_capacit": 5857,
      "support.n.10": 5858,
      "potat": 5859,
      "potent": 5860,
      "place.v.01": 5861,
      "difficult": 5862,
      "gence.n.03": 5863,
      "approb": 5864,
      "cleaning.n.01": 5865,
      "meet.v.07": 5866,
      "laun": 5867,
      "laure": 5868,
      "argument": 5869,
      "consume.v.02": 5870,
      "laborer.n.01": 5871,
      "performing_arts.n.01": 5872,
      "ulsion.n.03": 5873,
      "study": 5874,
      ".v.33": 5875,
      "association.n.01": 5876,
      "_monetary_unit.n.01": 5877,
      "arabian": 5878,
      "emony.n.01": 5879,
      "acquir": 5880,
      "gradation.n.01": 5881,
      "number.n.02": 5882,
      "osaur.n.01": 5883,
      "osauria.n.01": 5884,
      "feed.v.01": 5885,
      "adjust.v.01": 5886,
      "show.v.01": 5887,
      "increase.v.02": 5888,
      "quarters.n.01": 5889,
      "inflammation.n.01": 5890,
      "birth.v.01": 5891,
      "ocean.n.01": 5892,
      "repeat.v.01": 5893,
      "deviate.v.02": 5894,
      "constitution.n.02": 5895,
      "announc": 5896,
      "_tranquilizer.n.01": 5897,
      "satisf": 5898,
      "dryopter": 5899,
      "give_voice.v.01": 5900,
      "give_birth.v.01": 5901,
      "unciation.n.01": 5902,
      "_guard.n.01": 5903,
      "navigation.n.01": 5904,
      "idolize.v.01": 5905,
      "grind.v.05": 5906,
      "furniture.n.01": 5907,
      "female_": 5908,
      "distinguish.v.01": 5909,
      "judaism.n.02": 5910,
      "clasp.n.02": 5911,
      "pharmac": 5912,
      "anesthetic.n.01": 5913,
      "quarrel.v.01": 5914,
      "ognath": 5915,
      "exhilar": 5916,
      "combatant.n.01": 5917,
      "inhabitant.n.01": 5918,
      "segment": 5919,
      "craftsman.n.03": 5920,
      "neural_structure.n.01": 5921,
      "environ": 5922,
      "procrast": 5923,
      "cricetidae.n.01": 5924,
      "leguminosae.n.01": 5925,
      "new_testament.n.01": 5926,
      "_capacity_unit.n.01": 5927,
      "_away.v.01": 5928,
      "ault": 5929,
      "bart": 5930,
      "bes": 5931,
      "ble.v.02": 5932,
      "cac": 5933,
      "camer": 5934,
      "dim": 5935,
      "eph": 5936,
      "ek.n.01": 5937,
      "eastern": 5938,
      "gan": 5939,
      "hast": 5940,
      "hiss": 5941,
      "jac": 5942,
      "ken": 5943,
      "lord": 5944,
      "lake": 5945,
      "land_": 5946,
      "lake_": 5947,
      "membr": 5948,
      "oa.n.01": 5949,
      "ozo": 5950,
      "p.v.02": 5951,
      "pas": 5952,
      "pain.n.01": 5953,
      "pile.n.01": 5954,
      "siz": 5955,
      "say": 5956,
      "sense.n.01": 5957,
      "ted_": 5958,
      "vel.n.01": 5959,
      "wre": 5960,
      "wid": 5961,
      "yer.n.02": 5962,
      "erland.n.01": 5963,
      "erve.v.04": 5964,
      "on_": 5965,
      "on.n.04": 5966,
      "reput": 5967,
      "recess": 5968,
      "ala.n.01": 5969,
      "alab": 5970,
      "ors": 5971,
      "or.v.02": 5972,
      "ora.n.01": 5973,
      "perceive.v.01": 5974,
      "perplex": 5975,
      "forfe": 5976,
      "en.v.07": 5977,
      "eniaceae.n.01": 5978,
      "arus.n.01": 5979,
      "stig": 5980,
      "stew": 5981,
      "stick.n.01": 5982,
      "_material": 5983,
      "ema.n.01": 5984,
      "itation.n.03": 5985,
      "omer.n.01": 5986,
      "ascomy": 5987,
      "chancell": 5988,
      "iscus.n.01": 5989,
      "_pep": 5990,
      "entic": 5991,
      "_of_in": 5992,
      "delet": 5993,
      "devis": 5994,
      "urbit": 5995,
      "apist.n.01": 5996,
      "aga.n.01": 5997,
      "utt": 5998,
      "umor.n.01": 5999,
      "admon": 6000,
      "train.v.01": 6001,
      "ver.n.02": 6002,
      "verage.n.01": 6003,
      "ir.n.02": 6004,
      "ird.n.01": 6005,
      "coel": 6006,
      "coat.n.01": 6007,
      "come_": 6008,
      "abird.n.01": 6009,
      "spread.n.01": 6010,
      "ifug": 6011,
      "quick": 6012,
      "exchange": 6013,
      "exhal": 6014,
      "ang.v.01": 6015,
      "actus.n.01": 6016,
      "_gas.n.01": 6017,
      "ed.v.01": 6018,
      "aver.n.01": 6019,
      "al_anti-inflammatory.n.01": 6020,
      "discrim": 6021,
      "discontinue.v.01": 6022,
      "see.v.10": 6023,
      "brain.n.01": 6024,
      "awk": 6025,
      "aw_material": 6026,
      "carry.n.01": 6027,
      "cardin": 6028,
      "ible.n.01": 6029,
      "endro": 6030,
      "scol": 6031,
      "scatter.n.01": 6032,
      "frame": 6033,
      "monkey.n.01": 6034,
      "lower_": 6035,
      "flap": 6036,
      "compart": 6037,
      "correl": 6038,
      "paris.n.01": 6039,
      "pardon": 6040,
      "male_": 6041,
      "even": 6042,
      "event.n.01": 6043,
      "evapor": 6044,
      "position.n.04": 6045,
      "relation": 6046,
      "sublim": 6047,
      "ax.n.02": 6048,
      "ical_m": 6049,
      "out.v.01": 6050,
      "output": 6051,
      "hormone.n.01": 6052,
      "ight.v.02": 6053,
      "aft.v.01": 6054,
      "switz": 6055,
      "cycle.n.01": 6056,
      "sales": 6057,
      "salix.n.01": 6058,
      "muslim": 6059,
      "part.n.01": 6060,
      "ile.n.02": 6061,
      "skin.n.01": 6062,
      "survey": 6063,
      "harvest": 6064,
      "alkal": 6065,
      "diver": 6066,
      "trade.v.01": 6067,
      "region.n.01": 6068,
      "class.n.03": 6069,
      "aurus.n.01": 6070,
      "frequ": 6071,
      "demand": 6072,
      "pier": 6073,
      "water_": 6074,
      "owner.n.01": 6075,
      "square": 6076,
      "retire": 6077,
      "theor": 6078,
      "bellow.n.01": 6079,
      "schiz": 6080,
      "insem": 6081,
      "haer": 6082,
      "dress.v.01": 6083,
      "humili": 6084,
      "copulate.v.01": 6085,
      "postpon": 6086,
      "homogen": 6087,
      "combust": 6088,
      "rotation.n.01": 6089,
      "deterior": 6090,
      "circuit.n.01": 6091,
      "aska.n.01": 6092,
      "accipit": 6093,
      "summar": 6094,
      "organize.v.04": 6095,
      "_off.v.03": 6096,
      "fall.n.01": 6097,
      "nonsteroid": 6098,
      "_down.v.02": 6099,
      "_raw_material": 6100,
      "transportation.n.02": 6101,
      "american_foot": 6102,
      "academy.n.01": 6103,
      "touch.v.01": 6104,
      "express.v.02": 6105,
      "priest.n.01": 6106,
      "sell.v.01": 6107,
      "arab_league.n.01": 6108,
      "punch.n.01": 6109,
      "originate.v.02": 6110,
      "ible.a.02": 6111,
      "cognition.n.01": 6112,
      "leave": 6113,
      "possess": 6114,
      "milk": 6115,
      "respect.v.01": 6116,
      "jerse": 6117,
      "desire": 6118,
      "amphibian_family.n.01": 6119,
      "energy.n.01": 6120,
      "descend.v.01": 6121,
      "administration.n.02": 6122,
      "adult.n.01": 6123,
      "oderm": 6124,
      "destroy.v.02": 6125,
      "bid.v.01": 6126,
      "fix.v.12": 6127,
      "joke.n.01": 6128,
      "insert.v.02": 6129,
      "_defect.n.01": 6130,
      "lady": 6131,
      "ocean": 6132,
      "throw.v.01": 6133,
      "cerebr": 6134,
      "eutheria.n.01": 6135,
      "lepidoptera.n.01": 6136,
      "pige": 6137,
      "hypnot": 6138,
      "submers": 6139,
      "motivate.v.01": 6140,
      "cucurbit": 6141,
      "annoy": 6142,
      "attendant.n.01": 6143,
      "appearance.n.01": 6144,
      "litig": 6145,
      "destruction.n.02": 6146,
      "pacific.n.01": 6147,
      "athlete.n.01": 6148,
      "colubridae.n.01": 6149,
      "carolina.n.01": 6150,
      "fringillidae.n.01": 6151,
      "barricade.v.01": 6152,
      "respiratory": 6153,
      "legume.n.01": 6154,
      "christianity.n.01": 6155,
      "czech": 6156,
      "maxim": 6157,
      "liquid_body_substance.n.01": 6158,
      "relegate.v.04": 6159,
      "coerce.v.01": 6160,
      "parietales.n.01": 6161,
      "snip.v.02": 6162,
      "bodily_process.n.01": 6163,
      "predict.v.01": 6164,
      "straight": 6165,
      "software.n.01": 6166,
      "attribut": 6167,
      "chinese": 6168,
      "adversary.n.01": 6169,
      "apocynaceae.n.01": 6170,
      "_from_raw_material": 6171,
      "switzerland.n.01": 6172,
      "nonsteroidal_anti-inflammatory.n.01": 6173,
      "american_football.n.01": 6174,
      "-in.n.01": 6175,
      "-toed_": 6176,
      "_cell.n.01": 6177,
      "aper.n.01": 6178,
      "b.n.02": 6179,
      "bass": 6180,
      "bug": 6181,
      "bad_": 6182,
      "bapt": 6183,
      "cuit.n.01": 6184,
      "dat": 6185,
      "dar": 6186,
      "dun": 6187,
      "dall": 6188,
      "dow": 6189,
      "eag": 6190,
      "east.n.01": 6191,
      "fro": 6192,
      "fus": 6193,
      "fum": 6194,
      "hush": 6195,
      "hit.v.01": 6196,
      "korea.n.01": 6197,
      "lun": 6198,
      "liness.n.01": 6199,
      "nes": 6200,
      "nidae.n.01": 6201,
      "night": 6202,
      "null": 6203,
      "obe": 6204,
      "oid_": 6205,
      "plate": 6206,
      "pine.n.01": 6207,
      "pack.v.01": 6208,
      "push.v.01": 6209,
      "rut": 6210,
      "rul": 6211,
      "sad": 6212,
      "trope.n.01": 6213,
      "tobac": 6214,
      "uber": 6215,
      "varn": 6216,
      "wy": 6217,
      "wag": 6218,
      "wrap": 6219,
      "wit.n.01": 6220,
      "wren": 6221,
      "aty_": 6222,
      "ative_": 6223,
      "recomm": 6224,
      "rejo": 6225,
      "alarm": 6226,
      "ion.n.12": 6227,
      "per.n.04": 6228,
      "perme": 6229,
      "percuss": 6230,
      "ation.v.01": 6231,
      "ly.v.02": 6232,
      "lyco": 6233,
      "force.n.01": 6234,
      "institut": 6235,
      "independ": 6236,
      "anx": 6237,
      "env": 6238,
      "enium.n.01": 6239,
      "engrav": 6240,
      "aryn": 6241,
      "arian": 6242,
      "icter": 6243,
      "ic_point.n.01": 6244,
      "seaf": 6245,
      "acid": 6246,
      "role": 6247,
      "road.n.01": 6248,
      "idler.n.01": 6249,
      "cede.v.01": 6250,
      "ing_system.n.01": 6251,
      "ing_point.n.01": 6252,
      "am.n.04": 6253,
      "amin.n.01": 6254,
      "ential": 6255,
      "_of_t": 6256,
      "_of_b": 6257,
      "oliaceae.n.01": 6258,
      "_spe": 6259,
      "otaceae.n.01": 6260,
      "aggreg": 6261,
      "aggrav": 6262,
      "ance.n.05": 6263,
      "immer": 6264,
      "conclude": 6265,
      "adop": 6266,
      "adales.n.01": 6267,
      "adjourn": 6268,
      "ira.n.01": 6269,
      "upper": 6270,
      "code": 6271,
      "antho": 6272,
      "abil": 6273,
      "abort": 6274,
      "terous_insect.n.01": 6275,
      "spar": 6276,
      "shir": 6277,
      "plum": 6278,
      "quiz": 6279,
      "quiet": 6280,
      "th.v.01": 6281,
      "phase": 6282,
      "phyt": 6283,
      "procy": 6284,
      "prohib": 6285,
      "ocidae.n.01": 6286,
      "odactyl": 6287,
      "clup": 6288,
      "crab": 6289,
      "ake.n.02": 6290,
      "strike": 6291,
      "disg": 6292,
      "dissem": 6293,
      "bru": 6294,
      "brut": 6295,
      "bring.v.01": 6296,
      "drunk": 6297,
      "aw.v.01": 6298,
      "mob": 6299,
      "cium.n.01": 6300,
      "carchar": 6301,
      "bean.n.01": 6302,
      "gran": 6303,
      "ive.a.03": 6304,
      "_region.n.01": 6305,
      "monit": 6306,
      "tein.n.01": 6307,
      "compon": 6308,
      "_civil": 6309,
      "fish.n.03": 6310,
      "inea.n.01": 6311,
      "_bay.n.01": 6312,
      "parod": 6313,
      "male": 6314,
      "lik": 6315,
      "foil.n.01": 6316,
      "yst.n.01": 6317,
      "army_": 6318,
      "caprim": 6319,
      "row.v.01": 6320,
      "aze.v.01": 6321,
      "azine.n.01": 6322,
      "ungulate.n.01": 6323,
      "treas": 6324,
      "muscle": 6325,
      "_of_entry.n.01": 6326,
      "cere.a.01": 6327,
      "speed": 6328,
      "center.n.01": 6329,
      "port_of_entry.n.01": 6330,
      "ing_room.n.01": 6331,
      "sket": 6332,
      "curt": 6333,
      "curv": 6334,
      "surpass": 6335,
      "invent.v.01": 6336,
      "medical": 6337,
      "dive.v.01": 6338,
      "auth": 6339,
      "scrip": 6340,
      "scrub": 6341,
      "_treaty_": 6342,
      "value.v.01": 6343,
      "break.v.02": 6344,
      "breakable.a.01": 6345,
      "ulture.n.01": 6346,
      "croch": 6347,
      "crocod": 6348,
      "ride.v.02": 6349,
      "ridge": 6350,
      "umble.v.02": 6351,
      "physiology.n.01": 6352,
      "purify.v.01": 6353,
      "ryso": 6354,
      "roll_up.v.02": 6355,
      "balance.v.01": 6356,
      "service": 6357,
      "ainty.n.01": 6358,
      "permit.v.01": 6359,
      "pinch": 6360,
      "world": 6361,
      "sled.v.01": 6362,
      "libert": 6363,
      "advance.v.01": 6364,
      "tape": 6365,
      "gyman.n.01": 6366,
      "papaver": 6367,
      "zoology.n.02": 6368,
      "summon": 6369,
      "decoration.n.02": 6370,
      "information.n.01": 6371,
      "shoul": 6372,
      "football": 6373,
      "_tract.n.01": 6374,
      "moder": 6375,
      "ory_fin": 6376,
      "choose.v.01": 6377,
      "performance.n.01": 6378,
      "conveni": 6379,
      "lobe.n.01": 6380,
      "nutrit": 6381,
      "blockage.n.03": 6382,
      "clergyman.n.01": 6383,
      "seller.n.01": 6384,
      "watch.v.03": 6385,
      "government": 6386,
      "jewish": 6387,
      "board.n.02": 6388,
      "suscept": 6389,
      "_health.n.01": 6390,
      "falsify.v.01": 6391,
      "blood_": 6392,
      "motor_vehicle.n.01": 6393,
      "better.v.03": 6394,
      "document.n.01": 6395,
      "north_atlantic": 6396,
      "diversion.n.01": 6397,
      "casu": 6398,
      "gas.n.02": 6399,
      "cool.v.01": 6400,
      "appoint.v.02": 6401,
      "calculation.n.01": 6402,
      "publish.v.02": 6403,
      "promote.v.01": 6404,
      "sentiment": 6405,
      "meaning.n.01": 6406,
      "figur": 6407,
      "dishonor": 6408,
      "combination.n.07": 6409,
      "sculptor.n.01": 6410,
      "zeal": 6411,
      "depository_fin": 6412,
      "fight.n.02": 6413,
      "relief": 6414,
      "install": 6415,
      "alty.n.02": 6416,
      "climb.v.01": 6417,
      "respect.v.02": 6418,
      "confirm.v.01": 6419,
      "phasian": 6420,
      "vitamin.n.01": 6421,
      "proteaceae.n.01": 6422,
      "walk.n.01": 6423,
      "saint_": 6424,
      "thood.n.01": 6425,
      "gastropoda.n.01": 6426,
      "architecture.n.02": 6427,
      "nuclear": 6428,
      "completion.n.02": 6429,
      "change_of_state.n.01": 6430,
      "assemb": 6431,
      "assemble.v.01": 6432,
      "expert.n.01": 6433,
      "slope.v.01": 6434,
      "people.n.01": 6435,
      "wrongdoing.n.02": 6436,
      "chatter.v.04": 6437,
      "payment.n.02": 6438,
      "giant": 6439,
      "reduce": 6440,
      "enclose.v.03": 6441,
      "like.a.01": 6442,
      "solvent.n.01": 6443,
      "negligence.n.01": 6444,
      "challeng": 6445,
      "length": 6446,
      "sylvania.n.01": 6447,
      "russia.n.04": 6448,
      "appetiz": 6449,
      "approval.n.04": 6450,
      "sample.v.01": 6451,
      "cupressaceae.n.01": 6452,
      "pedestrian.n.01": 6453,
      "_school.n.01": 6454,
      "territor": 6455,
      "philippin": 6456,
      "membran": 6457,
      "hush.v.02": 6458,
      "seafaring.n.01": 6459,
      "caprimulg": 6460,
      "surpass.v.02": 6461,
      "_treaty_organization.n.01": 6462,
      "north_atlantic_treaty_organization.n.01": 6463,
      "depository_financial_institution.n.01": 6464,
      "_un": 6465,
      "_br": 6466,
      "aiss": 6467,
      "cof": 6468,
      "cudd": 6469,
      "dick": 6470,
      "dendro": 6471,
      "east": 6472,
      "ego": 6473,
      "fos": 6474,
      "gly": 6475,
      "glo": 6476,
      "gob": 6477,
      "gyr": 6478,
      "hus": 6479,
      "ique.n.01": 6480,
      "jaw.n.01": 6481,
      "kar": 6482,
      "lum": 6483,
      "ligh": 6484,
      "line.n.02": 6485,
      "mine.n.01": 6486,
      "matur": 6487,
      "mah": 6488,
      "nar": 6489,
      "nast": 6490,
      "o.n.03": 6491,
      "pav": 6492,
      "pinn": 6493,
      "psitt": 6494,
      "ration.n.02": 6495,
      "ruff": 6496,
      "sud": 6497,
      "sme": 6498,
      "saud": 6499,
      "tall": 6500,
      "text": 6501,
      "wart": 6502,
      "ware": 6503,
      "y.n.06": 6504,
      "erect": 6505,
      "atization.n.01": 6506,
      "redem": 6507,
      "rede.v.02": 6508,
      "align": 6509,
      "orc": 6510,
      "orific": 6511,
      "_hand": 6512,
      "ionary.n.02": 6513,
      "perman": 6514,
      "nymph": 6515,
      "ated_": 6516,
      "forbid.v.01": 6517,
      "form.v.01": 6518,
      "inet": 6519,
      "inist.n.01": 6520,
      "inconst": 6521,
      "inaugur": 6522,
      "ariz": 6523,
      "arbit": 6524,
      "sto": 6525,
      "sten": 6526,
      "stay": 6527,
      "stret": 6528,
      "_moth.n.01": 6529,
      "ic.n.03": 6530,
      "icus.n.01": 6531,
      "icel": 6532,
      "emper": 6533,
      "embro": 6534,
      "it.a.01": 6535,
      "accur": 6536,
      "les": 6537,
      "leap": 6538,
      "leuk": 6539,
      "chase": 6540,
      "ing_bird.n.01": 6541,
      "il.v.01": 6542,
      "entang": 6543,
      "ent.a.02": 6544,
      "_of.v.01": 6545,
      "olig": 6546,
      "olfact": 6547,
      "devalu": 6548,
      "adopt": 6549,
      "ul.a.01": 6550,
      "trag": 6551,
      "coward": 6552,
      "escal": 6553,
      "ant.n.03": 6554,
      "aba.n.01": 6555,
      "ter.n.04": 6556,
      "pose.n.01": 6557,
      "sphaer": 6558,
      "sh.n.01": 6559,
      "plun": 6560,
      "que.v.01": 6561,
      "expos": 6562,
      "anger.v.01": 6563,
      "procedure.n.01": 6564,
      "ocation.n.02": 6565,
      "edit": 6566,
      "odor": 6567,
      "odendron.n.01": 6568,
      "al_artery.n.01": 6569,
      "strugg": 6570,
      "disgu": 6571,
      "display": 6572,
      "e_up.v.01": 6573,
      "drive.v.01": 6574,
      "assur": 6575,
      "moist": 6576,
      "card.n.01": 6577,
      "acker": 6578,
      "gru": 6579,
      "grand": 6580,
      "colleg": 6581,
      "ption.n.02": 6582,
      "ption.n.03": 6583,
      "flatter": 6584,
      "geor": 6585,
      "tear": 6586,
      "ell.n.01": 6587,
      "change.v.03": 6588,
      "weight.n.01": 6589,
      "ine.v.05": 6590,
      "intoxic": 6591,
      "_back.v.01": 6592,
      "ility.n.03": 6593,
      "corpor": 6594,
      "preoccup": 6595,
      "paral": 6596,
      "adel": 6597,
      "dise": 6598,
      "evangel": 6599,
      "serran": 6600,
      "interact.v.01": 6601,
      "foul": 6602,
      "relative.n.01": 6603,
      "tooth": 6604,
      "organize.v.02": 6605,
      "organic_": 6606,
      "cule.n.01": 6607,
      "calend": 6608,
      "ulate.v.03": 6609,
      "ification.n.04": 6610,
      "legal": 6611,
      "horse.n.01": 6612,
      "sal.v.01": 6613,
      "salut": 6614,
      "superi": 6615,
      "lettu": 6616,
      "chely": 6617,
      "supplant.v.01": 6618,
      "community.n.01": 6619,
      "sniff": 6620,
      "bargain": 6621,
      "surf": 6622,
      "roman_": 6623,
      "harass.v.01": 6624,
      "covering.n.02": 6625,
      "goat": 6626,
      "affect.v.01": 6627,
      "rise.v.01": 6628,
      "plead": 6629,
      "ostent": 6630,
      "finan": 6631,
      "fiber": 6632,
      "demol": 6633,
      "demean": 6634,
      "flower": 6635,
      "flow.n.01": 6636,
      "watercolor": 6637,
      "fulness.n.02": 6638,
      "movement.n.03": 6639,
      "circular": 6640,
      "engage": 6641,
      "norther": 6642,
      "theatric": 6643,
      "filicopsida.n.01": 6644,
      "ridicu": 6645,
      "undert": 6646,
      "course": 6647,
      "notice.n.02": 6648,
      "limit.v.02": 6649,
      "lock.n.01": 6650,
      "balaen": 6651,
      "honest.a.01": 6652,
      "ranales.n.01": 6653,
      "nose": 6654,
      "turt": 6655,
      "homo": 6656,
      "symmet": 6657,
      "eye": 6658,
      "rock.n.01": 6659,
      "larcen": 6660,
      "effici": 6661,
      "aver.n.02": 6662,
      "continue": 6663,
      "sing.v.02": 6664,
      "organize.v.05": 6665,
      "gence.n.02": 6666,
      "shoot.v.01": 6667,
      "s_and_": 6668,
      "saturn": 6669,
      "ory_property.n.01": 6670,
      "west_": 6671,
      "process.n.06": 6672,
      "model.v.01": 6673,
      "consumm": 6674,
      "consume.v.05": 6675,
      "labor.v.02": 6676,
      "female": 6677,
      "basidi": 6678,
      "hemip": 6679,
      "feel.v.03": 6680,
      "pacify.v.01": 6681,
      "alea.n.01": 6682,
      "touch.n.05": 6683,
      "touch.v.05": 6684,
      "depict": 6685,
      "sleep.v.01": 6686,
      "dogmat": 6687,
      "sheet": 6688,
      "pitcher.n.01": 6689,
      "crucifer.n.01": 6690,
      "vespert": 6691,
      "reason.v.01": 6692,
      "change_by": 6693,
      "ycle.v.01": 6694,
      "account.v.02": 6695,
      "hair.n.01": 6696,
      "discovery.n.01": 6697,
      "company.n.01": 6698,
      "desire.v.01": 6699,
      "drink.v.01": 6700,
      "beginning.n.02": 6701,
      "sensual": 6702,
      "estimate.n.01": 6703,
      "architect.n.01": 6704,
      "iotic.n.01": 6705,
      "increase.n.05": 6706,
      "unwhole": 6707,
      "substance": 6708,
      "substance.n.01": 6709,
      "spiritual": 6710,
      "crown": 6711,
      "chamae": 6712,
      "odermat": 6713,
      "specialist.n.02": 6714,
      "destroyer.n.02": 6715,
      "birth_defect.n.01": 6716,
      "joining.n.01": 6717,
      "flagel": 6718,
      "electronic": 6719,
      "prophet": 6720,
      "social_control.n.01": 6721,
      "thorn.n.01": 6722,
      "piece.n.01": 6723,
      "total.v.02": 6724,
      "separate.v.08": 6725,
      "aristot": 6726,
      "content.n.05": 6727,
      "_good": 6728,
      "hex.v.01": 6729,
      "affirm.v.02": 6730,
      "ichthyes.n.01": 6731,
      "lacrim": 6732,
      "intelligence_": 6733,
      "gamble.v.01": 6734,
      "colubr": 6735,
      "stuff.n.02": 6736,
      "reproductive_": 6737,
      "stroke.n.01": 6738,
      "squeez": 6739,
      "ville.n.01": 6740,
      "program.n.07": 6741,
      "index": 6742,
      "world_war_ii.n.01": 6743,
      "arachn": 6744,
      "antibiotic.n.01": 6745,
      "dart.v.02": 6746,
      "esthesia.n.01": 6747,
      "air_force": 6748,
      "spanish": 6749,
      "breastfeed.v.01": 6750,
      "gather.v.01": 6751,
      "_circuit.n.01": 6752,
      "volume_unit.n.01": 6753,
      "discard.v.01": 6754,
      "_reversal.v.01": 6755,
      "increase.v.01": 6756,
      "dryopteridaceae.n.01": 6757,
      "scolop": 6758,
      "accipitridae.n.01": 6759,
      "fossil": 6760,
      "orifice.n.01": 6761,
      "olfactory_property.n.01": 6762,
      "demeanor.n.01": 6763,
      "northern": 6764,
      "ridicule.v.01": 6765,
      "change_by_reversal.v.01": 6766,
      "unwholesom": 6767,
      "bay.n.01": 6768,
      "caut": 6769,
      "cinn": 6770,
      "dn": 6771,
      "dent": 6772,
      "dump": 6773,
      "e_to.v.01": 6774,
      "faw": 6775,
      "gull": 6776,
      "hack": 6777,
      "hamm": 6778,
      "hit.n.02": 6779,
      "hit.v.03": 6780,
      "ias.n.01": 6781,
      "kne": 6782,
      "kin.n.01": 6783,
      "kick.n.01": 6784,
      "lu": 6785,
      "lon": 6786,
      "lamb": 6787,
      "mir": 6788,
      "naut": 6789,
      "och.v.01": 6790,
      "ose.v.02": 6791,
      "pam": 6792,
      "race.v.02": 6793,
      "s.n.03": 6794,
      "slo": 6795,
      "san_": 6796,
      "sics.n.01": 6797,
      "slog.v.02": 6798,
      "tam": 6799,
      "tus": 6800,
      "tang": 6801,
      "trog": 6802,
      "trot": 6803,
      "vel": 6804,
      "wink": 6805,
      "weld": 6806,
      "yli": 6807,
      "erize.v.01": 6808,
      "atry.n.01": 6809,
      "ond.n.01": 6810,
      "oniaceae.n.01": 6811,
      "reach": 6812,
      "remed": 6813,
      "revol": 6814,
      "rebuff": 6815,
      "al_re": 6816,
      "perceiver.n.01": 6817,
      "_dak": 6818,
      "d_th": 6819,
      "lycop": 6820,
      "_receiver.n.01": 6821,
      "incrim": 6822,
      "infiltr": 6823,
      "en.v.04": 6824,
      "ency.n.03": 6825,
      "ster.n.02": 6826,
      "stomat": 6827,
      "_matter.n.01": 6828,
      "ict.n.01": 6829,
      "icist.n.01": 6830,
      "ich.n.01": 6831,
      "ice.v.04": 6832,
      "eman": 6833,
      "ition.v.01": 6834,
      "itive.a.02": 6835,
      "omon": 6836,
      "oman.n.01": 6837,
      "seat.n.01": 6838,
      "sew.v.01": 6839,
      "rose": 6840,
      "lecan": 6841,
      "chop": 6842,
      "chain": 6843,
      "chann": 6844,
      "iso": 6845,
      "ilia.n.01": 6846,
      "amy.n.01": 6847,
      "amidae.n.01": 6848,
      "entre": 6849,
      "entice.v.01": 6850,
      "deceive.v.01": 6851,
      "othe": 6852,
      "us.n.04": 6853,
      "urge.v.01": 6854,
      "elbow": 6855,
      "uter": 6856,
      "izz": 6857,
      "_indi": 6858,
      "congrat": 6859,
      "congo.n.01": 6860,
      "adaceae.n.01": 6861,
      "adult": 6862,
      "irregular": 6863,
      "coach.n.01": 6864,
      "abit.n.01": 6865,
      "abyte.n.02": 6866,
      "sodom": 6867,
      "sound_": 6868,
      "south.n.01": 6869,
      "think.n.01": 6870,
      "asty.n.01": 6871,
      "aste_to.v.01": 6872,
      "pho": 6873,
      "provis": 6874,
      "acting.n.01": 6875,
      "ocyte.n.01": 6876,
      "ubb": 6877,
      "estro": 6878,
      "odidae.n.01": 6879,
      "odox": 6880,
      "al_bone.n.01": 6881,
      "crack.n.01": 6882,
      "disposition.n.01": 6883,
      "discuss": 6884,
      "illustr": 6885,
      "dribb": 6886,
      "_field.n.01": 6887,
      "awl": 6888,
      "print.n.01": 6889,
      "card": 6890,
      "endow": 6891,
      "endocrine_gland.n.01": 6892,
      "bean": 6893,
      "beef": 6894,
      "beverage.n.01": 6895,
      "blind": 6896,
      "blink": 6897,
      "blue_": 6898,
      "indian.n.01": 6899,
      "frighten.v.01": 6900,
      "cold": 6901,
      "ressing.n.01": 6902,
      "osa.n.01": 6903,
      "worship.n.01": 6904,
      "ug.v.01": 6905,
      "area": 6906,
      "are.v.04": 6907,
      "geological_": 6908,
      "teach.v.01": 6909,
      "_cam": 6910,
      "ellaceae.n.01": 6911,
      "uster.v.01": 6912,
      "ess.n.03": 6913,
      "attach.v.01": 6914,
      "attire.n.01": 6915,
      "attest.v.01": 6916,
      "achieve.v.01": 6917,
      "_by_m": 6918,
      "_belt.n.01": 6919,
      "corre": 6920,
      "coraci": 6921,
      "prepon": 6922,
      "creation.n.01": 6923,
      "creating": 6924,
      "ep.v.01": 6925,
      "bird_": 6926,
      "manage": 6927,
      "manage.v.02": 6928,
      "management.n.01": 6929,
      "evol": 6930,
      "position.n.02": 6931,
      "position.n.03": 6932,
      "food": 6933,
      "forest": 6934,
      "rel.n.02": 6935,
      "subm": 6936,
      "ical_relation.n.01": 6937,
      "ical_doctrine.n.01": 6938,
      "aircraft.n.01": 6939,
      "ulate.v.05": 6940,
      "leg.n.01": 6941,
      "solen": 6942,
      "asterid_dicot_family.n.01": 6943,
      "glor": 6944,
      "vise.v.01": 6945,
      "rose.n.01": 6946,
      "swallow": 6947,
      "_product.n.01": 6948,
      "_program.n.01": 6949,
      "cyt": 6950,
      "salmon": 6951,
      "suit.n.01": 6952,
      "guess.n.01": 6953,
      "yl.n.01": 6954,
      "specul": 6955,
      "buzz": 6956,
      "ement_": 6957,
      "ement.n.04": 6958,
      "joy": 6959,
      "bark.n.01": 6960,
      "surface": 6961,
      "consist": 6962,
      "deline": 6963,
      "_plum.n.01": 6964,
      "islam.n.01": 6965,
      "moth": 6966,
      "ore.v.01": 6967,
      "scrut": 6968,
      "aff.n.01": 6969,
      "cano": 6970,
      "passer": 6971,
      "pass.v.05": 6972,
      "duce.v.02": 6973,
      "regress": 6974,
      "valley.n.01": 6975,
      "opteris.n.01": 6976,
      "travel.n.01": 6977,
      "land.n.02": 6978,
      "retent": 6979,
      "innoc": 6980,
      "ive_style.n.01": 6981,
      "believe.v.01": 6982,
      "ridge.v.01": 6983,
      "cast.n.03": 6984,
      "brood": 6985,
      "judge.n.01": 6986,
      "fold.n.01": 6987,
      "decision.n.01": 6988,
      "_tool.n.01": 6989,
      "denoun": 6990,
      "_waste_to.v.01": 6991,
      "caressing.n.01": 6992,
      "myx": 6993,
      "utterer.n.01": 6994,
      "extort": 6995,
      "celt": 6996,
      "meliaceae.n.01": 6997,
      "ifera.n.01": 6998,
      "polygon": 6999,
      "controvers": 7000,
      "new_zeal": 7001,
      "cook.v.02": 7002,
      "golf": 7003,
      "golf_": 7004,
      "ask.v.01": 7005,
      "ruin": 7006,
      "ia.n.03": 7007,
      "tax.n.01": 7008,
      "ansas.n.01": 7009,
      "liquor.n.01": 7010,
      "detach": 7011,
      "depart.v.03": 7012,
      "therapy.n.01": 7013,
      "peninsula.n.01": 7014,
      "wrinkle.n.01": 7015,
      "repair.v.01": 7016,
      "collectiv": 7017,
      "ethnic": 7018,
      "meet.v.10": 7019,
      "torso.n.01": 7020,
      "choir": 7021,
      "splash": 7022,
      "similar": 7023,
      "convul": 7024,
      "captain": 7025,
      "student.n.01": 7026,
      "represent.v.09": 7027,
      "expressive_style.n.01": 7028,
      "division_": 7029,
      "sorb.v.01": 7030,
      "branch.v.02": 7031,
      "branchii.n.01": 7032,
      "taile": 7033,
      "quantify.v.02": 7034,
      "system.n.06": 7035,
      "pterid": 7036,
      "bacteria.n.01": 7037,
      "match.v.03": 7038,
      "judgment.n.03": 7039,
      "publication.n.01": 7040,
      "african.n.01": 7041,
      "carto": 7042,
      "robber": 7043,
      "obstruct.v.01": 7044,
      "control.v.02": 7045,
      "myrme": 7046,
      "acquit.v.01": 7047,
      "carry_through.v.01": 7048,
      "south_africa.n.01": 7049,
      "complain.v.01": 7050,
      "magnoliid_dicot_family.n.01": 7051,
      "_theory.n.01": 7052,
      "claim.v.02": 7053,
      "gasify.v.01": 7054,
      "start.n.01": 7055,
      "paint.v.01": 7056,
      "appoint.v.01": 7057,
      "gulf_": 7058,
      "decree.n.01": 7059,
      "lay_waste_to.v.01": 7060,
      "tube.n.02": 7061,
      "withdrawal.n.03": 7062,
      "iform_bird.n.01": 7063,
      "iguanidae.n.01": 7064,
      "weight_unit.n.01": 7065,
      "solution.n.01": 7066,
      "important.a.01": 7067,
      "politics.n.02": 7068,
      "costum": 7069,
      "orthodox": 7070,
      "initiation.n.02": 7071,
      "muj": 7072,
      "digest.v.03": 7073,
      "exterior": 7074,
      "protoctist_family.n.01": 7075,
      "column": 7076,
      "store.n.02": 7077,
      "inventor.n.01": 7078,
      "fault": 7079,
      "blemish.n.01": 7080,
      "chew_over.v.01": 7081,
      "witness": 7082,
      "remember.v.01": 7083,
      "mustelidae.n.01": 7084,
      "diplom": 7085,
      "defame.v.01": 7086,
      "palatable.a.01": 7087,
      "duplicate.v.01": 7088,
      "border.v.05": 7089,
      "steamroll": 7090,
      "sicum.n.01": 7091,
      "apprehens": 7092,
      "hand_tool.n.01": 7093,
      "welsh": 7094,
      "council.n.01": 7095,
      "bacteria_family.n.01": 7096,
      "basketball": 7097,
      "siphon": 7098,
      "cause.v.01": 7099,
      "himalay": 7100,
      "chemical_process.n.01": 7101,
      "metric_weight_unit.n.01": 7102,
      "scallop": 7103,
      "genitalia.n.01": 7104,
      "necessitate.v.01": 7105,
      "commonwealth": 7106,
      "soft-finned_fish.n.01": 7107,
      "zodiac.n.01": 7108,
      "scotland.n.01": 7109,
      "particip": 7110,
      "electronic_equipment.n.01": 7111,
      "skeletal_muscle.n.01": 7112,
      "archaism.n.01": 7113,
      "adhere.v.06": 7114,
      "celestial": 7115,
      "algonqu": 7116,
      "accomplishment.n.01": 7117,
      "impute.v.01": 7118,
      "coleoptera.n.01": 7119,
      "playing_period.n.01": 7120,
      "psychological_state.n.01": 7121,
      "catapult": 7122,
      "wicked.a.01": 7123,
      "iversity.n.01": 7124,
      "elasmobranchii.n.01": 7125,
      "scrophulariaceae.n.01": 7126,
      "perplex.v.01": 7127,
      "stigmat": 7128,
      "devising.n.01": 7129,
      "dunk.v.01": 7130,
      "papaveraceae.n.01": 7131,
      "disease.n.01": 7132,
      "_dakota.n.01": 7133,
      "geological_formation.n.01": 7134,
      "_by_mental_": 7135,
      "preponder": 7136,
      "_a": 7137,
      "_rap": 7138,
      "_enforc": 7139,
      "a.n.04": 7140,
      "bak": 7141,
      "bol.n.01": 7142,
      "clow": 7143,
      "cress.n.01": 7144,
      "dit": 7145,
      "dod": 7146,
      "daz": 7147,
      "dler": 7148,
      "e_to": 7149,
      "fag": 7150,
      "fatt": 7151,
      "gib": 7152,
      "gle.v.01": 7153,
      "gment.n.03": 7154,
      "hun": 7155,
      "ient.n.01": 7156,
      "iation.n.02": 7157,
      "ior.n.01": 7158,
      "ile.v.01": 7159,
      "junction.n.01": 7160,
      "ky": 7161,
      "l.v.02": 7162,
      "loph": 7163,
      "mer.n.01": 7164,
      "make_": 7165,
      "nt": 7166,
      "ne.n.01": 7167,
      "nate.v.01": 7168,
      "nai": 7169,
      "oyst": 7170,
      "pis": 7171,
      "pect": 7172,
      "pine": 7173,
      "pair": 7174,
      "ple.v.02": 7175,
      "race.n.01": 7176,
      "sort": 7177,
      "somat": 7178,
      "song.n.01": 7179,
      "tid": 7180,
      "tup": 7181,
      "togg": 7182,
      "uf": 7183,
      "uz": 7184,
      "vag": 7185,
      "vacc": 7186,
      "wise": 7187,
      "yee.n.01": 7188,
      "erase": 7189,
      "error": 7190,
      "eryth": 7191,
      "ons": 7192,
      "ony": 7193,
      "onaceae.n.01": 7194,
      "onist.n.01": 7195,
      "onic.a.01": 7196,
      "onder": 7197,
      "react": 7198,
      "recomp": 7199,
      "allo": 7200,
      "alidae.n.01": 7201,
      "orb": 7202,
      "orator.n.01": 7203,
      "perce": 7204,
      "ation.n.08": 7205,
      "atell": 7206,
      "iva.n.01": 7207,
      "ive.n.02": 7208,
      "ivore.n.01": 7209,
      "_record.n.01": 7210,
      "antr": 7211,
      "ank.n.01": 7212,
      "anatidae.n.01": 7213,
      "arane": 7214,
      "st.v.01": 7215,
      "stage": 7216,
      "stage.n.01": 7217,
      "stalk": 7218,
      "stop.n.01": 7219,
      "stool": 7220,
      "ity_": 7221,
      "omel": 7222,
      "omination.n.01": 7223,
      "acle.n.01": 7224,
      "_member.n.01": 7225,
      "leak": 7226,
      "idiv": 7227,
      "iday.n.01": 7228,
      "chic": 7229,
      "chaf": 7230,
      "eron.n.01": 7231,
      "isomer": 7232,
      "ce.n.03": 7233,
      "unic": 7234,
      "unte": 7235,
      "ing_officer.n.01": 7236,
      "ilagin": 7237,
      "amble.n.01": 7238,
      "aine.n.01": 7239,
      "ainment.n.01": 7240,
      "olidae.n.01": 7241,
      ".a.09": 7242,
      "ded_": 7243,
      "deer.n.01": 7244,
      "descript": 7245,
      "_sol": 7246,
      "_sup": 7247,
      "_sax": 7248,
      "_sport.n.01": 7249,
      "ote.n.01": 7250,
      "usher.n.03": 7251,
      "_test.n.01": 7252,
      "aphy": 7253,
      "apt.v.01": 7254,
      "appreci": 7255,
      "uty.n.01": 7256,
      "conifer": 7257,
      "ader.n.01": 7258,
      "ador.n.01": 7259,
      "adium.n.01": 7260,
      "adole": 7261,
      "loud": 7262,
      "lobul": 7263,
      "istle.n.01": 7264,
      "trick": 7265,
      "upgrade": 7266,
      "antif": 7267,
      "antenn": 7268,
      "antelop": 7269,
      "antille": 7270,
      "antarct": 7271,
      "abyte.n.01": 7272,
      "spend.v.02": 7273,
      "shot": 7274,
      "shav": 7275,
      "soc": 7276,
      "ifi": 7277,
      "quib": 7278,
      "thre": 7279,
      "exuber": 7280,
      "phor": 7281,
      "proceed": 7282,
      "ish.n.03": 7283,
      "ockey.n.01": 7284,
      "edge": 7285,
      "avoid": 7286,
      "odiaceae.n.01": 7287,
      "clap": 7288,
      "clude.v.01": 7289,
      "crick": 7290,
      "ure.n.07": 7291,
      "disk": 7292,
      "discour": 7293,
      "discrimin": 7294,
      "brun": 7295,
      "andra.n.01": 7296,
      "illumin": 7297,
      "assim": 7298,
      "mole": 7299,
      "moss": 7300,
      "bo.n.01": 7301,
      "boo.n.01": 7302,
      "boast.v.01": 7303,
      "printer": 7304,
      "carang": 7305,
      "caramel": 7306,
      "ending.n.04": 7307,
      "heel.n.01": 7308,
      "heast_": 7309,
      "bluff": 7310,
      "ive_district.n.01": 7311,
      "scoff": 7312,
      "frank": 7313,
      "hoe.n.01": 7314,
      "hypost": 7315,
      "genus_al": 7316,
      "genus_f": 7317,
      "lower": 7318,
      "low.v.02": 7319,
      "geon.n.01": 7320,
      "tear.v.01": 7321,
      "weav": 7322,
      "pelecan": 7323,
      "attack.v.01": 7324,
      "intim": 7325,
      "coral": 7326,
      "prem": 7327,
      "predict": 7328,
      "parcel": 7329,
      "diagon": 7330,
      "evas": 7331,
      "contempt": 7332,
      "uca.n.01": 7333,
      "fox": 7334,
      "subscr": 7335,
      "submit": 7336,
      "subordin": 7337,
      "air_": 7338,
      "over.n.02": 7339,
      "overdress.v.02": 7340,
      "feat": 7341,
      "feel.v.01": 7342,
      "feather.n.01": 7343,
      "feign.v.01": 7344,
      "_nav": 7345,
      "presum": 7346,
      "preserv": 7347,
      "ophthal": 7348,
      "snar": 7349,
      "ence.n.04": 7350,
      "rubiaceae.n.01": 7351,
      "barbar": 7352,
      "amp.v.01": 7353,
      "hard_": 7354,
      "id_snake.n.01": 7355,
      "adder.n.01": 7356,
      "address.n.01": 7357,
      "write.v.02": 7358,
      "work.n.02": 7359,
      "pressure.n.01": 7360,
      "volcan": 7361,
      "regulate.v.02": 7362,
      "testis.n.01": 7363,
      "file.v.01": 7364,
      "ake.n.03": 7365,
      "flow.v.01": 7366,
      "draw.v.06": 7367,
      "grok.v.01": 7368,
      "sorrow": 7369,
      "call.n.01": 7370,
      "judge.v.05": 7371,
      "ound_th": 7372,
      "logic.n.01": 7373,
      "roll.n.01": 7374,
      "decide.v.01": 7375,
      "decide.v.02": 7376,
      "plan.v.03": 7377,
      "read.v.01": 7378,
      "noct": 7379,
      "permiss": 7380,
      "promis": 7381,
      "extingu": 7382,
      "ytes.n.01": 7383,
      "inflam": 7384,
      "quest.n.01": 7385,
      "recidiv": 7386,
      "rock.n.07": 7387,
      "eled_vehicle.n.01": 7388,
      "connaiss": 7389,
      "ify.v.06": 7390,
      "egypt": 7391,
      "effect.v.01": 7392,
      "paper.v.01": 7393,
      "negot": 7394,
      "grammat": 7395,
      "accord": 7396,
      "anser.n.01": 7397,
      "beat_ar": 7398,
      "wash.v.03": 7399,
      "_degree.n.01": 7400,
      "explore": 7401,
      "exploitation.n.01": 7402,
      "propulsion.n.02": 7403,
      "nonsense.n.01": 7404,
      "agony.n.02": 7405,
      "footstep.n.03": 7406,
      "bowdler": 7407,
      "_disk.n.01": 7408,
      "net_income.n.01": 7409,
      "burn.v.01": 7410,
      "tell.v.03": 7411,
      "quarters": 7412,
      "facilit": 7413,
      "argent": 7414,
      "give.v.08": 7415,
      "simple": 7416,
      "uroidea.n.01": 7417,
      "perform.v.01": 7418,
      "performer.n.01": 7419,
      "protect.v.01": 7420,
      "around.v.02": 7421,
      "convex": 7422,
      "peddle.v.01": 7423,
      "_beetle.n.01": 7424,
      "system.n.01": 7425,
      "arabia.n.01": 7426,
      "club.n.01": 7427,
      "pteridaceae.n.01": 7428,
      "wheel.n.01": 7429,
      "wheeled_vehicle.n.01": 7430,
      "watch.v.02": 7431,
      "victual": 7432,
      "diptera.n.01": 7433,
      "follow-": 7434,
      "declare.v.01": 7435,
      "search.v.01": 7436,
      "account.n.01": 7437,
      "hope.v.01": 7438,
      "discover.v.03": 7439,
      "authorize.v.01": 7440,
      "gymnosperm_family.n.01": 7441,
      "leave.v.01": 7442,
      "south_america.n.01": 7443,
      "nitro": 7444,
      "contract.v.01": 7445,
      "north_carolina.n.01": 7446,
      "difference.n.01": 7447,
      "typify.v.02": 7448,
      "spread.n.10": 7449,
      "cambod": 7450,
      "painter.n.01": 7451,
      "religious_person.n.01": 7452,
      "economics.n.01": 7453,
      "killing.n.02": 7454,
      "indication.n.01": 7455,
      "indicate.v.02": 7456,
      "specialist.n.01": 7457,
      "courtes": 7458,
      "destroy.v.01": 7459,
      "vulner": 7460,
      "scribe.v.01": 7461,
      "scribe.v.03": 7462,
      "assume.v.06": 7463,
      "hedge.v.01": 7464,
      "vote.n.01": 7465,
      "fuel": 7466,
      "_space.n.01": 7467,
      "syllog": 7468,
      "influence.v.01": 7469,
      "behavior": 7470,
      "_memory.n.01": 7471,
      "expector": 7472,
      "shock.v.02": 7473,
      "ocrat.n.01": 7474,
      "total.v.01": 7475,
      "unfit": 7476,
      "fluor": 7477,
      "garden": 7478,
      "aristocrat.n.01": 7479,
      "mobilization.n.01": 7480,
      "lean.v.01": 7481,
      "protoctist_genus.n.01": 7482,
      "constrict": 7483,
      "affect.v.05": 7484,
      "presidency.n.02": 7485,
      "faith": 7486,
      "middle_ages.n.01": 7487,
      "middle_east.n.01": 7488,
      "scombro": 7489,
      "i_arabia.n.01": 7490,
      "physical_phenomenon.n.01": 7491,
      "e_bush.v.01": 7492,
      "wrongdoer.n.01": 7493,
      "keyboard.n.01": 7494,
      "tennes": 7495,
      "prunus.n.01": 7496,
      "raise.v.07": 7497,
      "scientist.n.01": 7498,
      "advertise.v.02": 7499,
      "coherent.a.01": 7500,
      "_front": 7501,
      "collapse.v.01": 7502,
      "employee.n.01": 7503,
      "rattle": 7504,
      "incompat": 7505,
      "appraisal.n.01": 7506,
      "bivalvia.n.01": 7507,
      "_reproductive_system.n.01": 7508,
      "soldier.n.01": 7509,
      "acknowledgment.n.03": 7510,
      "recipro": 7511,
      "administrative_district.n.01": 7512,
      "phere.n.01": 7513,
      "democrat": 7514,
      "destination.n.02": 7515,
      "european_union.n.01": 7516,
      "healthy.a.01": 7517,
      "electromagnetic_": 7518,
      "restrainer.n.02": 7519,
      "_holiday.n.01": 7520,
      "_daisy.n.01": 7521,
      "gambling.n.01": 7522,
      "segment.v.01": 7523,
      "alabama.n.01": 7524,
      "quiz.v.01": 7525,
      "_civil_war.n.01": 7526,
      "lengthiness.n.02": 7527,
      "saudi_arabia.n.01": 7528,
      "colubrid_snake.n.01": 7529,
      "scolopacidae.n.01": 7530,
      "foodstuff.n.02": 7531,
      "antilles.n.01": 7532,
      "ound_the_bush.v.01": 7533,
      "beat_around_the_bush.v.01": 7534,
      "_orchid.n.01": 7535,
      "aesthet": 7536,
      "bis": 7537,
      "bor.n.01": 7538,
      "bless": 7539,
      "bend.v.01": 7540,
      "cum": 7541,
      "case": 7542,
      "dle.n.01": 7543,
      "dust": 7544,
      "dred": 7545,
      "eart": 7546,
      "eat.v.01": 7547,
      "eat.v.02": 7548,
      "ejac": 7549,
      "fib": 7550,
      "fell": 7551,
      "ga": 7552,
      "gil": 7553,
      "gav": 7554,
      "give.v.01": 7555,
      "hu": 7556,
      "hash": 7557,
      "hier": 7558,
      "hudd": 7559,
      "hagi": 7560,
      "i.v.01": 7561,
      "ja.n.01": 7562,
      "jol": 7563,
      "jab.n.01": 7564,
      "kal": 7565,
      "kett": 7566,
      "lut": 7567,
      "lin.n.01": 7568,
      "lond": 7569,
      "mom": 7570,
      "nel": 7571,
      "nesia.n.01": 7572,
      "ocephal": 7573,
      "pag": 7574,
      "puls": 7575,
      "raceae.n.01": 7576,
      "rant.v.01": 7577,
      "s.v.01": 7578,
      "sarr": 7579,
      "ting": 7580,
      "tink": 7581,
      "tamar": 7582,
      "uper": 7583,
      "witch": 7584,
      "ware.n.01": 7585,
      "yaw": 7586,
      "yard.n.01": 7587,
      "zone.n.01": 7588,
      "er-": 7589,
      "ery.n.02": 7590,
      "at.n.02": 7591,
      "onect": 7592,
      "rebu": 7593,
      "reach.v.01": 7594,
      "aler.n.01": 7595,
      "al_t": 7596,
      "aling.n.01": 7597,
      "alm.n.01": 7598,
      "ymus.n.01": 7599,
      "ionate.a.01": 7600,
      "perch.n.01": 7601,
      "perpet": 7602,
      "_div": 7603,
      "_dance.v.01": 7604,
      "ate.v.07": 7605,
      "lyph": 7606,
      "inaceae.n.01": 7607,
      "inum.n.01": 7608,
      "inet.n.01": 7609,
      "inhib": 7610,
      "anem": 7611,
      "anemia.n.01": 7612,
      "anacar": 7613,
      "arde": 7614,
      "arche": 7615,
      "arith": 7616,
      "arsen": 7617,
      "stress": 7618,
      "star.n.01": 7619,
      "ice.n.04": 7620,
      "embe": 7621,
      "embod": 7622,
      "itim": 7623,
      "it.n.04": 7624,
      "ith.n.01": 7625,
      "itionist.n.01": 7626,
      "se.a.01": 7627,
      "secon": 7628,
      "accret": 7629,
      "rod.n.01": 7630,
      "ley.n.02": 7631,
      "leuc": 7632,
      "id.n.02": 7633,
      "ch.n.04": 7634,
      "chest": 7635,
      "chant.n.01": 7636,
      "chant.v.01": 7637,
      "ision.n.02": 7638,
      "ce.v.03": 7639,
      "unify.v.01": 7640,
      "ing_t": 7641,
      "ilize.v.01": 7642,
      "am.v.02": 7643,
      "deep": 7644,
      "desm": 7645,
      "_party.n.01": 7646,
      "_she": 7647,
      "_sign": 7648,
      "_shar": 7649,
      "us.n.03": 7650,
      "usive.a.01": 7651,
      "uriate.v.01": 7652,
      "elast": 7653,
      "ellect": 7654,
      "agent.n.02": 7655,
      "et_": 7656,
      "conci": 7657,
      "lostom": 7658,
      "ista.n.01": 7659,
      "ister.n.01": 7660,
      "try.v.01": 7661,
      "trial": 7662,
      "vert.n.01": 7663,
      "cob": 7664,
      "coast": 7665,
      "esis.n.02": 7666,
      "come.v.01": 7667,
      "abet": 7668,
      "abdom": 7669,
      "ter.v.02": 7670,
      "shop.n.01": 7671,
      "shield": 7672,
      "plast": 7673,
      "plan.n.01": 7674,
      "pline.n.01": 7675,
      "quand": 7676,
      "thin": 7677,
      "thys": 7678,
      "thwart": 7679,
      "proct": 7680,
      "og.n.02": 7681,
      "aviator.n.01": 7682,
      "aker.n.02": 7683,
      "dise.n.01": 7684,
      "dispers": 7685,
      "disorder.n.01": 7686,
      "_al-": 7687,
      "brachy": 7688,
      "dry.n.01": 7689,
      "drup": 7690,
      "awak": 7691,
      "award.n.02": 7692,
      "alls.n.01": 7693,
      "boot": 7694,
      "board_": 7695,
      "prud": 7696,
      "prair": 7697,
      "carib": 7698,
      "acker.n.01": 7699,
      "endors": 7700,
      "beck": 7701,
      "commande": 7702,
      "nep": 7703,
      "blatt": 7704,
      "ive.v.03": 7705,
      "athen": 7706,
      "indian": 7707,
      "fruct": 7708,
      "colomb": 7709,
      "monize.v.01": 7710,
      "ians.n.01": 7711,
      "teger.n.01": 7712,
      "_cat.n.01": 7713,
      "intellect": 7714,
      "achine.n.01": 7715,
      "achrom": 7716,
      "_bre": 7717,
      "_bone.n.01": 7718,
      "meadow": 7719,
      "meager": 7720,
      "mariner.n.01": 7721,
      "creative.a.01": 7722,
      "eve.v.01": 7723,
      "contempl": 7724,
      "international": 7725,
      "foster": 7726,
      "relinqu": 7727,
      "count.n.02": 7728,
      "ard.n.03": 7729,
      "slu": 7730,
      "army": 7731,
      "capsu": 7732,
      "oversee.v.01": 7733,
      "toi": 7734,
      "toile": 7735,
      "ic_cell.n.01": 7736,
      "atern": 7737,
      "lawyer.n.01": 7738,
      "cale.n.01": 7739,
      "calvin": 7740,
      "ulate.v.04": 7741,
      "smudge.n.02": 7742,
      "solve.v.01": 7743,
      "green.n.01": 7744,
      "afghan": 7745,
      "charge.n.01": 7746,
      "annih": 7747,
      "vio": 7748,
      "press.n.01": 7749,
      "azol": 7750,
      "swab": 7751,
      "swerv": 7752,
      "poland.n.01": 7753,
      "salam": 7754,
      "part.n.02": 7755,
      "part.n.09": 7756,
      "guard.n.01": 7757,
      "chew.v.01": 7758,
      "curl": 7759,
      "surve": 7760,
      "harpo": 7761,
      "arch.v.01": 7762,
      "work.n.03": 7763,
      "rier.n.01": 7764,
      "ism.n.05": 7765,
      "equal.v.03": 7766,
      "pass.v.01": 7767,
      "merchan": 7768,
      "testim": 7769,
      "testify.v.02": 7770,
      "break.v.04": 7771,
      "duction.n.02": 7772,
      "pious.a.01": 7773,
      "ove.n.01": 7774,
      "and_t": 7775,
      "squash.v.01": 7776,
      "burgl": 7777,
      "italian": 7778,
      "crotal": 7779,
      "ridge.n.01": 7780,
      "warn": 7781,
      "call.v.03": 7782,
      "citr": 7783,
      "operate.v.03": 7784,
      "operation.n.05": 7785,
      "logical.a.01": 7786,
      "coloring_material.n.01": 7787,
      "phalang": 7788,
      "steal.v.01": 7789,
      "tonia.n.01": 7790,
      "central": 7791,
      ".s.04": 7792,
      "plan.v.02": 7793,
      "plane.v.01": 7794,
      "_wil": 7795,
      "telephon": 7796,
      "telegraph": 7797,
      "bit.n.02": 7798,
      "caval": 7799,
      "cell.n.02": 7800,
      "headlin": 7801,
      "provid": 7802,
      "exten": 7803,
      "extend": 7804,
      "converter.n.01": 7805,
      "range.v.01": 7806,
      "omyidae.n.01": 7807,
      "religion.n.02": 7808,
      "radiance.n.02": 7809,
      "paper": 7810,
      "pause.n.01": 7811,
      "remembr": 7812,
      "zoan.n.01": 7813,
      "hold.v.10": 7814,
      "taste.n.01": 7815,
      "continent.n.01": 7816,
      "summer": 7817,
      "spectro": 7818,
      "grow.v.07": 7819,
      "grow.v.08": 7820,
      "mammal.n.01": 7821,
      "propel.v.01": 7822,
      "lift.v.01": 7823,
      "informer.n.01": 7824,
      "gestate.v.01": 7825,
      "modern": 7826,
      "pathology.n.01": 7827,
      "gymnast": 7828,
      "naval": 7829,
      "spin.v.01": 7830,
      "repel.v.01": 7831,
      "model.v.02": 7832,
      "facility.n.01": 7833,
      "butch": 7834,
      "expression.n.01": 7835,
      "oriole.n.01": 7836,
      ".v.31": 7837,
      "division.n.12": 7838,
      "connection.n.02": 7839,
      "english.n.01": 7840,
      "revoke.v.02": 7841,
      "ometric": 7842,
      "_bear.n.01": 7843,
      "sleep_together.v.01": 7844,
      "selling.n.01": 7845,
      "wheed": 7846,
      "seat.n.03": 7847,
      "dog.n.01": 7848,
      "government.n.01": 7849,
      "examination.n.02": 7850,
      "platy": 7851,
      "gravit": 7852,
      "contrace": 7853,
      "kin.n.02": 7854,
      "kinship.n.02": 7855,
      "hairdress": 7856,
      "astrology.n.01": 7857,
      "executive": 7858,
      "spoil": 7859,
      "_02": 7860,
      "mesh": 7861,
      "calculate.v.02": 7862,
      "supervis": 7863,
      "number.v.03": 7864,
      "concentrate.v.02": 7865,
      "nitr": 7866,
      "interpret.v.01": 7867,
      "status.n.01": 7868,
      "keep.v.01": 7869,
      "transmiss": 7870,
      "amnest": 7871,
      "adjust.v.03": 7872,
      "shopper.n.01": 7873,
      "mechanism.n.05": 7874,
      "appointment.n.01": 7875,
      "flex.n.01": 7876,
      "intrude": 7877,
      "mind.v.01": 7878,
      "excavation.n.03": 7879,
      "immunize.v.02": 7880,
      "learn.v.02": 7881,
      "_intelligence.n.01": 7882,
      "horned_": 7883,
      "join.v.02": 7884,
      "mastermind.v.01": 7885,
      "treat.v.03": 7886,
      "reject.v.04": 7887,
      "grade.v.03": 7888,
      "fuel.n.01": 7889,
      "gain.v.08": 7890,
      "abrade.v.01": 7891,
      "abrasion.n.01": 7892,
      "compensation.n.01": 7893,
      "_defense.n.01": 7894,
      "stimulate.v.06": 7895,
      "bicycle.n.01": 7896,
      "bicycle.v.01": 7897,
      "gun.n.01": 7898,
      "imagine.v.01": 7899,
      "scarab": 7900,
      "repeat.n.01": 7901,
      "resident.n.01": 7902,
      "pollute.v.01": 7903,
      "synthetic": 7904,
      "hinduism.n.02": 7905,
      "trip.v.04": 7906,
      "phyll": 7907,
      "martyr": 7908,
      "mistre": 7909,
      "dream.v.01": 7910,
      "flex.v.05": 7911,
      "whole.n.02": 7912,
      "attend.v.05": 7913,
      "fertilization.n.01": 7914,
      "torture.v.02": 7915,
      "hamamelid_dicot_genus.n.01": 7916,
      "bust_up.v.01": 7917,
      "elapidae.n.01": 7918,
      "progress.n.02": 7919,
      "effective.a.01": 7920,
      "perturb.v.01": 7921,
      "opinion.n.01": 7922,
      "payment.n.01": 7923,
      "everlast": 7924,
      "aberr": 7925,
      "rise.n.04": 7926,
      "tender": 7927,
      "_front.n.01": 7928,
      "georgia.n.01": 7929,
      "aware.a.01": 7930,
      "teacher.n.01": 7931,
      "piano.n.01": 7932,
      "conclusion.n.08": 7933,
      "electrical_device.n.01": 7934,
      "left": 7935,
      "written_": 7936,
      "elevation.n.01": 7937,
      "vessel.n.03": 7938,
      "inquirer.n.01": 7939,
      "stipulate.v.01": 7940,
      "bounce.v.01": 7941,
      "geraniales.n.01": 7942,
      "royalty.n.02": 7943,
      "exhaust.v.05": 7944,
      "traffic": 7945,
      "solmiz": 7946,
      "sexual_activity.n.01": 7947,
      "saxifragaceae.n.01": 7948,
      "_therapy.n.01": 7949,
      "selfish.a.01": 7950,
      "obstetric": 7951,
      "morocco.n.01": 7952,
      "enumerate.v.01": 7953,
      "schedu": 7954,
      "washington.n.02": 7955,
      "_door.n.01": 7956,
      "shorebird.n.01": 7957,
      "polemoniales.n.01": 7958,
      "automob": 7959,
      "framework.n.03": 7960,
      "postpone.v.01": 7961,
      "obey.v.01": 7962,
      "clupe": 7963,
      "coffe": 7964,
      "george": 7965,
      "undertaking.n.01": 7966,
      "larceny.n.01": 7967,
      "substance.n.07": 7968,
      "intelligence_community.n.01": 7969,
      "controversy.n.01": 7970,
      "himalayas.n.01": 7971,
      "stool.v.04": 7972,
      "antelope.n.01": 7973,
      "noctu": 7974,
      "london.n.01": 7975,
      "sarrac": 7976,
      "rebuke.n.01": 7977,
      "embezz": 7978,
      "thysan": 7979,
      "thwart.v.01": 7980,
      "commandeer.v.01": 7981,
      "colombia.n.01": 7982,
      "contemplation.n.02": 7983,
      "merchandise.n.01": 7984,
      "-fl": 7985,
      "_y": 7986,
      "_island.n.01": 7987,
      "_union.n.01": 7988,
      "_orang": 7989,
      "augh": 7990,
      "aeros": 7991,
      "bam": 7992,
      "bum": 7993,
      "bant": 7994,
      "bill.n.01": 7995,
      "cer.n.01": 7996,
      "cim": 7997,
      "cass": 7998,
      "catt": 7999,
      "dop": 8000,
      "didae.n.01": 8001,
      "dance.n.01": 8002,
      "der.n.03": 8003,
      "dactyl": 8004,
      "drench": 8005,
      "dancer.n.01": 8006,
      "eum": 8007,
      "eaceae.n.01": 8008,
      "e.v.08": 8009,
      "e.v.09": 8010,
      "eating.n.01": 8011,
      "fist": 8012,
      "fiss": 8013,
      "g.n.01": 8014,
      "gig": 8015,
      "gon.n.01": 8016,
      "ge_": 8017,
      "hing": 8018,
      "hank": 8019,
      "ileg": 8020,
      "iaz": 8021,
      "ioideae.n.01": 8022,
      "iate.v.06": 8023,
      "jum": 8024,
      "jet.n.02": 8025,
      "jih": 8026,
      "la.n.01": 8027,
      "lay.v.01": 8028,
      "laud.v.01": 8029,
      "me.n.01": 8030,
      "mock": 8031,
      "member.n.01": 8032,
      "nam.n.01": 8033,
      "nation.n.04": 8034,
      "nap.v.01": 8035,
      "ry.n.03": 8036,
      "ramm": 8037,
      "right.v.01": 8038,
      "rival.n.01": 8039,
      "sund": 8040,
      "suture.n.01": 8041,
      "tut": 8042,
      "t.n.04": 8043,
      "tul": 8044,
      "tod": 8045,
      "usett": 8046,
      "viv": 8047,
      "vital": 8048,
      "wad": 8049,
      "wig": 8050,
      "wage.n.01": 8051,
      "wind.n.01": 8052,
      "x-": 8053,
      "xyr": 8054,
      "yok": 8055,
      "zam": 8056,
      "ziz": 8057,
      "ere": 8058,
      "ativ": 8059,
      "at.v.05": 8060,
      "atist.n.01": 8061,
      "atom.n.01": 8062,
      "at_up.v.01": 8063,
      "ativeness.n.01": 8064,
      "ativity.n.01": 8065,
      "oner.n.01": 8066,
      "oniidae.n.01": 8067,
      "retreat": 8068,
      "alg": 8069,
      "alop": 8070,
      "orization.n.03": 8071,
      "ionidae.n.01": 8072,
      "ion.n.09": 8073,
      "per.a.01": 8074,
      "lyric": 8075,
      "in.v.01": 8076,
      "ination.n.03": 8077,
      "st.": 8078,
      "stil": 8079,
      "still": 8080,
      "stagn": 8081,
      "stage.v.01": 8082,
      "stress.v.01": 8083,
      "_mil": 8084,
      "_mexico.n.01": 8085,
      "_mechanism.n.01": 8086,
      "emuls": 8087,
      "ites.n.01": 8088,
      "omus.n.01": 8089,
      "seize.v.01": 8090,
      "acus.n.01": 8091,
      "asper": 8092,
      "asa.n.01": 8093,
      "asset": 8094,
      "asian": 8095,
      "asiat": 8096,
      "rol": 8097,
      "le.v.05": 8098,
      "chon": 8099,
      "chir": 8100,
      "chuck": 8101,
      "chile.n.01": 8102,
      "chair.n.01": 8103,
      "art.n.03": 8104,
      "_pre": 8105,
      "_pot": 8106,
      "_park.n.01": 8107,
      "una.n.01": 8108,
      "unfortun": 8109,
      "ingen": 8110,
      "ing.n.07": 8111,
      "ing_device.n.01": 8112,
      "opl": 8113,
      "amo": 8114,
      "amor": 8115,
      "ain.v.04": 8116,
      "olith": 8117,
      "de-": 8118,
      "devol": 8119,
      "deduce.v.01": 8120,
      "dehis": 8121,
      "deception.n.02": 8122,
      "degradation.n.01": 8123,
      "_sw": 8124,
      "usa.n.01": 8125,
      "uscit": 8126,
      "gency.n.01": 8127,
      "urs": 8128,
      "urin": 8129,
      "ury.n.01": 8130,
      "urney.n.01": 8131,
      "eler.n.01": 8132,
      "utens": 8133,
      "etor": 8134,
      "imposter.n.01": 8135,
      "advis": 8136,
      "istic.n.01": 8137,
      "ull.n.01": 8138,
      "try": 8139,
      "code.v.02": 8140,
      "coordin": 8141,
      "coeffici": 8142,
      "es.n.02": 8143,
      "abund": 8144,
      "abdomin": 8145,
      "poss": 8146,
      "space": 8147,
      "spider": 8148,
      "shu.n.01": 8149,
      "ifrage.n.01": 8150,
      "astig": 8151,
      "probosc": 8152,
      "result": 8153,
      "resuscit": 8154,
      "_ger": 8155,
      "_gir": 8156,
      "occ": 8157,
      "estr": 8158,
      "odo": 8159,
      "odorize.v.01": 8160,
      "al_vein.n.01": 8161,
      "class.n.01": 8162,
      "crap": 8163,
      "crack.v.01": 8164,
      "ure.n.05": 8165,
      "ure.v.05": 8166,
      "disreg": 8167,
      "disorder": 8168,
      "dissent": 8169,
      "brush.n.01": 8170,
      "illion.n.01": 8171,
      "drac": 8172,
      "_fowl.n.01": 8173,
      "asser": 8174,
      "cipline.n.01": 8175,
      "bed.n.01": 8176,
      "beget.v.01": 8177,
      "grasp": 8178,
      "comment": 8179,
      "blade": 8180,
      "blunder.n.01": 8181,
      "mone": 8182,
      "monolog": 8183,
      "oskeleton.n.01": 8184,
      "holy": 8185,
      "site.n.01": 8186,
      "genus_n": 8187,
      "uge.v.01": 8188,
      "low.v.01": 8189,
      "flight.n.02": 8190,
      "pea.n.01": 8191,
      "ineff": 8192,
      "ine_mammal.n.01": 8193,
      "achusett": 8194,
      "ment.n.05": 8195,
      "_bank.n.01": 8196,
      "meal.n.01": 8197,
      "paras": 8198,
      "maling": 8199,
      "ade.v.03": 8200,
      "epip": 8201,
      "die.v.02": 8202,
      "interpo": 8203,
      "interchang": 8204,
      "interview": 8205,
      "intercede.v.01": 8206,
      "four": 8207,
      "food.n.02": 8208,
      "foam.v.01": 8209,
      "bre.n.01": 8210,
      "ical.a.02": 8211,
      "cape": 8212,
      "capital.n.01": 8213,
      "outf": 8214,
      "outh.n.01": 8215,
      "ic_league.n.01": 8216,
      "culmin": 8217,
      "calam": 8218,
      "fear.n.01": 8219,
      "horn.n.01": 8220,
      "chari": 8221,
      "unga.n.01": 8222,
      "_process": 8223,
      "cyber": 8224,
      "salient": 8225,
      "musk": 8226,
      "guide": 8227,
      "_of_england.n.01": 8228,
      "cerv": 8229,
      "cercop": 8230,
      "speak": 8231,
      "communize.v.01": 8232,
      "portug": 8233,
      "ementary": 8234,
      "ong.v.01": 8235,
      "rent.v.01": 8236,
      "renunci": 8237,
      "journey.n.01": 8238,
      "ographa.n.01": 8239,
      "ographic_point.n.01": 8240,
      "curs": 8241,
      "surfe": 8242,
      "cleave.v.01": 8243,
      "invitation.n.01": 8244,
      "medium": 8245,
      "cover.v.03": 8246,
      "effor": 8247,
      "play.v.03": 8248,
      "play.v.2": 8249,
      "visitor.n.01": 8250,
      "cut.n.1": 8251,
      "body.n.02": 8252,
      "ball.v.01": 8253,
      "sign_of_the_": 8254,
      "ore.n.02": 8255,
      "workplace.n.01": 8256,
      "cloud": 8257,
      "volunte": 8258,
      "new_mexico.n.01": 8259,
      "testify.v.01": 8260,
      "breakage.n.03": 8261,
      "breakdown": 8262,
      "duction.n.01": 8263,
      "anthes.n.01": 8264,
      "change.v.06": 8265,
      "change_sh": 8266,
      "electr": 8267,
      "own.v.01": 8268,
      "rhetor": 8269,
      "mise.n.01": 8270,
      "burd": 8271,
      "license.n.01": 8272,
      "license.v.01": 8273,
      "belief.n.01": 8274,
      "riding.n.02": 8275,
      "warf": 8276,
      "matter": 8277,
      "judici": 8278,
      "citiz": 8279,
      "citation.n.03": 8280,
      "fold.v.01": 8281,
      "_the_liberation": 8282,
      "colorad": 8283,
      "spirit.n.02": 8284,
      "immor": 8285,
      "insensit": 8286,
      "syndic": 8287,
      "lock.n.02": 8288,
      "locker.n.01": 8289,
      "drive.n.11": 8290,
      "honshu.n.01": 8291,
      "black-": 8292,
      "magnetic": 8293,
      "myric": 8294,
      "home": 8295,
      "cellular": 8296,
      "sled.n.01": 8297,
      "walk.v.04": 8298,
      "float.v.02": 8299,
      "silk": 8300,
      "mark.n.04": 8301,
      "line.n.2": 8302,
      "question.n.01": 8303,
      "sports_": 8304,
      "love.n.01": 8305,
      "love.v.01": 8306,
      "love.v.02": 8307,
      "love.n.02": 8308,
      "think.v.01": 8309,
      "restrain.v.03": 8310,
      "connect.v.01": 8311,
      "ify.v.05": 8312,
      "rule": 8313,
      "ious_": 8314,
      "remain": 8315,
      "check.v.01": 8316,
      "singing.n.01": 8317,
      "power.n.01": 8318,
      "powder": 8319,
      "wash.n.02": 8320,
      "_office.n.01": 8321,
      "_deer.n.01": 8322,
      "podocarpaceae.n.01": 8323,
      "separation.n.02": 8324,
      "fall_back": 8325,
      "settle": 8326,
      "life": 8327,
      "life.n.01": 8328,
      "cetes.n.01": 8329,
      "impair": 8330,
      "_discipline.n.01": 8331,
      "nett": 8332,
      "political": 8333,
      "pathology.n.02": 8334,
      "oryct": 8335,
      "stimulation.n.02": 8336,
      "officiate.v.02": 8337,
      "transport.v.01": 8338,
      "transport.v.04": 8339,
      "fail.v.04": 8340,
      "division.n.08": 8341,
      "connection.n.03": 8342,
      "hanseat": 8343,
      "agreement.n.01": 8344,
      "revival.n.01": 8345,
      "social_group.n.01": 8346,
      "catch.n.09": 8347,
      "design.v.04": 8348,
      "develop.v.10": 8349,
      "sciaen": 8350,
      "jew.n.01": 8351,
      "board.v.01": 8352,
      "lease.v.03": 8353,
      "sacchar": 8354,
      "film.v.01": 8355,
      "contrad": 8356,
      "souri.n.01": 8357,
      "occupation.n.01": 8358,
      "follow_through": 8359,
      "declar": 8360,
      "_head.n.01": 8361,
      "spotted_": 8362,
      "hairdo.n.01": 8363,
      "knock.n.03": 8364,
      "discovery.n.02": 8365,
      "menstr": 8366,
      "mix.n.03": 8367,
      "mix.v.05": 8368,
      "fabricate.v.02": 8369,
      "humanistic": 8370,
      "consideration.n.01": 8371,
      "consider.v.05": 8372,
      "power_s": 8373,
      "tuber": 8374,
      "disciple.n.01": 8375,
      "jerk.n.02": 8376,
      "topographic_point.n.01": 8377,
      "feed.v.02": 8378,
      "reality.n.02": 8379,
      "look.v.01": 8380,
      "look.v.02": 8381,
      "stream.n.01": 8382,
      "drinker.n.02": 8383,
      "tune.n.01": 8384,
      "ceed.v.01": 8385,
      "construction.n.01": 8386,
      "help.v.01": 8387,
      "sarco": 8388,
      "worthiness.n.01": 8389,
      "specify.v.02": 8390,
      "spiritual_": 8391,
      "business.n.01": 8392,
      "absorb.v.04": 8393,
      "defense_mechanism.n.01": 8394,
      "immune": 8395,
      "picture.v.02": 8396,
      "wall.v.01": 8397,
      "itioner.n.01": 8398,
      "promote.v.02": 8399,
      "request.n.02": 8400,
      "deserter.n.01": 8401,
      "_foot.n.01": 8402,
      "decrease.v.02": 8403,
      "treatment.n.01": 8404,
      "pronounce.v.02": 8405,
      "concept.n.01": 8406,
      "boundary_": 8407,
      "massachusett": 8408,
      "actyla.n.01": 8409,
      "fight.v.02": 8410,
      "breathing.n.01": 8411,
      "stimulate.v.03": 8412,
      "orientation.n.01": 8413,
      "accelerate.v.02": 8414,
      "cherry.n.01": 8415,
      "rabbit.n.01": 8416,
      "natural_language.n.01": 8417,
      "begin.v.03": 8418,
      "agaricales.n.01": 8419,
      "worm_family.n.01": 8420,
      "confederacy.n.01": 8421,
      "burg.n.02": 8422,
      "external_": 8423,
      "mistake.n.01": 8424,
      "righteousness.n.01": 8425,
      "tag.v.01": 8426,
      "torment.v.01": 8427,
      "torment.v.02": 8428,
      "novel": 8429,
      "shoot.v.19": 8430,
      "cranium.n.01": 8431,
      "correct.a.01": 8432,
      "vietnam.n.01": 8433,
      "crop.v.05": 8434,
      "giving.n.01": 8435,
      "jama": 8436,
      "destruction.n.01": 8437,
      "presidency.n.01": 8438,
      "dynasty.n.01": 8439,
      "improvement.n.02": 8440,
      "proof.n.01": 8441,
      "change_of_location.n.01": 8442,
      "musteline_mammal.n.01": 8443,
      "clarity.n.01": 8444,
      "television": 8445,
      "issue.v.04": 8446,
      "great_": 8447,
      "argue.v.01": 8448,
      "pregnancy.n.01": 8449,
      "categorization.n.03": 8450,
      "pennsylvania.n.01": 8451,
      "tug.v.02": 8452,
      "tease.v.02": 8453,
      "trader.n.01": 8454,
      "small_in": 8455,
      "render.v.04": 8456,
      "feminist.n.01": 8457,
      "academician": 8458,
      "bacteria_genus.n.01": 8459,
      "eliminate.v.03": 8460,
      "research.v.02": 8461,
      "second.v.01": 8462,
      "assertion.n.01": 8463,
      "maneuver": 8464,
      "industrial": 8465,
      "scientific": 8466,
      "enjoym": 8467,
      "trigger": 8468,
      "metric_linear_unit.n.01": 8469,
      "santal": 8470,
      "driving.n.02": 8471,
      "hindrance.n.01": 8472,
      "sick_person.n.01": 8473,
      "dismiss.v.01": 8474,
      "create_from_raw_material": 8475,
      "knife.n.01": 8476,
      "hurt.v.05": 8477,
      "hurt.v.06": 8478,
      "anoint": 8479,
      "anomal": 8480,
      "myrtales.n.01": 8481,
      "planner.n.01": 8482,
      "gregorian_calendar.n.01": 8483,
      "raft.n.02": 8484,
      "brassica.n.01": 8485,
      "hospital": 8486,
      "invalidate.v.01": 8487,
      "greek_mythology.n.01": 8488,
      "cognitive": 8489,
      "dawdler.n.01": 8490,
      "_minor.n.01": 8491,
      "noble": 8492,
      "louis": 8493,
      "abscond": 8494,
      "soviet_union.n.01": 8495,
      "prostitute.n.01": 8496,
      "make.v.49": 8497,
      "euphorbiaceae.n.01": 8498,
      "wisdom": 8499,
      "caesalpinioideae.n.01": 8500,
      "needle": 8501,
      "masculin": 8502,
      "reinfor": 8503,
      "handicraft.n.02": 8504,
      "exhilarate.v.01": 8505,
      "_pepper.n.01": 8506,
      "coelenter": 8507,
      "muslim.n.01": 8508,
      "ruler.n.01": 8509,
      "roleum": 8510,
      "arizona.n.01": 8511,
      "superior": 8512,
      "cinnam": 8513,
      "similarity.n.01": 8514,
      "division_eubacteria.n.01": 8515,
      "tailed_": 8516,
      "_rapid": 8517,
      "_enforcement_": 8518,
      "_saxifrage.n.01": 8519,
      "proceeding.n.01": 8520,
      "argentina.n.01": 8521,
      "hagiographa.n.01": 8522,
      "arithmet": 8523,
      "abdomen.n.01": 8524,
      "wading_bird.n.01": 8525,
      "assets.n.01": 8526,
      "utensil.n.01": 8527,
      "monologu": 8528,
      "salientia.n.01": 8529,
      "sign_of_the_zodiac.n.01": 8530,
      "change_shape.v.01": 8531,
      "hanseatic_league.n.01": 8532,
      "follow_through.v.02": 8533,
      "humanistic_discipline.n.01": 8534,
      "massachusetts.n.01": 8535,
      "create_from_raw_material.v.01": 8536,
      "'_": 8537,
      "-exp": 8538,
      "_vein.n.01": 8539,
      "aer": 8540,
      "aust": 8541,
      "bund": 8542,
      "bare": 8543,
      "both": 8544,
      "cure": 8545,
      "cate.v.02": 8546,
      "cush": 8547,
      "cathol": 8548,
      "cattle.n.01": 8549,
      "cnid": 8550,
      "date": 8551,
      "date.v.01": 8552,
      "dam.n.01": 8553,
      "euc": 8554,
      "eater.n.01": 8555,
      "fect": 8556,
      "fanc": 8557,
      "font.n.01": 8558,
      "ffrag": 8559,
      "hil": 8560,
      "ik.n.01": 8561,
      "jord": 8562,
      "kur": 8563,
      "lof": 8564,
      "lig": 8565,
      "link": 8566,
      "lunge.v.01": 8567,
      "mang": 8568,
      "mask": 8569,
      "nag": 8570,
      "oso": 8571,
      "pare": 8572,
      "pell": 8573,
      "push.n.01": 8574,
      "ry_": 8575,
      "rific": 8576,
      "rise.n.02": 8577,
[...]
