{
  "version": "1.0",
  "truncation": null,
  "padding": null,
  "added_tokens": [
    {
      "id": 0,
      "content": "[UNK]",
      "single_word": false,
      "lstrip": false,
      "rstrip": false,
      "normalized": false,
      "special": true
    },
    {
      "id": 1,
      "content": "[CLS]",
      "single_word": false,
      "lstrip": false,
      "rstrip": false,
      "normalized": false,
      "special": true
    },
    {
      "id": 2,
      "content": "[SEP]",
      "single_word": false,
      "lstrip": false,
      "rstrip": false,
      "normalized": false,
      "special": true
    },
    {
      "id": 3,
      "content": "[PAD]",
      "single_word": false,
      "lstrip": false,
      "rstrip": false,
      "normalized": false,
      "special": true
    },
    {
      "id": 4,
      "content": "[MASK]",
      "single_word": false,
      "lstrip": false,
      "rstrip": false,
      "normalized": false,
      "special": true
    },
    {
      "id": 3594,
      "content": " ",
      "single_word": false,
      "lstrip": false,
      "rstrip": false,
      "normalized": true,
      "special": false
    }
  ],
  "normalizer": null,
  "pre_tokenizer": {
    "type": "WhitespaceSplit"
  },
  "post_processor": null,
  "decoder": null,
  "model": {
    "type": "BPE",
    "dropout": null,
    "unk_token": "[UNK]",
    "continuing_subword_prefix": null,
    "end_of_word_suffix": null,
    "fuse_unk": false,
    "byte_fallback": false,
    "ignore_merges": false,
    "vocab": {
      "[UNK]": 0,
      "[CLS]": 1,
      "[SEP]": 2,
      "[PAD]": 3,
      "[MASK]": 4,
      "0": 5,
      "1": 6,
      "2": 7,
      "3": 8,
      "6": 9,
      "7": 10,
      "9": 11,
      ":": 12,
      "_": 13,
      "a": 14,
      "b": 15,
      "c": 16,
      "d": 17,
      "e": 18,
      "f": 19,
      "g": 20,
      "h": 21,
      "i": 22,
      "j": 23,
      "k": 24,
      "l": 25,
      "m": 26,
      "n": 27,
      "o": 28,
      "p": 29,
      "q": 30,
      "r": 31,
      "s": 32,
      "t": 33,
      "u": 34,
      "v": 35,
      "w": 36,
      "x": 37,
      "y": 38,
      "z": 39,
      "on": 40,
      "ep": 41,
      "onc": 42,
      "ept": 43,
      "conc": 44,
      "concept": 45,
      "concept_": 46,
      "te": 47,
      "concept:": 48,
      "or": 49,
      "an": 50,
      "al": 51,
      "at": 52,
      "am": 53,
      "in": 54,
      "er": 55,
      "ag": 56,
      "sp": 57,
      "ort": 58,
      "le": 59,
      "sport": 60,
      "it": 61,
      "ic": 62,
      "en": 63,
      "ur": 64,
      "ent": 65,
      "concept_sport": 66,
      "mal": 67,
      "ani": 68,
      "st": 69,
      "ers": 70,
      "ro": 71,
      "ct": 72,
      "team": 73,
      "concept:ag": 74,
      "e_": 75,
      "ed": 76,
      "ion": 77,
      "concept_sports": 78,
      "ath": 79,
      "athle": 80,
      "ar": 81,
      "co": 82,
      "es": 83,
      "concept_p": 84,
      "y_": 85,
      "animal": 86,
      "se": 87,
      "concept:agent": 88,
      "ation": 89,
      "lan": 90,
      "du": 91,
      "pro": 92,
      "ate": 93,
      "_b": 94,
      "ith": 95,
      "with": 96,
      "ay": 97,
      "ul": 98,
      "ric": 99,
      "il": 100,
      "concept_m": 101,
      "ch": 102,
      "erson": 103,
      "duct": 104,
      "lant": 105,
      "product": 106,
      "tur": 107,
      "alproduct": 108,
      "ultur": 109,
      "ricultur": 110,
      "riculturalproduct": 111,
      "concept_sportsteam": 112,
      "ays": 113,
      "ist": 114,
      "concept_sportsteam_": 115,
      "pe": 116,
      "un": 117,
      "lays": 118,
      "ol": 119,
      "ite": 120,
      "edwith": 121,
      "tep": 122,
      "concept:athle": 123,
      "teplays": 124,
      "concept:athleteplays": 125,
      "concept_b": 126,
      "ing": 127,
      "re": 128,
      "gam": 129,
      "zation": 130,
      "ity_": 131,
      "do": 132,
      "org": 133,
      "anization": 134,
      "organization": 135,
      "concept_athle": 136,
      "concept_athlete": 137,
      "iv": 138,
      "ammal": 139,
      "as": 140,
      "_p": 141,
      "eat": 142,
      "olv": 143,
      "ding": 144,
      "concept_mammal": 145,
      "concept_athlete_": 146,
      "all": 147,
      "univ": 148,
      "univers": 149,
      "concept_person": 150,
      "agriculturalproduct": 151,
      "uil": 152,
      "uilding": 153,
      "concept_c": 154,
      "et": 155,
      "com": 156,
      "_t": 157,
      "ev": 158,
      "inc": 159,
      "feat": 160,
      "featur": 161,
      "_ba": 162,
      "concept:animal": 163,
      "art": 164,
      "ball": 165,
      "item": 166,
      "concept_mammal_": 167,
      "win": 168,
      "ity": 169,
      "dow": 170,
      "of": 171,
      "inv": 172,
      "for": 173,
      "ad": 174,
      "concept_building": 175,
      "oo": 176,
      "concept_plant": 177,
      "lo": 178,
      "ab": 179,
      "concept:agentinv": 180,
      "edwithitem": 181,
      "olvedwithitem": 182,
      "concept:agentinvolvedwithitem": 183,
      "eg": 184,
      "us": 185,
      "window": 186,
      "concept:p": 187,
      "ated": 188,
      "inse": 189,
      "insect": 190,
      "concept_sport_ba": 191,
      "seball": 192,
      "concept_sport_baseball": 193,
      "state": 194,
      "concept_city_": 195,
      "ood": 196,
      "_c": 197,
      "concept:athleteplayssport": 198,
      "feature_": 199,
      "concept_buildingfeature_": 200,
      "concept:organization": 201,
      "concept:agriculturalproduct": 202,
      "veg": 203,
      "concept_buildingfeature_window": 204,
      "ok": 205,
      "is": 206,
      "_m": 207,
      "a_": 208,
      "able": 209,
      "concept_sportsgam": 210,
      "concept_sportsgame_": 211,
      "ype": 212,
      "istype": 213,
      "concept:animalistype": 214,
      "ofanimal": 215,
      "concept:animalistypeofanimal": 216,
      "ak": 217,
      "ser": 218,
      "red": 219,
      "_w": 220,
      "university": 221,
      "etable": 222,
      "vegetable": 223,
      "hi": 224,
      "act": 225,
      "el": 226,
      "ies": 227,
      "our": 228,
      "loc": 229,
      "ut": 230,
      "lu": 231,
      "concept_vegetable": 232,
      "agu": 233,
      "concept:sport": 234,
      "leagu": 235,
      "artist": 236,
      "ourn": 237,
      "tes": 238,
      "ex": 239,
      "agent": 240,
      "_s": 241,
      "ph": 242,
      "concept:agentcom": 243,
      "withagent": 244,
      "petes": 245,
      "usic": 246,
      "concept:sports": 247,
      "concept:agentcompetes": 248,
      "concept:agentcompeteswithagent": 249,
      "eteam": 250,
      "concept_co": 251,
      "concept_music": 252,
      "gameteam": 253,
      "concept:sportsgameteam": 254,
      "ach": 255,
      "ne": 256,
      "concept_musicartist": 257,
      "cook": 258,
      "edwithagriculturalproduct": 259,
      "concept:agriculturalproductcook": 260,
      "concept:agriculturalproductcookedwithagriculturalproduct": 261,
      "ever": 262,
      "_tre": 263,
      "concept_univers": 264,
      "inclu": 265,
      "concept_university_": 266,
      "concept_animal": 267,
      "everag": 268,
      "ra": 269,
      "concept_agriculturalproduct": 270,
      "concept:athleteplaysfor": 271,
      "concept:athleteplaysforteam": 272,
      "ds": 273,
      "ico": 274,
      "_trees": 275,
      "exico": 276,
      "per": 277,
      "mexico": 278,
      "concept_personmexico": 279,
      "_r": 280,
      "_university": 281,
      "concept_insect": 282,
      "inloc": 283,
      "inlocation": 284,
      "arch": 285,
      "concept_plant_trees": 286,
      "cre": 287,
      "tro": 288,
      "concept:plant": 289,
      "concept_musicartist_": 290,
      "ca": 291,
      "dep": 292,
      "concept:person": 293,
      "state_university": 294,
      "phy": 295,
      "trophy": 296,
      "pan": 297,
      "compan": 298,
      "company_": 299,
      "good": 300,
      "person": 301,
      "edgood": 302,
      "concept:organizationhi": 303,
      "akedgood": 304,
      "redperson": 305,
      "includep": 306,
      "concept:plantincludep": 307,
      "concept:organizationhiredperson": 308,
      "concept:plantincludeplant": 309,
      "search": 310,
      "_pep": 311,
      "sinlocation": 312,
      "concept:agentact": 313,
      "concept:agentactsinlocation": 314,
      "concept_company_": 315,
      "food": 316,
      "concept:team": 317,
      "_pepper": 318,
      "bs": 319,
      "date": 320,
      "ip": 321,
      "series": 322,
      "concept_coach": 323,
      "concept_vegetable_pepper": 324,
      "journ": 325,
      "ter": 326,
      "journal": 327,
      "journalist": 328,
      "yan": 329,
      "concept:b": 330,
      "concept_sportsgame_series": 331,
      "00": 332,
      "concept_w": 333,
      "tr": 334,
      "ard": 335,
      "_h": 336,
      "om": 337,
      "e_m": 338,
      "_k": 339,
      "wn": 340,
      "oncan": 341,
      "concept_a": 342,
      "ersoncan": 343,
      "concept_personcan": 344,
      "ada_": 345,
      "concept_personcanada_": 346,
      "lic": 347,
      "ov": 348,
      "gra": 349,
      "concept_personcanada_search": 350,
      "animals": 351,
      "iss": 352,
      "_d": 353,
      "eric": 354,
      "concept_sportsleagu": 355,
      "_j": 356,
      "im": 357,
      "organization_": 358,
      "event": 359,
      "concept_beverag": 360,
      "_wh": 361,
      "gs": 362,
      "ment": 363,
      "gradu": 364,
      "concept:persongradu": 365,
      "concept:persongraduated": 366,
      "americ": 367,
      "ts": 368,
      "id": 369,
      "ton": 370,
      "ub": 371,
      "ork": 372,
      "als": 373,
      "american": 374,
      "ge": 375,
      "ob": 376,
      "part": 377,
      "inleagu": 378,
      "ites": 379,
      "concept:athleteplaysinleagu": 380,
      "new": 381,
      "concept:athleteplaysinleague": 382,
      "incity": 383,
      "concept_insect_": 384,
      "concept_musicartist_american": 385,
      "concept_food": 386,
      "concept_mammal_do": 387,
      "concept_university_state_university": 388,
      "concept_personmexico_r": 389,
      "concept_beverage_": 390,
      "diss": 391,
      "ile": 392,
      "atdate": 393,
      "edatdate": 394,
      "prov": 395,
      "olvedatdate": 396,
      "concept:organizationdiss": 397,
      "concept:organizationdissolvedatdate": 398,
      "_f": 399,
      "gov": 400,
      "orprov": 401,
      "itne": 402,
      "stateorprov": 403,
      "yan_wh": 404,
      "concept_personmexico_ryan_wh": 405,
      "itney": 406,
      "stateorprovinc": 407,
      "concept_personmexico_ryan_whitney": 408,
      "um": 409,
      "york": 410,
      "ebs": 411,
      "amp": 412,
      "cho": 413,
      "concept:agentcre": 414,
      "concept:agentcreated": 415,
      "_st": 416,
      "th": 417,
      "olit": 418,
      "os": 419,
      "serv": 420,
      "concept_animal_": 421,
      "concept_webs": 422,
      "olitic": 423,
      "concept_website": 424,
      "qu": 425,
      "su": 426,
      "won": 427,
      "ward": 428,
      "chas": 429,
      "lication": 430,
      "ck": 431,
      "tourn": 432,
      "ament": 433,
      "ern": 434,
      "icip": 435,
      "col": 436,
      "lands": 437,
      "trophytourn": 438,
      "concept_award": 439,
      "particip": 440,
      "concept_mammal_dogs": 441,
      "wontrophy": 442,
      "trophytournament": 443,
      "concept_awardtrophytournament": 444,
      "inevent": 445,
      "concept:agentparticip": 446,
      "atedinevent": 447,
      "001": 448,
      "concept:agentparticipatedinevent": 449,
      "beverag": 450,
      "ian": 451,
      "wr": 452,
      "edwithbeverag": 453,
      "concept_bakedgood": 454,
      "akedgoodserv": 455,
      "concept:bakedgoodserv": 456,
      "suchas": 457,
      "landsca": 458,
      "edwithbeverage": 459,
      "concept:bakedgoodservedwithbeverage": 460,
      "iz": 461,
      "pub": 462,
      "concept_stateorprovinc": 463,
      "pefeatur": 464,
      "concept_athlete_j": 465,
      "uth": 466,
      "landscapefeatur": 467,
      "landscapefeatures": 468,
      "_o": 469,
      "concept:journalist": 470,
      "games": 471,
      "forpub": 472,
      "itesforpub": 473,
      "writesforpub": 474,
      "concept:journalistwritesforpub": 475,
      "concept:journalistwritesforpublication": 476,
      "no": 477,
      "cream": 478,
      "ap": 479,
      "op": 480,
      "concept_sportsteam_n": 481,
      "concept_coun": 482,
      "concept_beverage_cream": 483,
      "ir": 484,
      "_be": 485,
      "okno": 486,
      "wnas": 487,
      "alsokno": 488,
      "alsoknownas": 489,
      "_n": 490,
      "av": 491,
      "est": 492,
      "lb": 493,
      "ill": 494,
      "e_mlb": 495,
      "concept_sportsleague_mlb": 496,
      "yo": 497,
      "concept_stateorprovince_": 498,
      "rom": 499,
      "dev": 500,
      "em": 501,
      "gu": 502,
      "non": 503,
      "ost": 504,
      "concept:animalsuchas": 505,
      "devil": 506,
      "concept:animalsuchasinsect": 507,
      "ion_": 508,
      "concept_website_": 509,
      "from": 510,
      "ig": 511,
      "ids": 512,
      "concept_journalist": 513,
      "atur": 514,
      "_tim": 515,
      "concept_city_veg": 516,
      "concept:persongraduatedfrom": 517,
      "concept_city_vegas": 518,
      "concept:persongraduatedfromuniversity": 519,
      "_v": 520,
      "up": 521,
      "ions": 522,
      "concept_sportsteam_t": 523,
      "ason": 524,
      "concept_animal_c": 525,
      "concept_agriculturalproduct_p": 526,
      "govern": 527,
      "concept_sportsteam_nca": 528,
      "government": 529,
      "ong": 530,
      "insects": 531,
      "_york": 532,
      "ia": 533,
      "plays": 534,
      "concept_government": 535,
      "concept_politic": 536,
      "_but": 537,
      "adi": 538,
      "concept_plant_": 539,
      "concept:teamplays": 540,
      "new_york": 541,
      "_times": 542,
      "concept:teamplayssport": 543,
      "vis": 544,
      "y_c": 545,
      "lants": 546,
      "concept_sportsteam_m": 547,
      "uildingloc": 548,
      "atedincity": 549,
      "a_yo": 550,
      "concept_sportsgame_games": 551,
      "concept:buildingloc": 552,
      "_kids": 553,
      "uth_kids": 554,
      "concept_agriculturalproduct_plants": 555,
      "concept_sportsteam_ncaa_yo": 556,
      "concept:buildinglocatedincity": 557,
      "concept_sportsteam_ncaa_youth_kids": 558,
      "_l": 559,
      "ba": 560,
      "orn": 561,
      "chic": 562,
      "pets": 563,
      "concept_insect_insects": 564,
      "cat": 565,
      "ty_": 566,
      "rown": 567,
      "concept_mon": 568,
      "concept_sportsteam_state_university": 569,
      "reatur": 570,
      "concept_buildingfeature_windows": 571,
      "obile": 572,
      "chool": 573,
      "concept_animal_creatur": 574,
      "adium": 575,
      "concept_animal_creatures": 576,
      "bel": 577,
      "ci": 578,
      "mak": 579,
      "anle": 580,
      "les": 581,
      "e_n": 582,
      "concept:animaleat": 583,
      "concept_mammal_cat": 584,
      "utom": 585,
      "concept_month": 586,
      "obilemak": 587,
      "utomobilemak": 588,
      "utomobilemaker": 589,
      "ke": 590,
      "school": 591,
      "to": 592,
      "ors": 593,
      "attr": 594,
      "sto": 595,
      "season": 596,
      "concept_athlete_m": 597,
      "concept_person_": 598,
      "concept_vegetable_": 599,
      "_stanle": 600,
      "concept_awardtrophytournament_stanle": 601,
      "_oil": 602,
      "concept_county_": 603,
      "y_cup": 604,
      "attract": 605,
      "concept_awardtrophytournament_stanley_cup": 606,
      "ber": 607,
      "la": 608,
      "son": 609,
      "ess": 610,
      "ask": 611,
      "concept:persongraduatedschool": 612,
      "br": 613,
      "concept_date": 614,
      "concept_non": 615,
      "concept:agentbel": 616,
      "concept_sportsteam_b": 617,
      "concept_person_but": 618,
      "002": 619,
      "concept_food_oil": 620,
      "ongsto": 621,
      "concept:agentbelongsto": 622,
      "concept:agentbelongstoorganization": 623,
      "concept:co": 624,
      "and": 625,
      "achwontrophy": 626,
      "concept_mammal_cats": 627,
      "concept:coachwontrophy": 628,
      "_g": 629,
      "ho": 630,
      "ot": 631,
      "ali": 632,
      "ampa": 633,
      "concept_sportsteam_tampa": 634,
      "_animals": 635,
      "grown": 636,
      "ox": 637,
      "att": 638,
      "inlandscapefeatures": 639,
      "ice": 640,
      "concept_sport_b": 641,
      "ars": 642,
      "concept_pro": 643,
      "concept_athlete_b": 644,
      "etball": 645,
      "concept:agriculturalproductgrown": 646,
      "concept:teamalsoknownas": 647,
      "concept_sportsleague_n": 648,
      "asketball": 649,
      "concept_sport_basketball": 650,
      "concept:agriculturalproductgrowninlandscapefeatures": 651,
      "concept_sportsleague_nba": 652,
      "hom": 653,
      "ago": 654,
      "lege": 655,
      "ash": 656,
      "concept_agriculturalproduct_": 657,
      "concept_musicartist_season": 658,
      "college": 659,
      "concept_person_button": 660,
      "ce": 661,
      "concept_r": 662,
      "concept_tr": 663,
      "age": 664,
      "ets": 665,
      "off": 666,
      "concept:teamwontrophy": 667,
      "concept_automobilemaker": 668,
      "osit": 669,
      "concept_governmentorganization_": 670,
      "chicago": 671,
      "born": 672,
      "ks": 673,
      "mammal": 674,
      "posit": 675,
      "concept_landscapefeatures": 676,
      "row": 677,
      "ade": 678,
      "concept_city_york": 679,
      "concept:personborn": 680,
      "ff": 681,
      "gr": 682,
      "he": 683,
      "io": 684,
      "ual": 685,
      "ven": 686,
      "concept_vis": 687,
      "y_devil": 688,
      "ational": 689,
      "dingagriculturalproduct": 690,
      "concept_mammal_animals": 691,
      "concept:agriculturalproductinclu": 692,
      "_sox": 693,
      "concept_university_college": 694,
      "animals002": 695,
      "concept_animal_animals002": 696,
      "concept:animaleatfood": 697,
      "concept_nongov": 698,
      "concept_visual": 699,
      "concept:agriculturalproductincludingagriculturalproduct": 700,
      "lin": 701,
      "e_c": 702,
      "ild": 703,
      "concept_sportsteam_yan": 704,
      "hip": 705,
      "concept_company_p": 706,
      "concept_sportsteam_tampa_ba": 707,
      "eci": 708,
      "ik": 709,
      "national": 710,
      "concept:sp": 711,
      "sts": 712,
      "stadium": 713,
      "langu": 714,
      "champ": 715,
      "zationof": 716,
      "log": 717,
      "_rays": 718,
      "ionship": 719,
      "alizationof": 720,
      "concept_trade": 721,
      "y_devil_rays": 722,
      "concept_sportsteam_tampa_bay_devil_rays": 723,
      "ecializationof": 724,
      "concept:specializationof": 725,
      "championship": 726,
      "concept_tradeun": 727,
      "_window": 728,
      "job": 729,
      "man": 730,
      "sy": 731,
      "eptile": 732,
      "concept_ge": 733,
      "concept_sportsteam_red": 734,
      "concept_sportsteam_devil": 735,
      "concept_sportsteam_chicago": 736,
      "form": 737,
      "concept:organizationalsoknownas": 738,
      "concept:agriculturalproductto": 739,
      "ell": 740,
      "concept_musicartist_times": 741,
      "concept_coach_": 742,
      "ide": 743,
      "attractinsect": 744,
      "concept_reptile": 745,
      "jobposit": 746,
      "concept_sportsteam_devils": 747,
      "concept:agriculturalproducttoattractinsect": 748,
      "az": 749,
      "ail": 750,
      "ix": 751,
      "ror": 752,
      "ubs": 753,
      "ans": 754,
      "ley": 755,
      "ark": 756,
      "concept_sportsteam_s": 757,
      "concept_sportsteam_w": 758,
      "ington": 759,
      "concept_mammal_be": 760,
      "concept_cr": 761,
      "concept_sportsgame_championship": 762,
      "lick": 763,
      "concept_bakedgood_": 764,
      "opolitic": 765,
      "kees": 766,
      "concept_sportsteam_yankees": 767,
      "concept_company_post": 768,
      "_ro": 769,
      "ac": 770,
      "fe": 771,
      "iam": 772,
      "ont": 773,
      "concept_ter": 774,
      "concept_stadium": 775,
      "orevent": 776,
      "e_j": 777,
      "coun": 778,
      "ilk": 779,
      "pests": 780,
      "concept_athlete_s": 781,
      "concept_mammal_f": 782,
      "term": 783,
      "concept_politician": 784,
      "ashington": 785,
      "venu": 786,
      "languag": 787,
      "concept_geopolitic": 788,
      "rorist": 789,
      "concept_terrorist": 790,
      "concept_stadiumorevent": 791,
      "concept_stadiumoreventvenu": 792,
      "_an": 793,
      "_pets": 794,
      "fl": 795,
      "has": 796,
      "od": 797,
      "tered": 798,
      "al_": 799,
      "amm": 800,
      "artered": 801,
      "concept_athlete_c": 802,
      "allitem": 803,
      "concept_personus": 804,
      "concept_ce": 805,
      "concept_mammal_w": 806,
      "adqu": 807,
      "concept:organizationhe": 808,
      "concept_wallitem": 809,
      "concept_website_new_york": 810,
      "arteredincity": 811,
      "adquarteredincity": 812,
      "concept:organizationheadquarteredincity": 813,
      "concept_website_new_york_times": 814,
      "au": 815,
      "ey": 816,
      "ond": 817,
      "tel": 818,
      "ank": 819,
      "e_b": 820,
      "arr": 821,
      "_brow": 822,
      "concept_meat": 823,
      "concept_athlete_d": 824,
      "ford": 825,
      "ser_window": 826,
      "izable": 827,
      "concept_countr": 828,
      "concept_visualizable": 829,
      "concept_tradeunion_": 830,
      "concept_sportsteam_red_sox": 831,
      "concept_terroristorganization_": 832,
      "concept_wallitem_brow": 833,
      "concept_wallitem_browser_window": 834,
      "_state": 835,
      "ast": 836,
      "ado": 837,
      "ia_": 838,
      "oen": 839,
      "tebr": 840,
      "ord": 841,
      "alorganization_": 842,
      "ertebr": 843,
      "enn": 844,
      "mall": 845,
      "uns": 846,
      "inglanguag": 847,
      "_th": 848,
      "down": 849,
      "concept_city_c": 850,
      "concept_city_ph": 851,
      "concept_personmexico_": 852,
      "concept_company_national": 853,
      "_jo": 854,
      "concept_insect_pests": 855,
      "que": 856,
      "ember": 857,
      "concept_progr": 858,
      "concept_sportsteam_suns": 859,
      "concept_crim": 860,
      "amminglanguag": 861,
      "concept_country_": 862,
      "ertebrate": 863,
      "concept_programminglanguag": 864,
      "ha": 865,
      "hn": 866,
      "hro": 867,
      "ym": 868,
      "ato": 869,
      "ators": 870,
      "lem": 871,
      "ens": 872,
      "ence": 873,
      "ariz": 874,
      "concept_sportsteam_new_york": 875,
      "concept_athlete_p": 876,
      "concept_mammal_t": 877,
      "chocol": 878,
      "app": 879,
      "avid": 880,
      "oston": 881,
      "igh": 882,
      "concept_athlete_br": 883,
      "concept_nongovorganization_": 884,
      "concept_terroristorganization_state": 885,
      "oenix": 886,
      "arizon": 887,
      "concept_mammal_tig": 888,
      "chocolate": 889,
      "_in": 890,
      "ef": 891,
      "gin": 892,
      "ire": 893,
      "iel": 894,
      "rite": 895,
      "rab": 896,
      "small": 897,
      "tt": 898,
      "ug": 899,
      "vent": 900,
      "ves": 901,
      "onvent": 902,
      "concept:sy": 903,
      "alpart": 904,
      "agaz": 905,
      "stay": 906,
      "arg": 907,
      "_bu": 908,
      "concept_magaz": 909,
      "concept_sportsteam_ro": 910,
      "rew": 911,
      "concept_person_m": 912,
      "concept_convent": 913,
      "concept_mammal_h": 914,
      "concept_mammal_small": 915,
      "load": 916,
      "_car": 917,
      "_cubs": 918,
      "concept_insect_m": 919,
      "concept_musicartist_stay": 920,
      "concept_write": 921,
      "guide": 922,
      "nonym": 923,
      "ion_games": 924,
      "concept_politicalpart": 925,
      "concept_athlete_matt": 926,
      "concept_sportsteam_chicago_cubs": 927,
      "concept_geopoliticalorganization_": 928,
      "download": 929,
      "concept_city_phoenix": 930,
      "concept:synonym": 931,
      "concept_magazin": 932,
      "concept_convention_games": 933,
      "concept_writer": 934,
      "concept_politicalparty_": 935,
      "concept:synonymfor": 936,
      "be": 937,
      "if": 938,
      "ler": 939,
      "res": 940,
      "ste": 941,
      "use": 942,
      "ant": 943,
      "ics": 944,
      "rod": 945,
      "ros": 946,
      "ards": 947,
      "_br": 948,
      "chr": 949,
      "concept_sportsteam_p": 950,
      "concept_sportsteam_ph": 951,
      "concept_mammal_p": 952,
      "concept_athlete_r": 953,
      "concept_athlete_t": 954,
      "concept_mammal_pets": 955,
      "invertebrate": 956,
      "concept_plant_c": 957,
      "los": 958,
      "low": 959,
      "concept_city_b": 960,
      "raves": 961,
      "concept_agriculturalproduct_h": 962,
      "ips": 963,
      "concept_coach_m": 964,
      "concept_food_": 965,
      "thing": 966,
      "concept_governmentorganization": 967,
      "orses": 968,
      "attraction": 969,
      "office": 970,
      "concept:personborninlocation": 971,
      "concept:personbornincity": 972,
      "terms": 973,
      "concept_stadiumoreventvenue_": 974,
      "concept_visualizablething": 975,
      "concept_crimin": 976,
      "ight": 977,
      "concept_mammal_horses": 978,
      "bit": 979,
      "ie": 980,
      "ken": 981,
      "tit": 982,
      "ons": 983,
      "alo": 984,
      "inn": 985,
      "ino": 986,
      "orth": 987,
      "_braves": 988,
      "products": 989,
      "concept_blog": 990,
      "_pot": 991,
      "concept_personas": 992,
      "okla": 993,
      "_mid": 994,
      "redators": 995,
      "el_": 996,
      "_sh": 997,
      "concept_company_d": 998,
      "_david": 999,
      "stateorprovince": 1000,
      "cks": 1001,
      "concept_athlete_jo": 1002,
      "concept_landscapefeatures_": 1003,
      "e_cont": 1004,
      "ild_animals": 1005,
      "formation": 1006,
      "concept_mammal_bear": 1007,
      "countr": 1008,
      "concept_politicianus": 1009,
      "concept_mammal_wild_animals": 1010,
      "concept_tradeunion_search": 1011,
      "queen": 1012,
      "concept_programminglanguage_cont": 1013,
      "concept_nongovorganization_guide": 1014,
      "concept_mammal_tigers": 1015,
      "ield": 1016,
      "bits": 1017,
      "_potato": 1018,
      "oklahom": 1019,
      "concept_programminglanguage_contact": 1020,
      "_pe": 1021,
      "af": 1022,
      "eb": 1023,
      "eal": 1024,
      "equ": 1025,
      "gers": 1026,
      "lay": 1027,
      "pod": 1028,
      "onion": 1029,
      "concept_art": 1030,
      "concept_act": 1031,
      "concept_jobposit": 1032,
      "alm": 1033,
      "amire": 1034,
      "ine": 1035,
      "ins": 1036,
      "int": 1037,
      "ery": 1038,
      "lebr": 1039,
      "rec": 1040,
      "ives": 1041,
      "concept_mammal_rab": 1042,
      "wins": 1043,
      "_cel": 1044,
      "_mets": 1045,
      "ake": 1046,
      "concept:personhas": 1047,
      "ipment": 1048,
      "e_milk": 1049,
      "_jun": 1050,
      "concept_beverage_milk": 1051,
      "aple": 1052,
      "irgin": 1053,
      "illies": 1054,
      "illiam": 1055,
      "ion_queen": 1056,
      "concept:animaleatvegetable": 1057,
      "hotel": 1058,
      "jobposition": 1059,
      "concept_celebr": 1060,
      "hropod": 1061,
      "concept_sportsteam_new_york_mets": 1062,
      "concept_magazine_": 1063,
      "concept_mammal_predators": 1064,
      "concept_personasia_": 1065,
      "country": 1066,
      "_potatoes": 1067,
      "oklahoma": 1068,
      "equipment": 1069,
      "concept_arthropod": 1070,
      "concept_actor": 1071,
      "concept_jobposition_queen": 1072,
      "amirez": 1073,
      "concept_mammal_rabbits": 1074,
      "concept:personhasjobposition": 1075,
      "concept_celebrity_": 1076,
      "_a": 1077,
      "_le": 1078,
      "_form": 1079,
      "ack": 1080,
      "city": 1081,
      "fess": 1082,
      "gle": 1083,
      "lions": 1084,
      "port": 1085,
      "pers": 1086,
      "ri": 1087,
      "ress": 1088,
      "ta": 1089,
      "uff": 1090,
      "eptember": 1091,
      "concept_te": 1092,
      "concept:mammal": 1093,
      "concept:attraction": 1094,
      "orado": 1095,
      "an_": 1096,
      "ana": 1097,
      "incountry": 1098,
      "levis": 1099,
      "ents": 1100,
      "station": 1101,
      "rob": 1102,
      "e_w": 1103,
      "ionstation": 1104,
      "cott": 1105,
      "prof": 1106,
      "rick": 1107,
      "_po": 1108,
      "olves": 1109,
      "concept_mammal_rod": 1110,
      "ofcity": 1111,
      "concept_building_": 1112,
      "_cl": 1113,
      "_click": 1114,
      "a_state": 1115,
      "concept_sportsgame_terms": 1116,
      "hib": 1117,
      "hig": 1118,
      "concept_university_m": 1119,
      "concept_animal_h": 1120,
      "concept_agriculturalproduct_c": 1121,
      "concept_agriculturalproduct_m": 1122,
      "concept_personmexico_j": 1123,
      "concept:teamhom": 1124,
      "tern": 1125,
      "_jers": 1126,
      "geles": 1127,
      "concept_animal_chic": 1128,
      "ckies": 1129,
      "concept_bakedgood_b": 1130,
      "suchasmammal": 1131,
      "estadium": 1132,
      "concept_vegetable_onion": 1133,
      "concept_sportsteam_boston": 1134,
      "concept_profess": 1135,
      "concept_nongovorganization": 1136,
      "concept_sportsteam_washington": 1137,
      "feed": 1138,
      "concept_athlete_scott": 1139,
      "_angeles": 1140,
      "apple": 1141,
      "rewers": 1142,
      "los_angeles": 1143,
      "ken001": 1144,
      "title": 1145,
      "concept_company_dc": 1146,
      "concept_televis": 1147,
      "concept:mammalsuchasmammal": 1148,
      "concept:attractionofcity": 1149,
      "concept_mammal_rodents": 1150,
      "concept:teamhomestadium": 1151,
      "concept_animal_chicken001": 1152,
      "concept_televisionstation": 1153,
      "aper": 1154,
      "automobilemaker": 1155,
      "bies": 1156,
      "ey_": 1157,
      "fin": 1158,
      "field": 1159,
      "hol": 1160,
      "ience": 1161,
      "o_": 1162,
      "oc": 1163,
      "outh": 1164,
      "plant": 1165,
      "ry_": 1166,
      "ty": 1167,
      "tball": 1168,
      "tics": 1169,
      "ust": 1170,
      "wan": 1171,
      "concept_fe": 1172,
      "concept:automobilemaker": 1173,
      "anford": 1174,
      "erbs": 1175,
      "len": 1176,
      "icha": 1177,
      "ichig": 1178,
      "concept_sport_f": 1179,
      "male_": 1180,
      "stanford": 1181,
      "land": 1182,
      "rich": 1183,
      "ille": 1184,
      "concept_sportsteam_k": 1185,
      "concept_sportsteam_or": 1186,
      "union": 1187,
      "concept_bank": 1188,
      "ings": 1189,
      "read": 1190,
      "dod": 1191,
      "_ph": 1192,
      "concept_athlete_f": 1193,
      "concept_athlete_w": 1194,
      "concept_athlete_lu": 1195,
      "_babies": 1196,
      "forest": 1197,
      "adam": 1198,
      "ootball": 1199,
      "concept_plant_b": 1200,
      "concept_plant_h": 1201,
      "concept_city_download": 1202,
      "a_d": 1203,
      "concept_sportsgame_title": 1204,
      "_wiz": 1205,
      "_washington": 1206,
      "_william": 1207,
      "concept_animal_babies": 1208,
      "concept_personmexico_m": 1209,
      "cav": 1210,
      "concept_coach_k": 1211,
      "_fr": 1212,
      "concept_animal_ch": 1213,
      "colorado": 1214,
      "concept_stateorprovince_oklahoma": 1215,
      "concept_sportsteam_mar": 1216,
      "concept_date_mid": 1217,
      "house": 1218,
      "concept_agriculturalproduct_products": 1219,
      "ike_": 1220,
      "concept_insect_mites": 1221,
      "chris": 1222,
      "concept_agriculturalproduct_herbs": 1223,
      "ealers": 1224,
      "_celtics": 1225,
      "uffalo": 1226,
      "concept_sportsteam_boston_celtics": 1227,
      "los_angeles_": 1228,
      "concept_sport_football": 1229,
      "_se": 1230,
      "_ch": 1231,
      "aul": 1232,
      "a_t": 1233,
      "ble": 1234,
      "card": 1235,
      "eur": 1236,
      "har": 1237,
      "hite": 1238,
      "nut": 1239,
      "pt": 1240,
      "phi": 1241,
      "play": 1242,
      "right": 1243,
      "uc": 1244,
      "ud": 1245,
      "ver": 1246,
      "wood": 1247,
      "yn": 1248,
      "yle": 1249,
      "za": 1250,
      "onfood": 1251,
      "eph": 1252,
      "concept_amp": 1253,
      "concept_hotel": 1254,
      "concept:has": 1255,
      "concept:invertebrate": 1256,
      "ines": 1257,
      "inson": 1258,
      "instateorprovince": 1259,
      "erre": 1260,
      "spr": 1261,
      "leop": 1262,
      "end": 1263,
      "str": 1264,
      "ull": 1265,
      "ilad": 1266,
      "istons": 1267,
      "concept_sportsteam_d": 1268,
      "concept_sportsteam_cho": 1269,
      "concept_sportsteam_stanford": 1270,
      "concept_sportsteam_cav": 1271,
      "reg": 1272,
      "reen": 1273,
      "ivis": 1274,
      "_pay": 1275,
      "_post": 1276,
      "_penn": 1277,
      "eth": 1278,
      "ett": 1279,
      "_backs": 1280,
      "concept_mammal_lions": 1281,
      "concept_plant_p": 1282,
      "concept_plant_f": 1283,
      "abel": 1284,
      "_cat": 1285,
      "concept_sportsgame_play": 1286,
      "redit": 1287,
      "elphi": 1288,
      "lue_j": 1289,
      "concept_vegetable_potatoes": 1290,
      "exper": 1291,
      "_ste": 1292,
      "_site": 1293,
      "concept_university_search": 1294,
      "rain": 1295,
      "_rep": 1296,
      "_ramirez": 1297,
      "concept_insect_bu": 1298,
      "concept_coach_c": 1299,
      "_white": 1300,
      "new_jers": 1301,
      "iles": 1302,
      "concept_website_washington": 1303,
      "concept_awardtrophytournament_penn": 1304,
      "concept_athlete_jon": 1305,
      "_oct": 1306,
      "irport": 1307,
      "concept_website_exper": 1308,
      "_liv": 1309,
      "concept_month_m": 1310,
      "bert": 1311,
      "concept_nonprof": 1312,
      "offs": 1313,
      "ioles": 1314,
      "concept_visualartist": 1315,
      "concept_mammal_bears": 1316,
      "iamond": 1317,
      "concept_mammal_ferre": 1318,
      "flor": 1319,
      "concept_city_click": 1320,
      "concept_athlete_brian": 1321,
      "arizona_d": 1322,
      "arge_": 1323,
      "concept_mammal_small_pets": 1324,
      "stem": 1325,
      "concept_sportsteam_pistons": 1326,
      "lower": 1327,
      "concept_food_eg": 1328,
      "officeincountry": 1329,
      "concept_criminal_": 1330,
      "concept_blog_form": 1331,
      "record": 1332,
      "irginia": 1333,
      "hibian": 1334,
      "concept_professor": 1335,
      "feedonfood": 1336,
      "wan_braves": 1337,
      "concept:automobilemakercard": 1338,
      "ichigan": 1339,
      "concept_sportsteam_orioles": 1340,
      "dodgers": 1341,
      "concept_athlete_luis": 1342,
      "_wizards": 1343,
      "concept_animal_child": 1344,
      "ealersinstateorprovince": 1345,
      "concept_amphibian": 1346,
      "concept:hasofficeincountry": 1347,
      "concept:invertebratefeedonfood": 1348,
      "iladelphi": 1349,
      "concept_sportsteam_chowan_braves": 1350,
      "concept_sportsgame_playoffs": 1351,
      "lue_jays": 1352,
      "concept_insect_bugs": 1353,
      "concept_website_washington_post": 1354,
      "concept_awardtrophytournament_pennant": 1355,
      "concept_website_experience": 1356,
      "concept_nonprofit": 1357,
      "iamond_backs": 1358,
      "concept_mammal_ferrets": 1359,
      "arizona_diamond_backs": 1360,
      "concept:automobilemakercardealersinstateorprovince": 1361,
      "_co": 1362,
      "ba_": 1363,
      "but": 1364,
      "blog": 1365,
      "cu": 1366,
      "der": 1367,
      "ea": 1368,
      "ec": 1369,
      "ech": 1370,
      "eet": 1371,
      "eff": 1372,
      "fo": 1373,
      "grow": 1374,
      "hun": 1375,
      "ll": 1376,
      "mest": 1377,
      "og": 1378,
      "rep": 1379,
      "s_": 1380,
      "sh": 1381,
      "site": 1382,
      "sci": 1383,
      "sblog": 1384,
      "uk": 1385,
      "uice": 1386,
      "ville": 1387,
      "way": 1388,
      "yals": 1389,
      "onn": 1390,
      "oney": 1391,
      "concept_new": 1392,
      "concept_record": 1393,
      "tech": 1394,
      "ores": 1395,
      "ories": 1396,
      "ano": 1397,
      "ants": 1398,
      "in_b": 1399,
      "ineg": 1400,
      "inter": 1401,
      "information": 1402,
      "inplant": 1403,
      "spaper": 1404,
      "urse": 1405,
      "e_field": 1406,
      "arl": 1407,
      "arn": 1408,
      "course": 1409,
      "esot": 1410,
      "y_s": 1411,
      "ater": 1412,
      "_bur": 1413,
      "_brown": 1414,
      "concept_sportsteam_new_jers": 1415,
      "inginplant": 1416,
      "ass": 1417,
      "concept_athlete_k": 1418,
      "alloc": 1419,
      "concept_personau": 1420,
      "concept_credit": 1421,
      "_tab": 1422,
      "_tour": 1423,
      "concept_mammal_k": 1424,
      "concept_mammal_mammal": 1425,
      "concept_plant_t": 1426,
      "usk": 1427,
      "concept_city_d": 1428,
      "concept_city_m": 1429,
      "_cake": 1430,
      "_mexico": 1431,
      "_web": 1432,
      "_september": 1433,
      "rapt": 1434,
      "concept:plantgrow": 1435,
      "_peppers": 1436,
      "concept_company_m": 1437,
      "concept_company_n": 1438,
      "terfl": 1439,
      "_ho": 1440,
      "e_mail": 1441,
      "_der": 1442,
      "_divis": 1443,
      "georg": 1444,
      "ober": 1445,
      "new_mexico": 1446,
      "concept_mammal_domest": 1447,
      "_files": 1448,
      "umans": 1449,
      "osh": 1450,
      "ern_": 1451,
      "concept_awardtrophytournament_n": 1452,
      "concept_awardtrophytournament_divis": 1453,
      "concept_bakedgood_p": 1454,
      "concept_stateorprovince_m": 1455,
      "uthor": 1456,
      "concept_sportsteam_north": 1457,
      "_nov": 1458,
      "concept_stateorprovince_v": 1459,
      "concept_stateorprovince_course": 1460,
      "concept_journalist_t": 1461,
      "concept_journalist_d": 1462,
      "_val": 1463,
      "_vineg": 1464,
      "concept_sportsteam_twins": 1465,
      "concept_politicsblog": 1466,
      "_butterfl": 1467,
      "concept_sportsteam_maple": 1468,
      "concept_vegetable_sp": 1469,
      "concept_county_los_angeles_": 1470,
      "concept_county_new_mexico": 1471,
      "concept_date_": 1472,
      "concept_sportsteam_brewers": 1473,
      "iow": 1474,
      "lins": 1475,
      "system": 1476,
      "ansas": 1477,
      "county": 1478,
      "_anton": 1479,
      "concept_personus_m": 1480,
      "concept_mammal_wolves": 1481,
      "concept_meat_s": 1482,
      "_this": 1483,
      "arizona": 1484,
      "concept_mammal_small_animals": 1485,
      "concept_geopoliticalorganization_e_mail": 1486,
      "concept_writer_brown": 1487,
      "concept_sportsteam_philadelphi": 1488,
      "innesot": 1489,
      "concept_athlete_john": 1490,
      "afs": 1491,
      "_june": 1492,
      "concept_personasia_site": 1493,
      "_leafs": 1494,
      "concept_animal_humans": 1495,
      "concept_sportsteam_washington_wizards": 1496,
      "concept_televisionstation_k": 1497,
      "finals": 1498,
      "ichael": 1499,
      "concept_sportsteam_marlins": 1500,
      "_october": 1501,
      "florid": 1502,
      "ba_finals": 1503,
      "concept_newspaper": 1504,
      "concept_recordl": 1505,
      "allocation": 1506,
      "concept_personaustr": 1507,
      "concept_creditunion": 1508,
      "concept_mammal_mammals": 1509,
      "raptors": 1510,
      "concept:plantgrowinginplant": 1511,
      "concept_mammal_domestic": 1512,
      "concept_awardtrophytournament_nba_finals": 1513,
      "concept_awardtrophytournament_division": 1514,
      "_vinegar": 1515,
      "_butterflies": 1516,
      "concept_sportsteam_maple_leafs": 1517,
      "concept_county_los_angeles_county": 1518,
      "_2": 1519,
      "_state_university": 1520,
      "_season": 1521,
      "_and": 1522,
      "_chocolate": 1523,
      "ace": 1524,
      "by": 1525,
      "cen": 1526,
      "cus": 1527,
      "d_pets": 1528,
      "ez": 1529,
      "ement": 1530,
      "hall": 1531,
      "mov": 1532,
      "ner": 1533,
      "ock": 1534,
      "pic": 1535,
      "ping": 1536,
      "ren": 1537,
      "uit": 1538,
      "uck": 1539,
      "va": 1540,
      "ve": 1541,
      "west": 1542,
      "well": 1543,
      "weet": 1544,
      "yr": 1545,
      "concept_gra": 1546,
      "concept_male_": 1547,
      "concept_sci": 1548,
      "tex": 1549,
      "ory": 1550,
      "oria": 1551,
      "ang": 1552,
      "alex": 1553,
      "alia": 1554,
      "amil": 1555,
      "inach": 1556,
      "enc": 1557,
      "rots": 1558,
      "robert": 1559,
      "e_s": 1560,
      "eds": 1561,
      "concept_sportsequipment": 1562,
      "athan": 1563,
      "ari": 1564,
      "ary": 1565,
      "area": 1566,
      "esequipment": 1567,
      "estern": 1568,
      "concept_park": 1569,
      "_bull": 1570,
      "concept_sportsteam_dodgers": 1571,
      "concept_sportsteam_arizona_diamond_backs": 1572,
      "concept_sportsteam_raptors": 1573,
      "olives": 1574,
      "inger": 1575,
      "docu": 1576,
      "ivores": 1577,
      "_page": 1578,
      "concept_athlete_g": 1579,
      "concept_athlete_h": 1580,
      "concept_athlete_l": 1581,
      "concept_athlete_n": 1582,
      "concept_athlete_ch": 1583,
      "concept_person_s": 1584,
      "concept_person_j": 1585,
      "concept_personeur": 1586,
      "etail": 1587,
      "comm": 1588,
      "artic": 1589,
      "concept_mammal_house": 1590,
      "oft": 1591,
      "oogle": 1592,
      "concept_plant_m": 1593,
      "concept_plant_w": 1594,
      "concept_plant_be": 1595,
      "usage": 1596,
      "usesequipment": 1597,
      "concept_city_lin": 1598,
      "_mor": 1599,
      "eliz": 1600,
      "lum": 1601,
      "concept_vegetable_car": 1602,
      "concept:sportusesequipment": 1603,
      "_sc": 1604,
      "_sites": 1605,
      "_sweet": 1606,
      "concept_animal_m": 1607,
      "concept_agriculturalproduct_liv": 1608,
      "concept_insect_butterflies": 1609,
      "concept_company_new_york": 1610,
      "concept_company_ado": 1611,
      "ipp": 1612,
      "concept_coach_j": 1613,
      "concept_coach_br": 1614,
      "ters": 1615,
      "terson": 1616,
      "_hond": 1617,
      "_des": 1618,
      "_jon": 1619,
      "_jul": 1620,
      "osa": 1621,
      "concept_animal_l": 1622,
      "concept_athlete_jason": 1623,
      "_oak": 1624,
      "apr": 1625,
      "_bears": 1626,
      "estock": 1627,
      "email": 1628,
      "concept_website_download": 1629,
      "concept_animal_carn": 1630,
      "concept_sportsteam_mav": 1631,
      "concept_sportsteam_michigan": 1632,
      "concept_sportsteam_minnesot": 1633,
      "concept_month_september": 1634,
      "concept_month_june": 1635,
      "concept_month_october": 1636,
      "concept_athlete_mark": 1637,
      "concept_vegetable_le": 1638,
      "concept_county_chicago": 1639,
      "essage": 1640,
      "concept_sportsteam_blue_jays": 1641,
      "anda": 1642,
      "_green": 1643,
      "attle": 1644,
      "concept_automobilemaker_hond": 1645,
      "concept_governmentorganization_office": 1646,
      "concept_tradeunion": 1647,
      "concept_sportsteam_chicago_bull": 1648,
      "ideo": 1649,
      "concept_sportsteam_white": 1650,
      "concept_bakedgood_chocolate": 1651,
      "concept_geopoliticallocation": 1652,
      "concept_ceo": 1653,
      "arry": 1654,
      "arry_": 1655,
      "concept_sportsteam_red_sox_this": 1656,
      "_john": 1657,
      "lemon": 1658,
      "concept_athlete_pr": 1659,
      "_information": 1660,
      "concept_sportsteam_rockies": 1661,
      "concept_person_michael": 1662,
      "bees": 1663,
      "stein": 1664,
      "concept_city_boston": 1665,
      "concept_coach_mike_": 1666,
      "concept_criminal": 1667,
      "_shr": 1668,
      "almon": 1669,
      "robinson": 1670,
      "concept_university_message": 1671,
      "concept_nongovorganization_tour": 1672,
      "hold_pets": 1673,
      "concept_femal": 1674,
      "concept_personmexico_matt": 1675,
      "ynn": 1676,
      "region": 1677,
      "concept_food_eggs": 1678,
      "concept_professor_david": 1679,
      "concept_animal_children": 1680,
      "concept_stateorprovince_virginia": 1681,
      "concept_journalist_dana": 1682,
      "concept_vegetable_spinach": 1683,
      "iowa_state": 1684,
      "concept_recordlabel": 1685,
      "concept_personaustralia": 1686,
      "concept_mammal_domestic_animals": 1687,
      "concept_scient": 1688,
      "document": 1689,
      "concept_personeurop": 1690,
      "concept_mammal_household_pets": 1691,
      "concept_vegetable_carrots": 1692,
      "concept_agriculturalproduct_livestock": 1693,
      "concept_company_adobe": 1694,
      "concept_animal_carnivores": 1695,
      "concept_sportsteam_michigan_state": 1696,
      "concept_automobilemaker_honda": 1697,
      "concept_sportsteam_chicago_bulls": 1698,
      "concept_sportsteam_white_sox": 1699,
      "concept_sportsteam_red_sox_this_season": 1700,
      "concept_person_michael002": 1701,
      "17": 1702,
      "9_": 1703,
      "_i": 1704,
      "_on": 1705,
      "_al": 1706,
      "_series": 1707,
      "_app": 1708,
      "_rich": 1709,
      "_apr": 1710,
      "ah": 1711,
      "aur": 1712,
      "aro": 1713,
      "ay_": 1714,
      "a_ph": 1715,
      "author": 1716,
      "ban": 1717,
      "can": 1718,
      "cis": 1719,
      "ees": 1720,
      "e001": 1721,
      "fr": 1722,
      "fer": 1723,
      "gar": 1724,
      "google": 1725,
      "hil": 1726,
      "ien": 1727,
      "nic": 1728,
      "nets": 1729,
      "ous": 1730,
      "pr": 1731,
      "pill": 1732,
      "rat": 1733,
      "scen": 1734,
      "ue": 1735,
      "ucks": 1736,
      "wau": 1737,
      "onte": 1738,
      "ony_": 1739,
      "concept_t": 1740,
      "concept_arch": 1741,
      "concept_invertebrate": 1742,
      "concept_nut": 1743,
      "orl": 1744,
      "ane": 1745,
      "ansport": 1746,
      "ancis": 1747,
      "alk": 1748,
      "amb": 1749,
      "ame": 1750,
      "amon": 1751,
      "ames": 1752,
      "amanda": 1753,
      "ina": 1754,
      "er001": 1755,
      "agre": 1756,
      "spur": 1757,
      "leve": 1758,
      "itt": 1759,
      "ices": 1760,
      "icros": 1761,
      "enter": 1762,
      "enem": 1763,
      "ura": 1764,
      "mals": 1765,
      "ct_app": 1766,
      "e_k": 1767,
      "e_o": 1768,
      "e_st": 1769,
      "e_email": 1770,
      "edto": 1771,
      "colum": 1772,
      "seattle": 1773,
      "ateg": 1774,
      "_bob": 1775,
      "_bell": 1776,
      "ilwau": 1777,
      "concept_sportsteam_bears": 1778,
      "concept_sportsteam_florid": 1779,
      "concept_sportsteam_spur": 1780,
      "unta": 1781,
      "itect_app": 1782,
      "concept_bir": 1783,
      "concept_bio": 1784,
      "refer": 1785,
      "doug": 1786,
      "_part": 1787,
      "_pup": 1788,
      "concept_athlete_alex": 1789,
      "allas": 1790,
      "concept_person_h": 1791,
      "concept_person_st": 1792,
      "etles": 1793,
      "artment": 1794,
      "concept_mammal_mals": 1795,
      "winter": 1796,
      "ada": 1797,
      "ade_b": 1798,
      "concept_plant_white": 1799,
      "concept_plant_shr": 1800,
      "abres": 1801,
      "abeth": 1802,
      "ushro": 1803,
      "concept_city_s": 1804,
      "concept_city_artic": 1805,
      "_cra": 1806,
      "_card": 1807,
      "_cater": 1808,
      "_mc": 1809,
      "_mo": 1810,
      "_mar": 1811,
      "_mil": 1812,
      "_we": 1813,
      "eliss": 1814,
      "elines": 1815,
      "uts": 1816,
      "concept_vegetable_p": 1817,
      "concept_vegetable_vinegar": 1818,
      "_san": 1819,
      "_sal": 1820,
      "_sabres": 1821,
      "_tree": 1822,
      "concept_university_google": 1823,
      "concept_animal_pup": 1824,
      "concept_agriculturalproduct_s": 1825,
      "concept_insect_b": 1826,
      "concept_insect_be": 1827,
      "concept_insect_cater": 1828,
      "department": 1829,
      "concept:personmov": 1830,
      "concept_company_winter": 1831,
      "concept_coach_p": 1832,
      "concept_coach_t": 1833,
      "concept_coach_n": 1834,
      "_har": 1835,
      "e_myr": 1836,
      "_kr": 1837,
      "ericks": 1838,
      "concept_insect_ants": 1839,
      "concept_food_bell": 1840,
      "concept_mammal_dog": 1841,
      "_fl": 1842,
      "ebsites": 1843,
      "_stadium": 1844,
      "concept_animal_leop": 1845,
      "ckets": 1846,
      "iants": 1847,
      "concept_athlete_jim": 1848,
      "opping": 1849,
      "_beef": 1850,
      "_natur": 1851,
      "aves": 1852,
      "iller": 1853,
      "concept_plant_co": 1854,
      "concept_plant_ch": 1855,
      "concept_sportsteam_milwau": 1856,
      "_lin": 1857,
      "kee_b": 1858,
      "concept_person_amanda": 1859,
      "concept_sportsteam_buffalo": 1860,
      "concept_sportsteam_bucks": 1861,
      "concept_person_butler": 1862,
      "andy_": 1863,
      "_giants": 1864,
      "ice001": 1865,
      "concept_transport": 1866,
      "concept_sportsteam_reds": 1867,
      "concept_coach_document": 1868,
      "concept_crust": 1869,
      "_rose": 1870,
      "_rockies": 1871,
      "concept_athlete_sha": 1872,
      "concept_mammal_felines": 1873,
      "al_enem": 1874,
      "concept_personus_": 1875,
      "concept_meat_beef": 1876,
      "concept_visualizablescen": 1877,
      "quez": 1878,
      "concept_country_uk": 1879,
      "concept_programminglanguage_email": 1880,
      "concept_sportsteam_new_york_giants": 1881,
      "concept_athlete_phil": 1882,
      "concept_sportsteam_royals": 1883,
      "concept_sportsteam_rockets": 1884,
      "concept_person_meliss": 1885,
      "concept_politicalparty_way": 1886,
      "ific": 1887,
      "_brad": 1888,
      "concept_sportsteam_phillies": 1889,
      "concept_athlete_tom": 1890,
      "concept_plant_crep": 1891,
      "concept_city_buffalo": 1892,
      "concept_coach_matt": 1893,
      "concept_visualizablething_tree": 1894,
      "_shopping": 1895,
      "concept_magazine_system": 1896,
      "concept_arthropod_files": 1897,
      "concept_arthropod_natur": 1898,
      "concept_actor_p": 1899,
      "_airport": 1900,
      "_point": 1901,
      "_clip": 1902,
      "ey_nets": 1903,
      "concept_sportsteam_knic": 1904,
      "concept_bank_": 1905,
      "concept_athlete_wade_b": 1906,
      "_francis": 1907,
      "colorado_rockies": 1908,
      "a_twins": 1909,
      "ucla": 1910,
      "spring": 1911,
      "concept_sportsteam_dallas": 1912,
      "concept_sportsteam_cavs": 1913,
      "rainforest": 1914,
      "concept_month_may": 1915,
      "arge_animals": 1916,
      "concept_nonprofitorganization_": 1917,
      "oggs": 1918,
      "techcompany_": 1919,
      "international": 1920,
      "concept_sportsteam_new_jersey_nets": 1921,
      "concept_mammal_kids": 1922,
      "concept_plant_tul": 1923,
      "_hotel": 1924,
      "concept_sportsteam_northern_": 1925,
      "_november": 1926,
      "_valley": 1927,
      "_antoni": 1928,
      "concept_sportsteam_philadelphia_ph": 1929,
      "_29_": 1930,
      "concept_athlete_larry_": 1931,
      "etails": 1932,
      "concept_plant_beech": 1933,
      "concept_city_link": 1934,
      "elizabeth": 1935,
      "concept_animal_mice001": 1936,
      "concept_coach_brian": 1937,
      "concept_animal_large_animals": 1938,
      "concept_sportsteam_minnesota_twins": 1939,
      "concept_vegetable_leaves": 1940,
      "concept_personeurope_": 1941,
      "_april": 1942,
      "pillars": 1943,
      "concept_architect_app": 1944,
      "agreement": 1945,
      "icrosoft": 1946,
      "edtostateorprovince": 1947,
      "columb": 1948,
      "concept_sportsteam_bears_29_": 1949,
      "concept_sportsteam_florida_": 1950,
      "concept_sportsteam_spurs": 1951,
      "concept_bird": 1952,
      "concept_biotechcompany_": 1953,
      "concept_plant_shrubs": 1954,
      "ushroom": 1955,
      "concept_city_articles": 1956,
      "concept_insect_beetles": 1957,
      "concept_insect_caterpillars": 1958,
      "concept:personmovedtostateorprovince": 1959,
      "e_myrt": 1960,
      "concept_food_bell_peppers": 1961,
      "concept_animal_leopards": 1962,
      "concept_sportsteam_milwaukee_b": 1963,
      "concept_sportsteam_buffalo_sabres": 1964,
      "concept_person_butler001": 1965,
      "concept_transportation": 1966,
      "concept_crustace": 1967,
      "al_enemies": 1968,
      "concept_person_melissa": 1969,
      "concept_plant_crepe_myrt": 1970,
      "concept_arthropod_natural_enemies": 1971,
      "concept_sportsteam_knicks": 1972,
      "concept_athlete_wade_boggs": 1973,
      "_francisco": 1974,
      "concept_sportsteam_philadelphia_phillies": 1975,
      "concept_architect_application": 1976,
      "concept_sportsteam_bears_29_17": 1977,
      "_com": 1978,
      "_lo": 1979,
      "_im": 1980,
      "_yo": 1981,
      "_pests": 1982,
      "_products": 1983,
      "_region": 1984,
      "aw": 1985,
      "aco": 1986,
      "a_c": 1987,
      "a_m": 1988,
      "aff": 1989,
      "asts": 1990,
      "a_braves": 1991,
      "ausage": 1992,
      "bu": 1993,
      "bor": 1994,
      "bur": 1995,
      "bers": 1996,
      "by_": 1997,
      "bre": 1998,
      "bank": 1999,
      "cess": 2000,
      "df": 2001,
      "dy_": 2002,
      "dez": 2003,
      "details": 2004,
      "ew": 2005,
      "eor": 2006,
      "east": 2007,
      "flower": 2008,
      "gh": 2009,
      "go": 2010,
      "get": 2011,
      "gom": 2012,
      "gets": 2013,
      "hr": 2014,
      "ham": 2015,
      "hart": 2016,
      "ial": 2017,
      "ilant": 2018,
      "ius": 2019,
      "iff": 2020,
      "i_state": 2021,
      "ie_w": 2022,
      "i_i": 2023,
      "korn": 2024,
      "kins": 2025,
      "list": 2026,
      "las": 2027,
      "lim": 2028,
      "mith": 2029,
      "nol": 2030,
      "north": 2031,
      "ow": 2032,
      "out": 2033,
      "oth": 2034,
      "ps": 2035,
      "pol": 2036,
      "rips": 2037,
      "sk": 2038,
      "san": 2039,
      "tton": 2040,
      "tions": 2041,
      "toria": 2042,
      "u_h": 2043,
      "vin": 2044,
      "vertebrate": 2045,
      "wam": 2046,
      "war": 2047,
      "wolves": 2048,
      "western": 2049,
      "websites": 2050,
      "yp": 2051,
      "ys": 2052,
      "ybu": 2053,
      "one": 2054,
      "onto": 2055,
      "concept_ch": 2056,
      "concept_win": 2057,
      "concept_event": 2058,
      "concept_languag": 2059,
      "concept_attraction": 2060,
      "concept_fr": 2061,
      "concept_vertebrate": 2062,
      "concept:langu": 2063,
      "ora": 2064,
      "oreg": 2065,
      "orter": 2066,
      "orey_": 2067,
      "ori_i": 2068,
      "oronto": 2069,
      "ann": 2070,
      "any": 2071,
      "anana": 2072,
      "ald": 2073,
      "atlant": 2074,
      "atives": 2075,
      "ama": 2076,
      "iners": 2077,
      "inori_i": 2078,
      "era": 2079,
      "ert": 2080,
      "ages": 2081,
      "agnol": 2082,
      "spani": 2083,
      "ito": 2084,
      "ities": 2085,
      "ick": 2086,
      "ictoria": 2087,
      "enators": 2088,
      "enver": 2089,
      "enhun": 2090,
      "urt": 2091,
      "entuck": 2092,
      "entatives": 2093,
      "anie001": 2094,
      "stories": 2095,
      "ropic": 2096,
      "e_g": 2097,
      "e_pets": 2098,
      "e_stadium": 2099,
      "e_information": 2100,
      "e_spani": 2101,
      "edia": 2102,
      "arm": 2103,
      "arro": 2104,
      "arley": 2105,
      "arva": 2106,
      "esu_h": 2107,
      "y_pets": 2108,
      "_bo": 2109,
      "_bro": 2110,
      "_bir": 2111,
      "rice": 2112,
      "charge_": 2113,
      "chien": 2114,
      "duct_tab": 2115,
      "concept_sportsteam_la": 2116,
      "concept_sportsteam_ast": 2117,
      "concept_sportsteam_atlant": 2118,
      "concept_sportsteam_esu_h": 2119,
      "pet": 2120,
      "peach": 2121,
      "ung": 2122,
      "unflower": 2123,
      "oll": 2124,
      "oliv": 2125,
      "ing_w": 2126,
      "reet": 2127,
      "rell": 2128,
      "dom": 2129,
      "_pen": 2130,
      "_pop": 2131,
      "_pie": 2132,
      "_play": 2133,
      "_pine": 2134,
      "concept_athlete_z": 2135,
      "concept_athlete_te": 2136,
      "concept_athlete_ro": 2137,
      "concept_athlete_ak": 2138,
      "concept_athlete_chris": 2139,
      "concept_athlete_robinson": 2140,
      "concept_person_w": 2141,
      "concept_person_k": 2142,
      "concept_person_d": 2143,
      "concept_person_v": 2144,
      "concept_person_l": 2145,
      "concept_personaf": 2146,
      "concept_person_william": 2147,
      "etro": 2148,
      "eties": 2149,
      "come_b": 2150,
      "_tod": 2151,
      "_tropic": 2152,
      "evin": 2153,
      "ofuniversity": 2154,
      "forum": 2155,
      "add": 2156,
      "concept_building_t": 2157,
      "concept_building_c": 2158,
      "ook": 2159,
      "concept_plant_s": 2160,
      "usc": 2161,
      "insect_pests": 2162,
      "concept_city_v": 2163,
      "concept_city_in": 2164,
      "concept_city_seattle": 2165,
      "concept_city_hart": 2166,
      "_city_": 2167,
      "_cart": 2168,
      "_cap": 2169,
      "_cano": 2170,
      "_cilant": 2171,
      "iser": 2172,
      "isman": 2173,
      "iscus": 2174,
      "isenhun": 2175,
      "_man": 2176,
      "_maple": 2177,
      "_ming_w": 2178,
      "ableitem": 2179,
      "akes": 2180,
      "_west": 2181,
      "_wild": 2182,
      "_wright": 2183,
      "_worl": 2184,
      "hids": 2185,
      "elm": 2186,
      "elvin": 2187,
      "extern": 2188,
      "_south": 2189,
      "_sue": 2190,
      "_senators": 2191,
      "concept_musicartist_th": 2192,
      "concept_animal_be": 2193,
      "rail": 2194,
      "ravis": 2195,
      "concept_agriculturalproduct_v": 2196,
      "concept_personmexico_d": 2197,
      "_res": 2198,
      "concept_insect_th": 2199,
      "concept_company_serv": 2200,
      "concept_company_apple": 2201,
      "concept_company_stories": 2202,
      "concept_coach_v": 2203,
      "concept_coach_der": 2204,
      "003": 2205,
      "_ham": 2206,
      "_her": 2207,
      "_hoff": 2208,
      "e_mary": 2209,
      "_kal": 2210,
      "_kia": 2211,
      "concept_airport": 2212,
      "ississ": 2213,
      "_dis": 2214,
      "_dem": 2215,
      "_dia": 2216,
      "_dec": 2217,
      "concept_sportsleague_field": 2218,
      "_juice": 2219,
      "_whisenhun": 2220,
      "idg": 2221,
      "ides": 2222,
      "ublic": 2223,
      "newman": 2224,
      "concept_insect_ap": 2225,
      "concept_insect_insect_pests": 2226,
      "concept_beverage_but": 2227,
      "concept_beverage_lemon": 2228,
      "_fres": 2229,
      "umble": 2230,
      "umbers": 2231,
      "concept_animal_pet": 2232,
      "quest": 2233,
      "query": 2234,
      "concept_athlete_jer": 2235,
      "concept_athlete_jeff": 2236,
      "concept_athlete_josh": 2237,
      "options": 2238,
      "irst": 2239,
      "_beans": 2240,
      "_ni": 2241,
      "illino": 2242,
      "yog": 2243,
      "concept_stateorprovince_f": 2244,
      "concept_stateorprovince_georg": 2245,
      "concept_stateorprovince_details": 2246,
      "emo": 2247,
      "ostation": 2248,
      "concept_website_read": 2249,
      "concept_website_tex": 2250,
      "concept_journalist_": 2251,
      "concept_journalist_jo": 2252,
      "concept_journalist_ste": 2253,
      "concept_journalist_jon": 2254,
      "_video": 2255,
      "concept_sportsteam_ncaa_m": 2256,
      "adiostation": 2257,
      "concept_plant_peach": 2258,
      "concept_plant_elm": 2259,
      "_larva": 2260,
      "ornets": 2261,
      "bell": 2262,
      "key_": 2263,
      "concept_athlete_mik": 2264,
      "concept_athlete_mike_": 2265,
      "concept_person_al": 2266,
      "concept_person_adam": 2267,
      "concept_person_chris": 2268,
      "concept_person_robert": 2269,
      "concept_person_newman": 2270,
      "concept_person_query": 2271,
      "concept_county_san": 2272,
      "berwolves": 2273,
      "la_m": 2274,
      "concept_date_f": 2275,
      "anders": 2276,
      "_gar": 2277,
      "ot_pepper": 2278,
      "aliers": 2279,
      "arsley": 2280,
      "concept_product_tab": 2281,
      "homas": 2282,
      "concept_agriculturalproduct_ch": 2283,
      "concept_radiostation": 2284,
      "ageofuniversity": 2285,
      "concept_automobilemaker_information": 2286,
      "concept_automobilemaker_kia": 2287,
      "position": 2288,
      "concept_landscapefeatures_tropic": 2289,
      "heiser": 2290,
      "ven_pe": 2291,
      "line": 2292,
      "e_click": 2293,
      "e_cake": 2294,
      "concept_sportsteam_yanks": 2295,
      "iklas": 2296,
      "logan": 2297,
      "concept_reptile_": 2298,
      "concept_reptile_m": 2299,
      "concept_sportsgame_championships": 2300,
      "_ros": 2301,
      "ontgom": 2302,
      "e_jaco": 2303,
      "concept_mammal_famil": 2304,
      "termilk": 2305,
      "concept_politician_jo": 2306,
      "concept_politician_sites": 2307,
      "concept_stadiumoreventvenue_j": 2308,
      "fly": 2309,
      "concept_athlete_corey_": 2310,
      "concept_personus_pay": 2311,
      "concept_personus_sue": 2312,
      "concept_meat_ham": 2313,
      "concept_athlete_david": 2314,
      "ordan": 2315,
      "enn_state": 2316,
      "concept_personmexico_colorado_rockies": 2317,
      "concept_crimeor": 2318,
      "ens_mid": 2319,
      "concept_athlete_brad": 2320,
      "concept_nongovorganization_information": 2321,
      "concept_mammal_tiger": 2322,
      "_ind": 2323,
      "ugh": 2324,
      "uggets": 2325,
      "_bud": 2326,
      "concept_insect_moth": 2327,
      "concept_geopoliticalorganization_options": 2328,
      "concept_writer_": 2329,
      "concept_politicalparty_house": 2330,
      "iflower": 2331,
      "resentatives": 2332,
      "concept_athlete_travis": 2333,
      "concept_agriculturalproduct_hot_pepper": 2334,
      "alog": 2335,
      "concept_politicianus_pe": 2336,
      "concept_personasia_chien": 2337,
      "concept_celebrity_s": 2338,
      "rick_rose": 2339,
      "concept_animal_hous": 2340,
      "concept_agriculturalproduct_caul": 2341,
      "concept_agriculturalproduct_cuc": 2342,
      "concept_agriculturalproduct_mint": 2343,
      "concept_agriculturalproduct_mushroom": 2344,
      "concept_personmexico_josh": 2345,
      "concept_bakedgood_banana": 2346,
      "concept_female_": 2347,
      "concept_sportsteam_kansas": 2348,
      "concept_plant_box": 2349,
      "_seeds": 2350,
      "harbor": 2351,
      "ephanie001": 2352,
      "concept_hotel_": 2353,
      "concept_sportsteam_cavaliers": 2354,
      "concept_plant_palm": 2355,
      "_representatives": 2356,
      "concept_month_march": 2357,
      "concept_amphibian_": 2358,
      "concept_nonprofitorganization": 2359,
      "in_barley": 2360,
      "arlstein": 2361,
      "concept_athlete_kyle": 2362,
      "_web_site": 2363,
      "concept_company_microsoft": 2364,
      "_derosa": 2365,
      "concept_journalist_tony_": 2366,
      "concept_journalist_thomas": 2367,
      "concept_politicsblog_w": 2368,
      "concept_meat_salmon": 2369,
      "concept_meat_sausage": 2370,
      "_anderson": 2371,
      "uit_f": 2372,
      "west_region": 2373,
      "concept_grain_barley": 2374,
      "athan_we": 2375,
      "arieties": 2376,
      "concept_plant_magnol": 2377,
      "_more_information": 2378,
      "ippi_state": 2379,
      "_july": 2380,
      "concept_athlete_jason_k": 2381,
      "concept_sportsteam_mavs": 2382,
      "concept_athlete_mark_derosa": 2383,
      "concept_tradeunion_web_site": 2384,
      "concept_athlete_print": 2385,
      "concept_criminal_web": 2386,
      "concept_female_mary": 2387,
      "concept_personmexico_matt_dia": 2388,
      "concept_journalist_dana_mil": 2389,
      "concept_personaustralia_more_information": 2390,
      "concept_scientific": 2391,
      "_onions": 2392,
      "eese": 2393,
      "onten": 2394,
      "concept_tableitem": 2395,
      "leveland": 2396,
      "e_oak": 2397,
      "concept_person_harry": 2398,
      "concept_person_stephanie001": 2399,
      "_craig": 2400,
      "_mounta": 2401,
      "concept_vegetable_parsley": 2402,
      "concept_animal_pups": 2403,
      "concept_agriculturalproduct_sunflower": 2404,
      "concept_insect_bumble": 2405,
      "_krist": 2406,
      "_bradley": 2407,
      "_shopping_cart": 2408,
      "concept_actor_pdf": 2409,
      "_clippers": 2410,
      "concept_bank_iowa_state": 2411,
      "concept_sportsteam_northern_arizona": 2412,
      "concept_sportsteam_florida_international": 2413,
      "concept_sportsteam_milwaukee_brewers": 2414,
      "concept_crustacean": 2415,
      "_young": 2416,
      "kornheiser": 2417,
      "outcome_b": 2418,
      "wamura": 2419,
      "ybugs": 2420,
      "concept_chef": 2421,
      "concept_eventoutcome_b": 2422,
      "concept_language_spani": 2423,
      "concept_fruit_f": 2424,
      "concept:languageofuniversity": 2425,
      "inori_iwamura": 2426,
      "concept_sportsteam_la_clippers": 2427,
      "concept_sportsteam_astros": 2428,
      "concept_sportsteam_atlanta_braves": 2429,
      "concept_sportsteam_esu_hornets": 2430,
      "_player": 2431,
      "concept_athlete_akinori_iwamura": 2432,
      "concept_athlete_robinson_cano": 2433,
      "concept_person_victoria": 2434,
      "concept_person_lynn": 2435,
      "concept_personafric": 2436,
      "concept_person_william001": 2437,
      "_today": 2438,
      "concept_city_hartford": 2439,
      "_cilantro": 2440,
      "_ming_wang": 2441,
      "_world": 2442,
      "external": 2443,
      "concept_musicartist_things": 2444,
      "concept_animal_beasts": 2445,
      "concept_agriculturalproduct_varieties": 2446,
      "concept_insect_thrips": 2447,
      "concept_company_services": 2448,
      "concept_coach_derrick_rose": 2449,
      "_hoffman": 2450,
      "ississippi_state": 2451,
      "_whisenhunt": 2452,
      "concept_insect_aphids": 2453,
      "concept_beverage_buttermilk": 2454,
      "concept_beverage_lemon_juice": 2455,
      "_fresh": 2456,
      "question": 2457,
      "illinois": 2458,
      "concept_stateorprovince_georgia": 2459,
      "concept_website_reader": 2460,
      "concept_website_text": 2461,
      "concept_journalist_steven_pe": 2462,
      "concept_journalist_jonathan_we": 2463,
      "concept_sportsteam_ncaa_mens_mid": 2464,
      "_larvae": 2465,
      "concept_athlete_mike_jaco": 2466,
      "concept_person_robert003": 2467,
      "concept_landscapefeatures_tropical_": 2468,
      "ontgomery": 2469,
      "concept_mammal_family_pets": 2470,
      "concept_politician_jobs": 2471,
      "concept_crimeorcharge_": 2472,
      "concept_insect_moths": 2473,
      "concept_politicianus_peterson": 2474,
      "concept_personasia_chien_ming_wang": 2475,
      "concept_animal_house_pets": 2476,
      "concept_agriculturalproduct_cauliflower": 2477,
      "concept_agriculturalproduct_cucumbers": 2478,
      "concept_journalist_tony_kornheiser": 2479,
      "west_regionals": 2480,
      "concept_personmexico_matt_diaz": 2481,
      "concept_journalist_dana_milbank": 2482,
      "concept_scientificterm": 2483,
      "concept_insect_bumblebees": 2484,
      "concept_language_spanish": 2485,
      "concept_journalist_steven_pearlstein": 2486,
      "concept_journalist_jonathan_weisman": 2487,
      "concept_sportsteam_ncaa_mens_midwest_regionals": 2488,
      "concept_athlete_mike_jacobs": 2489,
      "_er": 2490,
      "_en": 2491,
      "_ur": 2492,
      "_pro": 2493,
      "_win": 2494,
      "_a_": 2495,
      "_leagu": 2496,
      "_ever": 2497,
      "_search": 2498,
      "_cho": 2499,
      "_col": 2500,
      "_al_": 2501,
      "_oklahoma": 2502,
      "_forest": 2503,
      "_za": 2504,
      "_olives": 2505,
      "_usage": 2506,
      "_almon": 2507,
      "ain": 2508,
      "aes": 2509,
      "aut": 2510,
      "bc": 2511,
      "bbs": 2512,
      "bina": 2513,
      "cr": 2514,
      "con": 2515,
      "cia": 2516,
      "cleveland": 2517,
      "dani": 2518,
      "d_antoni": 2519,
      "ee": 2520,
      "ei": 2521,
      "ect": 2522,
      "eas": 2523,
      "eev": 2524,
      "each": 2525,
      "ey_devil": 2526,
      "ehr": 2527,
      "ft": 2528,
      "first": 2529,
      "gen": 2530,
      "gies": 2531,
      "gplant": 2532,
      "green": 2533,
      "gog": 2534,
      "ginger": 2535,
      "hur": 2536,
      "heat": 2537,
      "husk": 2538,
      "i_b": 2539,
      "ias": 2540,
      "ieg": 2541,
      "iper": 2542,
      "ie_st": 2543,
      "jo": 2544,
      "jan": 2545,
      "jac": 2546,
      "jack": 2547,
      "ject": 2548,
      "lar": 2549,
      "l_b": 2550,
      "lad": 2551,
      "liss": 2552,
      "lav": 2553,
      "long": 2554,
      "lars": 2555,
      "liff": 2556,
      "ma": 2557,
      "ms": 2558,
      "mat": 2559,
      "mag": 2560,
      "mit": 2561,
      "my_": 2562,
      "may": 2563,
      "mens": 2564,
      "nx": 2565,
      "ny": 2566,
      "n_com": 2567,
      "oy": 2568,
      "ole": 2569,
      "ohi": 2570,
      "po": 2571,
      "py": 2572,
      "pal": 2573,
      "plan": 2574,
      "ry": 2575,
      "ris": 2576,
      "righ": 2577,
      "rera": 2578,
      "ridg": 2579,
      "sen": 2580,
      "steam": 2581,
      "s001": 2582,
      "sn_com": 2583,
      "ti": 2584,
      "tion": 2585,
      "tre": 2586,
      "tom": 2587,
      "tts": 2588,
      "t_animals": 2589,
      "uan": 2590,
      "uen": 2591,
      "upe": 2592,
      "uis": 2593,
      "u_s": 2594,
      "ugu": 2595,
      "uce": 2596,
      "uary": 2597,
      "vor": 2598,
      "ving": 2599,
      "vel": 2600,
      "vir": 2601,
      "ve_n": 2602,
      "video": 2603,
      "wl": 2604,
      "wig": 2605,
      "wks": 2606,
      "yt": 2607,
      "zers": 2608,
      "zone": 2609,
      "ony": 2610,
      "ones": 2611,
      "on_p": 2612,
      "onment": 2613,
      "on_st": 2614,
      "onif": 2615,
      "onald": 2616,
      "concept_com": 2617,
      "teban": 2618,
      "ore": 2619,
      "ords": 2620,
      "orian": 2621,
      "ando": 2622,
      "an_m": 2623,
      "ancho": 2624,
      "anci": 2625,
      "ana_state": 2626,
      "an_anton": 2627,
      "alf": 2628,
      "ale_": 2629,
      "alab": 2630,
      "alac": 2631,
      "ata": 2632,
      "ati": 2633,
      "ator": 2634,
      "at_ch": 2635,
      "at_bur": 2636,
      "atterson": 2637,
      "ams": 2638,
      "amar": 2639,
      "aming": 2640,
      "amaz": 2641,
      "ambert": 2642,
      "in_s": 2643,
      "inals": 2644,
      "ine_n": 2645,
      "inanci": 2646,
      "erra": 2647,
      "erman": 2648,
      "er_vinegar": 2649,
      "ermay": 2650,
      "agman": 2651,
      "agenc": 2652,
      "age_click": 2653,
      "ortiz": 2654,
      "leg": 2655,
      "let": 2656,
      "leanders": 2657,
      "itz": 2658,
      "itol": 2659,
      "itts": 2660,
      "icy": 2661,
      "ichol": 2662,
      "icial": 2663,
      "ickey_": 2664,
      "en_whisenhunt": 2665,
      "urton": 2666,
      "urry_": 2667,
      "ent_b": 2668,
      "strom": 2669,
      "ersion": 2670,
      "royals": 2671,
      "ction": 2672,
      "e_p": 2673,
      "e_ut": 2674,
      "e_sto": 2675,
      "e_championship": 2676,
      "e_terms": 2677,
      "e_hotel": 2678,
      "e_right": 2679,
      "e_agreement": 2680,
      "e_tre": 2681,
      "edian": 2682,
      "edermay": 2683,
      "ionalorganization_": 2684,
      "athis": 2685,
      "aron": 2686,
      "aren": 2687,
      "aret": 2688,
      "ar_c": 2689,
      "arks": 2690,
      "arlos": 2691,
      "arbut": 2692,
      "arah": 2693,
      "cochr": 2694,
      "cotton": 2695,
      "esteban": 2696,
      "y_d": 2697,
      "y_le": 2698,
      "y_st": 2699,
      "y_hall": 2700,
      "y_pol": 2701,
      "y_harbor": 2702,
      "sey": 2703,
      "sey_": 2704,
      "seeds": 2705,
      "ations": 2706,
      "duce": 2707,
      "produce": 2708,
      "_bos": 2709,
      "_big": 2710,
      "_bla": 2711,
      "_bread": 2712,
      "_blue_jays": 2713,
      "_barea": 2714,
      "ayak": 2715,
      "ulius": 2716,
      "ricsh": 2717,
      "rice_stadium": 2718,
      "illo": 2719,
      "ilton": 2720,
      "ilson": 2721,
      "concept_mla": 2722,
      "concept_mod": 2723,
      "concept_moll": 2724,
      "ches": 2725,
      "chillies": 2726,
      "turas": 2727,
      "concept_sportsteam_ne": 2728,
      "concept_sportsteam_college": 2729,
      "concept_sportsteam_ha": 2730,
      "concept_sportsteam_colorado": 2731,
      "concept_sportsteam_los_angeles_": 2732,
      "concept_sportsteam_iowa_state": 2733,
      "concept_sportsteam_ucla": 2734,
      "concept_sportsteam_cleveland": 2735,
      "concept_sportsteam_heat": 2736,
      "concept_sportsteam_ohi": 2737,
      "peav": 2738,
      "unction": 2739,
      "ols": 2740,
      "concept_beach": 2741,
      "concept_bridg": 2742,
      "doub": 2743,
      "doby": 2744,
      "dobbs": 2745,
      "organ": 2746,
      "organization_point": 2747,
      "iver": 2748,
      "ivac": 2749,
      "asis": 2750,
      "_per": 2751,
      "_pork": 2752,
      "_pho": 2753,
      "_pack": 2754,
      "_pri": 2755,
      "_palac": 2756,
      "_patterson": 2757,
      "concept_mammal_big": 2758,
      "concept_athlete_v": 2759,
      "concept_athlete_y": 2760,
      "concept_athlete_ca": 2761,
      "concept_athlete_chas": 2762,
      "concept_athlete_ty_": 2763,
      "concept_athlete_gr": 2764,
      "concept_athlete_adam": 2765,
      "concept_athlete_za": 2766,
      "concept_athlete_elvin": 2767,
      "concept_athlete_ugu": 2768,
      "concept_athlete_amar": 2769,
      "concept_athlete_peav": 2770,
      "all_st": 2771,
      "concept_person_n": 2772,
      "concept_personnorth": 2773,
      "etricsh": 2774,
      "_top": 2775,
      "_tips": 2776,
      "_trice_stadium": 2777,
      "incinn": 2778,
      "ince_field": 2779,
      "concept_mammal_leop": 2780,
      "ads": 2781,
      "aday": 2782,
      "concept_building_west": 2783,
      "concept_building_south": 2784,
      "oops": 2785,
      "concept_plant_o": 2786,
      "concept_plant_jun": 2787,
      "abc": 2788,
      "abe_k": 2789,
      "ush": 2790,
      "uss_": 2791,
      "concept_city_k": 2792,
      "concept_city_le": 2793,
      "concept_city_to": 2794,
      "concept_city_off": 2795,
      "concept_city_florid": 2796,
      "concept_city_spring": 2797,
      "concept_city_bell": 2798,
      "concept_city_la_m": 2799,
      "concept_city_jack": 2800,
      "concept_city_abc": 2801,
      "_cid": 2802,
      "_cir": 2803,
      "_cong": 2804,
      "_carr": 2805,
      "_cast": 2806,
      "_clem": 2807,
      "_cros": 2808,
      "_caro": 2809,
      "_center": 2810,
      "_caes": 2811,
      "concept:athleteplayssportsteam": 2812,
      "concept_buildingfeature_system": 2813,
      "concept_buildingfeature_ms": 2814,
      "veggies": 2815,
      "oks": 2816,
      "ish": 2817,
      "islands": 2818,
      "_mart": 2819,
      "_map": 2820,
      "_mav": 2821,
      "_mac": 2822,
      "_micha": 2823,
      "_michigan": 2824,
      "_msn_com": 2825,
      "_murton": 2826,
      "_mathis": 2827,
      "a_ch": 2828,
      "a_state_university": 2829,
      "a_fly": 2830,
      "concept_sportsgame_n": 2831,
      "concept_sportsgame_american": 2832,
      "sert": 2833,
      "reddy_": 2834,
      "red_maple": 2835,
      "_work": 2836,
      "_wie": 2837,
      "_water": 2838,
      "_waff": 2839,
      "hiel": 2840,
      "el_k": 2841,
      "elix": 2842,
      "locks": 2843,
      "concept_vegetable_cel": 2844,
      "concept_vegetable_beans": 2845,
      "_sub": 2846,
      "_squ": 2847,
      "_smith": 2848,
      "_shiel": 2849,
      "achuse": 2850,
      "neal": 2851,
      "nect": 2852,
      "concept_musicartist_player": 2853,
      "concept_musicartist_work": 2854,
      "concept_university_c": 2855,
      "concept_university_ask": 2856,
      "concept_university_ucla": 2857,
      "concept_university_usc": 2858,
      "concept_agriculturalproduct_d": 2859,
      "concept_agriculturalproduct_o": 2860,
      "concept_agriculturalproduct_oil": 2861,
      "concept_agriculturalproduct_green": 2862,
      "concept_agriculturalproduct_kal": 2863,
      "concept_personmexico_k": 2864,
      "concept_personmexico_n": 2865,
      "concept_personmexico_l": 2866,
      "concept_personmexico_david": 2867,
      "concept_personmexico_craig": 2868,
      "_rho": 2869,
      "concept_insect_h": 2870,
      "concept_insect_sc": 2871,
      "concept_insect_sub": 2872,
      "caa": 2873,
      "caino": 2874,
      "searches": 2875,
      "concept_company_h": 2876,
      "concept_company_w": 2877,
      "concept_company_ac": 2878,
      "food_products": 2879,
      "ip_pop": 2880,
      "iption": 2881,
      "concept_coach_b": 2882,
      "concept_coach_d": 2883,
      "concept_coach_bob": 2884,
      "concept_coach_bud": 2885,
      "ternational": 2886,
      "arden": 2887,
      "ard_h": 2888,
      "_hom": 2889,
      "_hill": 2890,
      "_hagman": 2891,
      "omas": 2892,
      "ometricsh": 2893,
      "_kentuck": 2894,
      "lice": 2895,
      "_day": 2896,
      "_del": 2897,
      "_dav": 2898,
      "_dieg": 2899,
      "eric001": 2900,
      "concept_sportsleague_terms": 2901,
      "_jan": 2902,
      "_jeev": 2903,
      "im_w": 2904,
      "imberwolves": 2905,
      "america_t": 2906,
      "idd": 2907,
      "idence": 2908,
      "ubba": 2909,
      "ubina": 2910,
      "news_": 2911,
      "concept_insect_gr": 2912,
      "concept_insect_gog": 2913,
      "concept_food_d": 2914,
      "concept_food_sweet": 2915,
      "concept_food_green": 2916,
      "concept_food_cilantro": 2917,
      "concept_food_squ": 2918,
      "concept_beverage_j": 2919,
      "concept_beverage_apple": 2920,
      "concept_beverage_bre": 2921,
      "concept_beverage_lim": 2922,
      "_fiel": 2923,
      "_field": 2924,
      "_fuen": 2925,
      "_financi": 2926,
      "umas": 2927,
      "_stars": 2928,
      "_stoops": 2929,
      "thorn": 2930,
      "ose_j": 2931,
      "concept_animal_go": 2932,
      "concept_website_files": 2933,
      "suck": 2934,
      "ernstein": 2935,
      "ernie_w": 2936,
      "ernando": 2937,
      "coln": 2938,
      "concept_awardtrophytournament_al_": 2939,
      "ians_": 2940,
      "wright": 2941,
      "concept_bakedgood_f": 2942,
      "concept_bakedgood_g": 2943,
      "concept_bakedgood_des": 2944,
      "izcaino": 2945,
      "concept_athlete_jay_": 2946,
      "concept_athlete_julius": 2947,
      "apler": 2948,
      "ape_right": 2949,
      "_nt": 2950,
      "_nation": 2951,
      "_national": 2952,
      "_nuggets": 2953,
      "_nichol": 2954,
      "ava": 2955,
      "aver": 2956,
      "avel_k": 2957,
      "estnut": 2958,
      "ills": 2959,
      "illie_st": 2960,
      "concept_stateorprovince_th": 2961,
      "concept_stateorprovince_colorado": 2962,
      "concept_stateorprovince_arizona": 2963,
      "emire": 2964,
      "guer": 2965,
      "guins": 2966,
      "guava": 2967,
      "concept_website_amaz": 2968,
      "ign": 2969,
      "concept_journalist_j": 2970,
      "concept_journalist_car": 2971,
      "concept_journalist_william": 2972,
      "concept_journalist_nichol": 2973,
      "_virginia": 2974,
      "_version": 2975,
      "_vizcaino": 2976,
      "concept_sportsteam_trail": 2977,
      "concept_sportsteam_timberwolves": 2978,
      "concept_agriculturalproduct_pine_n": 2979,
      "governments": 2980,
      "ongoria": 2981,
      "concept_plant_ash": 2982,
      "concept_plant_ros": 2983,
      "concept_plant_hib": 2984,
      "concept_plant_olives": 2985,
      "concept_plant_oliv": 2986,
      "concept_plant_arbut": 2987,
      "concept_plant_red_maple": 2988,
      "concept_plant_guava": 2989,
      "concept_sportsteam_mont": 2990,
      "_lie": 2991,
      "_lakes": 2992,
      "_lambert": 2993,
      "baugh": 2994,
      "ornhusk": 2995,
      "concept_buildingfeature_windows_nt": 2996,
      "concept_month_november": 2997,
      "concept_month_april": 2998,
      "concept_month_dec": 2999,
      "concept_month_july": 3000,
      "concept_athlete_mickey_": 3001,
      "concept_athlete_milton": 3002,
      "concept_person_doug": 3003,
      "concept_person_elizabeth": 3004,
      "concept_person_eric001": 3005,
      "concept_vegetable_oreg": 3006,
      "concept_vegetable_rice": 3007,
      "concept_vegetable_ginger": 3008,
      "concept_vegetable_veggies": 3009,
      "concept_county_b": 3010,
      "concept_county_columb": 3011,
      "concept_county_websites": 3012,
      "lain": 3013,
      "son_": 3014,
      "aska_c": 3015,
      "braska_c": 3016,
      "concept_date_s": 3017,
      "concept_date_jun": 3018,
      "concept_date_jul": 3019,
      "_grab": 3020,
      "_glav": 3021,
      "_german": 3022,
      "how": 3023,
      "otos": 3024,
      "arshall": 3025,
      "ars_palac": 3026,
      "concept_athlete_bubba": 3027,
      "concept_athlete_bernie_w": 3028,
      "concept_agriculturalproduct_chocolate": 3029,
      "concept_agriculturalproduct_ins": 3030,
      "concept_agriculturalproduct_lemon": 3031,
      "concept_agriculturalproduct_produce": 3032,
      "concept_river": 3033,
      "concept_automobilemaker_cat": 3034,
      "concept_automobilemaker_video": 3035,
      "concept_automobilemaker_shopping_cart": 3036,
      "concept_governmentorganization_te": 3037,
      "concept_governmentorganization_author": 3038,
      "concept_governmentorganization_refer": 3039,
      "concept_governmentorganization_department": 3040,
      "concept_governmentorganization_governments": 3041,
      "concept_landscapefeatures_p": 3042,
      "concept_landscapefeatures_valley": 3043,
      "concept_landscapefeatures_mounta": 3044,
      "concept_landscapefeatures_lakes": 3045,
      "grz": 3046,
      "concept_company_pc": 3047,
      "_windows": 3048,
      "concept_geometricsh": 3049,
      "concept_sportsteam_chicago_white": 3050,
      "elly": 3051,
      "eller": 3052,
      "concept_coach_rich": 3053,
      "ideos": 3054,
      "concept_reptile_pets": 3055,
      "concept_reptile_cat": 3056,
      "concept_reptile_bo": 3057,
      "concept_reptile_water": 3058,
      "ark_bu": 3059,
      "concept_sportsteam_south": 3060,
      "concept_sportsteam_san_anton": 3061,
      "concept_sportsteam_western": 3062,
      "concept_bakedgood_apple": 3063,
      "_rock": 3064,
      "access": 3065,
      "e_juice": 3066,
      "concept_athlete_ste": 3067,
      "concept_mammal_farm": 3068,
      "concept_mammal_furry_": 3069,
      "concept_terroristorganization_point": 3070,
      "concept_stadiumoreventvenue_c": 3071,
      "concept_athlete_clem": 3072,
      "concept_athlete_cliff": 3073,
      "concept_athlete_carlos": 3074,
      "concept_ceo_": 3075,
      "aug": 3076,
      "concept_meat_pork": 3077,
      "concept_athlete_de": 3078,
      "concept_athlete_dmit": 3079,
      "concept_tradeunion_agreement": 3080,
      "ast_liv": 3081,
      "ia_university": 3082,
      "ia_tech": 3083,
      "ordon": 3084,
      "ennel_": 3085,
      "concept_city_categ": 3086,
      "concept_city_conten": 3087,
      "concept_city_photos": 3088,
      "concept_personmexico_adam": 3089,
      "concept_personmexico_chris": 3090,
      "concept_personmexico_arizona_diamond_backs": 3091,
      "concept_personmexico_esteban": 3092,
      "concept_country_region": 3093,
      "lemson": 3094,
      "concept_athlete_pat_bur": 3095,
      "concept_athlete_pavel_k": 3096,
      "concept_athlete_brent_b": 3097,
      "_inn": 3098,
      "_international": 3099,
      "ginton": 3100,
      "ugar_c": 3101,
      "arger": 3102,
      "argell": 3103,
      "argaret": 3104,
      "rew_car": 3105,
      "concept_person_morgan": 3106,
      "concept_insect_meal": 3107,
      "concept_athlete_matt_william": 3108,
      "concept_athlete_matt_gar": 3109,
      "concept_athlete_matt_murton": 3110,
      "concept_athlete_matt_wie": 3111,
      "concept_geopoliticalorganization_add": 3112,
      "concept_writer_micha": 3113,
      "rodeur": 3114,
      "concept_sportsteam_penn_state": 3115,
      "concept_sportsteam_pitts": 3116,
      "concept_mammal_pumas": 3117,
      "concept_athlete_ryan": 3118,
      "concept_athlete_ramirez": 3119,
      "concept_athlete_ramon": 3120,
      "concept_athlete_randy_": 3121,
      "concept_athlete_russ_": 3122,
      "concept_plant_cyp": 3123,
      "concept_plant_conif": 3124,
      "lowers": 3125,
      "lowell": 3126,
      "concept_coach_mik": 3127,
      "concept_food_chillies": 3128,
      "concept_food_food_products": 3129,
      "concept_governmentorganization_pay": 3130,
      "concept_governmentorganization_cap": 3131,
      "concept_governmentorganization_senators": 3132,
      "concept_governmentorganization_representatives": 3133,
      "concept_stadiumoreventvenue_f": 3134,
      "concept_stadiumoreventvenue_k": 3135,
      "concept_visualizablething_po": 3136,
      "concept_visualizablething_al": 3137,
      "titles": 3138,
      "el_ew": 3139,
      "el_dobbs": 3140,
      "el_ads": 3141,
      "concept_landscapefeatures_forest": 3142,
      "concept_landscapefeatures_rainforest": 3143,
      "concept_landscapefeatures_zone": 3144,
      "_pet_animals": 3145,
      "records": 3146,
      "irginia_tech": 3147,
      "illiams": 3148,
      "concept_magazine_plan": 3149,
      "concept_magazine_titles": 3150,
      "concept_actor_des": 3151,
      "concept_actor_today": 3152,
      "concept_celebrity_feed": 3153,
      "_format": 3154,
      "ack_trice_stadium": 3155,
      "ri_young": 3156,
      "ress_trees": 3157,
      "robat": 3158,
      "e_white": 3159,
      "_clark": 3160,
      "_clips": 3161,
      "concept_personmexico_jeff": 3162,
      "_jersey": 3163,
      "concept_professionalorganization_": 3164,
      "concept_athlete_scott_clem": 3165,
      "concept_televisionstation_w": 3166,
      "o_state_university": 3167,
      "ocrat": 3168,
      "ustin": 3169,
      "lenta": 3170,
      "concept_athlete_freddy_": 3171,
      "concept_athlete_felix": 3172,
      "concept_athlete_fernando": 3173,
      "concept_athlete_willie_st": 3174,
      "concept_plant_bass": 3175,
      "concept_plant_honey": 3176,
      "concept_plant_haw": 3177,
      "concept_personmexico_mark_bu": 3178,
      "concept_coach_kyle": 3179,
      "concept_coach_ken_whisenhunt": 3180,
      "_frank": 3181,
      "_fruit": 3182,
      "concept_sportsteam_mariners": 3183,
      "concept_date_mid_m": 3184,
      "_chamb": 3185,
      "harv": 3186,
      "udemire": 3187,
      "ephens": 3188,
      "concept_hotel_h": 3189,
      "endan": 3190,
      "concept_sportsteam_denver": 3191,
      "_paypal": 3192,
      "eth_ur": 3193,
      "ettos": 3194,
      "concept_plant_fig": 3195,
      "concept_plant_flowers": 3196,
      "_cats": 3197,
      "_site_usage": 3198,
      "rain_forest": 3199,
      "_republic": 3200,
      "concept_coach_cincinn": 3201,
      "concept_athlete_jon_lie": 3202,
      "concept_visualartist_im": 3203,
      "concept_athlete_brian_fuen": 3204,
      "concept_food_eggplant": 3205,
      "concept_criminal_author": 3206,
      "concept_criminal_searches": 3207,
      "concept_athlete_luis_cast": 3208,
      "concept_athlete_luis_vizcaino": 3209,
      "_coke": 3210,
      "fowl": 3211,
      "hunter": 3212,
      "onna": 3213,
      "onny_": 3214,
      "oneybees": 3215,
      "y_september": 3216,
      "concept_sportsteam_new_jersey_devil": 3217,
      "assachuse": 3218,
      "concept_athlete_kevin": 3219,
      "concept_mammal_kitt": 3220,
      "concept_plant_tupe": 3221,
      "uskrat": 3222,
      "concept_city_demo": 3223,
      "concept_company_nbc": 3224,
      "concept_company_nyt": 3225,
      "ern_illinois": 3226,
      "concept_bakedgood_pie": 3227,
      "concept_stateorprovince_mississippi_state": 3228,
      "_valdez": 3229,
      "concept_date_aug": 3230,
      "concept_personus_miller": 3231,
      "concept_personus_media": 3232,
      "concept_personus_margaret": 3233,
      "concept_sportsteam_philadelphia_fly": 3234,
      "concept_televisionstation_kt": 3235,
      "concept_newspaper_pack": 3236,
      "concept_newspaper_msn_com": 3237,
      "concept_creditunion_michigan": 3238,
      "_chocolate_cake": 3239,
      "concept_grain_s": 3240,
      "concept_male_yog": 3241,
      "concept_male_dani": 3242,
      "texas": 3243,
      "amilton": 3244,
      "concept_sportsequipment_b": 3245,
      "concept_athlete_gabe_k": 3246,
      "concept_athlete_hora": 3247,
      "concept_person_sarah": 3248,
      "concept_person_jordan": 3249,
      "concept_person_jose_j": 3250,
      "_morris": 3251,
      "_scones": 3252,
      "_jones": 3253,
      "_oaks": 3254,
      "concept_sportsteam_mavericks": 3255,
      "concept_tradeunion_dis": 3256,
      "concept_geopoliticallocation_b": 3257,
      "concept_ceo_site_usage": 3258,
      "_johnson": 3259,
      "concept_athlete_prince_field": 3260,
      "_information_click": 3261,
      "concept_coach_mike_d_antoni": 3262,
      "concept_personmexico_matt_fl": 3263,
      "ynn001": 3264,
      "concept_professor_david_bro": 3265,
      "concept_professor_david_hoffman": 3266,
      "concept_journalist_dana_pri": 3267,
      "concept_recordlabel_s": 3268,
      "concept_scientist": 3269,
      "_richard": 3270,
      "garcia": 3271,
      "privac": 3272,
      "concept_invertebrate_version": 3273,
      "concept_nut_almon": 3274,
      "alker001": 3275,
      "ames_shiel": 3276,
      "e_stephens": 3277,
      "ategory": 3278,
      "referenc": 3279,
      "concept_athlete_alexei": 3280,
      "concept_plant_white_bir": 3281,
      "concept_plant_white_pine": 3282,
      "concept_city_south": 3283,
      "_cardinals": 3284,
      "_sanches": 3285,
      "_salt": 3286,
      "concept_coach_paul": 3287,
      "concept_coach_toronto": 3288,
      "concept_coach_niklas": 3289,
      "_harbaugh": 3290,
      "_flaming": 3291,
      "concept_athlete_jim_johnson": 3292,
      "concept_plant_coast_liv": 3293,
      "_links": 3294,
      "concept_athlete_shaq": 3295,
      "concept_personus_question": 3296,
      "concept_athlete_phil_coke": 3297,
      "concept_athlete_tom_glav": 3298,
      "concept_coach_matt_mac": 3299,
      "concept_sportsteam_dallas_mav": 3300,
      "concept_sportsteam_dallas_stars": 3301,
      "concept_plant_tulips": 3302,
      "concept_plant_tulip_pop": 3303,
      "concept_athlete_larry_robinson": 3304,
      "concept_athlete_larry_doby": 3305,
      "concept_coach_brian_sanches": 3306,
      "columbia_university": 3307,
      "concept_plant_crepe_myrtle": 3308,
      "concept_plant_crepe_myrtles": 3309,
      "burgh": 3310,
      "gette": 3311,
      "ski": 3312,
      "concept_wine_": 3313,
      "concept_vertebrate_pet_animals": 3314,
      "reet_": 3315,
      "_penguins": 3316,
      "concept_athlete_zito": 3317,
      "concept_athlete_ted": 3318,
      "concept_athlete_roy_hall": 3319,
      "concept_athlete_chris_lambert": 3320,
      "concept_person_walker001": 3321,
      "concept_person_karen": 3322,
      "concept_person_donna": 3323,
      "concept_building_tra": 3324,
      "concept_city_videos": 3325,
      "concept_city_info": 3326,
      "_city_royals": 3327,
      "concept_company_apple001": 3328,
      "concept_coach_virginia_tech": 3329,
      "concept_airport_jersey": 3330,
      "_democrat": 3331,
      "concept_athlete_josh_fiel": 3332,
      "_niedermay": 3333,
      "concept_stateorprovince_function": 3334,
      "concept_journalist_georg": 3335,
      "concept_journalist_joe_stephens": 3336,
      "concept_athlete_mike_lowell": 3337,
      "concept_person_allen": 3338,
      "concept_person_adam001": 3339,
      "concept_county_san_francisco": 3340,
      "concept_date_feb": 3341,
      "concept_agriculturalproduct_chives": 3342,
      "concept_reptile_muskrat": 3343,
      "_ross": 3344,
      "concept_stadiumoreventvenue_jack_trice_stadium": 3345,
      "concept_athlete_corey_mag": 3346,
      "_indians_": 3347,
      "concept_writer_guide": 3348,
      "concept_athlete_travis_za": 3349,
      "concept_personmexico_josh_anderson": 3350,
      "concept_bakedgood_banana_bread": 3351,
      "concept_female_video": 3352,
      "concept_sportsteam_kansas_city_royals": 3353,
      "concept_plant_boxwood": 3354,
      "concept_plant_palmettos": 3355,
      "concept_athlete_kyle_dav": 3356,
      "concept_journalist_thomas_bos": 3357,
      "concept_politicsblog_wgrz": 3358,
      "concept_plant_magnolia": 3359,
      "concept_athlete_jason_kidd": 3360,
      "concept_criminal_web_sites": 3361,
      "concept_tableitem_tab": 3362,
      "_kristol": 3363,
      "concept_chef_format": 3364,
      "concept_eventoutcome_basis": 3365,
      "concept_fruit_fennel_": 3366,
      "_world_series": 3367,
      "concept_landscapefeatures_tropical_rainforest": 3368,
      "concept_crimeorcharge_privac": 3369,
      "concept_scientificterm_information_click": 3370,
      "_erving": 3371,
      "_envir": 3372,
      "_wine": 3373,
      "_league_championship": 3374,
      "_everett": 3375,
      "cription": 3376,
      "ehrle": 3377,
      "i_berra": 3378,
      "iper_trees": 3379,
      "l_bernstein": 3380,
      "mensen": 3381,
      "uan_barea": 3382,
      "ve_nash": 3383,
      "wigginton": 3384,
      "concept_comedian": 3385,
      "ale_insects": 3386,
      "alabama": 3387,
      "at_cheese": 3388,
      "e_utley": 3389,
      "e_stoudemire": 3390,
      "e_trees": 3391,
      "cochrane": 3392,
      "y_policy": 3393,
      "_blazers": 3394,
      "concept_mlauthor": 3395,
      "concept_model_ads": 3396,
      "concept_mollusk": 3397,
      "concept_sportsteam_nebraska_c": 3398,
      "concept_sportsteam_hawks": 3399,
      "concept_sportsteam_colorado_state": 3400,
      "concept_sportsteam_los_angeles_dodgers": 3401,
      "concept_sportsteam_cleveland_indians_": 3402,
      "concept_sportsteam_ohio_state_university": 3403,
      "concept_bridge_": 3404,
      "double": 3405,
      "concept_mammal_big_cats": 3406,
      "concept_athlete_casey_": 3407,
      "concept_athlete_chase_utley": 3408,
      "concept_athlete_ty_wigginton": 3409,
      "concept_athlete_grant": 3410,
      "concept_athlete_zaun": 3411,
      "concept_athlete_elvin_ramirez": 3412,
      "concept_athlete_ugueth_ur": 3413,
      "concept_athlete_amare_stoudemire": 3414,
      "concept_athlete_peavy": 3415,
      "concept_person_nathan": 3416,
      "concept_personnorthamerica_t": 3417,
      "concept_mammal_leopard": 3418,
      "concept_building_south_point": 3419,
      "concept_plant_oleanders": 3420,
      "concept_plant_juniper_trees": 3421,
      "concept_city_tools": 3422,
      "concept_city_official": 3423,
      "concept_city_florida": 3424,
      "concept_city_jackson": 3425,
      "_cider_vinegar": 3426,
      "_circus": 3427,
      "_congress": 3428,
      "_crosby": 3429,
      "_carolin": 3430,
      "_caesars_palac": 3431,
      "concept:athleteplayssportsteamposition": 3432,
      "concept_buildingfeature_systems": 3433,
      "concept_buildingfeature_ms_windows": 3434,
      "_maps": 3435,
      "concept_sportsgame_american_league_championship": 3436,
      "locksley": 3437,
      "concept_vegetable_celery": 3438,
      "concept_university_ask_jeev": 3439,
      "concept_agriculturalproduct_oil_salt": 3440,
      "concept_agriculturalproduct_green_onions": 3441,
      "concept_agriculturalproduct_kale": 3442,
      "concept_personmexico_kayak": 3443,
      "concept_personmexico_ncaa": 3444,
      "concept_personmexico_david_wright": 3445,
      "concept_insect_honeybees": 3446,
      "concept_insect_scale_insects": 3447,
      "concept_insect_subject": 3448,
      "concept_company_acrobat": 3449,
      "concept_coach_d_antoni": 3450,
      "ard_hamilton": 3451,
      "concept_insect_grubs": 3452,
      "concept_insect_goggle": 3453,
      "concept_food_sweet_potatoes": 3454,
      "concept_food_green_olives": 3455,
      "concept_food_squash": 3456,
      "concept_beverage_apple_cider_vinegar": 3457,
      "concept_beverage_breast": 3458,
      "concept_beverage_lime_juice": 3459,
      "_financial": 3460,
      "concept_animal_goat_cheese": 3461,
      "suckle": 3462,
      "concept_awardtrophytournament_al_east": 3463,
      "concept_bakedgood_dessert": 3464,
      "concept_athlete_julius_erving": 3465,
      "concept_website_amazon": 3466,
      "concept_journalist_carl_bernstein": 3467,
      "concept_journalist_william_kristol": 3468,
      "concept_journalist_nicholas": 3469,
      "concept_sportsteam_trail_blazers": 3470,
      "concept_agriculturalproduct_pine_nuts": 3471,
      "concept_plant_roses": 3472,
      "concept_plant_hibiscus": 3473,
      "concept_plant_olive_trees": 3474,
      "concept_plant_arbutus": 3475,
      "concept_sportsteam_montana_state": 3476,
      "ornhuskers": 3477,
      "concept_month_december": 3478,
      "concept_athlete_mickey_cochrane": 3479,
      "concept_athlete_milton_bradley": 3480,
      "concept_person_elizabeth001": 3481,
      "concept_vegetable_oregano": 3482,
      "concept_county_columbus": 3483,
      "concept_athlete_bubba_crosby": 3484,
      "concept_athlete_bernie_williams": 3485,
      "concept_agriculturalproduct_insides": 3486,
      "concept_automobilemaker_catalog": 3487,
      "concept_governmentorganization_authority": 3488,
      "concept_governmentorganization_reference": 3489,
      "concept_governmentorganization_departments": 3490,
      "concept_landscapefeatures_mountains": 3491,
      "concept_geometricshape_right": 3492,
      "concept_sportsteam_chicago_white_sox": 3493,
      "concept_coach_richard_hamilton": 3494,
      "concept_reptile_boar": 3495,
      "concept_reptile_waterfowl": 3496,
      "concept_sportsteam_southern_illinois": 3497,
      "concept_sportsteam_san_antonio": 3498,
      "concept_sportsteam_western_kentuck": 3499,
      "concept_mammal_farm_animals": 3500,
      "concept_mammal_furry_animals": 3501,
      "concept_athlete_clemens": 3502,
      "concept_athlete_dmitri_young": 3503,
      "concept_city_categories": 3504,
      "concept_city_contents": 3505,
      "concept_personmexico_adam_everett": 3506,
      "concept_personmexico_chris_chamb": 3507,
      "concept_personmexico_esteban_german": 3508,
      "concept_athlete_pat_burrell": 3509,
      "concept_athlete_pavel_kubina": 3510,
      "concept_athlete_brent_barry": 3511,
      "_international_airport": 3512,
      "ugar_cane": 3513,
      "concept_insect_mealybugs": 3514,
      "concept_athlete_matt_williams": 3515,
      "concept_athlete_matt_garza": 3516,
      "concept_athlete_matt_wieters": 3517,
      "concept_geopoliticalorganization_address": 3518,
      "concept_writer_michael_dobbs": 3519,
      "concept_sportsteam_pittsburgh": 3520,
      "concept_plant_cypress_trees": 3521,
      "concept_governmentorganization_payment": 3522,
      "concept_governmentorganization_capitol": 3523,
      "concept_visualizablething_polenta": 3524,
      "concept_visualizablething_alturas": 3525,
      "el_ewing": 3526,
      "concept_magazine_plans": 3527,
      "concept_actor_description": 3528,
      "concept_personmexico_jeff_mathis": 3529,
      "concept_athlete_scott_clemmensen": 3530,
      "concept_athlete_freddy_garcia": 3531,
      "concept_athlete_willie_stargell": 3532,
      "concept_plant_basswood": 3533,
      "concept_plant_honeysuckle": 3534,
      "concept_plant_hawthorn": 3535,
      "concept_personmexico_mark_buehrle": 3536,
      "concept_sportsteam_denver_nuggets": 3537,
      "concept_coach_cincinnati": 3538,
      "concept_athlete_jon_lieber": 3539,
      "concept_visualartist_image": 3540,
      "concept_athlete_brian_fuentes": 3541,
      "concept_criminal_authorities": 3542,
      "concept_athlete_luis_castillo": 3543,
      "concept_sportsteam_new_jersey_devils": 3544,
      "assachusetts": 3545,
      "concept_athlete_kevin_m": 3546,
      "concept_mammal_kitties": 3547,
      "concept_plant_tupelo": 3548,
      "concept_sportsteam_philadelphia_flyers": 3549,
      "concept_newspaper_packet": 3550,
      "concept_grain_sugar_cane": 3551,
      "concept_male_yogi_berra": 3552,
      "concept_male_daniel_ewing": 3553,
      "concept_athlete_gabe_kapler": 3554,
      "concept_athlete_horaci": 3555,
      "concept_person_sarah001": 3556,
      "concept_person_jose_juan_barea": 3557,
      "concept_tradeunion_disk": 3558,
      "concept_athlete_prince_fielder": 3559,
      "concept_personmexico_matt_flynn001": 3560,
      "concept_professor_david_brooks": 3561,
      "concept_journalist_dana_priest": 3562,
      "concept_nut_almonds": 3563,
      "ames_shields": 3564,
      "concept_athlete_alexei_ramirez": 3565,
      "concept_plant_white_birch": 3566,
      "concept_coach_niklas_hagman": 3567,
      "concept_plant_coast_live_oak": 3568,
      "concept_athlete_tom_glavine": 3569,
      "concept_coach_matt_macri": 3570,
      "concept_sportsteam_dallas_mavericks": 3571,
      "concept_plant_tulip_poplars": 3572,
      "concept_athlete_roy_halladay": 3573,
      "concept_athlete_josh_fields": 3574,
      "_niedermayer": 3575,
      "concept_athlete_corey_maggette": 3576,
      "concept_athlete_travis_zajac": 3577,
      "concept_personmexico_josh_anderson001": 3578,
      "concept_female_video_clips": 3579,
      "concept_athlete_kyle_davies": 3580,
      "concept_journalist_thomas_boswell": 3581,
      "concept_fruit_fennel_seeds": 3582,
      "concept_crimeorcharge_privacy_policy": 3583,
      "_environment": 3584,
      "concept_comedian_oklahoma": 3585,
      "concept_sportsteam_nebraska_cornhuskers": 3586,
      "concept_sportsteam_cleveland_indians_organization": 3587,
      "concept_athlete_ugueth_urbina": 3588,
      "_caesars_palace_hotel": 3589,
      "concept_sportsgame_american_league_championship_series": 3590,
      "concept_university_ask_jeeves": 3591,
      "concept_personmexico_chris_chambliss": 3592,
      "concept_sportsteam_pittsburgh_penguins": 3593
    },
    "merges": [
      [
        "o",
        "n"
      ],
      [
        "e",
        "p"
      ],
      [
        "on",
        "c"
      ],
      [
        "ep",
        "t"
      ],
      [
        "c",
        "onc"
      ],
      [
        "conc",
        "ept"
      ],
      [
        "concept",
        "_"
      ],
      [
        "t",
        "e"
      ],
      [
        "concept",
        ":"
      ],
      [
        "o",
        "r"
      ],
      [
        "a",
        "n"
      ],
      [
        "a",
        "l"
      ],
      [
        "a",
        "t"
      ],
      [
        "a",
        "m"
      ],
      [
        "i",
        "n"
      ],
      [
        "e",
        "r"
      ],
      [
        "a",
        "g"
      ],
      [
        "s",
        "p"
      ],
      [
        "or",
        "t"
      ],
      [
        "l",
        "e"
      ],
      [
        "sp",
        "ort"
      ],
      [
        "i",
        "t"
      ],
      [
        "i",
        "c"
      ],
      [
        "e",
        "n"
      ],
      [
        "u",
        "r"
      ],
      [
        "en",
        "t"
      ],
      [
        "concept_",
        "sport"
      ],
      [
        "m",
        "al"
      ],
      [
        "an",
        "i"
      ],
      [
        "s",
        "t"
      ],
      [
        "er",
        "s"
      ],
      [
        "r",
        "o"
      ],
      [
        "c",
        "t"
      ],
      [
        "te",
        "am"
      ],
      [
        "concept:",
        "ag"
      ],
      [
        "e",
        "_"
      ],
      [
        "e",
        "d"
      ],
      [
        "i",
        "on"
      ],
      [
        "concept_sport",
        "s"
      ],
      [
        "at",
        "h"
      ],
      [
        "ath",
        "le"
      ],
      [
        "a",
        "r"
      ],
      [
        "c",
        "o"
      ],
      [
        "e",
        "s"
      ],
      [
        "concept_",
        "p"
      ],
      [
        "y",
        "_"
      ],
      [
        "ani",
        "mal"
      ],
      [
        "s",
        "e"
      ],
      [
        "concept:ag",
        "ent"
      ],
      [
        "at",
        "ion"
      ],
      [
        "l",
        "an"
      ],
      [
        "d",
        "u"
      ],
      [
        "p",
        "ro"
      ],
      [
        "a",
        "te"
      ],
      [
        "_",
        "b"
      ],
      [
        "it",
        "h"
      ],
      [
        "w",
        "ith"
      ],
      [
        "a",
        "y"
      ],
      [
        "u",
        "l"
      ],
      [
        "r",
        "ic"
      ],
      [
        "i",
        "l"
      ],
      [
        "concept_",
        "m"
      ],
      [
        "c",
        "h"
      ],
      [
        "ers",
        "on"
      ],
      [
        "du",
        "ct"
      ],
      [
        "lan",
        "t"
      ],
      [
        "pro",
        "duct"
      ],
      [
        "t",
        "ur"
      ],
      [
        "al",
        "product"
      ],
      [
        "ul",
        "tur"
      ],
      [
        "ric",
        "ultur"
      ],
      [
        "ricultur",
        "alproduct"
      ],
      [
        "concept_sports",
        "team"
      ],
      [
        "ay",
        "s"
      ],
      [
        "i",
        "st"
      ],
      [
        "concept_sportsteam",
        "_"
      ],
      [
        "p",
        "e"
      ],
      [
        "u",
        "n"
      ],
      [
        "l",
        "ays"
      ],
      [
        "o",
        "l"
      ],
      [
        "i",
        "te"
      ],
      [
        "ed",
        "with"
      ],
      [
        "t",
        "ep"
      ],
      [
        "concept:",
        "athle"
      ],
      [
        "tep",
        "lays"
      ],
      [
        "concept:athle",
        "teplays"
      ],
      [
        "concept_",
        "b"
      ],
      [
        "in",
        "g"
      ],
      [
        "r",
        "e"
      ],
      [
        "g",
        "am"
      ],
      [
        "z",
        "ation"
      ],
      [
        "it",
        "y_"
      ],
      [
        "d",
        "o"
      ],
      [
        "or",
        "g"
      ],
      [
        "ani",
        "zation"
      ],
      [
        "org",
        "anization"
      ],
      [
        "concept_",
        "athle"
      ],
      [
        "concept_athle",
        "te"
      ],
      [
        "i",
        "v"
      ],
      [
        "am",
        "mal"
      ],
      [
        "a",
        "s"
      ],
      [
        "_",
        "p"
      ],
      [
        "e",
        "at"
      ],
      [
        "ol",
        "v"
      ],
      [
        "d",
        "ing"
      ],
      [
        "concept_m",
        "ammal"
      ],
      [
        "concept_athlete",
        "_"
      ],
      [
        "al",
        "l"
      ],
      [
        "un",
        "iv"
      ],
      [
        "univ",
        "ers"
      ],
      [
        "concept_p",
        "erson"
      ],
      [
        "ag",
        "riculturalproduct"
      ],
      [
        "u",
        "il"
      ],
      [
        "uil",
        "ding"
      ],
      [
        "concept_",
        "c"
      ],
      [
        "e",
        "t"
      ],
      [
        "co",
        "m"
      ],
      [
        "_",
        "t"
      ],
      [
        "e",
        "v"
      ],
      [
        "in",
        "c"
      ],
      [
        "f",
        "eat"
      ],
      [
        "feat",
        "ur"
      ],
      [
        "_b",
        "a"
      ],
      [
        "concept:",
        "animal"
      ],
      [
        "ar",
        "t"
      ],
      [
        "b",
        "all"
      ],
      [
        "ite",
        "m"
      ],
      [
        "concept_mammal",
        "_"
      ],
      [
        "w",
        "in"
      ],
      [
        "it",
        "y"
      ],
      [
        "do",
        "w"
      ],
      [
        "o",
        "f"
      ],
      [
        "in",
        "v"
      ],
      [
        "f",
        "or"
      ],
      [
        "a",
        "d"
      ],
      [
        "concept_b",
        "uilding"
      ],
      [
        "o",
        "o"
      ],
      [
        "concept_p",
        "lant"
      ],
      [
        "l",
        "o"
      ],
      [
        "a",
        "b"
      ],
      [
        "concept:agent",
        "inv"
      ],
      [
        "edwith",
        "item"
      ],
      [
        "olv",
        "edwithitem"
      ],
      [
        "concept:agentinv",
        "olvedwithitem"
      ],
      [
        "e",
        "g"
      ],
      [
        "u",
        "s"
      ],
      [
        "win",
        "dow"
      ],
      [
        "concept:",
        "p"
      ],
      [
        "ate",
        "d"
      ],
      [
        "in",
        "se"
      ],
      [
        "inse",
        "ct"
      ],
      [
        "concept_sport",
        "_ba"
      ],
      [
        "se",
        "ball"
      ],
      [
        "concept_sport_ba",
        "seball"
      ],
      [
        "st",
        "ate"
      ],
      [
        "concept_c",
        "ity_"
      ],
      [
        "oo",
        "d"
      ],
      [
        "_",
        "c"
      ],
      [
        "concept:athleteplays",
        "sport"
      ],
      [
        "featur",
        "e_"
      ],
      [
        "concept_building",
        "feature_"
      ],
      [
        "concept:",
        "organization"
      ],
      [
        "concept:ag",
        "riculturalproduct"
      ],
      [
        "v",
        "eg"
      ],
      [
        "concept_buildingfeature_",
        "window"
      ],
      [
        "o",
        "k"
      ],
      [
        "i",
        "s"
      ],
      [
        "_",
        "m"
      ],
      [
        "a",
        "_"
      ],
      [
        "ab",
        "le"
      ],
      [
        "concept_sports",
        "gam"
      ],
      [
        "concept_sportsgam",
        "e_"
      ],
      [
        "y",
        "pe"
      ],
      [
        "ist",
        "ype"
      ],
      [
        "concept:animal",
        "istype"
      ],
      [
        "of",
        "animal"
      ],
      [
        "concept:animalistype",
        "ofanimal"
      ],
      [
        "a",
        "k"
      ],
      [
        "s",
        "er"
      ],
      [
        "r",
        "ed"
      ],
      [
        "_",
        "w"
      ],
      [
        "univers",
        "ity"
      ],
      [
        "et",
        "able"
      ],
      [
        "veg",
        "etable"
      ],
      [
        "h",
        "i"
      ],
      [
        "a",
        "ct"
      ],
      [
        "e",
        "l"
      ],
      [
        "i",
        "es"
      ],
      [
        "o",
        "ur"
      ],
      [
        "lo",
        "c"
      ],
      [
        "u",
        "t"
      ],
      [
        "l",
        "u"
      ],
      [
        "concept_",
        "vegetable"
      ],
      [
        "ag",
        "u"
      ],
      [
        "concept:",
        "sport"
      ],
      [
        "le",
        "agu"
      ],
      [
        "art",
        "ist"
      ],
      [
        "our",
        "n"
      ],
      [
        "te",
        "s"
      ],
      [
        "e",
        "x"
      ],
      [
        "ag",
        "ent"
      ],
      [
        "_",
        "s"
      ],
      [
        "p",
        "h"
      ],
      [
        "concept:agent",
        "com"
      ],
      [
        "with",
        "agent"
      ],
      [
        "pe",
        "tes"
      ],
      [
        "us",
        "ic"
      ],
      [
        "concept:sport",
        "s"
      ],
      [
        "concept:agentcom",
        "petes"
      ],
      [
        "concept:agentcompetes",
        "withagent"
      ],
      [
        "e",
        "team"
      ],
      [
        "concept_",
        "co"
      ],
      [
        "concept_m",
        "usic"
      ],
      [
        "gam",
        "eteam"
      ],
      [
        "concept:sports",
        "gameteam"
      ],
      [
        "a",
        "ch"
      ],
      [
        "n",
        "e"
      ],
      [
        "concept_music",
        "artist"
      ],
      [
        "co",
        "ok"
      ],
      [
        "edwith",
        "agriculturalproduct"
      ],
      [
        "concept:agriculturalproduct",
        "cook"
      ],
      [
        "concept:agriculturalproductcook",
        "edwithagriculturalproduct"
      ],
      [
        "ev",
        "er"
      ],
      [
        "_t",
        "re"
      ],
      [
        "concept_",
        "univers"
      ],
      [
        "inc",
        "lu"
      ],
      [
        "concept_univers",
        "ity_"
      ],
      [
        "concept_",
        "animal"
      ],
      [
        "ever",
        "ag"
      ],
      [
        "r",
        "a"
      ],
      [
        "concept_",
        "agriculturalproduct"
      ],
      [
        "concept:athleteplays",
        "for"
      ],
      [
        "concept:athleteplaysfor",
        "team"
      ],
      [
        "d",
        "s"
      ],
      [
        "ic",
        "o"
      ],
      [
        "_tre",
        "es"
      ],
      [
        "ex",
        "ico"
      ],
      [
        "p",
        "er"
      ],
      [
        "m",
        "exico"
      ],
      [
        "concept_person",
        "mexico"
      ],
      [
        "_",
        "r"
      ],
      [
        "_",
        "university"
      ],
      [
        "concept_",
        "insect"
      ],
      [
        "in",
        "loc"
      ],
      [
        "inloc",
        "ation"
      ],
      [
        "ar",
        "ch"
      ],
      [
        "concept_plant",
        "_trees"
      ],
      [
        "c",
        "re"
      ],
      [
        "t",
        "ro"
      ],
      [
        "concept:p",
        "lant"
      ],
      [
        "concept_musicartist",
        "_"
      ],
      [
        "c",
        "a"
      ],
      [
        "d",
        "ep"
      ],
      [
        "concept:p",
        "erson"
      ],
      [
        "state",
        "_university"
      ],
      [
        "ph",
        "y"
      ],
      [
        "tro",
        "phy"
      ],
      [
        "p",
        "an"
      ],
      [
        "com",
        "pan"
      ],
      [
        "compan",
        "y_"
      ],
      [
        "g",
        "ood"
      ],
      [
        "p",
        "erson"
      ],
      [
        "ed",
        "good"
      ],
      [
        "concept:organization",
        "hi"
      ],
      [
        "ak",
        "edgood"
      ],
      [
        "red",
        "person"
      ],
      [
        "inclu",
        "dep"
      ],
      [
        "concept:plant",
        "includep"
      ],
      [
        "concept:organizationhi",
        "redperson"
      ],
      [
        "concept:plantincludep",
        "lant"
      ],
      [
        "se",
        "arch"
      ],
      [
        "_p",
        "ep"
      ],
      [
        "s",
        "inlocation"
      ],
      [
        "concept:agent",
        "act"
      ],
      [
        "concept:agentact",
        "sinlocation"
      ],
      [
        "concept_",
        "company_"
      ],
      [
        "f",
        "ood"
      ],
      [
        "concept:",
        "team"
      ],
      [
        "_pep",
        "per"
      ],
      [
        "b",
        "s"
      ],
      [
        "d",
        "ate"
      ],
      [
        "i",
        "p"
      ],
      [
        "ser",
        "ies"
      ],
      [
        "concept_co",
        "ach"
      ],
      [
        "concept_vegetable",
        "_pepper"
      ],
      [
        "j",
        "ourn"
      ],
      [
        "te",
        "r"
      ],
      [
        "journ",
        "al"
      ],
      [
        "journal",
        "ist"
      ],
      [
        "y",
        "an"
      ],
      [
        "concept:",
        "b"
      ],
      [
        "concept_sportsgame_",
        "series"
      ],
      [
        "0",
        "0"
      ],
      [
        "concept_",
        "w"
      ],
      [
        "t",
        "r"
      ],
      [
        "ar",
        "d"
      ],
      [
        "_",
        "h"
      ],
      [
        "o",
        "m"
      ],
      [
        "e_",
        "m"
      ],
      [
        "_",
        "k"
      ],
      [
        "w",
        "n"
      ],
      [
        "onc",
        "an"
      ],
      [
        "concept_",
        "a"
      ],
      [
        "ers",
        "oncan"
      ],
      [
        "concept_p",
        "ersoncan"
      ],
      [
        "ad",
        "a_"
      ],
      [
        "concept_personcan",
        "ada_"
      ],
      [
        "l",
        "ic"
      ],
      [
        "o",
        "v"
      ],
      [
        "g",
        "ra"
      ],
      [
        "concept_personcanada_",
        "search"
      ],
      [
        "animal",
        "s"
      ],
      [
        "is",
        "s"
      ],
      [
        "_",
        "d"
      ],
      [
        "er",
        "ic"
      ],
      [
        "concept_sports",
        "leagu"
      ],
      [
        "_",
        "j"
      ],
      [
        "i",
        "m"
      ],
      [
        "organization",
        "_"
      ],
      [
        "ev",
        "ent"
      ],
      [
        "concept_b",
        "everag"
      ],
      [
        "_w",
        "h"
      ],
      [
        "g",
        "s"
      ],
      [
        "m",
        "ent"
      ],
      [
        "gra",
        "du"
      ],
      [
        "concept:person",
        "gradu"
      ],
      [
        "concept:persongradu",
        "ated"
      ],
      [
        "am",
        "eric"
      ],
      [
        "t",
        "s"
      ],
      [
        "i",
        "d"
      ],
      [
        "t",
        "on"
      ],
      [
        "u",
        "b"
      ],
      [
        "or",
        "k"
      ],
      [
        "al",
        "s"
      ],
      [
        "americ",
        "an"
      ],
      [
        "g",
        "e"
      ],
      [
        "o",
        "b"
      ],
      [
        "p",
        "art"
      ],
      [
        "in",
        "leagu"
      ],
      [
        "ite",
        "s"
      ],
      [
        "concept:athleteplays",
        "inleagu"
      ],
      [
        "ne",
        "w"
      ],
      [
        "concept:athleteplaysinleagu",
        "e"
      ],
      [
        "inc",
        "ity"
      ],
      [
        "concept_insect",
        "_"
      ],
      [
        "concept_musicartist_",
        "american"
      ],
      [
        "concept_",
        "food"
      ],
      [
        "concept_mammal_",
        "do"
      ],
      [
        "concept_university_",
        "state_university"
      ],
      [
        "concept_personmexico",
        "_r"
      ],
      [
        "concept_beverag",
        "e_"
      ],
      [
        "d",
        "iss"
      ],
      [
        "i",
        "le"
      ],
      [
        "at",
        "date"
      ],
      [
        "ed",
        "atdate"
      ],
      [
        "pro",
        "v"
      ],
      [
        "olv",
        "edatdate"
      ],
      [
        "concept:organization",
        "diss"
      ],
      [
        "concept:organizationdiss",
        "olvedatdate"
      ],
      [
        "_",
        "f"
      ],
      [
        "g",
        "ov"
      ],
      [
        "or",
        "prov"
      ],
      [
        "it",
        "ne"
      ],
      [
        "state",
        "orprov"
      ],
      [
        "yan",
        "_wh"
      ],
      [
        "concept_personmexico_r",
        "yan_wh"
      ],
      [
        "itne",
        "y"
      ],
      [
        "stateorprov",
        "inc"
      ],
      [
        "concept_personmexico_ryan_wh",
        "itney"
      ],
      [
        "u",
        "m"
      ],
      [
        "y",
        "ork"
      ],
      [
        "e",
        "bs"
      ],
      [
        "am",
        "p"
      ],
      [
        "ch",
        "o"
      ],
      [
        "concept:agent",
        "cre"
      ],
      [
        "concept:agentcre",
        "ated"
      ],
      [
        "_",
        "st"
      ],
      [
        "t",
        "h"
      ],
      [
        "ol",
        "it"
      ],
      [
        "o",
        "s"
      ],
      [
        "ser",
        "v"
      ],
      [
        "concept_animal",
        "_"
      ],
      [
        "concept_w",
        "ebs"
      ],
      [
        "olit",
        "ic"
      ],
      [
        "concept_webs",
        "ite"
      ],
      [
        "q",
        "u"
      ],
      [
        "s",
        "u"
      ],
      [
        "w",
        "on"
      ],
      [
        "w",
        "ard"
      ],
      [
        "ch",
        "as"
      ],
      [
        "lic",
        "ation"
      ],
      [
        "c",
        "k"
      ],
      [
        "t",
        "ourn"
      ],
      [
        "am",
        "ent"
      ],
      [
        "er",
        "n"
      ],
      [
        "ic",
        "ip"
      ],
      [
        "co",
        "l"
      ],
      [
        "lan",
        "ds"
      ],
      [
        "trophy",
        "tourn"
      ],
      [
        "concept_a",
        "ward"
      ],
      [
        "part",
        "icip"
      ],
      [
        "concept_mammal_do",
        "gs"
      ],
      [
        "won",
        "trophy"
      ],
      [
        "trophytourn",
        "ament"
      ],
      [
        "concept_award",
        "trophytournament"
      ],
      [
        "in",
        "event"
      ],
      [
        "concept:agent",
        "particip"
      ],
      [
        "ated",
        "inevent"
      ],
      [
        "00",
        "1"
      ],
      [
        "concept:agentparticip",
        "atedinevent"
      ],
      [
        "b",
        "everag"
      ],
      [
        "i",
        "an"
      ],
      [
        "w",
        "r"
      ],
      [
        "edwith",
        "beverag"
      ],
      [
        "concept_b",
        "akedgood"
      ],
      [
        "akedgood",
        "serv"
      ],
      [
        "concept:b",
        "akedgoodserv"
      ],
      [
        "su",
        "chas"
      ],
      [
        "lands",
        "ca"
      ],
      [
        "edwithbeverag",
        "e"
      ],
      [
        "concept:bakedgoodserv",
        "edwithbeverage"
      ],
      [
        "i",
        "z"
      ],
      [
        "p",
        "ub"
      ],
      [
        "concept_",
        "stateorprovinc"
      ],
      [
        "pe",
        "featur"
      ],
      [
        "concept_athlete_",
        "j"
      ],
      [
        "ut",
        "h"
      ],
      [
        "landsca",
        "pefeatur"
      ],
      [
        "landscapefeatur",
        "es"
      ],
      [
        "_",
        "o"
      ],
      [
        "concept:",
        "journalist"
      ],
      [
        "gam",
        "es"
      ],
      [
        "for",
        "pub"
      ],
      [
        "ites",
        "forpub"
      ],
      [
        "wr",
        "itesforpub"
      ],
      [
        "concept:journalist",
        "writesforpub"
      ],
      [
        "concept:journalistwritesforpub",
        "lication"
      ],
      [
        "n",
        "o"
      ],
      [
        "cre",
        "am"
      ],
      [
        "a",
        "p"
      ],
      [
        "o",
        "p"
      ],
      [
        "concept_sportsteam_",
        "n"
      ],
      [
        "concept_co",
        "un"
      ],
      [
        "concept_beverage_",
        "cream"
      ],
      [
        "i",
        "r"
      ],
      [
        "_b",
        "e"
      ],
      [
        "ok",
        "no"
      ],
      [
        "wn",
        "as"
      ],
      [
        "als",
        "okno"
      ],
      [
        "alsokno",
        "wnas"
      ],
      [
        "_",
        "n"
      ],
      [
        "a",
        "v"
      ],
      [
        "e",
        "st"
      ],
      [
        "l",
        "b"
      ],
      [
        "il",
        "l"
      ],
      [
        "e_m",
        "lb"
      ],
      [
        "concept_sportsleagu",
        "e_mlb"
      ],
      [
        "y",
        "o"
      ],
      [
        "concept_stateorprovinc",
        "e_"
      ],
      [
        "ro",
        "m"
      ],
      [
        "d",
        "ev"
      ],
      [
        "e",
        "m"
      ],
      [
        "g",
        "u"
      ],
      [
        "n",
        "on"
      ],
      [
        "o",
        "st"
      ],
      [
        "concept:animal",
        "suchas"
      ],
      [
        "dev",
        "il"
      ],
      [
        "concept:animalsuchas",
        "insect"
      ],
      [
        "ion",
        "_"
      ],
      [
        "concept_website",
        "_"
      ],
      [
        "f",
        "rom"
      ],
      [
        "i",
        "g"
      ],
      [
        "i",
        "ds"
      ],
      [
        "concept_",
        "journalist"
      ],
      [
        "at",
        "ur"
      ],
      [
        "_t",
        "im"
      ],
      [
        "concept_city_",
        "veg"
      ],
      [
        "concept:persongraduated",
        "from"
      ],
      [
        "concept_city_veg",
        "as"
      ],
      [
        "concept:persongraduatedfrom",
        "university"
      ],
      [
        "_",
        "v"
      ],
      [
        "u",
        "p"
      ],
      [
        "ion",
        "s"
      ],
      [
        "concept_sportsteam_",
        "t"
      ],
      [
        "as",
        "on"
      ],
      [
        "concept_animal",
        "_c"
      ],
      [
        "concept_agriculturalproduct",
        "_p"
      ],
      [
        "gov",
        "ern"
      ],
      [
        "concept_sportsteam_n",
        "ca"
      ],
      [
        "govern",
        "ment"
      ],
      [
        "on",
        "g"
      ],
      [
        "insect",
        "s"
      ],
      [
        "_",
        "york"
      ],
      [
        "i",
        "a"
      ],
      [
        "p",
        "lays"
      ],
      [
        "concept_",
        "government"
      ],
      [
        "concept_p",
        "olitic"
      ],
      [
        "_b",
        "ut"
      ],
      [
        "ad",
        "i"
      ],
      [
        "concept_plant",
        "_"
      ],
      [
        "concept:team",
        "plays"
      ],
      [
        "new",
        "_york"
      ],
      [
        "_tim",
        "es"
      ],
      [
        "concept:teamplays",
        "sport"
      ],
      [
        "v",
        "is"
      ],
      [
        "y_",
        "c"
      ],
      [
        "lant",
        "s"
      ],
      [
        "concept_sportsteam_",
        "m"
      ],
      [
        "uilding",
        "loc"
      ],
      [
        "ated",
        "incity"
      ],
      [
        "a_",
        "yo"
      ],
      [
        "concept_sportsgame_",
        "games"
      ],
      [
        "concept:b",
        "uildingloc"
      ],
      [
        "_k",
        "ids"
      ],
      [
        "uth",
        "_kids"
      ],
      [
        "concept_agriculturalproduct_p",
        "lants"
      ],
      [
        "concept_sportsteam_nca",
        "a_yo"
      ],
      [
        "concept:buildingloc",
        "atedincity"
      ],
      [
        "concept_sportsteam_ncaa_yo",
        "uth_kids"
      ],
      [
        "_",
        "l"
      ],
      [
        "b",
        "a"
      ],
      [
        "or",
        "n"
      ],
      [
        "ch",
        "ic"
      ],
      [
        "pe",
        "ts"
      ],
      [
        "concept_insect_",
        "insects"
      ],
      [
        "c",
        "at"
      ],
      [
        "t",
        "y_"
      ],
      [
        "ro",
        "wn"
      ],
      [
        "concept_m",
        "on"
      ],
      [
        "concept_sportsteam_",
        "state_university"
      ],
      [
        "re",
        "atur"
      ],
      [
        "concept_buildingfeature_window",
        "s"
      ],
      [
        "ob",
        "ile"
      ],
      [
        "cho",
        "ol"
      ],
      [
        "concept_animal_c",
        "reatur"
      ],
      [
        "adi",
        "um"
      ],
      [
        "concept_animal_creatur",
        "es"
      ],
      [
        "b",
        "el"
      ],
      [
        "c",
        "i"
      ],
      [
        "m",
        "ak"
      ],
      [
        "an",
        "le"
      ],
      [
        "le",
        "s"
      ],
      [
        "e_",
        "n"
      ],
      [
        "concept:animal",
        "eat"
      ],
      [
        "concept_mammal_",
        "cat"
      ],
      [
        "ut",
        "om"
      ],
      [
        "concept_mon",
        "th"
      ],
      [
        "obile",
        "mak"
      ],
      [
        "utom",
        "obilemak"
      ],
      [
        "utomobilemak",
        "er"
      ],
      [
        "k",
        "e"
      ],
      [
        "s",
        "chool"
      ],
      [
        "t",
        "o"
      ],
      [
        "or",
        "s"
      ],
      [
        "at",
        "tr"
      ],
      [
        "st",
        "o"
      ],
      [
        "se",
        "ason"
      ],
      [
        "concept_athlete_",
        "m"
      ],
      [
        "concept_person",
        "_"
      ],
      [
        "concept_vegetable",
        "_"
      ],
      [
        "_st",
        "anle"
      ],
      [
        "concept_awardtrophytournament",
        "_stanle"
      ],
      [
        "_o",
        "il"
      ],
      [
        "concept_coun",
        "ty_"
      ],
      [
        "y_c",
        "up"
      ],
      [
        "attr",
        "act"
      ],
      [
        "concept_awardtrophytournament_stanle",
        "y_cup"
      ],
      [
        "b",
        "er"
      ],
      [
        "l",
        "a"
      ],
      [
        "s",
        "on"
      ],
      [
        "es",
        "s"
      ],
      [
        "as",
        "k"
      ],
      [
        "concept:persongraduated",
        "school"
      ],
      [
        "b",
        "r"
      ],
      [
        "concept_",
        "date"
      ],
      [
        "concept_",
        "non"
      ],
      [
        "concept:agent",
        "bel"
      ],
      [
        "concept_sportsteam",
        "_b"
      ],
      [
        "concept_person",
        "_but"
      ],
      [
        "00",
        "2"
      ],
      [
        "concept_food",
        "_oil"
      ],
      [
        "ong",
        "sto"
      ],
      [
        "concept:agentbel",
        "ongsto"
      ],
      [
        "concept:agentbelongsto",
        "organization"
      ],
      [
        "concept:",
        "co"
      ],
      [
        "an",
        "d"
      ],
      [
        "ach",
        "wontrophy"
      ],
      [
        "concept_mammal_cat",
        "s"
      ],
      [
        "concept:co",
        "achwontrophy"
      ],
      [
        "_",
        "g"
      ],
      [
        "h",
        "o"
      ],
      [
        "o",
        "t"
      ],
      [
        "al",
        "i"
      ],
      [
        "amp",
        "a"
      ],
      [
        "concept_sportsteam_t",
        "ampa"
      ],
      [
        "_",
        "animals"
      ],
      [
        "g",
        "rown"
      ],
      [
        "o",
        "x"
      ],
      [
        "at",
        "t"
      ],
      [
        "in",
        "landscapefeatures"
      ],
      [
        "ic",
        "e"
      ],
      [
        "concept_sport",
        "_b"
      ],
      [
        "ar",
        "s"
      ],
      [
        "concept_p",
        "ro"
      ],
      [
        "concept_athlete",
        "_b"
      ],
      [
        "et",
        "ball"
      ],
      [
        "concept:agriculturalproduct",
        "grown"
      ],
      [
        "concept:team",
        "alsoknownas"
      ],
      [
        "concept_sportsleagu",
        "e_n"
      ],
      [
        "ask",
        "etball"
      ],
      [
        "concept_sport_b",
        "asketball"
      ],
      [
        "concept:agriculturalproductgrown",
        "inlandscapefeatures"
      ],
      [
        "concept_sportsleague_n",
        "ba"
      ],
      [
        "h",
        "om"
      ],
      [
        "ag",
        "o"
      ],
      [
        "le",
        "ge"
      ],
      [
        "as",
        "h"
      ],
      [
        "concept_agriculturalproduct",
        "_"
      ],
      [
        "concept_musicartist_",
        "season"
      ],
      [
        "col",
        "lege"
      ],
      [
        "concept_person_but",
        "ton"
      ],
      [
        "c",
        "e"
      ],
      [
        "concept_",
        "r"
      ],
      [
        "concept_",
        "tr"
      ],
      [
        "ag",
        "e"
      ],
      [
        "et",
        "s"
      ],
      [
        "of",
        "f"
      ],
      [
        "concept:team",
        "wontrophy"
      ],
      [
        "concept_a",
        "utomobilemaker"
      ],
      [
        "os",
        "it"
      ],
      [
        "concept_government",
        "organization_"
      ],
      [
        "chic",
        "ago"
      ],
      [
        "b",
        "orn"
      ],
      [
        "k",
        "s"
      ],
      [
        "m",
        "ammal"
      ],
      [
        "p",
        "osit"
      ],
      [
        "concept_",
        "landscapefeatures"
      ],
      [
        "ro",
        "w"
      ],
      [
        "ad",
        "e"
      ],
      [
        "concept_city_",
        "york"
      ],
      [
        "concept:person",
        "born"
      ],
      [
        "f",
        "f"
      ],
      [
        "g",
        "r"
      ],
      [
        "h",
        "e"
      ],
      [
        "i",
        "o"
      ],
      [
        "u",
        "al"
      ],
      [
        "v",
        "en"
      ],
      [
        "concept_",
        "vis"
      ],
      [
        "y_",
        "devil"
      ],
      [
        "ation",
        "al"
      ],
      [
        "ding",
        "agriculturalproduct"
      ],
      [
        "concept_mammal_",
        "animals"
      ],
      [
        "concept:agriculturalproduct",
        "inclu"
      ],
      [
        "_s",
        "ox"
      ],
      [
        "concept_university_",
        "college"
      ],
      [
        "animals",
        "002"
      ],
      [
        "concept_animal_",
        "animals002"
      ],
      [
        "concept:animaleat",
        "food"
      ],
      [
        "concept_non",
        "gov"
      ],
      [
        "concept_vis",
        "ual"
      ],
      [
        "concept:agriculturalproductinclu",
        "dingagriculturalproduct"
      ],
      [
        "l",
        "in"
      ],
      [
        "e_",
        "c"
      ],
      [
        "il",
        "d"
      ],
      [
        "concept_sportsteam_",
        "yan"
      ],
      [
        "hi",
        "p"
      ],
      [
        "concept_company_",
        "p"
      ],
      [
        "concept_sportsteam_tampa",
        "_ba"
      ],
      [
        "e",
        "ci"
      ],
      [
        "i",
        "k"
      ],
      [
        "n",
        "ational"
      ],
      [
        "concept:",
        "sp"
      ],
      [
        "st",
        "s"
      ],
      [
        "st",
        "adium"
      ],
      [
        "lan",
        "gu"
      ],
      [
        "ch",
        "amp"
      ],
      [
        "zation",
        "of"
      ],
      [
        "lo",
        "g"
      ],
      [
        "_r",
        "ays"
      ],
      [
        "ions",
        "hip"
      ],
      [
        "ali",
        "zationof"
      ],
      [
        "concept_tr",
        "ade"
      ],
      [
        "y_devil",
        "_rays"
      ],
      [
        "concept_sportsteam_tampa_ba",
        "y_devil_rays"
      ],
      [
        "eci",
        "alizationof"
      ],
      [
        "concept:sp",
        "ecializationof"
      ],
      [
        "champ",
        "ionship"
      ],
      [
        "concept_trade",
        "un"
      ],
      [
        "_",
        "window"
      ],
      [
        "j",
        "ob"
      ],
      [
        "m",
        "an"
      ],
      [
        "s",
        "y"
      ],
      [
        "ept",
        "ile"
      ],
      [
        "concept_",
        "ge"
      ],
      [
        "concept_sportsteam_",
        "red"
      ],
      [
        "concept_sportsteam_",
        "devil"
      ],
      [
        "concept_sportsteam_",
        "chicago"
      ],
      [
        "for",
        "m"
      ],
      [
        "concept:organization",
        "alsoknownas"
      ],
      [
        "concept:agriculturalproduct",
        "to"
      ],
      [
        "el",
        "l"
      ],
      [
        "concept_musicartist",
        "_times"
      ],
      [
        "concept_coach",
        "_"
      ],
      [
        "id",
        "e"
      ],
      [
        "attract",
        "insect"
      ],
      [
        "concept_r",
        "eptile"
      ],
      [
        "job",
        "posit"
      ],
      [
        "concept_sportsteam_devil",
        "s"
      ],
      [
        "concept:agriculturalproductto",
        "attractinsect"
      ],
      [
        "a",
        "z"
      ],
      [
        "a",
        "il"
      ],
      [
        "i",
        "x"
      ],
      [
        "r",
        "or"
      ],
      [
        "u",
        "bs"
      ],
      [
        "an",
        "s"
      ],
      [
        "le",
        "y"
      ],
      [
        "ar",
        "k"
      ],
      [
        "concept_sportsteam_",
        "s"
      ],
      [
        "concept_sportsteam_",
        "w"
      ],
      [
        "ing",
        "ton"
      ],
      [
        "concept_mammal",
        "_be"
      ],
      [
        "concept_c",
        "r"
      ],
      [
        "concept_sportsgame_",
        "championship"
      ],
      [
        "lic",
        "k"
      ],
      [
        "concept_bakedgood",
        "_"
      ],
      [
        "op",
        "olitic"
      ],
      [
        "ke",
        "es"
      ],
      [
        "concept_sportsteam_yan",
        "kees"
      ],
      [
        "concept_company_p",
        "ost"
      ],
      [
        "_",
        "ro"
      ],
      [
        "a",
        "c"
      ],
      [
        "f",
        "e"
      ],
      [
        "i",
        "am"
      ],
      [
        "on",
        "t"
      ],
      [
        "concept_",
        "ter"
      ],
      [
        "concept_",
        "stadium"
      ],
      [
        "or",
        "event"
      ],
      [
        "e_",
        "j"
      ],
      [
        "co",
        "un"
      ],
      [
        "il",
        "k"
      ],
      [
        "pe",
        "sts"
      ],
      [
        "concept_athlete_",
        "s"
      ],
      [
        "concept_mammal_",
        "f"
      ],
      [
        "ter",
        "m"
      ],
      [
        "concept_politic",
        "ian"
      ],
      [
        "ash",
        "ington"
      ],
      [
        "ven",
        "u"
      ],
      [
        "langu",
        "ag"
      ],
      [
        "concept_ge",
        "opolitic"
      ],
      [
        "ror",
        "ist"
      ],
      [
        "concept_ter",
        "rorist"
      ],
      [
        "concept_stadium",
        "orevent"
      ],
      [
        "concept_stadiumorevent",
        "venu"
      ],
      [
        "_",
        "an"
      ],
      [
        "_",
        "pets"
      ],
      [
        "f",
        "l"
      ],
      [
        "h",
        "as"
      ],
      [
        "o",
        "d"
      ],
      [
        "te",
        "red"
      ],
      [
        "al",
        "_"
      ],
      [
        "am",
        "m"
      ],
      [
        "ar",
        "tered"
      ],
      [
        "concept_athlete_",
        "c"
      ],
      [
        "all",
        "item"
      ],
      [
        "concept_person",
        "us"
      ],
      [
        "concept_c",
        "e"
      ],
      [
        "concept_mammal_",
        "w"
      ],
      [
        "ad",
        "qu"
      ],
      [
        "concept:organization",
        "he"
      ],
      [
        "concept_w",
        "allitem"
      ],
      [
        "concept_website_",
        "new_york"
      ],
      [
        "artered",
        "incity"
      ],
      [
        "adqu",
        "arteredincity"
      ],
      [
        "concept:organizationhe",
        "adquarteredincity"
      ],
      [
        "concept_website_new_york",
        "_times"
      ],
      [
        "a",
        "u"
      ],
      [
        "e",
        "y"
      ],
      [
        "on",
        "d"
      ],
      [
        "te",
        "l"
      ],
      [
        "an",
        "k"
      ],
      [
        "e_",
        "b"
      ],
      [
        "ar",
        "r"
      ],
      [
        "_b",
        "row"
      ],
      [
        "concept_m",
        "eat"
      ],
      [
        "concept_athlete_",
        "d"
      ],
      [
        "for",
        "d"
      ],
      [
        "ser",
        "_window"
      ],
      [
        "iz",
        "able"
      ],
      [
        "concept_coun",
        "tr"
      ],
      [
        "concept_visual",
        "izable"
      ],
      [
        "concept_tradeun",
        "ion_"
      ],
      [
        "concept_sportsteam_red",
        "_sox"
      ],
      [
        "concept_terrorist",
        "organization_"
      ],
      [
        "concept_wallitem",
        "_brow"
      ],
      [
        "concept_wallitem_brow",
        "ser_window"
      ],
      [
        "_",
        "state"
      ],
      [
        "a",
        "st"
      ],
      [
        "a",
        "do"
      ],
      [
        "i",
        "a_"
      ],
      [
        "o",
        "en"
      ],
      [
        "te",
        "br"
      ],
      [
        "or",
        "d"
      ],
      [
        "al",
        "organization_"
      ],
      [
        "er",
        "tebr"
      ],
      [
        "en",
        "n"
      ],
      [
        "mal",
        "l"
      ],
      [
        "un",
        "s"
      ],
      [
        "ing",
        "languag"
      ],
      [
        "_t",
        "h"
      ],
      [
        "dow",
        "n"
      ],
      [
        "concept_city_",
        "c"
      ],
      [
        "concept_city_",
        "ph"
      ],
      [
        "concept_personmexico",
        "_"
      ],
      [
        "concept_company_",
        "national"
      ],
      [
        "_j",
        "o"
      ],
      [
        "concept_insect_",
        "pests"
      ],
      [
        "qu",
        "e"
      ],
      [
        "em",
        "ber"
      ],
      [
        "concept_pro",
        "gr"
      ],
      [
        "concept_sportsteam_s",
        "uns"
      ],
      [
        "concept_cr",
        "im"
      ],
      [
        "amm",
        "inglanguag"
      ],
      [
        "concept_countr",
        "y_"
      ],
      [
        "ertebr",
        "ate"
      ],
      [
        "concept_progr",
        "amminglanguag"
      ],
      [
        "h",
        "a"
      ],
      [
        "h",
        "n"
      ],
      [
        "h",
        "ro"
      ],
      [
        "y",
        "m"
      ],
      [
        "at",
        "o"
      ],
      [
        "at",
        "ors"
      ],
      [
        "le",
        "m"
      ],
      [
        "en",
        "s"
      ],
      [
        "en",
        "ce"
      ],
      [
        "ar",
        "iz"
      ],
      [
        "concept_sportsteam_",
        "new_york"
      ],
      [
        "concept_athlete",
        "_p"
      ],
      [
        "concept_mammal",
        "_t"
      ],
      [
        "cho",
        "col"
      ],
      [
        "ap",
        "p"
      ],
      [
        "av",
        "id"
      ],
      [
        "ost",
        "on"
      ],
      [
        "ig",
        "h"
      ],
      [
        "concept_athlete_b",
        "r"
      ],
      [
        "concept_nongov",
        "organization_"
      ],
      [
        "concept_terroristorganization_",
        "state"
      ],
      [
        "oen",
        "ix"
      ],
      [
        "ariz",
        "on"
      ],
      [
        "concept_mammal_t",
        "ig"
      ],
      [
        "chocol",
        "ate"
      ],
      [
        "_",
        "in"
      ],
      [
        "e",
        "f"
      ],
      [
        "g",
        "in"
      ],
      [
        "i",
        "re"
      ],
      [
        "i",
        "el"
      ],
      [
        "r",
        "ite"
      ],
      [
        "r",
        "ab"
      ],
      [
        "s",
        "mall"
      ],
      [
        "t",
        "t"
      ],
      [
        "u",
        "g"
      ],
      [
        "v",
        "ent"
      ],
      [
        "v",
        "es"
      ],
      [
        "on",
        "vent"
      ],
      [
        "concept:",
        "sy"
      ],
      [
        "al",
        "part"
      ],
      [
        "ag",
        "az"
      ],
      [
        "st",
        "ay"
      ],
      [
        "ar",
        "g"
      ],
      [
        "_b",
        "u"
      ],
      [
        "concept_m",
        "agaz"
      ],
      [
        "concept_sportsteam_",
        "ro"
      ],
      [
        "re",
        "w"
      ],
      [
        "concept_person",
        "_m"
      ],
      [
        "concept_c",
        "onvent"
      ],
      [
        "concept_mammal_",
        "h"
      ],
      [
        "concept_mammal_",
        "small"
      ],
      [
        "lo",
        "ad"
      ],
      [
        "_c",
        "ar"
      ],
      [
        "_c",
        "ubs"
      ],
      [
        "concept_insect",
        "_m"
      ],
      [
        "concept_musicartist_",
        "stay"
      ],
      [
        "concept_w",
        "rite"
      ],
      [
        "gu",
        "ide"
      ],
      [
        "non",
        "ym"
      ],
      [
        "ion_",
        "games"
      ],
      [
        "concept_politic",
        "alpart"
      ],
      [
        "concept_athlete_m",
        "att"
      ],
      [
        "concept_sportsteam_chicago",
        "_cubs"
      ],
      [
        "concept_geopolitic",
        "alorganization_"
      ],
      [
        "down",
        "load"
      ],
      [
        "concept_city_ph",
        "oenix"
      ],
      [
        "concept:sy",
        "nonym"
      ],
      [
        "concept_magaz",
        "in"
      ],
      [
        "concept_convent",
        "ion_games"
      ],
      [
        "concept_write",
        "r"
      ],
      [
        "concept_politicalpart",
        "y_"
      ],
      [
        "concept:synonym",
        "for"
      ],
      [
        "b",
        "e"
      ],
      [
        "i",
        "f"
      ],
      [
        "l",
        "er"
      ],
      [
        "r",
        "es"
      ],
      [
        "s",
        "te"
      ],
      [
        "u",
        "se"
      ],
      [
        "an",
        "t"
      ],
      [
        "ic",
        "s"
      ],
      [
        "ro",
        "d"
      ],
      [
        "ro",
        "s"
      ],
      [
        "ar",
        "ds"
      ],
      [
        "_b",
        "r"
      ],
      [
        "ch",
        "r"
      ],
      [
        "concept_sportsteam_",
        "p"
      ],
      [
        "concept_sportsteam_",
        "ph"
      ],
      [
        "concept_mammal",
        "_p"
      ],
      [
        "concept_athlete_",
        "r"
      ],
      [
        "concept_athlete_",
        "t"
      ],
      [
        "concept_mammal_",
        "pets"
      ],
      [
        "inv",
        "ertebrate"
      ],
      [
        "concept_plant",
        "_c"
      ],
      [
        "lo",
        "s"
      ],
      [
        "lo",
        "w"
      ],
      [
        "concept_city_",
        "b"
      ],
      [
        "ra",
        "ves"
      ],
      [
        "concept_agriculturalproduct",
        "_h"
      ],
      [
        "ip",
        "s"
      ],
      [
        "concept_coach",
        "_m"
      ],
      [
        "concept_food",
        "_"
      ],
      [
        "th",
        "ing"
      ],
      [
        "concept_government",
        "organization"
      ],
      [
        "ors",
        "es"
      ],
      [
        "attract",
        "ion"
      ],
      [
        "off",
        "ice"
      ],
      [
        "concept:personborn",
        "inlocation"
      ],
      [
        "concept:personborn",
        "incity"
      ],
      [
        "term",
        "s"
      ],
      [
        "concept_stadiumoreventvenu",
        "e_"
      ],
      [
        "concept_visualizable",
        "thing"
      ],
      [
        "concept_crim",
        "in"
      ],
      [
        "igh",
        "t"
      ],
      [
        "concept_mammal_h",
        "orses"
      ],
      [
        "b",
        "it"
      ],
      [
        "i",
        "e"
      ],
      [
        "k",
        "en"
      ],
      [
        "t",
        "it"
      ],
      [
        "on",
        "s"
      ],
      [
        "al",
        "o"
      ],
      [
        "in",
        "n"
      ],
      [
        "in",
        "o"
      ],
      [
        "ort",
        "h"
      ],
      [
        "_b",
        "raves"
      ],
      [
        "product",
        "s"
      ],
      [
        "concept_b",
        "log"
      ],
      [
        "_p",
        "ot"
      ],
      [
        "concept_person",
        "as"
      ],
      [
        "ok",
        "la"
      ],
      [
        "_m",
        "id"
      ],
      [
        "red",
        "ators"
      ],
      [
        "el",
        "_"
      ],
      [
        "_s",
        "h"
      ],
      [
        "concept_company_",
        "d"
      ],
      [
        "_d",
        "avid"
      ],
      [
        "stateorprovinc",
        "e"
      ],
      [
        "ck",
        "s"
      ],
      [
        "concept_athlete_j",
        "o"
      ],
      [
        "concept_landscapefeatures",
        "_"
      ],
      [
        "e_c",
        "ont"
      ],
      [
        "ild",
        "_animals"
      ],
      [
        "form",
        "ation"
      ],
      [
        "concept_mammal_be",
        "ar"
      ],
      [
        "coun",
        "tr"
      ],
      [
        "concept_politician",
        "us"
      ],
      [
        "concept_mammal_w",
        "ild_animals"
      ],
      [
        "concept_tradeunion_",
        "search"
      ],
      [
        "que",
        "en"
      ],
      [
        "concept_programminglanguag",
        "e_cont"
      ],
      [
        "concept_nongovorganization_",
        "guide"
      ],
      [
        "concept_mammal_tig",
        "ers"
      ],
      [
        "iel",
        "d"
      ],
      [
        "bit",
        "s"
      ],
      [
        "_pot",
        "ato"
      ],
      [
        "okla",
        "hom"
      ],
      [
        "concept_programminglanguage_cont",
        "act"
      ],
      [
        "_",
        "pe"
      ],
      [
        "a",
        "f"
      ],
      [
        "e",
        "b"
      ],
      [
        "e",
        "al"
      ],
      [
        "e",
        "qu"
      ],
      [
        "g",
        "ers"
      ],
      [
        "l",
        "ay"
      ],
      [
        "p",
        "od"
      ],
      [
        "on",
        "ion"
      ],
      [
        "concept_",
        "art"
      ],
      [
        "concept_",
        "act"
      ],
      [
        "concept_",
        "jobposit"
      ],
      [
        "al",
        "m"
      ],
      [
        "am",
        "ire"
      ],
      [
        "in",
        "e"
      ],
      [
        "in",
        "s"
      ],
      [
        "in",
        "t"
      ],
      [
        "er",
        "y"
      ],
      [
        "le",
        "br"
      ],
      [
        "re",
        "c"
      ],
      [
        "iv",
        "es"
      ],
      [
        "concept_mammal_",
        "rab"
      ],
      [
        "win",
        "s"
      ],
      [
        "_c",
        "el"
      ],
      [
        "_m",
        "ets"
      ],
      [
        "ak",
        "e"
      ],
      [
        "concept:person",
        "has"
      ],
      [
        "ip",
        "ment"
      ],
      [
        "e_m",
        "ilk"
      ],
      [
        "_j",
        "un"
      ],
      [
        "concept_beverag",
        "e_milk"
      ],
      [
        "ap",
        "le"
      ],
      [
        "ir",
        "gin"
      ],
      [
        "ill",
        "ies"
      ],
      [
        "ill",
        "iam"
      ],
      [
        "ion_",
        "queen"
      ],
      [
        "concept:animaleat",
        "vegetable"
      ],
      [
        "ho",
        "tel"
      ],
      [
        "jobposit",
        "ion"
      ],
      [
        "concept_ce",
        "lebr"
      ],
      [
        "hro",
        "pod"
      ],
      [
        "concept_sportsteam_new_york",
        "_mets"
      ],
      [
        "concept_magazin",
        "e_"
      ],
      [
        "concept_mammal_p",
        "redators"
      ],
      [
        "concept_personas",
        "ia_"
      ],
      [
        "countr",
        "y"
      ],
      [
        "_potato",
        "es"
      ],
      [
        "oklahom",
        "a"
      ],
      [
        "equ",
        "ipment"
      ],
      [
        "concept_art",
        "hropod"
      ],
      [
        "concept_act",
        "or"
      ],
      [
        "concept_jobposit",
        "ion_queen"
      ],
      [
        "amire",
        "z"
      ],
      [
        "concept_mammal_rab",
        "bits"
      ],
      [
        "concept:personhas",
        "jobposition"
      ],
      [
        "concept_celebr",
        "ity_"
      ],
      [
        "_",
        "a"
      ],
      [
        "_",
        "le"
      ],
      [
        "_",
        "form"
      ],
      [
        "a",
        "ck"
      ],
      [
        "c",
        "ity"
      ],
      [
        "f",
        "ess"
      ],
      [
        "g",
        "le"
      ],
      [
        "l",
        "ions"
      ],
      [
        "p",
        "ort"
      ],
      [
        "p",
        "ers"
      ],
      [
        "r",
        "i"
      ],
      [
        "r",
        "ess"
      ],
      [
        "t",
        "a"
      ],
      [
        "u",
        "ff"
      ],
      [
        "ept",
        "ember"
      ],
      [
        "concept_",
        "te"
      ],
      [
        "concept:",
        "mammal"
      ],
      [
        "concept:",
        "attraction"
      ],
      [
        "or",
        "ado"
      ],
      [
        "an",
        "_"
      ],
      [
        "an",
        "a"
      ],
      [
        "in",
        "country"
      ],
      [
        "le",
        "vis"
      ],
      [
        "ent",
        "s"
      ],
      [
        "st",
        "ation"
      ],
      [
        "ro",
        "b"
      ],
      [
        "e_",
        "w"
      ],
      [
        "ion",
        "station"
      ],
      [
        "co",
        "tt"
      ],
      [
        "pro",
        "f"
      ],
      [
        "ric",
        "k"
      ],
      [
        "_p",
        "o"
      ],
      [
        "olv",
        "es"
      ],
      [
        "concept_mammal_",
        "rod"
      ],
      [
        "of",
        "city"
      ],
      [
        "concept_building",
        "_"
      ],
      [
        "_c",
        "l"
      ],
      [
        "_c",
        "lick"
      ],
      [
        "a_",
        "state"
      ],
      [
        "concept_sportsgame_",
        "terms"
      ],
      [
        "hi",
        "b"
      ],
      [
        "hi",
        "g"
      ],
      [
        "concept_university_",
        "m"
      ],
      [
        "concept_animal",
        "_h"
      ],
      [
        "concept_agriculturalproduct",
        "_c"
      ],
      [
        "concept_agriculturalproduct",
        "_m"
      ],
      [
        "concept_personmexico",
        "_j"
      ],
      [
        "concept:team",
        "hom"
      ],
      [
        "ter",
        "n"
      ],
      [
        "_j",
        "ers"
      ],
      [
        "ge",
        "les"
      ],
      [
        "concept_animal_",
        "chic"
      ],
      [
        "ck",
        "ies"
      ],
      [
        "concept_bakedgood",
        "_b"
      ],
      [
        "suchas",
        "mammal"
      ],
      [
        "est",
        "adium"
      ],
      [
        "concept_vegetable_",
        "onion"
      ],
      [
        "concept_sportsteam_b",
        "oston"
      ],
      [
        "concept_pro",
        "fess"
      ],
      [
        "concept_nongov",
        "organization"
      ],
      [
        "concept_sportsteam_w",
        "ashington"
      ],
      [
        "fe",
        "ed"
      ],
      [
        "concept_athlete_s",
        "cott"
      ],
      [
        "_an",
        "geles"
      ],
      [
        "app",
        "le"
      ],
      [
        "rew",
        "ers"
      ],
      [
        "los",
        "_angeles"
      ],
      [
        "ken",
        "001"
      ],
      [
        "tit",
        "le"
      ],
      [
        "concept_company_d",
        "c"
      ],
      [
        "concept_te",
        "levis"
      ],
      [
        "concept:mammal",
        "suchasmammal"
      ],
      [
        "concept:attraction",
        "ofcity"
      ],
      [
        "concept_mammal_rod",
        "ents"
      ],
      [
        "concept:teamhom",
        "estadium"
      ],
      [
        "concept_animal_chic",
        "ken001"
      ],
      [
        "concept_televis",
        "ionstation"
      ],
      [
        "a",
        "per"
      ],
      [
        "a",
        "utomobilemaker"
      ],
      [
        "b",
        "ies"
      ],
      [
        "e",
        "y_"
      ],
      [
        "f",
        "in"
      ],
      [
        "f",
        "ield"
      ],
      [
        "h",
        "ol"
      ],
      [
        "i",
        "ence"
      ],
      [
        "o",
        "_"
      ],
      [
        "o",
        "c"
      ],
      [
        "o",
        "uth"
      ],
      [
        "p",
        "lant"
      ],
      [
        "r",
        "y_"
      ],
      [
        "t",
        "y"
      ],
      [
        "t",
        "ball"
      ],
      [
        "t",
        "ics"
      ],
      [
        "u",
        "st"
      ],
      [
        "w",
        "an"
      ],
      [
        "concept_",
        "fe"
      ],
      [
        "concept:",
        "automobilemaker"
      ],
      [
        "an",
        "ford"
      ],
      [
        "er",
        "bs"
      ],
      [
        "le",
        "n"
      ],
      [
        "ic",
        "ha"
      ],
      [
        "ic",
        "hig"
      ],
      [
        "concept_sport",
        "_f"
      ],
      [
        "mal",
        "e_"
      ],
      [
        "st",
        "anford"
      ],
      [
        "lan",
        "d"
      ],
      [
        "ric",
        "h"
      ],
      [
        "il",
        "le"
      ],
      [
        "concept_sportsteam_",
        "k"
      ],
      [
        "concept_sportsteam_",
        "or"
      ],
      [
        "un",
        "ion"
      ],
      [
        "concept_b",
        "ank"
      ],
      [
        "ing",
        "s"
      ],
      [
        "re",
        "ad"
      ],
      [
        "do",
        "d"
      ],
      [
        "_p",
        "h"
      ],
      [
        "concept_athlete_",
        "f"
      ],
      [
        "concept_athlete_",
        "w"
      ],
      [
        "concept_athlete_",
        "lu"
      ],
      [
        "_ba",
        "bies"
      ],
      [
        "for",
        "est"
      ],
      [
        "ad",
        "am"
      ],
      [
        "oo",
        "tball"
      ],
      [
        "concept_plant",
        "_b"
      ],
      [
        "concept_plant",
        "_h"
      ],
      [
        "concept_city_",
        "download"
      ],
      [
        "a_",
        "d"
      ],
      [
        "concept_sportsgame_",
        "title"
      ],
      [
        "_w",
        "iz"
      ],
      [
        "_w",
        "ashington"
      ],
      [
        "_w",
        "illiam"
      ],
      [
        "concept_animal",
        "_babies"
      ],
      [
        "concept_personmexico",
        "_m"
      ],
      [
        "ca",
        "v"
      ],
      [
        "concept_coach",
        "_k"
      ],
      [
        "_f",
        "r"
      ],
      [
        "concept_animal_",
        "ch"
      ],
      [
        "col",
        "orado"
      ],
      [
        "concept_stateorprovince_",
        "oklahoma"
      ],
      [
        "concept_sportsteam_m",
        "ar"
      ],
      [
        "concept_date",
        "_mid"
      ],
      [
        "ho",
        "use"
      ],
      [
        "concept_agriculturalproduct_",
        "products"
      ],
      [
        "ik",
        "e_"
      ],
      [
        "concept_insect_m",
        "ites"
      ],
      [
        "chr",
        "is"
      ],
      [
        "concept_agriculturalproduct_h",
        "erbs"
      ],
      [
        "eal",
        "ers"
      ],
      [
        "_cel",
        "tics"
      ],
      [
        "uff",
        "alo"
      ],
      [
        "concept_sportsteam_boston",
        "_celtics"
      ],
      [
        "los_angeles",
        "_"
      ],
      [
        "concept_sport_f",
        "ootball"
      ],
      [
        "_",
        "se"
      ],
      [
        "_",
        "ch"
      ],
      [
        "a",
        "ul"
      ],
      [
        "a",
        "_t"
      ],
      [
        "b",
        "le"
      ],
      [
        "c",
        "ard"
      ],
      [
        "e",
        "ur"
      ],
      [
        "h",
        "ar"
      ],
      [
        "h",
        "ite"
      ],
      [
        "n",
        "ut"
      ],
      [
        "p",
        "t"
      ],
      [
        "p",
        "hi"
      ],
      [
        "p",
        "lay"
      ],
      [
        "r",
        "ight"
      ],
      [
        "u",
        "c"
      ],
      [
        "u",
        "d"
      ],
      [
        "v",
        "er"
      ],
      [
        "w",
        "ood"
      ],
      [
        "y",
        "n"
      ],
      [
        "y",
        "le"
      ],
      [
        "z",
        "a"
      ],
      [
        "on",
        "food"
      ],
      [
        "ep",
        "h"
      ],
      [
        "concept_",
        "amp"
      ],
      [
        "concept_",
        "hotel"
      ],
      [
        "concept:",
        "has"
      ],
      [
        "concept:",
        "invertebrate"
      ],
      [
        "in",
        "es"
      ],
      [
        "in",
        "son"
      ],
      [
        "in",
        "stateorprovince"
      ],
      [
        "er",
        "re"
      ],
      [
        "sp",
        "r"
      ],
      [
        "le",
        "op"
      ],
      [
        "en",
        "d"
      ],
      [
        "st",
        "r"
      ],
      [
        "ul",
        "l"
      ],
      [
        "il",
        "ad"
      ],
      [
        "ist",
        "ons"
      ],
      [
        "concept_sportsteam_",
        "d"
      ],
      [
        "concept_sportsteam_",
        "cho"
      ],
      [
        "concept_sportsteam_",
        "stanford"
      ],
      [
        "concept_sportsteam_",
        "cav"
      ],
      [
        "re",
        "g"
      ],
      [
        "re",
        "en"
      ],
      [
        "iv",
        "is"
      ],
      [
        "_p",
        "ay"
      ],
      [
        "_p",
        "ost"
      ],
      [
        "_p",
        "enn"
      ],
      [
        "et",
        "h"
      ],
      [
        "et",
        "t"
      ],
      [
        "_ba",
        "cks"
      ],
      [
        "concept_mammal_",
        "lions"
      ],
      [
        "concept_plant",
        "_p"
      ],
      [
        "concept_plant",
        "_f"
      ],
      [
        "ab",
        "el"
      ],
      [
        "_c",
        "at"
      ],
      [
        "concept_sportsgame_",
        "play"
      ],
      [
        "red",
        "it"
      ],
      [
        "el",
        "phi"
      ],
      [
        "lu",
        "e_j"
      ],
      [
        "concept_vegetable",
        "_potatoes"
      ],
      [
        "ex",
        "per"
      ],
      [
        "_s",
        "te"
      ],
      [
        "_s",
        "ite"
      ],
      [
        "concept_university_",
        "search"
      ],
      [
        "ra",
        "in"
      ],
      [
        "_r",
        "ep"
      ],
      [
        "_r",
        "amirez"
      ],
      [
        "concept_insect",
        "_bu"
      ],
      [
        "concept_coach",
        "_c"
      ],
      [
        "_wh",
        "ite"
      ],
      [
        "new",
        "_jers"
      ],
      [
        "ile",
        "s"
      ],
      [
        "concept_website",
        "_washington"
      ],
      [
        "concept_awardtrophytournament",
        "_penn"
      ],
      [
        "concept_athlete_j",
        "on"
      ],
      [
        "_o",
        "ct"
      ],
      [
        "ir",
        "port"
      ],
      [
        "concept_website_",
        "exper"
      ],
      [
        "_l",
        "iv"
      ],
      [
        "concept_month",
        "_m"
      ],
      [
        "ber",
        "t"
      ],
      [
        "concept_non",
        "prof"
      ],
      [
        "off",
        "s"
      ],
      [
        "io",
        "les"
      ],
      [
        "concept_visual",
        "artist"
      ],
      [
        "concept_mammal_be",
        "ars"
      ],
      [
        "iam",
        "ond"
      ],
      [
        "concept_mammal_f",
        "erre"
      ],
      [
        "fl",
        "or"
      ],
      [
        "concept_city_c",
        "lick"
      ],
      [
        "concept_athlete_br",
        "ian"
      ],
      [
        "arizon",
        "a_d"
      ],
      [
        "arg",
        "e_"
      ],
      [
        "concept_mammal_small",
        "_pets"
      ],
      [
        "ste",
        "m"
      ],
      [
        "concept_sportsteam_p",
        "istons"
      ],
      [
        "low",
        "er"
      ],
      [
        "concept_food_",
        "eg"
      ],
      [
        "office",
        "incountry"
      ],
      [
        "concept_crimin",
        "al_"
      ],
      [
        "concept_blog",
        "_form"
      ],
      [
        "rec",
        "ord"
      ],
      [
        "irgin",
        "ia"
      ],
      [
        "hib",
        "ian"
      ],
      [
        "concept_profess",
        "or"
      ],
      [
        "feed",
        "onfood"
      ],
      [
        "wan",
        "_braves"
      ],
      [
        "concept:automobilemaker",
        "card"
      ],
      [
        "ichig",
        "an"
      ],
      [
        "concept_sportsteam_or",
        "ioles"
      ],
      [
        "dod",
        "gers"
      ],
      [
        "concept_athlete_lu",
        "is"
      ],
      [
        "_wiz",
        "ards"
      ],
      [
        "concept_animal_ch",
        "ild"
      ],
      [
        "ealers",
        "instateorprovince"
      ],
      [
        "concept_amp",
        "hibian"
      ],
      [
        "concept:has",
        "officeincountry"
      ],
      [
        "concept:invertebrate",
        "feedonfood"
      ],
      [
        "ilad",
        "elphi"
      ],
      [
        "concept_sportsteam_cho",
        "wan_braves"
      ],
      [
        "concept_sportsgame_play",
        "offs"
      ],
      [
        "lue_j",
        "ays"
      ],
      [
        "concept_insect_bu",
        "gs"
      ],
      [
        "concept_website_washington",
        "_post"
      ],
      [
        "concept_awardtrophytournament_penn",
        "ant"
      ],
      [
        "concept_website_exper",
        "ience"
      ],
      [
        "concept_nonprof",
        "it"
      ],
      [
        "iamond",
        "_backs"
      ],
      [
        "concept_mammal_ferre",
        "ts"
      ],
      [
        "arizona_d",
        "iamond_backs"
      ],
      [
        "concept:automobilemakercard",
        "ealersinstateorprovince"
      ],
      [
        "_",
        "co"
      ],
      [
        "b",
        "a_"
      ],
      [
        "b",
        "ut"
      ],
      [
        "b",
        "log"
      ],
      [
        "c",
        "u"
      ],
      [
        "d",
        "er"
      ],
      [
        "e",
        "a"
      ],
      [
        "e",
        "c"
      ],
      [
        "e",
        "ch"
      ],
      [
        "e",
        "et"
      ],
      [
        "e",
        "ff"
      ],
      [
        "f",
        "o"
      ],
      [
        "g",
        "row"
      ],
      [
        "h",
        "un"
      ],
      [
        "l",
        "l"
      ],
      [
        "m",
        "est"
      ],
      [
        "o",
        "g"
      ],
      [
        "r",
        "ep"
      ],
      [
        "s",
        "_"
      ],
      [
        "s",
        "h"
      ],
      [
        "s",
        "ite"
      ],
      [
        "s",
        "ci"
      ],
      [
        "s",
        "blog"
      ],
      [
        "u",
        "k"
      ],
      [
        "u",
        "ice"
      ],
      [
        "v",
        "ille"
      ],
      [
        "w",
        "ay"
      ],
      [
        "y",
        "als"
      ],
      [
        "on",
        "n"
      ],
      [
        "on",
        "ey"
      ],
      [
        "concept_",
        "new"
      ],
      [
        "concept_",
        "record"
      ],
      [
        "te",
        "ch"
      ],
      [
        "or",
        "es"
      ],
      [
        "or",
        "ies"
      ],
      [
        "an",
        "o"
      ],
      [
        "an",
        "ts"
      ],
      [
        "in",
        "_b"
      ],
      [
        "in",
        "eg"
      ],
      [
        "in",
        "ter"
      ],
      [
        "in",
        "formation"
      ],
      [
        "in",
        "plant"
      ],
      [
        "sp",
        "aper"
      ],
      [
        "ur",
        "se"
      ],
      [
        "e_",
        "field"
      ],
      [
        "ar",
        "l"
      ],
      [
        "ar",
        "n"
      ],
      [
        "co",
        "urse"
      ],
      [
        "es",
        "ot"
      ],
      [
        "y_",
        "s"
      ],
      [
        "ate",
        "r"
      ],
      [
        "_b",
        "ur"
      ],
      [
        "_b",
        "rown"
      ],
      [
        "concept_sportsteam_",
        "new_jers"
      ],
      [
        "ing",
        "inplant"
      ],
      [
        "as",
        "s"
      ],
      [
        "concept_athlete_",
        "k"
      ],
      [
        "all",
        "oc"
      ],
      [
        "concept_person",
        "au"
      ],
      [
        "concept_c",
        "redit"
      ],
      [
        "_t",
        "ab"
      ],
      [
        "_t",
        "our"
      ],
      [
        "concept_mammal_",
        "k"
      ],
      [
        "concept_mammal_",
        "mammal"
      ],
      [
        "concept_plant",
        "_t"
      ],
      [
        "us",
        "k"
      ],
      [
        "concept_city_",
        "d"
      ],
      [
        "concept_city_",
        "m"
      ],
      [
        "_c",
        "ake"
      ],
      [
        "_m",
        "exico"
      ],
      [
        "_w",
        "eb"
      ],
      [
        "_s",
        "eptember"
      ],
      [
        "ra",
        "pt"
      ],
      [
        "concept:plant",
        "grow"
      ],
      [
        "_pep",
        "pers"
      ],
      [
        "concept_company_",
        "m"
      ],
      [
        "concept_company_",
        "n"
      ],
      [
        "ter",
        "fl"
      ],
      [
        "_h",
        "o"
      ],
      [
        "e_m",
        "ail"
      ],
      [
        "_d",
        "er"
      ],
      [
        "_d",
        "ivis"
      ],
      [
        "ge",
        "org"
      ],
      [
        "ob",
        "er"
      ],
      [
        "new",
        "_mexico"
      ],
      [
        "concept_mammal_do",
        "mest"
      ],
      [
        "_f",
        "iles"
      ],
      [
        "um",
        "ans"
      ],
      [
        "os",
        "h"
      ],
      [
        "ern",
        "_"
      ],
      [
        "concept_awardtrophytournament",
        "_n"
      ],
      [
        "concept_awardtrophytournament",
        "_divis"
      ],
      [
        "concept_bakedgood",
        "_p"
      ],
      [
        "concept_stateorprovinc",
        "e_m"
      ],
      [
        "uth",
        "or"
      ],
      [
        "concept_sportsteam_n",
        "orth"
      ],
      [
        "_n",
        "ov"
      ],
      [
        "concept_stateorprovince_",
        "v"
      ],
      [
        "concept_stateorprovince_",
        "course"
      ],
      [
        "concept_journalist",
        "_t"
      ],
      [
        "concept_journalist",
        "_d"
      ],
      [
        "_v",
        "al"
      ],
      [
        "_v",
        "ineg"
      ],
      [
        "concept_sportsteam_t",
        "wins"
      ],
      [
        "concept_politic",
        "sblog"
      ],
      [
        "_but",
        "terfl"
      ],
      [
        "concept_sportsteam_m",
        "aple"
      ],
      [
        "concept_vegetable_",
        "sp"
      ],
      [
        "concept_county_",
        "los_angeles_"
      ],
      [
        "concept_county_",
        "new_mexico"
      ],
      [
        "concept_date",
        "_"
      ],
      [
        "concept_sportsteam_b",
        "rewers"
      ],
      [
        "io",
        "w"
      ],
      [
        "lin",
        "s"
      ],
      [
        "sy",
        "stem"
      ],
      [
        "ans",
        "as"
      ],
      [
        "coun",
        "ty"
      ],
      [
        "_an",
        "ton"
      ],
      [
        "concept_personus",
        "_m"
      ],
      [
        "concept_mammal_w",
        "olves"
      ],
      [
        "concept_meat",
        "_s"
      ],
      [
        "_th",
        "is"
      ],
      [
        "arizon",
        "a"
      ],
      [
        "concept_mammal_small",
        "_animals"
      ],
      [
        "concept_geopoliticalorganization_",
        "e_mail"
      ],
      [
        "concept_writer",
        "_brown"
      ],
      [
        "concept_sportsteam_ph",
        "iladelphi"
      ],
      [
        "inn",
        "esot"
      ],
      [
        "concept_athlete_jo",
        "hn"
      ],
      [
        "af",
        "s"
      ],
      [
        "_jun",
        "e"
      ],
      [
        "concept_personasia_",
        "site"
      ],
      [
        "_le",
        "afs"
      ],
      [
        "concept_animal_h",
        "umans"
      ],
      [
        "concept_sportsteam_washington",
        "_wizards"
      ],
      [
        "concept_televisionstation",
        "_k"
      ],
      [
        "fin",
        "als"
      ],
      [
        "icha",
        "el"
      ],
      [
        "concept_sportsteam_mar",
        "lins"
      ],
      [
        "_oct",
        "ober"
      ],
      [
        "flor",
        "id"
      ],
      [
        "ba_",
        "finals"
      ],
      [
        "concept_new",
        "spaper"
      ],
      [
        "concept_record",
        "l"
      ],
      [
        "alloc",
        "ation"
      ],
      [
        "concept_personau",
        "str"
      ],
      [
        "concept_credit",
        "union"
      ],
      [
        "concept_mammal_mammal",
        "s"
      ],
      [
        "rapt",
        "ors"
      ],
      [
        "concept:plantgrow",
        "inginplant"
      ],
      [
        "concept_mammal_domest",
        "ic"
      ],
      [
        "concept_awardtrophytournament_n",
        "ba_finals"
      ],
      [
        "concept_awardtrophytournament_divis",
        "ion"
      ],
      [
        "_vineg",
        "ar"
      ],
      [
        "_butterfl",
        "ies"
      ],
      [
        "concept_sportsteam_maple",
        "_leafs"
      ],
      [
        "concept_county_los_angeles_",
        "county"
      ],
      [
        "_",
        "2"
      ],
      [
        "_",
        "state_university"
      ],
      [
        "_",
        "season"
      ],
      [
        "_",
        "and"
      ],
      [
        "_",
        "chocolate"
      ],
      [
        "a",
        "ce"
      ],
      [
        "b",
        "y"
      ],
      [
        "c",
        "en"
      ],
      [
        "c",
        "us"
      ],
      [
        "d",
        "_pets"
      ],
      [
        "e",
        "z"
      ],
      [
        "e",
        "ment"
      ],
      [
        "h",
        "all"
      ],
      [
        "m",
        "ov"
      ],
      [
        "n",
        "er"
      ],
      [
        "o",
        "ck"
      ],
      [
        "p",
        "ic"
      ],
      [
        "p",
        "ing"
      ],
      [
        "r",
        "en"
      ],
      [
        "u",
        "it"
      ],
      [
        "u",
        "ck"
      ],
      [
        "v",
        "a"
      ],
      [
        "v",
        "e"
      ],
      [
        "w",
        "est"
      ],
      [
        "w",
        "ell"
      ],
      [
        "w",
        "eet"
      ],
      [
        "y",
        "r"
      ],
      [
        "concept_",
        "gra"
      ],
      [
        "concept_",
        "male_"
      ],
      [
        "concept_",
        "sci"
      ],
      [
        "te",
        "x"
      ],
      [
        "or",
        "y"
      ],
      [
        "or",
        "ia"
      ],
      [
        "an",
        "g"
      ],
      [
        "al",
        "ex"
      ],
      [
        "al",
        "ia"
      ],
      [
        "am",
        "il"
      ],
      [
        "in",
        "ach"
      ],
      [
        "en",
        "c"
      ],
      [
        "ro",
        "ts"
      ],
      [
        "ro",
        "bert"
      ],
      [
        "e_",
        "s"
      ],
      [
        "ed",
        "s"
      ],
      [
        "concept_sports",
        "equipment"
      ],
      [
        "ath",
        "an"
      ],
      [
        "ar",
        "i"
      ],
      [
        "ar",
        "y"
      ],
      [
        "ar",
        "ea"
      ],
      [
        "es",
        "equipment"
      ],
      [
        "es",
        "tern"
      ],
      [
        "concept_p",
        "ark"
      ],
      [
        "_b",
        "ull"
      ],
      [
        "concept_sportsteam_",
        "dodgers"
      ],
      [
        "concept_sportsteam_",
        "arizona_diamond_backs"
      ],
      [
        "concept_sportsteam_",
        "raptors"
      ],
      [
        "ol",
        "ives"
      ],
      [
        "ing",
        "er"
      ],
      [
        "do",
        "cu"
      ],
      [
        "iv",
        "ores"
      ],
      [
        "_p",
        "age"
      ],
      [
        "concept_athlete_",
        "g"
      ],
      [
        "concept_athlete_",
        "h"
      ],
      [
        "concept_athlete_",
        "l"
      ],
      [
        "concept_athlete_",
        "n"
      ],
      [
        "concept_athlete_",
        "ch"
      ],
      [
        "concept_person",
        "_s"
      ],
      [
        "concept_person",
        "_j"
      ],
      [
        "concept_person",
        "eur"
      ],
      [
        "et",
        "ail"
      ],
      [
        "com",
        "m"
      ],
      [
        "art",
        "ic"
      ],
      [
        "concept_mammal_",
        "house"
      ],
      [
        "of",
        "t"
      ],
      [
        "oo",
        "gle"
      ],
      [
        "concept_plant",
        "_m"
      ],
      [
        "concept_plant",
        "_w"
      ],
      [
        "concept_plant",
        "_be"
      ],
      [
        "us",
        "age"
      ],
      [
        "us",
        "esequipment"
      ],
      [
        "concept_city_",
        "lin"
      ],
      [
        "_m",
        "or"
      ],
      [
        "el",
        "iz"
      ],
      [
        "lu",
        "m"
      ],
      [
        "concept_vegetable",
        "_car"
      ],
      [
        "concept:sport",
        "usesequipment"
      ],
      [
        "_s",
        "c"
      ],
      [
        "_s",
        "ites"
      ],
      [
        "_s",
        "weet"
      ],
      [
        "concept_animal",
        "_m"
      ],
      [
        "concept_agriculturalproduct",
        "_liv"
      ],
      [
        "concept_insect",
        "_butterflies"
      ],
      [
        "concept_company_",
        "new_york"
      ],
      [
        "concept_company_",
        "ado"
      ],
      [
        "ip",
        "p"
      ],
      [
        "concept_coach",
        "_j"
      ],
      [
        "concept_coach",
        "_br"
      ],
      [
        "ter",
        "s"
      ],
      [
        "ter",
        "son"
      ],
      [
        "_h",
        "ond"
      ],
      [
        "_d",
        "es"
      ],
      [
        "_j",
        "on"
      ],
      [
        "_j",
        "ul"
      ],
      [
        "os",
        "a"
      ],
      [
        "concept_animal_",
        "l"
      ],
      [
        "concept_athlete_j",
        "ason"
      ],
      [
        "_o",
        "ak"
      ],
      [
        "ap",
        "r"
      ],
      [
        "_be",
        "ars"
      ],
      [
        "est",
        "ock"
      ],
      [
        "em",
        "ail"
      ],
      [
        "concept_website_",
        "download"
      ],
      [
        "concept_animal_c",
        "arn"
      ],
      [
        "concept_sportsteam_m",
        "av"
      ],
      [
        "concept_sportsteam_m",
        "ichigan"
      ],
      [
        "concept_sportsteam_m",
        "innesot"
      ],
      [
        "concept_month",
        "_september"
      ],
      [
        "concept_month",
        "_june"
      ],
      [
        "concept_month",
        "_october"
      ],
      [
        "concept_athlete_m",
        "ark"
      ],
      [
        "concept_vegetable_",
        "le"
      ],
      [
        "concept_county_",
        "chicago"
      ],
      [
        "ess",
        "age"
      ],
      [
        "concept_sportsteam_b",
        "lue_jays"
      ],
      [
        "and",
        "a"
      ],
      [
        "_g",
        "reen"
      ],
      [
        "att",
        "le"
      ],
      [
        "concept_automobilemaker",
        "_hond"
      ],
      [
        "concept_governmentorganization_",
        "office"
      ],
      [
        "concept_tradeun",
        "ion"
      ],
      [
        "concept_sportsteam_chicago",
        "_bull"
      ],
      [
        "ide",
        "o"
      ],
      [
        "concept_sportsteam_w",
        "hite"
      ],
      [
        "concept_bakedgood_",
        "chocolate"
      ],
      [
        "concept_geopolitic",
        "allocation"
      ],
      [
        "concept_ce",
        "o"
      ],
      [
        "arr",
        "y"
      ],
      [
        "arr",
        "y_"
      ],
      [
        "concept_sportsteam_red_sox",
        "_this"
      ],
      [
        "_jo",
        "hn"
      ],
      [
        "lem",
        "on"
      ],
      [
        "concept_athlete_p",
        "r"
      ],
      [
        "_in",
        "formation"
      ],
      [
        "concept_sportsteam_ro",
        "ckies"
      ],
      [
        "concept_person_m",
        "ichael"
      ],
      [
        "be",
        "es"
      ],
      [
        "ste",
        "in"
      ],
      [
        "concept_city_b",
        "oston"
      ],
      [
        "concept_coach_m",
        "ike_"
      ],
      [
        "concept_crimin",
        "al"
      ],
      [
        "_sh",
        "r"
      ],
      [
        "alm",
        "on"
      ],
      [
        "rob",
        "inson"
      ],
      [
        "concept_university_m",
        "essage"
      ],
      [
        "concept_nongovorganization",
        "_tour"
      ],
      [
        "hol",
        "d_pets"
      ],
      [
        "concept_fe",
        "mal"
      ],
      [
        "concept_personmexico_m",
        "att"
      ],
      [
        "yn",
        "n"
      ],
      [
        "reg",
        "ion"
      ],
      [
        "concept_food_eg",
        "gs"
      ],
      [
        "concept_professor",
        "_david"
      ],
      [
        "concept_animal_child",
        "ren"
      ],
      [
        "concept_stateorprovince_v",
        "irginia"
      ],
      [
        "concept_journalist_d",
        "ana"
      ],
      [
        "concept_vegetable_sp",
        "inach"
      ],
      [
        "iow",
        "a_state"
      ],
      [
        "concept_recordl",
        "abel"
      ],
      [
        "concept_personaustr",
        "alia"
      ],
      [
        "concept_mammal_domestic",
        "_animals"
      ],
      [
        "concept_sci",
        "ent"
      ],
      [
        "docu",
        "ment"
      ],
      [
        "concept_personeur",
        "op"
      ],
      [
        "concept_mammal_house",
        "hold_pets"
      ],
      [
        "concept_vegetable_car",
        "rots"
      ],
      [
        "concept_agriculturalproduct_liv",
        "estock"
      ],
      [
        "concept_company_ado",
        "be"
      ],
      [
        "concept_animal_carn",
        "ivores"
      ],
      [
        "concept_sportsteam_michigan",
        "_state"
      ],
      [
        "concept_automobilemaker_hond",
        "a"
      ],
      [
        "concept_sportsteam_chicago_bull",
        "s"
      ],
      [
        "concept_sportsteam_white",
        "_sox"
      ],
      [
        "concept_sportsteam_red_sox_this",
        "_season"
      ],
      [
        "concept_person_michael",
        "002"
      ],
      [
        "1",
        "7"
      ],
      [
        "9",
        "_"
      ],
      [
        "_",
        "i"
      ],
      [
        "_",
        "on"
      ],
      [
        "_",
        "al"
      ],
      [
        "_",
        "series"
      ],
      [
        "_",
        "app"
      ],
      [
        "_",
        "rich"
      ],
      [
        "_",
        "apr"
      ],
      [
        "a",
        "h"
      ],
      [
        "a",
        "ur"
      ],
      [
        "a",
        "ro"
      ],
      [
        "a",
        "y_"
      ],
      [
        "a",
        "_ph"
      ],
      [
        "a",
        "uthor"
      ],
      [
        "b",
        "an"
      ],
      [
        "c",
        "an"
      ],
      [
        "c",
        "is"
      ],
      [
        "e",
        "es"
      ],
      [
        "e",
        "001"
      ],
      [
        "f",
        "r"
      ],
      [
        "f",
        "er"
      ],
      [
        "g",
        "ar"
      ],
      [
        "g",
        "oogle"
      ],
      [
        "h",
        "il"
      ],
      [
        "i",
        "en"
      ],
      [
        "n",
        "ic"
      ],
      [
        "n",
        "ets"
      ],
      [
        "o",
        "us"
      ],
      [
        "p",
        "r"
      ],
      [
        "p",
        "ill"
      ],
      [
        "r",
        "at"
      ],
      [
        "s",
        "cen"
      ],
      [
        "u",
        "e"
      ],
      [
        "u",
        "cks"
      ],
      [
        "w",
        "au"
      ],
      [
        "on",
        "te"
      ],
      [
        "on",
        "y_"
      ],
      [
        "concept_",
        "t"
      ],
      [
        "concept_",
        "arch"
      ],
      [
        "concept_",
        "invertebrate"
      ],
      [
        "concept_",
        "nut"
      ],
      [
        "or",
        "l"
      ],
      [
        "an",
        "e"
      ],
      [
        "an",
        "sport"
      ],
      [
        "an",
        "cis"
      ],
      [
        "al",
        "k"
      ],
      [
        "am",
        "b"
      ],
      [
        "am",
        "e"
      ],
      [
        "am",
        "on"
      ],
      [
        "am",
        "es"
      ],
      [
        "am",
        "anda"
      ],
      [
        "in",
        "a"
      ],
      [
        "er",
        "001"
      ],
      [
        "ag",
        "re"
      ],
      [
        "sp",
        "ur"
      ],
      [
        "le",
        "ve"
      ],
      [
        "it",
        "t"
      ],
      [
        "ic",
        "es"
      ],
      [
        "ic",
        "ros"
      ],
      [
        "en",
        "ter"
      ],
      [
        "en",
        "em"
      ],
      [
        "ur",
        "a"
      ],
      [
        "mal",
        "s"
      ],
      [
        "ct",
        "_app"
      ],
      [
        "e_",
        "k"
      ],
      [
        "e_",
        "o"
      ],
      [
        "e_",
        "st"
      ],
      [
        "e_",
        "email"
      ],
      [
        "ed",
        "to"
      ],
      [
        "co",
        "lum"
      ],
      [
        "se",
        "attle"
      ],
      [
        "ate",
        "g"
      ],
      [
        "_b",
        "ob"
      ],
      [
        "_b",
        "ell"
      ],
      [
        "il",
        "wau"
      ],
      [
        "concept_sportsteam",
        "_bears"
      ],
      [
        "concept_sportsteam_",
        "florid"
      ],
      [
        "concept_sportsteam_",
        "spur"
      ],
      [
        "un",
        "ta"
      ],
      [
        "ite",
        "ct_app"
      ],
      [
        "concept_b",
        "ir"
      ],
      [
        "concept_b",
        "io"
      ],
      [
        "re",
        "fer"
      ],
      [
        "do",
        "ug"
      ],
      [
        "_p",
        "art"
      ],
      [
        "_p",
        "up"
      ],
      [
        "concept_athlete_",
        "alex"
      ],
      [
        "all",
        "as"
      ],
      [
        "concept_person",
        "_h"
      ],
      [
        "concept_person",
        "_st"
      ],
      [
        "et",
        "les"
      ],
      [
        "art",
        "ment"
      ],
      [
        "concept_mammal_",
        "mals"
      ],
      [
        "win",
        "ter"
      ],
      [
        "ad",
        "a"
      ],
      [
        "ad",
        "e_b"
      ],
      [
        "concept_plant",
        "_white"
      ],
      [
        "concept_plant",
        "_shr"
      ],
      [
        "ab",
        "res"
      ],
      [
        "ab",
        "eth"
      ],
      [
        "us",
        "hro"
      ],
      [
        "concept_city_",
        "s"
      ],
      [
        "concept_city_",
        "artic"
      ],
      [
        "_c",
        "ra"
      ],
      [
        "_c",
        "ard"
      ],
      [
        "_c",
        "ater"
      ],
      [
        "_m",
        "c"
      ],
      [
        "_m",
        "o"
      ],
      [
        "_m",
        "ar"
      ],
      [
        "_m",
        "il"
      ],
      [
        "_w",
        "e"
      ],
      [
        "el",
        "iss"
      ],
      [
        "el",
        "ines"
      ],
      [
        "ut",
        "s"
      ],
      [
        "concept_vegetable",
        "_p"
      ],
      [
        "concept_vegetable",
        "_vinegar"
      ],
      [
        "_s",
        "an"
      ],
      [
        "_s",
        "al"
      ],
      [
        "_s",
        "abres"
      ],
      [
        "_tre",
        "e"
      ],
      [
        "concept_university_",
        "google"
      ],
      [
        "concept_animal",
        "_pup"
      ],
      [
        "concept_agriculturalproduct",
        "_s"
      ],
      [
        "concept_insect",
        "_b"
      ],
      [
        "concept_insect",
        "_be"
      ],
      [
        "concept_insect",
        "_cater"
      ],
      [
        "dep",
        "artment"
      ],
      [
        "concept:person",
        "mov"
      ],
      [
        "concept_company_",
        "winter"
      ],
      [
        "concept_coach",
        "_p"
      ],
      [
        "concept_coach",
        "_t"
      ],
      [
        "concept_coach",
        "_n"
      ],
      [
        "_h",
        "ar"
      ],
      [
        "e_m",
        "yr"
      ],
      [
        "_k",
        "r"
      ],
      [
        "eric",
        "ks"
      ],
      [
        "concept_insect_",
        "ants"
      ],
      [
        "concept_food",
        "_bell"
      ],
      [
        "concept_mammal_do",
        "g"
      ],
      [
        "_f",
        "l"
      ],
      [
        "ebs",
        "ites"
      ],
      [
        "_st",
        "adium"
      ],
      [
        "concept_animal_",
        "leop"
      ],
      [
        "ck",
        "ets"
      ],
      [
        "ian",
        "ts"
      ],
      [
        "concept_athlete_j",
        "im"
      ],
      [
        "op",
        "ping"
      ],
      [
        "_be",
        "ef"
      ],
      [
        "_n",
        "atur"
      ],
      [
        "av",
        "es"
      ],
      [
        "ill",
        "er"
      ],
      [
        "concept_plant_",
        "co"
      ],
      [
        "concept_plant_",
        "ch"
      ],
      [
        "concept_sportsteam_m",
        "ilwau"
      ],
      [
        "_l",
        "in"
      ],
      [
        "ke",
        "e_b"
      ],
      [
        "concept_person_",
        "amanda"
      ],
      [
        "concept_sportsteam_b",
        "uffalo"
      ],
      [
        "concept_sportsteam_b",
        "ucks"
      ],
      [
        "concept_person_but",
        "ler"
      ],
      [
        "and",
        "y_"
      ],
      [
        "_g",
        "iants"
      ],
      [
        "ice",
        "001"
      ],
      [
        "concept_tr",
        "ansport"
      ],
      [
        "concept_sportsteam_red",
        "s"
      ],
      [
        "concept_coach_",
        "document"
      ],
      [
        "concept_cr",
        "ust"
      ],
      [
        "_ro",
        "se"
      ],
      [
        "_ro",
        "ckies"
      ],
      [
        "concept_athlete_s",
        "ha"
      ],
      [
        "concept_mammal_f",
        "elines"
      ],
      [
        "al_",
        "enem"
      ],
      [
        "concept_personus",
        "_"
      ],
      [
        "concept_meat",
        "_beef"
      ],
      [
        "concept_visualizable",
        "scen"
      ],
      [
        "que",
        "z"
      ],
      [
        "concept_country_",
        "uk"
      ],
      [
        "concept_programminglanguag",
        "e_email"
      ],
      [
        "concept_sportsteam_new_york",
        "_giants"
      ],
      [
        "concept_athlete_p",
        "hil"
      ],
      [
        "concept_sportsteam_ro",
        "yals"
      ],
      [
        "concept_sportsteam_ro",
        "ckets"
      ],
      [
        "concept_person_m",
        "eliss"
      ],
      [
        "concept_politicalparty_",
        "way"
      ],
      [
        "if",
        "ic"
      ],
      [
        "_br",
        "ad"
      ],
      [
        "concept_sportsteam_ph",
        "illies"
      ],
      [
        "concept_athlete_t",
        "om"
      ],
      [
        "concept_plant_c",
        "rep"
      ],
      [
        "concept_city_b",
        "uffalo"
      ],
      [
        "concept_coach_m",
        "att"
      ],
      [
        "concept_visualizablething",
        "_tree"
      ],
      [
        "_sh",
        "opping"
      ],
      [
        "concept_magazine_",
        "system"
      ],
      [
        "concept_arthropod",
        "_files"
      ],
      [
        "concept_arthropod",
        "_natur"
      ],
      [
        "concept_actor",
        "_p"
      ],
      [
        "_a",
        "irport"
      ],
      [
        "_po",
        "int"
      ],
      [
        "_cl",
        "ip"
      ],
      [
        "ey_",
        "nets"
      ],
      [
        "concept_sportsteam_k",
        "nic"
      ],
      [
        "concept_bank",
        "_"
      ],
      [
        "concept_athlete_w",
        "ade_b"
      ],
      [
        "_fr",
        "ancis"
      ],
      [
        "colorado",
        "_rockies"
      ],
      [
        "a_t",
        "wins"
      ],
      [
        "uc",
        "la"
      ],
      [
        "spr",
        "ing"
      ],
      [
        "concept_sportsteam_d",
        "allas"
      ],
      [
        "concept_sportsteam_cav",
        "s"
      ],
      [
        "rain",
        "forest"
      ],
      [
        "concept_month_m",
        "ay"
      ],
      [
        "arge_",
        "animals"
      ],
      [
        "concept_nonprofit",
        "organization_"
      ],
      [
        "og",
        "gs"
      ],
      [
        "tech",
        "company_"
      ],
      [
        "inter",
        "national"
      ],
      [
        "concept_sportsteam_new_jers",
        "ey_nets"
      ],
      [
        "concept_mammal_k",
        "ids"
      ],
      [
        "concept_plant_t",
        "ul"
      ],
      [
        "_ho",
        "tel"
      ],
      [
        "concept_sportsteam_north",
        "ern_"
      ],
      [
        "_nov",
        "ember"
      ],
      [
        "_val",
        "ley"
      ],
      [
        "_anton",
        "i"
      ],
      [
        "concept_sportsteam_philadelphi",
        "a_ph"
      ],
      [
        "_2",
        "9_"
      ],
      [
        "concept_athlete_l",
        "arry_"
      ],
      [
        "etail",
        "s"
      ],
      [
        "concept_plant_be",
        "ech"
      ],
      [
        "concept_city_lin",
        "k"
      ],
      [
        "eliz",
        "abeth"
      ],
      [
        "concept_animal_m",
        "ice001"
      ],
      [
        "concept_coach_br",
        "ian"
      ],
      [
        "concept_animal_l",
        "arge_animals"
      ],
      [
        "concept_sportsteam_minnesot",
        "a_twins"
      ],
      [
        "concept_vegetable_le",
        "aves"
      ],
      [
        "concept_personeurop",
        "e_"
      ],
      [
        "_apr",
        "il"
      ],
      [
        "pill",
        "ars"
      ],
      [
        "concept_arch",
        "itect_app"
      ],
      [
        "agre",
        "ement"
      ],
      [
        "icros",
        "oft"
      ],
      [
        "edto",
        "stateorprovince"
      ],
      [
        "colum",
        "b"
      ],
      [
        "concept_sportsteam_bears",
        "_29_"
      ],
      [
        "concept_sportsteam_florid",
        "a_"
      ],
      [
        "concept_sportsteam_spur",
        "s"
      ],
      [
        "concept_bir",
        "d"
      ],
      [
        "concept_bio",
        "techcompany_"
      ],
      [
        "concept_plant_shr",
        "ubs"
      ],
      [
        "ushro",
        "om"
      ],
      [
        "concept_city_artic",
        "les"
      ],
      [
        "concept_insect_be",
        "etles"
      ],
      [
        "concept_insect_cater",
        "pillars"
      ],
      [
        "concept:personmov",
        "edtostateorprovince"
      ],
      [
        "e_myr",
        "t"
      ],
      [
        "concept_food_bell",
        "_peppers"
      ],
      [
        "concept_animal_leop",
        "ards"
      ],
      [
        "concept_sportsteam_milwau",
        "kee_b"
      ],
      [
        "concept_sportsteam_buffalo",
        "_sabres"
      ],
      [
        "concept_person_butler",
        "001"
      ],
      [
        "concept_transport",
        "ation"
      ],
      [
        "concept_crust",
        "ace"
      ],
      [
        "al_enem",
        "ies"
      ],
      [
        "concept_person_meliss",
        "a"
      ],
      [
        "concept_plant_crep",
        "e_myrt"
[...]
