{
  "version": "1.0",
  "truncation": null,
  "padding": null,
  "added_tokens": [
    {
      "id": 0,
      "content": "[UNK]",
      "single_word": false,
      "lstrip": false,
      "rstrip": false,
      "normalized": false,
      "special": true
    },
    {
      "id": 1,
      "content": "[CLS]",
      "single_word": false,
      "lstrip": false,
      "rstrip": false,
      "normalized": false,
      "special": true
    },
    {
      "id": 2,
      "content": "[SEP]",
      "single_word": false,
      "lstrip": false,
      "rstrip": false,
      "normalized": false,
      "special": true
    },
    {
      "id": 3,
      "content": "[PAD]",
      "single_word": false,
      "lstrip": false,
      "rstrip": false,
      "normalized": false,
      "special": true
    },
    {
      "id": 4,
      "content": "[MASK]",
      "single_word": false,
      "lstrip": false,
      "rstrip": false,
      "normalized": false,
      "special": true
    },
    {
      "id": 41120,
      "content": " ",
      "single_word": false,
      "lstrip": false,
      "rstrip": false,
      "normalized": true,
      "special": false
    }
  ],
  "normalizer": null,
  "pre_tokenizer": {
    "type": "WhitespaceSplit"
  },
  "post_processor": null,
  "decoder": null,
  "model": {
    "type": "BPE",
    "dropout": null,
    "unk_token": "[UNK]",
    "continuing_subword_prefix": null,
    "end_of_word_suffix": null,
    "fuse_unk": false,
    "byte_fallback": false,
    "ignore_merges": false,
    "vocab": {
      "[UNK]": 0,
      "[CLS]": 1,
      "[SEP]": 2,
      "[PAD]": 3,
      "[MASK]": 4,
      "0": 5,
      "1": 6,
      "2": 7,
      "3": 8,
      "4": 9,
      "5": 10,
      "6": 11,
      "7": 12,
      "8": 13,
      "9": 14,
      ":": 15,
      "_": 16,
      "a": 17,
      "b": 18,
      "c": 19,
      "d": 20,
      "e": 21,
      "f": 22,
      "g": 23,
      "h": 24,
      "i": 25,
      "j": 26,
      "k": 27,
      "l": 28,
      "m": 29,
      "n": 30,
      "o": 31,
      "p": 32,
      "q": 33,
      "r": 34,
      "s": 35,
      "t": 36,
      "u": 37,
      "v": 38,
      "w": 39,
      "x": 40,
      "y": 41,
      "z": 42,
      "on": 43,
      "ce": 44,
      "con": 45,
      "pt": 46,
      "cept": 47,
      "concept": 48,
      "concept_": 49,
      "at": 50,
      "concept:": 51,
      "al": 52,
      "it": 53,
      "ro": 54,
      "er": 55,
      "or": 56,
      "ate": 57,
      "an": 58,
      "ic": 59,
      "in": 60,
      "ion": 61,
      "pro": 62,
      "st": 63,
      "ar": 64,
      "_n": 65,
      "date": 66,
      "en": 67,
      "es": 68,
      "concept_c": 69,
      "y_": 70,
      "om": 71,
      "em": 72,
      "e_": 73,
      "concept:at": 74,
      "ag": 75,
      "ation": 76,
      "mal": 77,
      "lo": 78,
      "lit": 79,
      "ent": 80,
      "concept:atdate": 81,
      "of": 82,
      "for": 83,
      "ch": 84,
      "ur": 85,
      "art": 86,
      "ani": 87,
      "ct": 88,
      "concept_b": 89,
      "00": 90,
      "am": 91,
      "concept_date": 92,
      "sion": 93,
      "po": 94,
      "ers": 95,
      "loc": 96,
      "pe": 97,
      "ical": 98,
      "us": 99,
      "ity_": 100,
      "un": 101,
      "ist": 102,
      "su": 103,
      "animal": 104,
      "prof": 105,
      "profes": 106,
      "profession": 107,
      "_n2": 108,
      "_n200": 109,
      "location": 110,
      "le": 111,
      "concept_city_": 112,
      "ew": 113,
      "concept_m": 114,
      "part": 115,
      "ed": 116,
      "xy": 117,
      "proxy": 118,
      "proxyfor": 119,
      "ing": 120,
      "polit": 121,
      "agent": 122,
      "as": 123,
      "room": 124,
      "il": 125,
      "_c": 126,
      "_s": 127,
      "oo": 128,
      "ith": 129,
      "_new": 130,
      "_b": 131,
      "with": 132,
      "ver": 133,
      "emical": 134,
      "ad": 135,
      "_m": 136,
      "eral": 137,
      "is": 138,
      "state": 139,
      "te": 140,
      "ut": 141,
      "ian": 142,
      "du": 143,
      "literal": 144,
      "concept_dateliteral": 145,
      "ab": 146,
      "re": 147,
      "ric": 148,
      "pers": 149,
      "ul": 150,
      "oun": 151,
      "produ": 152,
      "person": 153,
      "concept_dateliteral_n200": 154,
      "politic": 155,
      "vi": 156,
      "product": 157,
      "el": 158,
      "ype": 159,
      "istype": 160,
      "istypeof": 161,
      "we": 162,
      "od": 163,
      "omp": 164,
      "vin": 165,
      "ult": 166,
      "fi": 167,
      "ins": 168,
      "vince": 169,
      "concept:proxyfor": 170,
      "province": 171,
      "orprovince": 172,
      "stateorprovince": 173,
      "ompan": 174,
      "th": 175,
      "ammal": 176,
      "ural": 177,
      "politician": 178,
      "agric": 179,
      "agricult": 180,
      "concept:animal": 181,
      "uralproduct": 182,
      "agriculturalproduct": 183,
      "concept_stateorprovince": 184,
      "item": 185,
      "ook": 186,
      "jo": 187,
      "concept:agent": 188,
      "ol": 189,
      "concept_profession": 190,
      "sp": 191,
      "_n1": 192,
      "ac": 193,
      "ath": 194,
      "concept_person": 195,
      "_t": 196,
      "concept_we": 197,
      "_p": 198,
      "_n19": 199,
      "_w": 200,
      "_d": 201,
      "ompany_": 202,
      "ody": 203,
      "et": 204,
      "politicianus": 205,
      "concept:atlocation": 206,
      "concept_mammal": 207,
      "odypart": 208,
      "sub": 209,
      "ear": 210,
      "ect": 211,
      "concept_ch": 212,
      "concept:sub": 213,
      "partof": 214,
      "concept:subpartof": 215,
      "bs": 216,
      "tr": 217,
      "ort": 218,
      "concept_date_n200": 219,
      "ork": 220,
      "concept:m": 221,
      "id": 222,
      "ap": 223,
      "chemical": 224,
      "_g": 225,
      "concept_chemical": 226,
      "urn": 227,
      "insect": 228,
      "ali": 229,
      "iv": 230,
      "concept_book": 231,
      "um": 232,
      "concept_company_": 233,
      "concept_mus": 234,
      "ual": 235,
      "lan": 236,
      "cont": 237,
      "utual": 238,
      "concept:mutual": 239,
      "concept:mutualproxyfor": 240,
      "la": 241,
      "sport": 242,
      "concept_coun": 243,
      "ys": 244,
      "ever": 245,
      "_h": 246,
      "org": 247,
      "withagent": 248,
      "concept:agentc": 249,
      "ri": 250,
      "everag": 251,
      "concept_g": 252,
      "journ": 253,
      "journal": 254,
      "year": 255,
      "pet": 256,
      "_f": 257,
      "concept_sport": 258,
      "ir": 259,
      "ph": 260,
      "io": 261,
      "concept_year": 262,
      "bodypart": 263,
      "ated": 264,
      "ding": 265,
      "journalist": 266,
      "_n199": 267,
      "d_": 268,
      "bsit": 269,
      "zation": 270,
      "concept_websit": 271,
      "concept_profession_": 272,
      "fiel": 273,
      "ia": 274,
      "din": 275,
      "ste": 276,
      "concept_f": 277,
      "concept_animal": 278,
      "foun": 279,
      "ity": 280,
      "concept:item": 281,
      "dinroom": 282,
      "foundinroom": 283,
      "concept:itemfoundinroom": 284,
      "ub": 285,
      "work": 286,
      "political": 287,
      "concept_book_new": 288,
      "organi": 289,
      "e_new": 290,
      "ivers": 291,
      "adem": 292,
      "academ": 293,
      "academic": 294,
      "academicfiel": 295,
      "concept:profession": 296,
      "istypeofprofession": 297,
      "concept:professionistypeofprofession": 298,
      "univers": 299,
      "ompet": 300,
      "concept_website_": 301,
      "ompetes": 302,
      "organization": 303,
      "eat": 304,
      "ve": 305,
      "fice": 306,
      "office": 307,
      "uil": 308,
      "concept_politicianus": 309,
      "concept:location": 310,
      "inlocation": 311,
      "located": 312,
      "withinlocation": 313,
      "concept:locationlocated": 314,
      "concept:locationlocatedwithinlocation": 315,
      "ow": 316,
      "ment": 317,
      "concept_vi": 318,
      "uilding": 319,
      "ci": 320,
      "ls": 321,
      "ates": 322,
      "steam": 323,
      "concept_visu": 324,
      "concept_sportsteam": 325,
      "le_": 326,
      "concept_insect": 327,
      "act": 328,
      "_k": 329,
      "lab": 330,
      "lic": 331,
      "zab": 332,
      "station": 333,
      "alizab": 334,
      "concept_visualizab": 335,
      "chas": 336,
      "suchas": 337,
      "im": 338,
      "res": 339,
      "concept_countr": 340,
      "ru": 341,
      "labor": 342,
      "roomitem": 343,
      "arter": 344,
      "ors": 345,
      "ollabor": 346,
      "concept:agentcollabor": 347,
      "ateswithagent": 348,
      "concept:agentcollaborateswithagent": 349,
      "_j": 350,
      "concept_country_": 351,
      "ex": 352,
      "001": 353,
      "ach": 354,
      "tele": 355,
      "vision": 356,
      "concept_n": 357,
      "ublic": 358,
      "concept_music": 359,
      "ds": 360,
      "concept:chemical": 361,
      "istypeofchemical": 362,
      "concept:chemicalistypeofchemical": 363,
      "thing": 364,
      "television": 365,
      "als": 366,
      "public": 367,
      "contro": 368,
      "academicfield": 369,
      "concept_television": 370,
      "br": 371,
      "controls": 372,
      "concept:agentcontrols": 373,
      "ter": 374,
      "concept_stateorprovince_": 375,
      "ca": 376,
      "lin": 377,
      "concept:agriculturalproduct": 378,
      "works": 379,
      "concept_beverag": 380,
      "concept_ge": 381,
      "sh": 382,
      "qu": 383,
      "by": 384,
      "concept_visualizable": 385,
      "concept:works": 386,
      "concept:worksfor": 387,
      "concept_agriculturalproduct": 388,
      "ton": 389,
      "ob": 390,
      "per": 391,
      "ot": 392,
      "istypeofanimal": 393,
      "concept:animalistypeofanimal": 394,
      "concept_mammal_": 395,
      "concept_year_n199": 396,
      "ition": 397,
      "concept_ve": 398,
      "ay": 399,
      "lak": 400,
      "concept_journalist": 401,
      "over": 402,
      "ains": 403,
      "concept_dateliteral_n2007": 404,
      "rit": 405,
      "concept_univers": 406,
      "contains": 407,
      "concept_bodypart": 408,
      "ater": 409,
      "e_b": 410,
      "pre": 411,
      "e_s": 412,
      "ish": 413,
      "concept_visualizablething": 414,
      "concept_televisionstation": 415,
      "yson": 416,
      "overn": 417,
      "ig": 418,
      "concept:animalpre": 419,
      "concept:animalpreyson": 420,
      "ies": 421,
      "concept_university_": 422,
      "_l": 423,
      "animals": 424,
      "concept:bodypart": 425,
      "containsbodypart": 426,
      "concept:bodypartcontainsbodypart": 427,
      "writ": 428,
      "tech": 429,
      "concept_lak": 430,
      "publication": 431,
      "concept_s": 432,
      "overnment": 433,
      "concept_room": 434,
      "gr": 435,
      "river": 436,
      "opolitical": 437,
      "arth": 438,
      "ood": 439,
      "concept_dateliteral_n2006": 440,
      "log": 441,
      "concept:c": 442,
      "ather": 443,
      "ey": 444,
      "_y": 445,
      "beverag": 446,
      "and": 447,
      "ra": 448,
      "ropo": 449,
      "concept_lake_new": 450,
      "cook": 451,
      "edwith": 452,
      "concept:agriculturalproductcook": 453,
      "edwithagriculturalproduct": 454,
      "concept:agriculturalproductcookedwithagriculturalproduct": 455,
      "end": 456,
      "arthropo": 457,
      "phen": 458,
      "ts": 459,
      "concept_dateliteral_n2008": 460,
      "omen": 461,
      "concept_building": 462,
      "_ch": 463,
      "aper": 464,
      "rug": 465,
      "concept:politicianus": 466,
      "omenon": 467,
      "concept_weather": 468,
      "phenomenon": 469,
      "concept_weatherphenomenon": 470,
      "eatur": 471,
      "concept_government": 472,
      "concept_governmentorganization": 473,
      "featur": 474,
      "drug": 475,
      "ev": 476,
      "_a": 477,
      "ompeteswith": 478,
      "concept:competeswith": 479,
      "esfor": 480,
      "concept_dateliteral_n2005": 481,
      "get": 482,
      "concept:journalist": 483,
      "writesfor": 484,
      "concept:journalistwritesfor": 485,
      "concept:journalistwritesforpublication": 486,
      "able_": 487,
      "concept_arter": 488,
      "concept_count": 489,
      "spaper": 490,
      "ewspaper": 491,
      "concept_newspaper": 492,
      "concept_artery_": 493,
      "yst": 494,
      "bum": 495,
      "concept:agentcompetes": 496,
      "concept:agentcompeteswithagent": 497,
      "concept_chemical_": 498,
      "icalbum": 499,
      "concept_musicalbum": 500,
      "ill": 501,
      "_bed": 502,
      "ystem": 503,
      "_water": 504,
      "ces": 505,
      "getable_": 506,
      "concept_county_": 507,
      "_tim": 508,
      "out": 509,
      "concept_vegetable_": 510,
      "if": 511,
      "ef": 512,
      "ea": 513,
      "ta": 514,
      "gen": 515,
      "edby": 516,
      "opoliticallocation": 517,
      "issu": 518,
      "ok": 519,
      "concept:animalsuchas": 520,
      "land": 521,
      "concept_date_n199": 522,
      "iotech": 523,
      "concept_biotech": 524,
      "concept_biotechc": 525,
      "concept_insect_": 526,
      "own": 527,
      "concept_stateorprovince_c": 528,
      "action": 529,
      "_york": 530,
      "concept_co": 531,
      "ak": 532,
      "concept_re": 533,
      "verte": 534,
      "vertebr": 535,
      "concept_ce": 536,
      "concept_beverage_": 537,
      "ico": 538,
      "concept_bath": 539,
      "concept_bathroomitem": 540,
      "eric": 541,
      "politics": 542,
      "pos": 543,
      "_state": 544,
      "concept_politics": 545,
      "concept_coach": 546,
      "concept_date_n2004": 547,
      "exico": 548,
      "ip": 549,
      "_times": 550,
      "building": 551,
      "concept_office": 552,
      "buildingroom": 553,
      "concept_officebuildingroom": 554,
      "inc": 555,
      "concept_biotechcompany_": 556,
      "concept:person": 557,
      "_sh": 558,
      "arthropod": 559,
      "concept_political": 560,
      "ank": 561,
      "edon": 562,
      "sy": 563,
      "ong": 564,
      "let": 565,
      "nia": 566,
      "concept_bed": 567,
      "concept_bedroomitem": 568,
      "concept_a": 569,
      "int": 570,
      "concept_date_n2003": 571,
      "cient": 572,
      "americ": 573,
      "mexico": 574,
      "fornia": 575,
      "alifornia": 576,
      "position": 577,
      "ational": 578,
      "endors": 579,
      "concept:politicianusendors": 580,
      "edbypoliticianus": 581,
      "concept:politicianusendorsedbypoliticianus": 582,
      "concept_scient": 583,
      "pep": 584,
      "concept_stateorprovince_california": 585,
      "e_m": 586,
      "resid": 587,
      "vertebrate": 588,
      "les": 589,
      "ific": 590,
      "event": 591,
      "ard": 592,
      "ck": 593,
      "concept_personmexico": 594,
      "_r": 595,
      "_jo": 596,
      "cen": 597,
      "est": 598,
      "_car": 599,
      "ompany": 600,
      "concept_buildingfeatur": 601,
      "ass": 602,
      "ym": 603,
      "_re": 604,
      "ack": 605,
      "_tv": 606,
      "_st": 607,
      "concept_dateliteral_n2002": 608,
      "concept_year_n19": 609,
      "ence": 610,
      "term": 611,
      "all": 612,
      "ind": 613,
      "concept_scientific": 614,
      "concept_scientificterm": 615,
      "_bath": 616,
      "_univers": 617,
      "ersey": 618,
      "_nca": 619,
      "_ncaa": 620,
      "bposition": 621,
      "concept_jo": 622,
      "concept_jobposition": 623,
      "_system": 624,
      "_national": 625,
      "ium": 626,
      "concept_geopoliticallocation": 627,
      "par": 628,
      "concept_academicfield": 629,
      "rom": 630,
      "concept_ceo": 631,
      "non": 632,
      "apon": 633,
      "concept_weapon": 634,
      "concept_h": 635,
      "professionals": 636,
      "concept_date_n2001": 637,
      "_de": 638,
      "athlet": 639,
      "ite": 640,
      "earch": 641,
      "gu": 642,
      "win": 643,
      "concept_company": 644,
      "pr": 645,
      "concept_athlet": 646,
      "concept_televisionstation_w": 647,
      "_university": 648,
      "se": 649,
      "issue_": 650,
      "fl": 651,
      "concept_date_n2000": 652,
      "concept_mammal_animals": 653,
      "nown": 654,
      "oknown": 655,
      "oknownas": 656,
      "concept_politicaloffice": 657,
      "sta": 658,
      "obil": 659,
      "ood_": 660,
      "_new_york": 661,
      "concept_pro": 662,
      "concept_city_b": 663,
      "pepper": 664,
      "concept_river": 665,
      "concept:beverag": 666,
      "utom": 667,
      "ans": 668,
      "concept_buildingfeature_": 669,
      "phys": 670,
      "rad": 671,
      "concept_autom": 672,
      "ash": 673,
      "concept_company_p": 674,
      "ine": 675,
      "_v": 676,
      "obilem": 677,
      "concept_automobilem": 678,
      "etric": 679,
      "concept_politician": 680,
      "orth": 681,
      "concept_bedroomitem_bed": 682,
      "gram": 683,
      "concept:te": 684,
      "ington": 685,
      "concept_food_": 686,
      "lu": 687,
      "food": 688,
      "_pr": 689,
      "concept_phys": 690,
      "shap": 691,
      "ick": 692,
      "artist": 693,
      "concept:sy": 694,
      "ymfor": 695,
      "nonymfor": 696,
      "concept:synonymfor": 697,
      "ometric": 698,
      "concept_geometric": 699,
      "concept_athlete_": 700,
      "ord": 701,
      "concept_geometricshap": 702,
      "concept:animaleat": 703,
      "concept:animaleatfood": 704,
      "concept_drug": 705,
      "com": 706,
      "ge": 707,
      "american": 708,
      "concept_bank": 709,
      "ark": 710,
      "invertebrate": 711,
      "concept_fish": 712,
      "concept_profession_professionals": 713,
      "concept_win": 714,
      "au": 715,
      "ven": 716,
      "ming": 717,
      "outh": 718,
      "emad": 719,
      "ada": 720,
      "_jersey": 721,
      "concept_company_pbs": 722,
      "concept_is": 723,
      "beverage": 724,
      "efrom": 725,
      "concept:beveragemad": 726,
      "efrombeverage": 727,
      "concept:beveragemadefrombeverage": 728,
      "op": 729,
      "concept_tr": 730,
      "stor": 731,
      "amp": 732,
      "concept_city_s": 733,
      "ah": 734,
      "ster": 735,
      "concept_animal_": 736,
      "concept_date_n19": 737,
      "adium": 738,
      "_air": 739,
      "concept_personmexico_ncaa": 740,
      "concept_academicfiel": 741,
      "concept_academicfield_": 742,
      "concept_televisionstation_k": 743,
      "ib": 744,
      "hn": 745,
      "iz": 746,
      "concept_musicartist": 747,
      "insects": 748,
      "langu": 749,
      "languag": 750,
      "can": 751,
      "concept_mal": 752,
      "ov": 753,
      "concept_city_h": 754,
      "concept_physical": 755,
      "_com": 756,
      "gramming": 757,
      "_se": 758,
      "concept_date_n1999": 759,
      "concept_programming": 760,
      "concept_programminglanguag": 761,
      "choo": 762,
      "concept_weapon_national": 763,
      "gam": 764,
      "concept_city_m": 765,
      "_po": 766,
      "gs": 767,
      "ff": 768,
      "_new_jersey": 769,
      "co": 770,
      "concept:drug": 771,
      "workedon": 772,
      "byagent": 773,
      "concept_physicalaction": 774,
      "concept:drugworkedon": 775,
      "concept:drugworkedonbyagent": 776,
      "alsoknownas": 777,
      "tail": 778,
      "resident": 779,
      "chool": 780,
      "concept_beverage_new": 781,
      "concept_geometricshape_": 782,
      "plan": 783,
      "concept_vegetable_pepper": 784,
      "concept_retail": 785,
      "radio": 786,
      "concept_retailstor": 787,
      "song": 788,
      "concept_musicsong": 789,
      "ber": 790,
      "concept_stateorprovince_m": 791,
      "fish": 792,
      "ice": 793,
      "bc": 794,
      "_su": 795,
      "_do": 796,
      "aker": 797,
      "enn": 798,
      "linton": 799,
      "hol": 800,
      "port": 801,
      "concept_radio": 802,
      "ther": 803,
      "concept_radiostation": 804,
      "ang": 805,
      "concept_weatherphenomenon_water": 806,
      "orid": 807,
      "artery": 808,
      "_president": 809,
      "has": 810,
      "concept_politicsissue_": 811,
      "eg": 812,
      "els": 813,
      "otion": 814,
      "man": 815,
      "ille": 816,
      "_ma": 817,
      "ama": 818,
      "concept_city_c": 819,
      "concept_bodypart_system": 820,
      "orida": 821,
      "tex": 822,
      "_ge": 823,
      "_ro": 824,
      "concept_city_w": 825,
      "concept_book_": 826,
      "concept:academicfield": 827,
      "suchasacademicfield": 828,
      "concept:academicfieldsuchasacademicfield": 829,
      "ide": 830,
      "_john": 831,
      "concept_automobilemaker": 832,
      "bon": 833,
      "concept_city_fl": 834,
      "ashington": 835,
      "emotion": 836,
      "oft": 837,
      "ary": 838,
      "peci": 839,
      "canada": 840,
      "concept_emotion": 841,
      "concept_personus": 842,
      "_ar": 843,
      "tra": 844,
      "_o": 845,
      "_north": 846,
      "concept_date_n2009": 847,
      "concept_insect_insects": 848,
      "_da": 849,
      "igh": 850,
      "ess": 851,
      "suchasm": 852,
      "e_bed": 853,
      "ous": 854,
      "adu": 855,
      "texas": 856,
      "_e": 857,
      "concept_st": 858,
      "ists": 859,
      "acter": 860,
      "concept_blog": 861,
      "itur": 862,
      "_nbc": 863,
      "urnitur": 864,
      "concept_furnitur": 865,
      "concept_male_": 866,
      "our": 867,
      "ere": 868,
      "iss": 869,
      "gradu": 870,
      "_th": 871,
      "school": 872,
      "concept_mon": 873,
      "concept_city_florida": 874,
      "aracter": 875,
      "ats": 876,
      "_bathroom": 877,
      "_georg": 878,
      "str": 879,
      "ville": 880,
      "atur": 881,
      "concept_city": 882,
      "_bus": 883,
      "arg": 884,
      "concept_bir": 885,
      "concept_year_n1998": 886,
      "ich": 887,
      "atedschool": 888,
      "concept:persongradu": 889,
      "concept:persongraduatedschool": 890,
      "up": 891,
      "e_c": 892,
      "fe": 893,
      "002": 894,
      "vid": 895,
      "concept_sports": 896,
      "sts": 897,
      "_clinton": 898,
      "lands": 899,
      "os": 900,
      "concept:animalsuchasinsect": 901,
      "concept_governmentorganization_": 902,
      "concept_buildingfeature_american": 903,
      "luding": 904,
      "concept_personcanada": 905,
      "concept_character": 906,
      "trait": 907,
      "concept_charactertrait": 908,
      "concept:agriculturalproductinc": 909,
      "quir": 910,
      "ludingagriculturalproduct": 911,
      "concept:agriculturalproductincludingagriculturalproduct": 912,
      "_show": 913,
      "ators": 914,
      "quis": 915,
      "concept_event": 916,
      "_search": 917,
      "outcom": 918,
      "concept_eventoutcom": 919,
      "ros": 920,
      "ction": 921,
      "lood": 922,
      "ell": 923,
      "concept_newspaper_times": 924,
      "union": 925,
      "_carbon": 926,
      "ran": 927,
      "ervi": 928,
      "ox": 929,
      "ld": 930,
      "e_w": 931,
      "concept_dateliteral_n19": 932,
      "concept_year_n198": 933,
      "concept_chemical_carbon": 934,
      "_lo": 935,
      "venu": 936,
      "conceptpr": 937,
      "concept:conceptpr": 938,
      "iteof": 939,
      "erequis": 940,
      "concept:conceptprerequis": 941,
      "concept:conceptprerequisiteof": 942,
      "way": 943,
      "concept_politicsb": 944,
      "orevent": 945,
      "adiumorevent": 946,
      "plant": 947,
      "concept_stadiumorevent": 948,
      "concept_stadiumoreventvenu": 949,
      "concept:produ": 950,
      "cesproduct": 951,
      "concept_bodypart_system001": 952,
      "concept:producesproduct": 953,
      "_col": 954,
      "_sp": 955,
      "_con": 956,
      "hic": 957,
      "other": 958,
      "eng": 959,
      "iver": 960,
      "rim": 961,
      "concept_visualizables": 962,
      "concept_visualizablescen": 963,
      "ek": 964,
      "red": 965,
      "_cre": 966,
      "_ph": 967,
      "_bedroom": 968,
      "icken": 969,
      "atfe": 970,
      "thatfe": 971,
      "concept:animalthatfe": 972,
      "edoninsect": 973,
      "concept:animalthatfeedoninsect": 974,
      "mall": 975,
      "concept_vehic": 976,
      "game_": 977,
      "ond": 978,
      "_shower": 979,
      "eet": 980,
      "concept_person_": 981,
      "cape": 982,
      "concept_university_state": 983,
      "_he": 984,
      "_ca": 985,
      "concept_vehicle_": 986,
      "concept_university_state_university": 987,
      "lays": 988,
      "usic": 989,
      "pests": 990,
      "_in": 991,
      "concept_year_n1997": 992,
      "ants": 993,
      "parent": 994,
      "incity": 995,
      "concept:teamp": 996,
      "laysincity": 997,
      "concept:teamplaysincity": 998,
      "e_d": 999,
      "concept_politicsblog": 1000,
      "ont": 1001,
      "landscape": 1002,
      "_for": 1003,
      "concept_company_m": 1004,
      "concept_city_p": 1005,
      "_we": 1006,
      "eum": 1007,
      "concept_animal_ch": 1008,
      "concept_landscape": 1009,
      "_mc": 1010,
      "features": 1011,
      "concept_landscapefeatures": 1012,
      "_bar": 1013,
      "oil": 1014,
      "_co": 1015,
      "concept_food": 1016,
      "concept_city_d": 1017,
      "s_": 1018,
      "ant": 1019,
      "concept_invertebrate": 1020,
      "concept:ac": 1021,
      "e_h": 1022,
      "_gas": 1023,
      "quired": 1024,
      "concept:acquired": 1025,
      "az": 1026,
      "concept:parent": 1027,
      "ofperson": 1028,
      "concept:parentofperson": 1029,
      "concept:arthropod": 1030,
      "andother": 1031,
      "concept:arthropodandother": 1032,
      "concept:arthropodandotherarthropod": 1033,
      "land_": 1034,
      "pets": 1035,
      "concept_animal_b": 1036,
      "concept_musicgen": 1037,
      "_bush": 1038,
      "_room": 1039,
      "war": 1040,
      "concept_museum": 1041,
      "concept:animalsuchasfish": 1042,
      "each": 1043,
      "ju": 1044,
      "son": 1045,
      "ston": 1046,
      "ern": 1047,
      "wa": 1048,
      "_sci": 1049,
      "irds": 1050,
      "atures": 1051,
      "holds": 1052,
      "gle": 1053,
      "ps": 1054,
      "concept:politicianusholds": 1055,
      "_creatures": 1056,
      "concept:politicianusholdsoffice": 1057,
      "concept_musicgenr": 1058,
      "_le": 1059,
      "concept_insect_pests": 1060,
      "row": 1061,
      "concept_mammal_b": 1062,
      "concept_weatherphenomenon_air": 1063,
      "gh": 1064,
      "ire": 1065,
      "uro": 1066,
      "_mar": 1067,
      "residence": 1068,
      "concept_bra": 1069,
      "ammalsuchasm": 1070,
      "concept:mammalsuchasm": 1071,
      "concept_braint": 1072,
      "concept:mammalsuchasmammal": 1073,
      "empt": 1074,
      "vir": 1075,
      "_wh": 1076,
      "concept_company_new_york": 1077,
      "ids": 1078,
      "concept_animal_creatures": 1079,
      "attr": 1080,
      "alle": 1081,
      "genres": 1082,
      "concept_island": 1083,
      "usicgenres": 1084,
      "concept_animal_chicken": 1085,
      "e_new_york": 1086,
      "_city": 1087,
      "concept_profession_s": 1088,
      "concept:river": 1089,
      "oriver": 1090,
      "iana": 1091,
      "iesint": 1092,
      "emptiesint": 1093,
      "concept:riveremptiesint": 1094,
      "concept:riveremptiesintoriver": 1095,
      "erv": 1096,
      "ress": 1097,
      "_ob": 1098,
      "ele": 1099,
      "inn": 1100,
      "concept_agriculturalproduct_": 1101,
      "iam": 1102,
      "ansport": 1103,
      "ammals": 1104,
      "concept_sportsteam_": 1105,
      "ashington_d": 1106,
      "hom": 1107,
      "cond": 1108,
      "concept_transport": 1109,
      "concept_transportation": 1110,
      "gas": 1111,
      "concept_animal_animals": 1112,
      "concept_radiostation_new_jersey": 1113,
      "ry": 1114,
      "alization": 1115,
      "concept_animal_chicken001": 1116,
      "col": 1117,
      "quip": 1118,
      "rist": 1119,
      "concept_city_washington_d": 1120,
      "e_system": 1121,
      "concept_date_n1996": 1122,
      "staff": 1123,
      "_comm": 1124,
      "speci": 1125,
      "concept:speci": 1126,
      "fir": 1127,
      "concept_insect_b": 1128,
      "alizationof": 1129,
      "concept:specializationof": 1130,
      "ptil": 1131,
      "cain": 1132,
      "age": 1133,
      "unit": 1134,
      "concept_island_": 1135,
      "_obama": 1136,
      "ions": 1137,
      "ents": 1138,
      "ota": 1139,
      "concept_bank_": 1140,
      "att": 1141,
      "concept_company_nbc": 1142,
      "_states": 1143,
      "olog": 1144,
      "gin": 1145,
      "alt": 1146,
      "emal": 1147,
      "concept_visualizablething_": 1148,
      "quipment": 1149,
      "eas": 1150,
      "eopoliticallocation": 1151,
      "concept_arthropod": 1152,
      "icros": 1153,
      "ingeopoliticallocation": 1154,
      "concept:personhas": 1155,
      "allway": 1156,
      "_mccain": 1157,
      "residenceingeopoliticallocation": 1158,
      "concept:personhasresidenceingeopoliticallocation": 1159,
      "concept:animalsuchasinvertebrate": 1160,
      "e_n": 1161,
      "concept_hallway": 1162,
      "concept_hallwayitem": 1163,
      "und": 1164,
      "ail": 1165,
      "concept_femal": 1166,
      "techn": 1167,
      "concept_furniture_s": 1168,
      "concept_city_washington_d_c": 1169,
      "concept_d": 1170,
      "e_p": 1171,
      "ape": 1172,
      "america": 1173,
      "icrosoft": 1174,
      "concept_bodypart_": 1175,
      "concept_politician_clinton": 1176,
      "ain": 1177,
      "_caro": 1178,
      "bur": 1179,
      "ois": 1180,
      "_mammals": 1181,
      "concept_geopolitical": 1182,
      "show": 1183,
      "concept_geopoliticalorganization": 1184,
      "ud": 1185,
      "concept_chemical_m": 1186,
      "concept_website_new_york": 1187,
      "concept_reptil": 1188,
      "ly": 1189,
      "ouse": 1190,
      "concept_month": 1191,
      "concept_bird": 1192,
      "virgin": 1193,
      "cord": 1194,
      "al_": 1195,
      "concept_beverage_ju": 1196,
      "_tub": 1197,
      "agu": 1198,
      "sul": 1199,
      "concept_personcanada_search": 1200,
      "umb": 1201,
      "ize_bed": 1202,
      "eeting": 1203,
      "ll": 1204,
      "orn": 1205,
      "arm": 1206,
      "_news": 1207,
      "app": 1208,
      "_journal": 1209,
      "ception": 1210,
      "lete": 1211,
      "oard": 1212,
      "concept_vertebrate": 1213,
      "ement": 1214,
      "concept_politicianus_president": 1215,
      "concept_arthropo": 1216,
      "ome": 1217,
      "reen": 1218,
      "concept_arthropod_": 1219,
      "concept_city_k": 1220,
      "_work": 1221,
      "concept_chemical_gas": 1222,
      "concept_profession_staff": 1223,
      "ians": 1224,
      "lina": 1225,
      "concept_furniture_size_bed": 1226,
      "itch": 1227,
      "illin": 1228,
      "concept_year_n1995": 1229,
      "first": 1230,
      "concept_sportse": 1231,
      "vegas": 1232,
      "concept_sportsequipment": 1233,
      "air": 1234,
      "ument": 1235,
      "_small": 1236,
      "_pred": 1237,
      "__": 1238,
      "af": 1239,
      "ki": 1240,
      "ms": 1241,
      "uck": 1242,
      "area": 1243,
      "ast": 1244,
      "ep": 1245,
      "e_t": 1246,
      "illinois": 1247,
      "concept_bathroomitem_shower": 1248,
      "urs": 1249,
      "concept_politicalpart": 1250,
      "concept_politicaloffice_": 1251,
      "_pro": 1252,
      "_river": 1253,
      "ission": 1254,
      "concept_stateorprovince_new_jersey": 1255,
      "ject": 1256,
      "oc": 1257,
      "concept_programminglanguage_": 1258,
      "concept_politicalparty_": 1259,
      "concept_televisionshow": 1260,
      "concept_weatherphenomenon_new": 1261,
      "concept:personalsoknownas": 1262,
      "_carolina": 1263,
      "calle": 1264,
      "dartery": 1265,
      "concept:artery": 1266,
      "_south": 1267,
      "ansas": 1268,
      "calledartery": 1269,
      "concept:arterycalledartery": 1270,
      "_al": 1271,
      "_ex": 1272,
      "euro": 1273,
      "shape": 1274,
      "concept_trad": 1275,
      "concept_academicfield_sci": 1276,
      "oh": 1277,
      "ites": 1278,
      "ore": 1279,
      "ations": 1280,
      "lege": 1281,
      "concept_nong": 1282,
      "ovorganization": 1283,
      "concept_nongovorganization": 1284,
      "concept_food_oil": 1285,
      "concept_beverage_juice": 1286,
      "concept_stateorprovince_new": 1287,
      "concept_profession_m": 1288,
      "lace": 1289,
      "ons": 1290,
      "abc": 1291,
      "rain": 1292,
      "concept_mammal_c": 1293,
      "concept_animal_birds": 1294,
      "_predators": 1295,
      "av": 1296,
      "ks": 1297,
      "cean": 1298,
      "ann": 1299,
      "concept_mammal_do": 1300,
      "concept_year_new": 1301,
      "eth": 1302,
      "ren": 1303,
      "concept_website_w": 1304,
      "rusta": 1305,
      "xide": 1306,
      "_meeting": 1307,
      "_dio": 1308,
      "concept_per": 1309,
      "_mich": 1310,
      "west": 1311,
      "itchen": 1312,
      "concept_perception": 1313,
      "ik": 1314,
      "_bill": 1315,
      "concept_stadiumoreventvenue_": 1316,
      "concept_musicgenre_": 1317,
      "concept_visualizablething_bathroom": 1318,
      "concept_musicalbum_": 1319,
      "tain": 1320,
      "concept_website_new_york_times": 1321,
      "virginia": 1322,
      "concept_mammal_predators": 1323,
      "_of": 1324,
      "concept_braintissue_": 1325,
      "bo": 1326,
      "uc": 1327,
      "uis": 1328,
      "ervices": 1329,
      "odel": 1330,
      "igan": 1331,
      "concept_profession_pro": 1332,
      "concept_coach_new": 1333,
      "rogen": 1334,
      "orld": 1335,
      "post": 1336,
      "tein": 1337,
      "products": 1338,
      "_gu": 1339,
      "concept_perceptionaction": 1340,
      "_master": 1341,
      "tel": 1342,
      "rib": 1343,
      "_animals": 1344,
      "lebr": 1345,
      "leagu": 1346,
      "ania": 1347,
      "concept_company_c": 1348,
      "_larg": 1349,
      "ator": 1350,
      "concept_city_n": 1351,
      "concept_animal_animals001": 1352,
      "ace": 1353,
      "concept_stateorprovince_illinois": 1354,
      "concept_visualizablescene_": 1355,
      "ary_": 1356,
      "concept_city_texas": 1357,
      "_blood": 1358,
      "concept_company_d": 1359,
      "concept_journalist_": 1360,
      "alia": 1361,
      "concept_insect_m": 1362,
      "ty": 1363,
      "_wil": 1364,
      "actition": 1365,
      "concept_celebr": 1366,
      "concept_city_home": 1367,
      "technolog": 1368,
      "ona": 1369,
      "concept:thing": 1370,
      "hasshape": 1371,
      "united": 1372,
      "concept:thinghasshape": 1373,
      "ees": 1374,
      "iseas": 1375,
      "concept_chemical_n": 1376,
      "concept_plant": 1377,
      "concept_crusta": 1378,
      "concept_city_l": 1379,
      "field": 1380,
      "concept_crustacean": 1381,
      "concept_room_": 1382,
      "actitioners": 1383,
      "ger": 1384,
      "ilit": 1385,
      "lack": 1386,
      "ret": 1387,
      "republic": 1388,
      "order": 1389,
      "_barack": 1390,
      "ens": 1391,
      "concept_website_c": 1392,
      "concept_celebrity_": 1393,
      "uss": 1394,
      "athroom": 1395,
      "concept_year_n1994": 1396,
      "concept_sportsleagu": 1397,
      "concept_mammal_dogs": 1398,
      "de": 1399,
      "concept_eventoutcome_": 1400,
      "concept_date_n194": 1401,
      "essels": 1402,
      "engine": 1403,
      "pe_": 1404,
      "ari": 1405,
      "concept_city_f": 1406,
      "rich": 1407,
      "ountain": 1408,
      "_area": 1409,
      "concept_city_t": 1410,
      "oogle": 1411,
      "ado": 1412,
      "concept_person_j": 1413,
      "_state_university": 1414,
      "_dioxide": 1415,
      "peppers": 1416,
      "concept_athlete_ind": 1417,
      "stralia": 1418,
      "oci": 1419,
      "concept_beach": 1420,
      "_nurs": 1421,
      "_sen": 1422,
      "concept_university_s": 1423,
      "concept_automobilemodel": 1424,
      "viders": 1425,
      "ka": 1426,
      "alth": 1427,
      "ics": 1428,
      "concept_chemical_h": 1429,
      "concept_chemical_water": 1430,
      "concept_animal_birds002": 1431,
      "_cl": 1432,
      "tern": 1433,
      "writer": 1434,
      "indiana": 1435,
      "ervice": 1436,
      "ohio": 1437,
      "concept_writer": 1438,
      "ets": 1439,
      "concept_mammal_pets": 1440,
      "ero": 1441,
      "ry_": 1442,
      "inist": 1443,
      "concept_personeuro": 1444,
      "australia": 1445,
      "oftwar": 1446,
      "concept_sportsgame_": 1447,
      "ford": 1448,
      "_georgia": 1449,
      "redit": 1450,
      "partment": 1451,
      "_post": 1452,
      "ling": 1453,
      "ug": 1454,
      "ine_": 1455,
      "concept_stateorprovince_texas": 1456,
      "concept_physicalaction_": 1457,
      "concept_profession_providers": 1458,
      "ial": 1459,
      "concept_city_g": 1460,
      "_gro": 1461,
      "law": 1462,
      "concept_sportsteam_ncaa": 1463,
      "_kids": 1464,
      "concept_building_": 1465,
      "concept_bathroomitem_tub": 1466,
      "concept_retailstore_": 1467,
      "ney": 1468,
      "yd": 1469,
      "concept:organization": 1470,
      "ale": 1471,
      "_coun": 1472,
      "exper": 1473,
      "concept:organizationalsoknownas": 1474,
      "_pal": 1475,
      "concept_chemical_sul": 1476,
      "_practitioners": 1477,
      "olor": 1478,
      "_fac": 1479,
      "concept_website_b": 1480,
      "ight": 1481,
      "by_": 1482,
      "ec": 1483,
      "jersey": 1484,
      "eff": 1485,
      "_workers": 1486,
      "concept_stateorprovince_newjersey": 1487,
      "ure": 1488,
      "he": 1489,
      "concept_publication": 1490,
      "etro": 1491,
      "arteries": 1492,
      "concept_ho": 1493,
      "_deer": 1494,
      "concept_mammal_bear": 1495,
      "_ne": 1496,
      "concept_crim": 1497,
      "concept_stateorprovince_p": 1498,
      "election": 1499,
      "mals": 1500,
      "cer": 1501,
      "omed": 1502,
      "emb": 1503,
      "_can": 1504,
      "_s_": 1505,
      "_house": 1506,
      "_fl": 1507,
      "_fran": 1508,
      "concept_date_n1993": 1509,
      "ron": 1510,
      "_par": 1511,
      "_sec": 1512,
      "ines": 1513,
      "obby_": 1514,
      "_whit": 1515,
      "ering": 1516,
      "concept_credit": 1517,
      "concept_comed": 1518,
      "rica": 1519,
      "_green": 1520,
      "concept_company_microsoft": 1521,
      "technology": 1522,
      "concept_creditunion": 1523,
      "concept_comedian": 1524,
      "lv": 1525,
      "concept_musician": 1526,
      "concept_bird_": 1527,
      "_pe": 1528,
      "e_nbc": 1529,
      "concept_stateorprovince_georgia": 1530,
      "concept_agriculturalproduct_s": 1531,
      "concept_artery_v": 1532,
      "concept_food_peppers": 1533,
      "attraction": 1534,
      "umbia": 1535,
      "aw": 1536,
      "pi": 1537,
      "_mon": 1538,
      "years": 1539,
      "actor": 1540,
      "ke": 1541,
      "concept_ter": 1542,
      "rorist": 1543,
      "concept_university_search": 1544,
      "concept_terrorist": 1545,
      "concept_terroristorganization": 1546,
      "concept_product": 1547,
      "profess": 1548,
      "isb": 1549,
      "_tr": 1550,
      "center": 1551,
      "angel": 1552,
      "burg": 1553,
      "concept_website_cbs": 1554,
      "ley": 1555,
      "amals": 1556,
      "concept:teamals": 1557,
      "concept:teamalsoknownas": 1558,
      "car": 1559,
      "low": 1560,
      "icians": 1561,
      "week": 1562,
      "_health": 1563,
      "concept_reptile_": 1564,
      "concept_attraction": 1565,
      "agaz": 1566,
      "ings": 1567,
      "old": 1568,
      "concept_academicfield_science": 1569,
      "ato": 1570,
      "inal": 1571,
      "form": 1572,
      "ctor": 1573,
      "concept_city_ch": 1574,
      "_man": 1575,
      "states": 1576,
      "concept_profession_practitioners": 1577,
      "_her": 1578,
      "concept_sportsteam_b": 1579,
      "concept_journalist_j": 1580,
      "concept_ceo_": 1581,
      "_north_carolina": 1582,
      "orp": 1583,
      "ago": 1584,
      "concept_chemical_f": 1585,
      "_youth": 1586,
      "concept_bodypart_blood": 1587,
      "concept_retailstore_nbc": 1588,
      "angeles": 1589,
      "ix": 1590,
      "one": 1591,
      "concept:stateorprovince": 1592,
      "rock": 1593,
      "concept_company_post": 1594,
      "concept_softwar": 1595,
      "edbystateorprovince": 1596,
      "orderedbystateorprovince": 1597,
      "concept_sportsteam_ncaa_youth": 1598,
      "isborderedbystateorprovince": 1599,
      "concept:stateorprovinceisborderedbystateorprovince": 1600,
      "concept_sportsteam_ncaa_youth_kids": 1601,
      "ugs": 1602,
      "y_m": 1603,
      "concept_mountain": 1604,
      "ase": 1605,
      "concept:musicgenres": 1606,
      "concept_drug_": 1607,
      "suchasmusicgenres": 1608,
      "lvania": 1609,
      "concept:musicgenressuchasmusicgenres": 1610,
      "_n18": 1611,
      "concept_year_n1992": 1612,
      "sylvania": 1613,
      "s_angeles": 1614,
      "_comp": 1615,
      "shop": 1616,
      "_republic": 1617,
      "ennsylvania": 1618,
      "_ad": 1619,
      "fer": 1620,
      "rid": 1621,
      "_kent": 1622,
      "concept_agriculturalproduct_b": 1623,
      "concept_date_n197": 1624,
      "_phys": 1625,
      "professor": 1626,
      "_american": 1627,
      "ctors": 1628,
      "_liv": 1629,
      "izona": 1630,
      "_an": 1631,
      "north": 1632,
      "concept_ml": 1633,
      "concept_personnorth": 1634,
      "illiam": 1635,
      "concept_personnorthamerica": 1636,
      "eunion": 1637,
      "concept_hobby_": 1638,
      "concept_wine_": 1639,
      "concept_tradeunion": 1640,
      "experts": 1641,
      "do": 1642,
      "li": 1643,
      "ris": 1644,
      "ultip": 1645,
      "_plan": 1646,
      "concept_nerv": 1647,
      "esota": 1648,
      "concept_politicianus_john": 1649,
      "concept_stateorprovince_indiana": 1650,
      "concept_mammal_r": 1651,
      "concept_ski": 1652,
      "concept_musicalbum_de": 1653,
      "concept_politicaloffice_new": 1654,
      "innesota": 1655,
      "concept_skiarea": 1656,
      "ina": 1657,
      "une": 1658,
      "irport": 1659,
      "concept_airport": 1660,
      "ibut": 1661,
      "concept_dateliteral_n194": 1662,
      "ham": 1663,
      "arch": 1664,
      "y_b": 1665,
      "fperson": 1666,
      "fath": 1667,
      "atas": 1668,
      "concept:fath": 1669,
      "rown": 1670,
      "erofperson": 1671,
      "concept:fatherofperson": 1672,
      "ason": 1673,
      "ism": 1674,
      "concept_profession_workers": 1675,
      "concept_person_m": 1676,
      "_government": 1677,
      "concept_year_n197": 1678,
      "pecial": 1679,
      "_david": 1680,
      "college": 1681,
      "_world": 1682,
      "concept_city_new": 1683,
      "concept_city_place": 1684,
      "concept_chemical_nit": 1685,
      "retary": 1686,
      "mer": 1687,
      "wo": 1688,
      "concept_actor": 1689,
      "concept_mld": 1690,
      "concept_visualizableattr": 1691,
      "stern": 1692,
      "_louis": 1693,
      "concept_female_": 1694,
      "concept_stateorprovince_pennsylvania": 1695,
      "ataset": 1696,
      "concept_mldataset": 1697,
      "cel": 1698,
      "concept_professor": 1699,
      "iness": 1700,
      "amhom": 1701,
      "concept_mammal_deer": 1702,
      "east": 1703,
      "_jobs": 1704,
      "estadium": 1705,
      "concept:teamhom": 1706,
      "_rooms": 1707,
      "engineering": 1708,
      "concept_personeurope_": 1709,
      "concept:teamhomestadium": 1710,
      "kitchen": 1711,
      "wood": 1712,
      "cons": 1713,
      "_pa": 1714,
      "etts": 1715,
      "concept_stateorprovince_virginia": 1716,
      "ign": 1717,
      "concept_visualizableattribut": 1718,
      "cle_": 1719,
      "lus": 1720,
      "ena": 1721,
      "usetts": 1722,
      "achusetts": 1723,
      "assachusetts": 1724,
      "condition": 1725,
      "ucky": 1726,
      "iat": 1727,
      "mon": 1728,
      "vis": 1729,
      "united_states": 1730,
      "u_s_": 1731,
      "vel": 1732,
      "concept_mammal_mammals": 1733,
      "ust": 1734,
      "_nerv": 1735,
      "e_bathroom": 1736,
      "ouri": 1737,
      "_spid": 1738,
      "_commun": 1739,
      "concept_mammal_cats": 1740,
      "concept_stateorprovince_new_york": 1741,
      "_gen": 1742,
      "concept_agriculturalproduct_c": 1743,
      "concept_agriculturalproduct_products": 1744,
      "gar": 1745,
      "ne": 1746,
      "ana": 1747,
      "concept_magaz": 1748,
      "concept_company_f": 1749,
      "_fox": 1750,
      "concept_politicianus_bush": 1751,
      "er_": 1752,
      "_sc": 1753,
      "_department": 1754,
      "concept_blog_g": 1755,
      "concept_furniture_bed": 1756,
      "_barack_obama": 1757,
      "concept_chemical_hyd": 1758,
      "_secretary": 1759,
      "nect": 1760,
      "uk": 1761,
      "yah": 1762,
      "ences": 1763,
      "lead": 1764,
      "concept_profession_experts": 1765,
      "issouri": 1766,
      "issions": 1767,
      "concept_hotel": 1768,
      "concept_furniture_beds": 1769,
      "cy": 1770,
      "mith": 1771,
      "usa": 1772,
      "ruit": 1773,
      "ott": 1774,
      "concept_programminglanguage_system": 1775,
      "athlete": 1776,
      "_park": 1777,
      "concept_artery_cord": 1778,
      "concept_protein": 1779,
      "ennes": 1780,
      "_week": 1781,
      "icago": 1782,
      "_san": 1783,
      "_to": 1784,
      "_di": 1785,
      "concept_year_n1991": 1786,
      "concept_company_dc": 1787,
      "coun": 1788,
      "minist": 1789,
      "emissions": 1790,
      "concept_meat": 1791,
      "_bay": 1792,
      "abb": 1793,
      "_ter": 1794,
      "concept_website_abc": 1795,
      "concept_artery_arteries": 1796,
      "concept_date_n196": 1797,
      "ides": 1798,
      "_hill": 1799,
      "ityalsoknownas": 1800,
      "concept:cityalsoknownas": 1801,
      "cent": 1802,
      "concept_academicfield_technology": 1803,
      "_la": 1804,
      "_pepper": 1805,
      "concept_election": 1806,
      "concept:ism": 1807,
      "rod": 1808,
      "leof": 1809,
      "uth": 1810,
      "concept_city_service": 1811,
      "_ford": 1812,
      "concept_artery_vessels": 1813,
      "ultipleof": 1814,
      "concept:ismultipleof": 1815,
      "beat": 1816,
      "hlete": 1817,
      "ced": 1818,
      "ital": 1819,
      "ino": 1820,
      "concept:athlete": 1821,
      "ily": 1822,
      "concept_animal_h": 1823,
      "_compo": 1824,
      "_suite": 1825,
      "_ele": 1826,
      "beatathlete": 1827,
      "concept:athletebeatathlete": 1828,
      "ock": 1829,
      "press": 1830,
      "va": 1831,
      "york": 1832,
      "oreg": 1833,
      "pol": 1834,
      "edical": 1835,
      "aska": 1836,
      "_mark": 1837,
      "concept_personaustralia": 1838,
      "_del": 1839,
      "etwork": 1840,
      "concept_mammal_small": 1841,
      "ive_": 1842,
      "righ": 1843,
      "concept_politician_jobs": 1844,
      "_kentucky": 1845,
      "_ind": 1846,
      "ie": 1847,
      "ree": 1848,
      "view": 1849,
      "concept_university_college": 1850,
      "_george_w": 1851,
      "yahoo": 1852,
      "fur": 1853,
      "ars": 1854,
      "ity_m": 1855,
      "ution": 1856,
      "concept_muscle_": 1857,
      "rior": 1858,
      "concept_stateorprovince_color": 1859,
      "ennesse": 1860,
      "concept_kitchen": 1861,
      "asia": 1862,
      "_gr": 1863,
      "concept_year_n18": 1864,
      "_lar": 1865,
      "_reg": 1866,
      "concept_geopoliticallocation_": 1867,
      "concept_musicartist_times": 1868,
      "strument": 1869,
      "concept_politicaloffice_office": 1870,
      "concept_kitchenitem": 1871,
      "__bush": 1872,
      "be": 1873,
      "ler": 1874,
      "educ": 1875,
      "_tom": 1876,
      "ious": 1877,
      "concept_politicianus_": 1878,
      "concept_eventoutcome_new": 1879,
      "irector": 1880,
      "instrument": 1881,
      "_tennesse": 1882,
      "iowa": 1883,
      "research": 1884,
      "concept_musicinstrument": 1885,
      "ores": 1886,
      "ames": 1887,
      "usps": 1888,
      "_beach": 1889,
      "_trib": 1890,
      "concept_sportsteam_state_university": 1891,
      "planet": 1892,
      "ississ": 1893,
      "pecialists": 1894,
      "concept_stateorprovince_colorado": 1895,
      "ael": 1896,
      "eor": 1897,
      "ves": 1898,
      "los": 1899,
      "unds": 1900,
      "concept_mammal_h": 1901,
      "concept_chemical_dioxide": 1902,
      "organ": 1903,
      "concept_politicianus_sen": 1904,
      "concept_country_united_states": 1905,
      "concept_county_s": 1906,
      "_systems": 1907,
      "apple": 1908,
      "arizona": 1909,
      "_pow": 1910,
      "concept_chemical_nitrogen": 1911,
      "oregon": 1912,
      "eep": 1913,
      "oston": 1914,
      "connect": 1915,
      "icut": 1916,
      "adel": 1917,
      "iangle": 1918,
      "_wis": 1919,
      "concept_website_k": 1920,
      "concept_politicianus_g": 1921,
      "ippi": 1922,
      "ississippi": 1923,
      "concept_planet": 1924,
      "ales": 1925,
      "ive": 1926,
      "concept_politicianus_mccain": 1927,
      "associ": 1928,
      "_en": 1929,
      "day": 1930,
      "ux": 1931,
      "reg": 1932,
      "concept_profession_nurs": 1933,
      "ives": 1934,
      "line": 1935,
      "itional": 1936,
      "concept_city_san": 1937,
      "concept_website_blood": 1938,
      "embers": 1939,
      "tv": 1940,
      "itt": 1941,
      "charg": 1942,
      "ull": 1943,
      "_tro": 1944,
      "_red": 1945,
      "_palin": 1946,
      "concept_chemical_fu": 1947,
      "_general": 1948,
      "ay_": 1949,
      "eb": 1950,
      "atri": 1951,
      "leg": 1952,
      "_william": 1953,
      "_dist": 1954,
      "vertebrates": 1955,
      "centr": 1956,
      "concept_landscapefeatures_states": 1957,
      "consin": 1958,
      "_wisconsin": 1959,
      "_br": 1960,
      "ison": 1961,
      "concept_profession_c": 1962,
      "igs": 1963,
      "concept_musicalbum_death": 1964,
      "concept_blog_google": 1965,
      "erson": 1966,
      "phia": 1967,
      "concept_visual": 1968,
      "park": 1969,
      "e_systems": 1970,
      "_ste": 1971,
      "cis": 1972,
      "da": 1973,
      "ile": 1974,
      "ou": 1975,
      "south": 1976,
      "_nov": 1977,
      "_sch": 1978,
      "reet": 1979,
      "_two": 1980,
      "_fr": 1981,
      "concept_country_republic": 1982,
      "concept_stateorprovince_connect": 1983,
      "concept_monument": 1984,
      "_columbia": 1985,
      "adelphia": 1986,
      "concept_country_republic_of": 1987,
      "concept_stateorprovince_connecticut": 1988,
      "concept_organization": 1989,
      "stan": 1990,
      "stru": 1991,
      "lahom": 1992,
      "ife": 1993,
      "comm": 1994,
      "bert": 1995,
      "ichigan": 1996,
      "concept_sportsequipment_new": 1997,
      "_facilit": 1998,
      "ft": 1999,
      "oklahom": 2000,
      "_priv": 2001,
      "concept_insect_bugs": 2002,
      "concept_agriculturalproduct_salt": 2003,
      "ministr": 2004,
      "_compounds": 2005,
      "_lin": 2006,
      "iladelphia": 2007,
      "_kansas": 2008,
      "concept_geopoliticallocation_national": 2009,
      "_michigan": 2010,
      "_large_": 2011,
      "isease": 2012,
      "_tribune": 2013,
      "oklahoma": 2014,
      "hass": 2015,
      "erry": 2016,
      "los_angeles": 2017,
      "amph": 2018,
      "abama": 2019,
      "_fam": 2020,
      "concept_nond": 2021,
      "concept_beverage_m": 2022,
      "concept_automobilemaker_ford": 2023,
      "concept_chemical_sulfur": 2024,
      "concept_crimeor": 2025,
      "iseasecondition": 2026,
      "concept_nondiseasecondition": 2027,
      "_or": 2028,
      "ping": 2029,
      "ofweek": 2030,
      "_board": 2031,
      "lay": 2032,
      "ayofweek": 2033,
      "concept_musicsong_": 2034,
      "concept_dayofweek": 2035,
      "_republican": 2036,
      "concept_chemical_fuels": 2037,
      "concept_crimeorcharg": 2038,
      "cy_": 2039,
      "concept_board": 2040,
      "003": 2041,
      "_corp": 2042,
      "label": 2043,
      "concept_bodypart_system002": 2044,
      "llut": 2045,
      "ference": 2046,
      "_paul": 2047,
      "off": 2048,
      "concept_bedroomitem_bath": 2049,
      "arkansas": 2050,
      "concept_website_washington": 2051,
      "formation": 2052,
      "_on": 2053,
      "nn": 2054,
      "wal": 2055,
      "esus": 2056,
      "utah": 2057,
      "reat": 2058,
      "concept_buildingfeature_systems": 2059,
      "_mail": 2060,
      "_head": 2061,
      "ocio": 2062,
      "yan": 2063,
      "its": 2064,
      "arach": 2065,
      "concept_city_j": 2066,
      "ild": 2067,
      "ilk": 2068,
      "_brown": 2069,
      "concept_personaf": 2070,
      "concept_chemical_s": 2071,
      "concept_sportsteam_m": 2072,
      "concept_stateorprovince_ohio": 2073,
      "concept_food_ind": 2074,
      "concept_wine_s": 2075,
      "concept_stateorprovince_michigan": 2076,
      "concept_profession_specialists": 2077,
      "_private": 2078,
      "amphib": 2079,
      "concept_personafrica": 2080,
      "to": 2081,
      "amb": 2082,
      "concept_grain": 2083,
      "concept_socio": 2084,
      "llutants": 2085,
      "concept_sociopolitical": 2086,
      "ory": 2087,
      "concept_city_st": 2088,
      "vig": 2089,
      "_pigs": 2090,
      "_war": 2091,
      "_day": 2092,
      "concept_mammal_sh": 2093,
      "chemicals": 2094,
      "_shrim": 2095,
      "concept_charactertrait_": 2096,
      "concept_dateliteral_n198": 2097,
      "_tennessee": 2098,
      "central": 2099,
      "arachn": 2100,
      "_z": 2101,
      "_center": 2102,
      "ials": 2103,
      "water": 2104,
      "concept_mammal_m": 2105,
      "concept_mammal_wil": 2106,
      "_j_": 2107,
      "concept_country_usa": 2108,
      "concept_newspaper_journal": 2109,
      "estiv": 2110,
      "_daily": 2111,
      "england": 2112,
      "politan": 2113,
      "_sal": 2114,
      "imm": 2115,
      "concept_governmentorganization_government": 2116,
      "concept_braintissu": 2117,
      "_michael": 2118,
      "cisco": 2119,
      "urren": 2120,
      "island": 2121,
      "concept_record": 2122,
      "_stud": 2123,
      "_suit": 2124,
      "shopping": 2125,
      "concept_recordlabel": 2126,
      "las": 2127,
      "ner": 2128,
      "concept_arachn": 2129,
      "ities": 2130,
      "invertebrates": 2131,
      "concept_curren": 2132,
      "agen": 2133,
      "loor": 2134,
      "_cr": 2135,
      "concept_mammal_p": 2136,
      "aph": 2137,
      "_fish": 2138,
      "iolog": 2139,
      "ows": 2140,
      "concept_arachnid": 2141,
      "grow": 2142,
      "lor": 2143,
      "concept_shopping": 2144,
      "fort": 2145,
      "pot": 2146,
      "ung": 2147,
      "_body": 2148,
      "concept_politicaloffice_secretary": 2149,
      "concept_emotion_": 2150,
      "_business": 2151,
      "concept_chemical_hydrogen": 2152,
      "_shrimp": 2153,
      "concept_shoppingmall": 2154,
      "concept_profession_p": 2155,
      "concept_scientist": 2156,
      "_ryan": 2157,
      "ackson": 2158,
      "concept_ceo_j": 2159,
      "concept_winer": 2160,
      "auvig": 2161,
      "concept_city_col": 2162,
      "concept_sportsleague_n": 2163,
      "etropolitan": 2164,
      "right": 2165,
      "concept_website_washington_post": 2166,
      "auvignon": 2167,
      "atlan": 2168,
      "concept:hass": 2169,
      "concept_dateliteral_n199": 2170,
      "_wal": 2171,
      "issue": 2172,
      "ibling": 2173,
      "concept_animal_animals002": 2174,
      "concept_chemical_gases": 2175,
      "atoes": 2176,
      "concept:hassibling": 2177,
      "concept_dateliteral_n1990": 2178,
      "_ac": 2179,
      "concept_stateorprovince_south": 2180,
      "concept_profession_phys": 2181,
      "_des": 2182,
      "_har": 2183,
      "assist": 2184,
      "concept_year_n196": 2185,
      "concept_diseas": 2186,
      "concept_agriculturalproduct_black": 2187,
      "concept:plant": 2188,
      "rook": 2189,
      "inot": 2190,
      "inplant": 2191,
      "lot": 2192,
      "ament": 2193,
      "inginplant": 2194,
      "_spr": 2195,
      "_mik": 2196,
      "_glo": 2197,
      "le_b": 2198,
      "concept_country": 2199,
      "_char": 2200,
      "therap": 2201,
      "_college": 2202,
      "concept_sportsequipment_board": 2203,
      "richard": 2204,
      "concept_nerve_": 2205,
      "growinginplant": 2206,
      "concept:plantgrowinginplant": 2207,
      "concept_amphib": 2208,
      "ati": 2209,
      "icle": 2210,
      "_mo": 2211,
      "_prior": 2212,
      "concept_politician_obama": 2213,
      "concept_politicalparty_republic": 2214,
      "concept_traditional": 2215,
      "_manag": 2216,
      "_distrib": 2217,
      "concept_mammal_sheep": 2218,
      "concept_amphibian": 2219,
      "aff": 2220,
      "ict": 2221,
      "_sun": 2222,
      "object": 2223,
      "andr": 2224,
      "concept_high": 2225,
      "_vari": 2226,
      "concept_stateorprovince_minnesota": 2227,
      "aryland": 2228,
      "_spiders": 2229,
      "concept_agriculturalproduct_black_pepper": 2230,
      "ices": 2231,
      "project": 2232,
      "_nor": 2233,
      "concept_city_al": 2234,
      "concept_city_abc": 2235,
      "teach": 2236,
      "_ga": 2237,
      "concept_company_s": 2238,
      "concept_profession_in": 2239,
      "brain": 2240,
      "concept_university_ohio": 2241,
      "concept_bank_usps": 2242,
      "leaders": 2243,
      "ai": 2244,
      "econtains": 2245,
      "iment": 2246,
      "yn": 2247,
      "protein": 2248,
      "chicago": 2249,
      "ury": 2250,
      "ams": 2251,
      "ills": 2252,
      "_bob": 2253,
      "_fed": 2254,
      "organis": 2255,
      "concept_website_m": 2256,
      "_kerry": 2257,
      "concept_visualizableobject": 2258,
      "concept:beveragecontains": 2259,
      "_separ": 2260,
      "ups": 2261,
      "way_": 2262,
      "concept_director": 2263,
      "ecut": 2264,
      "concept_traditionalgame_": 2265,
      "concept:beveragecontainsprotein": 2266,
      "_first": 2267,
      "eal": 2268,
      "festiv": 2269,
      "val": 2270,
      "ance": 2271,
      "concept_profession_health": 2272,
      "_tig": 2273,
      "ivores": 2274,
      "concept_athlete_j": 2275,
      "concept_magazine_": 2276,
      "one_": 2277,
      "ane": 2278,
      "_bo": 2279,
      "john": 2280,
      "concept_mammal_d": 2281,
      "_kitchen": 2282,
      "concept_mammal_l": 2283,
      "cess": 2284,
      "concept_politicaloffice_president": 2285,
      "oxide": 2286,
      "iami": 2287,
      "orning": 2288,
      "concept_currency_": 2289,
      "gro": 2290,
      "emp": 2291,
      "_be": 2292,
      "concept_chemical_po": 2293,
      "concept_chemical_emissions": 2294,
      "ondon": 2295,
      "concept_beach_m": 2296,
      "concept_mammal_bears": 2297,
      "_lak": 2298,
      "zer": 2299,
      "oration": 2300,
      "ange": 2301,
      "agles": 2302,
      "concept_personasia": 2303,
      "concept_artery_b": 2304,
      "_care_": 2305,
      "concept_jobposition_meeting": 2306,
      "concept_comedian_day": 2307,
      "concept_winery_": 2308,
      "etropolitan_area": 2309,
      "zz": 2310,
      "ember": 2311,
      "arts": 2312,
      "rooms": 2313,
      "_city_m": 2314,
      "_mot": 2315,
      "_per": 2316,
      "concept_company_b": 2317,
      "concept_country_f": 2318,
      "express": 2319,
      "concept_stateorprovince_states": 2320,
      "concept_mammal_rod": 2321,
      "concept_chemical_chemicals": 2322,
      "_days": 2323,
      "_whitney": 2324,
      "concept_profession_nurses": 2325,
      "_separate": 2326,
      "concept_mammal_rodents": 2327,
      "ier": 2328,
      "lem": 2329,
      "sn": 2330,
      "alabama": 2331,
      "ene": 2332,
      "concept_person_s": 2333,
      "etals": 2334,
      "_hol": 2335,
      "akota": 2336,
      "concept_personmexico_ryan": 2337,
      "_carn": 2338,
      "flies": 2339,
      "sult": 2340,
      "ternational": 2341,
      "concept_tradeunion_search": 2342,
      "concept_dateliteral_n1945": 2343,
      "_community": 2344,
      "ministration": 2345,
      "_gauss": 2346,
      "concept_personmexico_ryan_whitney": 2347,
      "eer": 2348,
      "yers": 2349,
      "concept_cond": 2350,
      "_squ": 2351,
      "_services": 2352,
      "_bear": 2353,
      "_mid": 2354,
      "ths": 2355,
      "_go": 2356,
      "concept_vegetable_on": 2357,
      "concept_bathroomitem_bath": 2358,
      "concept_fish_b": 2359,
      "_frank": 2360,
      "therapists": 2361,
      "concept_condiment": 2362,
      "_part": 2363,
      "der": 2364,
      "ard_": 2365,
      "concept_person_republican": 2366,
      "_wol": 2367,
      "_floor": 2368,
      "concept_politicianus_bill": 2369,
      "braska": 2370,
      "ester": 2371,
      "_new_york_city_m": 2372,
      "concept_stateorprovince_maryland": 2373,
      "concept_musicgenre_rock": 2374,
      "_francisco": 2375,
      "_larva": 2376,
      "uff": 2377,
      "ara": 2378,
      "ush": 2379,
      "_ser": 2380,
      "eli": 2381,
      "ollus": 2382,
      "_tu": 2383,
      "_dakota": 2384,
      "philadelphia": 2385,
      "_time": 2386,
      "concept_politicsissu": 2387,
      "concept_island_new_york_city_m": 2388,
      "e_tv": 2389,
      "concept_academicfield_sciences": 2390,
      "_peop": 2391,
      "cells": 2392,
      "concept_mammal_small_animals": 2393,
      "concept_wine_sauvignon": 2394,
      "concept_beach_massachusetts": 2395,
      "concept_island_new_york_city_metropolitan_area": 2396,
      "ays": 2397,
      "gress": 2398,
      "google": 2399,
      "rops": 2400,
      "orms": 2401,
      "omest": 2402,
      "etal": 2403,
      "concept_mammal_f": 2404,
      "uman": 2405,
      "rice": 2406,
      "_northern": 2407,
      "concept_year_n1989": 2408,
      "_guest": 2409,
      "heart": 2410,
      "omestic": 2411,
      "_ed": 2412,
      "den": 2413,
      "concept_person_g": 2414,
      "irs": 2415,
      "concept_wine_p": 2416,
      "concept_book_years": 2417,
      "concept_crustacean_shrimp": 2418,
      "etroit": 2419,
      "ridg": 2420,
      "concept_wine_pinot": 2421,
      "_ra": 2422,
      "cul": 2423,
      "gor": 2424,
      "network": 2425,
      "onn": 2426,
      "concept_wal": 2427,
      "erve": 2428,
      "litem": 2429,
      "test": 2430,
      "concept_stateorprovince_north_carolina": 2431,
      "tries": 2432,
      "concept_chemical_compounds": 2433,
      "concept_televisionnetwork": 2434,
      "concept_governmentorganization_house": 2435,
      "hold": 2436,
      "concept_monarch": 2437,
      "concept_arthropod_spiders": 2438,
      "boro": 2439,
      "concept_visualizableattribute_": 2440,
      "uthor": 2441,
      "concept_muscle_heart": 2442,
      "concept_highway_": 2443,
      "concept_traditionalgame_vegas": 2444,
      "concept_wallitem": 2445,
      "cor": 2446,
      "og": 2447,
      "acious": 2448,
      "d_animals": 2449,
      "concept_beverage_b": 2450,
      "concept_county_m": 2451,
      "concept_biotechcompany_s": 2452,
      "sych": 2453,
      "concept_scientificterm_m": 2454,
      "arks": 2455,
      "concept_wine_c": 2456,
      "_spacious": 2457,
      "_trout": 2458,
      "organisms": 2459,
      "bal": 2460,
      "ii": 2461,
      "mond": 2462,
      "ogs": 2463,
      "ards": 2464,
      "esh": 2465,
      "es001": 2466,
      "_sn": 2467,
      "_fal": 2468,
      "concept_animal_m": 2469,
      "concept_country_england": 2470,
      "concept_agriculturalproduct_pigs": 2471,
      "concept_university_google": 2472,
      "concept_governmentorganization_department": 2473,
      "concept_vehicle_states": 2474,
      "deo": 2475,
      "_facult": 2476,
      "concept_agriculturalproduct_crops": 2477,
      "countries": 2478,
      "concept_politicianus_senator": 2479,
      "_power": 2480,
      "concept_sportsleague_nfl": 2481,
      "ing_room": 2482,
      "_mexico": 2483,
      "_mississippi": 2484,
      "able": 2485,
      "ount": 2486,
      "fire": 2487,
      "concept_person_k": 2488,
      "ett": 2489,
      "concept_profession_leaders": 2490,
      "concept_video": 2491,
      "quit": 2492,
      "concept_coach_kentucky": 2493,
      "concept_televisionstation_wm": 2494,
      "icks": 2495,
      "_euro": 2496,
      "concept_street": 2497,
      "concept_invertebrate_c": 2498,
      "concept_month_j": 2499,
      "_india": 2500,
      "concept_visualart": 2501,
      "concept_crimeorcharge_": 2502,
      "_tigers": 2503,
      "_people_": 2504,
      "ech": 2505,
      "ening": 2506,
      "y_c": 2507,
      "_sea": 2508,
      "rey": 2509,
      "_dan": 2510,
      "peter": 2511,
      "concept_animal_mammals": 2512,
      "que": 2513,
      "concept_biotechcompany": 2514,
      "e_ma": 2515,
      "_doctors": 2516,
      "_rock": 2517,
      "ouse_": 2518,
      "ous_system": 2519,
      "concept_publication_people_": 2520,
      "_flies": 2521,
      "_bayes": 2522,
      "abbits": 2523,
      "teachers": 2524,
      "concept_chemical_pollutants": 2525,
      "concept_animal_mammals001": 2526,
      "concept_park": 2527,
      "_sur": 2528,
      "concept_profession_facult": 2529,
      "_dis": 2530,
      "concept_university": 2531,
      "_vessels": 2532,
      "many": 2533,
      "concept_year_n1988": 2534,
      "_cond": 2535,
      "_west": 2536,
      "concept_arthropod_invertebrates": 2537,
      "_master_bedroom": 2538,
      "_group": 2539,
      "concept_chemical_sulph": 2540,
      "concept_mountain_fox": 2541,
      "_nervous_system": 2542,
      "_facilities": 2543,
      "concept_mammal_wild_animals": 2544,
      "ovi": 2545,
      "_night": 2546,
      "omas": 2547,
      "lothing": 2548,
      "louis": 2549,
      "concept_bridg": 2550,
      "eds": 2551,
      "ediat": 2552,
      "_smith": 2553,
      "ithm": 2554,
      "abern": 2555,
      "ette": 2556,
      "iden": 2557,
      "officer": 2558,
      "concept_artery_brain": 2559,
      "iller": 2560,
      "_ron": 2561,
      "concept_city_boston": 2562,
      "concept_animal_organisms": 2563,
      "concept_musicartist_american": 2564,
      "concept_charactertrait_world": 2565,
      "eetles": 2566,
      "concept_company_cnn": 2567,
      "_larvae": 2568,
      "gorithm": 2569,
      "cil": 2570,
      "gers": 2571,
      "lend": 2572,
      "oper": 2573,
      "ink": 2574,
      "information": 2575,
      "concept_clothing": 2576,
      "usc": 2577,
      "concept_agriculturalproduct_ch": 2578,
      "concept_county_b": 2579,
      "ights": 2580,
      "osquit": 2581,
      "rance": 2582,
      "_france": 2583,
      "concept_software_": 2584,
      "_george_w__bush": 2585,
      "education": 2586,
      "_u_s_": 2587,
      "ring": 2588,
      "alo": 2589,
      "urt": 2590,
      "_site": 2591,
      "rick": 2592,
      "concept_politicianus_m": 2593,
      "concept_sportsteam_p": 2594,
      "concept_beverage_s": 2595,
      "_christ": 2596,
      "concept_company_n": 2597,
      "e_bedroom": 2598,
      "_form": 2599,
      "altim": 2600,
      "_county": 2601,
      "concept_mammal_hors": 2602,
      "_europe": 2603,
      "abernet": 2604,
      "_union": 2605,
      "_vegas": 2606,
      "ward": 2607,
      "ame": 2608,
      "_cal": 2609,
      "uli": 2610,
      "_tre": 2611,
      "_tri": 2612,
      "concept_fruit": 2613,
      "e_body": 2614,
      "concept_geometricshape_s": 2615,
      "_sup": 2616,
      "_the_": 2617,
      "concept_profession_services": 2618,
      "concept_city_london": 2619,
      "concept_date_n1942": 2620,
      "_corporation": 2621,
      "concept_wine_cabernet": 2622,
      "concept_city_london_city": 2623,
      "_virginia": 2624,
      "ax": 2625,
      "hip": 2626,
      "tim": 2627,
      "ici": 2628,
      "concept_city_west": 2629,
      "_cbs": 2630,
      "uts": 2631,
      "concept_person_john": 2632,
      "concept_book_re": 2633,
      "_full": 2634,
      "concept_website_f": 2635,
      "concept_politicianus_b": 2636,
      "concept_stateorprovince_oregon": 2637,
      "concept_vein": 2638,
      "_af": 2639,
      "concept_newspaper_daily": 2640,
      "allas": 2641,
      "concept_jobposition_": 2642,
      "concept_river_": 2643,
      "_second": 2644,
      "ego": 2645,
      "concept_politicsblog_journal": 2646,
      "al_insects": 2647,
      "_execut": 2648,
      "concept_insect_mosquit": 2649,
      "_ground": 2650,
      "_hillary_": 2651,
      "concept_country_republic_of_india": 2652,
      "ma": 2653,
      "town": 2654,
      "concept_city_br": 2655,
      "concept_mediat": 2656,
      "partic": 2657,
      "concept_country_australia": 2658,
      "aterials": 2659,
      "concept_room_systems": 2660,
      "concept_academicfield_m": 2661,
      "concept_wine_b": 2662,
      "ampa": 2663,
      "concept_geometricshape_tr": 2664,
      "e_water": 2665,
      "concept_date_n1944": 2666,
      "concept_creditunion_michigan": 2667,
      "_herds": 2668,
      "_election": 2669,
      "stances": 2670,
      "andrew": 2671,
      "concept_mammal_domestic": 2672,
      "_care_professionals": 2673,
      "concept_televisionnetwork_cbs": 2674,
      "concept_chemical_sulphur": 2675,
      "concept_mediaty": 2676,
      "_pets": 2677,
      "ients": 2678,
      "kin": 2679,
      "mont": 2680,
      "itte": 2681,
      "prom": 2682,
      "program": 2683,
      "use": 2684,
      "concept_city_v": 2685,
      "ilip": 2686,
      "_school": 2687,
      "utter": 2688,
      "concept_stateorprovince_wisconsin": 2689,
      "_fin": 2690,
      "concept_politicianus_barack_obama": 2691,
      "concept_governmentorganization_n": 2692,
      "_bedrooms": 2693,
      "_triangle": 2694,
      "concept_mammal_rabbits": 2695,
      "concept_artery_blood": 2696,
      "_ap": 2697,
      "ivi": 2698,
      "rat": 2699,
      "concept_agent": 2700,
      "ata": 2701,
      "ped": 2702,
      "western": 2703,
      "_p_": 2704,
      "_gold": 2705,
      "concept_insect_f": 2706,
      "concept_country_s": 2707,
      "stairs": 2708,
      "aho": 2709,
      "berg": 2710,
      "_suites": 2711,
      "concept_year_n1986": 2712,
      "concept_bank_ups": 2713,
      "_professionals": 2714,
      "mo": 2715,
      "conom": 2716,
      "algorithm": 2717,
      "stud": 2718,
      "enef": 2719,
      "leans": 2720,
      "level": 2721,
      "concept_city_con": 2722,
      "_cab": 2723,
      "_cand": 2724,
      "_cour": 2725,
      "_sar": 2726,
      "web": 2727,
      "_press": 2728,
      "substances": 2729,
      "concept_profession_con": 2730,
      "concept_profession_profession": 2731,
      "concept_fish_sh": 2732,
      "concept_stateorprovince_missouri": 2733,
      "_web": 2734,
      "concept_date_n1941": 2735,
      "_nebraska": 2736,
      "concept_criminal": 2737,
      "_williams": 2738,
      "concept_dateliteral_n1987": 2739,
      "group": 2740,
      "ones": 2741,
      "concept_city_port": 2742,
      "asino": 2743,
      "_mod": 2744,
      "_page": 2745,
      "umber": 2746,
      "_how": 2747,
      "vest": 2748,
      "concept_country_c": 2749,
      "concept_nerve": 2750,
      "concept_musicfestiv": 2751,
      "shire": 2752,
      "concept_agriculturalproduct_liv": 2753,
      "perty": 2754,
      "concept_county": 2755,
      "estock": 2756,
      "concept_year_n195": 2757,
      "ovement": 2758,
      "game_b": 2759,
      "concept_stateorprovince_massachusetts": 2760,
      "concept_dateliteral_n191": 2761,
      "_congress": 2762,
      "_pharm": 2763,
      "_science": 2764,
      "concept_agriculturalproduct_livestock": 2765,
      "_2": 2766,
      "gn": 2767,
      "alorganization": 2768,
      "stit": 2769,
      "leas": 2770,
      "_sund": 2771,
      "team": 2772,
      "production": 2773,
      "ode_": 2774,
      "concept_professionalorganization": 2775,
      "_train": 2776,
      "_port": 2777,
      "apan": 2778,
      "concept_company_los_angeles": 2779,
      "_ho": 2780,
      "concept_website_t": 2781,
      "_king": 2782,
      "concept_stateorprovince_arizona": 2783,
      "concept_fish_trout": 2784,
      "applic": 2785,
      "first_time": 2786,
      "concept_profession_medical": 2787,
      "concept_building_first_time": 2788,
      "_louisiana": 2789,
      "_term": 2790,
      "concept_county_san": 2791,
      "_famil": 2792,
      "concept_city_columbia": 2793,
      "_inc": 2794,
      "ee": 2795,
      "ita": 2796,
      "itts": 2797,
      "road": 2798,
      "ert": 2799,
      "ery": 2800,
      "proced": 2801,
      "e_g": 2802,
      "loy": 2803,
      "ure_": 2804,
      "concept_city_la": 2805,
      "concept_city_vegas": 2806,
      "concept_city_york": 2807,
      "concept_person_mccain": 2808,
      "concept_company_yahoo": 2809,
      "_fri": 2810,
      "concept_profession_teachers": 2811,
      "concept_politicianus_palin": 2812,
      "cial": 2813,
      "concept_sportsteam_new_york": 2814,
      "_kenn": 2815,
      "ots": 2816,
      "_lux": 2817,
      "concept_room_house": 2818,
      "arthropods": 2819,
      "e_microsoft": 2820,
      "_staff": 2821,
      "concept_scientificterm_bayes": 2822,
      "concept_house": 2823,
      "auce": 2824,
      "_robert": 2825,
      "_thomas": 2826,
      "_white": 2827,
      "concept_insect_beetles": 2828,
      "concept_profession_members": 2829,
      "concept_building_vegas": 2830,
      "concept_terroristorganization_state": 2831,
      "concept_protein_": 2832,
      "concept_year_n186": 2833,
      "_region": 2834,
      "organic": 2835,
      "holditem": 2836,
      "concept_mammal_horses": 2837,
      "concept_householditem": 2838,
      "dale": 2839,
      "wh": 2840,
      "yprom": 2841,
      "concept_ever": 2842,
      "icster": 2843,
      "_nev": 2844,
      "edthing": 2845,
      "_bur": 2846,
      "_mor": 2847,
      "vid_": 2848,
      "ellow": 2849,
      "_dr": 2850,
      "idaho": 2851,
      "umans": 2852,
      "ship": 2853,
      "otedthing": 2854,
      "overnor": 2855,
      "concept_university_m": 2856,
      "concept_chemical_substances": 2857,
      "concept_athlete_m": 2858,
      "concept_televisionstation_wk": 2859,
      "concept_physicster": 2860,
      "ampshire": 2861,
      "concept_academicfield_engineering": 2862,
      "concept_musicsong_night": 2863,
      "_commission": 2864,
      "attan": 2865,
      "concept_vertebrate_herds": 2866,
      "west_virginia": 2867,
      "_class": 2868,
      "_comput": 2869,
      "concept_mammal_rats": 2870,
      "_suite_bathroom": 2871,
      "concept_stateorprovince_south_carolina": 2872,
      "ypromotedthing": 2873,
      "concept_everypromotedthing": 2874,
      "concept_physicsterm": 2875,
      "_vi": 2876,
      "idate": 2877,
      "lig": 2878,
      "men": 2879,
      "nic": 2880,
      "pul": 2881,
      "table": 2882,
      "world": 2883,
      "yr": 2884,
      "ician": 2885,
      "inte": 2886,
      "arn": 2887,
      "_nat": 2888,
      "concept_color": 2889,
      "lop": 2890,
      "concept_mollus": 2891,
      "_black": 2892,
      "utions": 2893,
      "concept_profession_doctors": 2894,
      "concept_person_p": 2895,
      "concept_mammal_g": 2896,
      "concept_mammal_wol": 2897,
      "idge": 2898,
      "ries": 2899,
      "lines": 2900,
      "concept_county_utah": 2901,
      "concept_officebuildingroom_larg": 2902,
      "concept_officebuildingroom_rooms": 2903,
      "concept_programminglanguage_s": 2904,
      "_point": 2905,
      "_oper": 2906,
      "concept_male_j": 2907,
      "concept_landscapefeatures_": 2908,
      "burgh": 2909,
      "_global": 2910,
      "_distribution": 2911,
      "concept_profession_faculty": 2912,
      "concept_mollusk": 2913,
      "ief": 2914,
      "japan": 2915,
      "_no": 2916,
      "chester": 2917,
      "concept_city_o": 2918,
      "_soci": 2919,
      "spinal": 2920,
      "concept_book_m": 2921,
      "concept_website_th": 2922,
      "concept_website_yahoo": 2923,
      "concept_politicianus_d": 2924,
      "concept_stateorprovince_alabama": 2925,
      "issues": 2926,
      "_david_": 2927,
      "_international": 2928,
      "_committe": 2929,
      "concept_dateliteral_n1943": 2930,
      "_tubs": 2931,
      "louisiana": 2932,
      "operations": 2933,
      "_africa": 2934,
      "concept_geometricshape_triangle": 2935,
      "_candidate": 2936,
      "yota": 2937,
      "concept_eth": 2938,
      "are": 2939,
      "unk": 2940,
      "unction": 2941,
      "concept_city_el": 2942,
      "edic": 2943,
      "_bul": 2944,
      "_bank": 2945,
      "erald": 2946,
      "duck": 2947,
      "vineg": 2948,
      "the_new": 2949,
      "concept_person_l": 2950,
      "ident": 2951,
      "concept_chemical_c": 2952,
      "_hair": 2953,
      "_hampshire": 2954,
      "concept_animal_small": 2955,
      "resent": 2956,
      "concept_country_ger": 2957,
      "concept_journalist_john": 2958,
      "ymp": 2959,
      "concept_academicfield_business": 2960,
      "concept_televisionstation_wh": 2961,
      "concept_train": 2962,
      "concept_museum_p": 2963,
      "alley": 2964,
      "concept_insect_mites": 2965,
      "concept_sportsleague_": 2966,
      "_canada": 2967,
      "_and_": 2968,
      "_weeks": 2969,
      "concept_animal_humans": 2970,
      "_elect": 2971,
      "_orleans": 2972,
      "concept_profession_physicians": 2973,
      "concept_country_france": 2974,
      "_gaussian": 2975,
      "nicgroup": 2976,
      "concept_ethnicgroup": 2977,
      "vinegar": 2978,
      "concept_country_germany": 2979,
      "concept_trainstation": 2980,
      "concept_country_france_france": 2981,
      "cr": 2982,
      "cats": 2983,
      "clus": 2984,
      "movement": 2985,
      "ners": 2986,
      "pl": 2987,
      "russ": 2988,
      "anag": 2989,
      "aron": 2990,
      "china": 2991,
      "ures": 2992,
      "artis": 2993,
      "lease": 2994,
      "edy": 2995,
      "_ber": 2996,
      "concept_stateorprovince_w": 2997,
      "concept_person_president": 2998,
      "_public": 2999,
      "ria": 3000,
      "concept_room_bath": 3001,
      "concept_officebuildingroom_private": 3002,
      "concept_biotechcompany_p": 3003,
      "concept_athlete_p": 3004,
      "concept_city_cl": 3005,
      "_coast": 3006,
      "ologists": 3007,
      "lyn": 3008,
      "orne": 3009,
      "_couns": 3010,
      "concept_mlalgorithm": 3011,
      "_springs": 3012,
      "uffalo": 3013,
      "concept_visualartmovement": 3014,
      "_and": 3015,
      "_engineering": 3016,
      "eo": 3017,
      "concept_table": 3018,
      "erg": 3019,
      "sters": 3020,
      "ili": 3021,
      "_sa": 3022,
      "_hus": 3023,
      "concept_animal_carn": 3024,
      "concept_politicianus_barack": 3025,
      "owl": 3026,
      "concept_insect_flies": 3027,
      "lick": 3028,
      "concept_stateorprovince_oklahoma": 3029,
      "concept_room_kitchen": 3030,
      "concept_beverage_arizona": 3031,
      "e_mer": 3032,
      "_rh": 3033,
      "_ret": 3034,
      "season": 3035,
      "concept_programminglanguage_c": 3036,
      "_eagles": 3037,
      "ature": 3038,
      "concept_year_n1985": 3039,
      "_los_angeles": 3040,
      "concept_museum_facilities": 3041,
      "elect": 3042,
      "keys": 3043,
      "concept_bathroomitem_batht": 3044,
      "enefici": 3045,
      "_sarah": 3046,
      "game_board": 3047,
      "concept_animal_small_mammals": 3048,
      "concept_tableitem": 3049,
      "concept_animal_carnivores": 3050,
      "01": 3051,
      "awa": 3052,
      "clinton": 3053,
      "ie_": 3054,
      "len": 3055,
      "wit": 3056,
      "ica": 3057,
      "concept_city_arm": 3058,
      "space": 3059,
      "concept_mammal_s": 3060,
      "concept_company_h": 3061,
      "aches": 3062,
      "concept_visualizablething_water": 3063,
      "concept_visualizablething_triangle": 3064,
      "concept_chemical_partic": 3065,
      "concept_vegetable_c": 3066,
      "eav": 3067,
      "eastern": 3068,
      "concept_relig": 3069,
      "concept_bathroomitem_separate": 3070,
      "concept_officebuildingroom_spacious": 3071,
      "concept_year_n191": 3072,
      "concept_jobposition_d": 3073,
      "concept_river_columbia": 3074,
      "concept_male_s": 3075,
      "_main": 3076,
      "amaz": 3077,
      "concept_blog_": 3078,
      "concept_insect_benefici": 3079,
      "concept_female_h": 3080,
      "concept_arthropod_arthropods": 3081,
      "effect": 3082,
      "_administration": 3083,
      "_spider": 3084,
      "polis": 3085,
      "concept_politicianus_gore": 3086,
      "concept_beverage_milk": 3087,
      "immun": 3088,
      "las_vegas": 3089,
      "assistant": 3090,
      "_federal": 3091,
      "concept_mammal_lions": 3092,
      "_sarah_palin": 3093,
      "concept_religion": 3094,
      "concept_insect_beneficial_insects": 3095,
      "hattan": 3096,
      "jor": 3097,
      "liam": 3098,
      "uel": 3099,
      "ario": 3100,
      "_network": 3101,
      "emoc": 3102,
      "usiness": 3103,
      "sup": 3104,
      "concept_city_sh": 3105,
      "eden": 3106,
      "_blu": 3107,
      "_may": 3108,
      "iants": 3109,
      "ables": 3110,
      "concept_person_b": 3111,
      "_pla": 3112,
      "_gran": 3113,
      "concept_chemical_ch": 3114,
      "_hall": 3115,
      "concept_animal_f": 3116,
      "_ju": 3117,
      "concept_agriculturalproduct_sp": 3118,
      "concept_journalist_k": 3119,
      "concept_bathroomitem_tubs": 3120,
      "concept_biotechcompany_g": 3121,
      "paris": 3122,
      "concept_academicfield_b": 3123,
      "_season": 3124,
      "_conference": 3125,
      "concept_island_operations": 3126,
      "_prob": 3127,
      "concept_reptile_pets": 3128,
      "_plants": 3129,
      "visit": 3130,
      "_diego": 3131,
      "concept_scientificterm_bayesian": 3132,
      "_nevada": 3133,
      "concept_museum_pbs": 3134,
      "liament": 3135,
      "awar": 3136,
      "b_tv": 3137,
      "ization": 3138,
      "oz": 3139,
      "ole": 3140,
      "itor": 3141,
      "arl": 3142,
      "arium": 3143,
      "e_river": 3144,
      "article": 3145,
      "concept_date_community": 3146,
      "point": 3147,
      "_new_mexico": 3148,
      "report": 3149,
      "olymp": 3150,
      "concept_profession_care_professionals": 3151,
      "urnament": 3152,
      "resh": 3153,
      "quarium": 3154,
      "aterial": 3155,
      "_au": 3156,
      "concept_musicalbum_power": 3157,
      "illy": 3158,
      "concept_county_chicago": 3159,
      "concept_county_las_vegas": 3160,
      "general": 3161,
      "concept_aquarium": 3162,
      "arden": 3163,
      "_stadium": 3164,
      "concept_year_n194": 3165,
      "concept_musicartist_": 3166,
      "concept_physicalaction_pro": 3167,
      "berts": 3168,
      "concept_politicsissue_public": 3169,
      "_rod": 3170,
      "_john_mccain": 3171,
      "_force": 3172,
      "concept_company_missouri": 3173,
      "_nursing": 3174,
      "elections": 3175,
      "awks": 3176,
      "ouston": 3177,
      "_goats": 3178,
      "concept_fish_bass": 3179,
      "concept_mediatyp": 3180,
      "concept_city_army": 3181,
      "_rich": 3182,
      "ba": 3183,
      "econom": 3184,
      "fin": 3185,
      "well": 3186,
      "xim": 3187,
      "yc": 3188,
      "atch": 3189,
      "atter": 3190,
      "inter": 3191,
      "oming": 3192,
      "_n201": 3193,
      "concept_medical": 3194,
      "iles": 3195,
      "fizer": 3196,
      "concept_stateorprovince_tennessee": 3197,
      "_tod": 3198,
      "_w__bush": 3199,
      "university": 3200,
      "concept_country_south": 3201,
      "concept_agriculturalproduct_m": 3202,
      "raf": 3203,
      "raz": 3204,
      "concept_newspaper_": 3205,
      "ymph": 3206,
      "indivi": 3207,
      "_rob": 3208,
      "e_wh": 3209,
      "concept_year_n1984": 3210,
      "ontana": 3211,
      "concept_bodypart_cells": 3212,
      "concept_chemical_materials": 3213,
      "concept_person_jesus": 3214,
      "_param": 3215,
      "doors": 3216,
      "concept_boardgame_": 3217,
      "concept_braintissue_body": 3218,
      "iology": 3219,
      "concept_profession_psych": 3220,
      "_design": 3221,
      "_management": 3222,
      "sultants": 3223,
      "ittsburgh": 3224,
      "_luxur": 3225,
      "concept_medicalproced": 3226,
      "individu": 3227,
      "concept_bodypart_cells001": 3228,
      "ior": 3229,
      "atives": 3230,
      "che": 3231,
      "urant": 3232,
      "edia": 3233,
      "oog": 3234,
      "_brit": 3235,
      "ises": 3236,
      "utt": 3237,
      "rels": 3238,
      "jobs": 3239,
      "olph": 3240,
      "acco": 3241,
      "concept_person_d": 3242,
      "concept_animal_large_": 3243,
      "concept_website_d": 3244,
      "concept_journalist_jo": 3245,
      "_lad": 3246,
      "graph": 3247,
      "race": 3248,
      "eville": 3249,
      "_aaron": 3250,
      "_stan": 3251,
      "ops": 3252,
      "_pot": 3253,
      "eleph": 3254,
      "attle": 3255,
      "concept_bodypart_immun": 3256,
      "avy": 3257,
      "_toyota": 3258,
      "_last": 3259,
      "_linear": 3260,
      "atlant": 3261,
      "atlanta": 3262,
      "concept_disease_": 3263,
      "_priority": 3264,
      "concept_insect_mosquito": 3265,
      "concept_wine_blend": 3266,
      "leveland": 3267,
      "russia": 3268,
      "awaii": 3269,
      "concept_agriculturalproduct_spices": 3270,
      "individuals": 3271,
      "concept_bodypart_immune_system": 3272,
      "_ver": 3273,
      "ban": 3274,
      "ilet": 3275,
      "life": 3276,
      "oth": 3277,
      "property": 3278,
      "y_g": 3279,
      "e_f": 3280,
      "entric": 3281,
      "pect": 3282,
      "concept_city_le": 3283,
      "ingred": 3284,
      "_cap": 3285,
      "iance": 3286,
      "ultiv": 3287,
      "acc": 3288,
      "acid": 3289,
      "_pan": 3290,
      "concept_mammal_co": 3291,
      "concept_chemical_b": 3292,
      "concept_company_g": 3293,
      "_high": 3294,
      "petro": 3295,
      "concept_profession_ad": 3296,
      "concept_website_g": 3297,
      "concept_website_tr": 3298,
      "concept_politicianus_hillary_": 3299,
      "concept_insect_h": 3300,
      "resp": 3301,
      "concept_country_t": 3302,
      "concept_stateorprovince_louisiana": 3303,
      "links": 3304,
      "quest": 3305,
      "concept_mammal_ch": 3306,
      "concept_visualizablething_t": 3307,
      "_lim": 3308,
      "_lions": 3309,
      "concept_room_s": 3310,
      "allen": 3311,
      "concept_jobposition_nursing": 3312,
      "flu": 3313,
      "concept_river_m": 3314,
      "concept_date_n193": 3315,
      "concept_chemical_carbon_dioxide": 3316,
      "concept_food_f": 3317,
      "concept_chemical_mon": 3318,
      "inister": 3319,
      "concept_personeurop": 3320,
      "_council": 3321,
      "concept_hosp": 3322,
      "concept_date_n1979": 3323,
      "_communic": 3324,
      "concept_magazin": 3325,
      "concept_boardgame_board": 3326,
      "concept_mammal_wolves": 3327,
      "ingredients": 3328,
      "aq": 3329,
      "book": 3330,
      "don": 3331,
      "ply": 3332,
      "ve_": 3333,
      "yoming": 3334,
      "cere": 3335,
      "ption": 3336,
      "concept_research": 3337,
      "anu": 3338,
      "ante": 3339,
      "ination": 3340,
      "sum": 3341,
      "ilm": 3342,
      "_cord": 3343,
      "dust": 3344,
      "abe": 3345,
      "olution": 3346,
      "_wid": 3347,
      "_way": 3348,
      "concept_mammal_fox": 3349,
      "_gam": 3350,
      "concept_chemical_green": 3351,
      "organs": 3352,
      "_foun": 3353,
      "concept_sportsteamposition": 3354,
      "_jack": 3355,
      "concept_country_mexico": 3356,
      "concept_chemical_organic": 3357,
      "concept_county_los_angeles": 3358,
      "concept_county_philadelphia": 3359,
      "concept_biotechcompany_m": 3360,
      "assemb": 3361,
      "_stand": 3362,
      "staurant": 3363,
      "concept_buildingfeature_doors": 3364,
      "vens": 3365,
      "concept_city_sw": 3366,
      "concept_governmentorganization_fire": 3367,
      "onto": 3368,
      "_whales": 3369,
      "technicians": 3370,
      "concept_politicianus_president_bush": 3371,
      "ariate": 3372,
      "cert": 3373,
      "concept_person_john003": 3374,
      "concept_bathroomitem_bathtub": 3375,
      "concept_medicalprocedure_": 3376,
      "ultivariate": 3377,
      "concept_researchproject": 3378,
      "concept_county_los_angeles_county": 3379,
      "assembly": 3380,
      "_years": 3381,
      "bia": 3382,
      "iuli": 3383,
      "ze": 3384,
      "ony": 3385,
      "rot": 3386,
      "orado": 3387,
      "anch": 3388,
      "intern": 3389,
      "_nic": 3390,
      "agan": 3391,
      "ersburg": 3392,
      "concept_city_sp": 3393,
      "concept_city_east": 3394,
      "_casino": 3395,
      "_satur": 3396,
      "_bas": 3397,
      "_back": 3398,
      "isl": 3399,
      "reast": 3400,
      "ola": 3401,
      "concept_mammal_k": 3402,
      "tract": 3403,
      "_giants": 3404,
      "concept_company_apple": 3405,
      "concept_sportsteam_s": 3406,
      "concept_agriculturalproduct_goats": 3407,
      "concept_insect_ants": 3408,
      "concept_biotechcompany_apple": 3409,
      "_review": 3410,
      "cos": 3411,
      "concept_book_america": 3412,
      "_oct": 3413,
      "_theat": 3414,
      "concept_dateliteral_n195": 3415,
      "_heart": 3416,
      "_wild": 3417,
      "engineers": 3418,
      "_scott": 3419,
      "_toilet": 3420,
      "ity_mail": 3421,
      "educators": 3422,
      "structors": 3423,
      "ildren": 3424,
      "_priority_mail": 3425,
      "concept_videogam": 3426,
      "concept_biotechcompany_nov": 3427,
      "_operation": 3428,
      "edicine": 3429,
      "concept_stateorprovince_wyoming": 3430,
      "_counsel": 3431,
      "iuliani": 3432,
      "_ol": 3433,
      "c_tv": 3434,
      "lish": 3435,
      "ute": 3436,
      "wer": 3437,
      "rocar": 3438,
      "erry_": 3439,
      "oronto": 3440,
      "poland": 3441,
      "unt": 3442,
      "unch": 3443,
      "concept_city_ph": 3444,
      "_city_": 3445,
      "_sk": 3446,
      "_birds": 3447,
      "ade": 3448,
      "dub": 3449,
      "elle": 3450,
      "olk": 3451,
      "_play": 3452,
      "_was": 3453,
      "concept_mammal_tigers": 3454,
      "concept_book_services": 3455,
      "lax": 3456,
      "_ham": 3457,
      "ments": 3458,
      "concept_country_poland": 3459,
      "ips": 3460,
      "concept_officebuildingroom_en": 3461,
      "ankees": 3462,
      "concept_televisionstation_wn": 3463,
      "concept_animal_pet": 3464,
      "concept_city_mont": 3465,
      "_doub": 3466,
      "_oil": 3467,
      "concept_sportsgam": 3468,
      "quirrels": 3469,
      "concept_company_msn": 3470,
      "wards": 3471,
      "concept_chemical_metals": 3472,
      "concept_nongovorganization_u_s_": 3473,
      "concept_mlarea": 3474,
      "concept_profession_clin": 3475,
      "_mike_": 3476,
      "employ": 3477,
      "_motor": 3478,
      "concept_artery_blood_vessels": 3479,
      "_court": 3480,
      "_global_priority": 3481,
      "emocrat": 3482,
      "atlantic": 3483,
      "rocarbon": 3484,
      "_att": 3485,
      "cre": 3486,
      "cury": 3487,
      "kins": 3488,
      "key": 3489,
      "tle_": 3490,
      "vent": 3491,
      "oney": 3492,
      "conference": 3493,
      "orang": 3494,
      "inf": 3495,
      "ages": 3496,
      "loom": 3497,
      "lour": 3498,
      "char": 3499,
      "ister": 3500,
      "profit": 3501,
      "_ses": 3502,
      "oods": 3503,
      "_minnesota": 3504,
      "ise": 3505,
      "_dh": 3506,
      "ector": 3507,
      "concept_company_express": 3508,
      "_herald": 3509,
      "concept_profession_law": 3510,
      "activ": 3511,
      "concept_country_canada": 3512,
      "concept_nut": 3513,
      "concept_visualizablething_s": 3514,
      "concept_room_master": 3515,
      "concept_vegetable_pot": 3516,
      "concept_personmexico_": 3517,
      "_rand": 3518,
      "_star": 3519,
      "concept_company_north_carolina": 3520,
      "_val": 3521,
      "concept_geometricshape_property": 3522,
      "concept_personus_j": 3523,
      "_areas": 3524,
      "concept_blog_m": 3525,
      "concept_eventoutcome_b": 3526,
      "concept_year_n1983": 3527,
      "concept_politicsbill": 3528,
      "_level": 3529,
      "concept_animal_birds003": 3530,
      "_florida": 3531,
      "concept_bird_duck": 3532,
      "concept_airport_europe": 3533,
      "concept_company_fox": 3534,
      "atrium": 3535,
      "tournament": 3536,
      "concept_profession_instructors": 3537,
      "_falls": 3538,
      "_trees": 3539,
      "concept_profession_consultants": 3540,
      "ode_island": 3541,
      "concept_protein_ingredients": 3542,
      "entricle": 3543,
      "concept_city_sweden": 3544,
      "_wasps": 3545,
      "concept_country_canada_canada": 3546,
      "bor": 3547,
      "house_": 3548,
      "kys": 3549,
      "ua": 3550,
      "ugh": 3551,
      "ya": 3552,
      "alem": 3553,
      "al_water": 3554,
      "itect": 3555,
      "inea": 3556,
      "una": 3557,
      "concept_dateliteral_n201": 3558,
      "concept_stateorprovince_north": 3559,
      "concept_profession_di": 3560,
      "_wood": 3561,
      "_ger": 3562,
      "_hear": 3563,
      "_hills": 3564,
      "concept_sportsteam_ch": 3565,
      "concept_insect_g": 3566,
      "_kn": 3567,
      "concept_country_k": 3568,
      "concept_stateorprovince_arkansas": 3569,
      "concept_mammal_eleph": 3570,
      "illary": 3571,
      "concept_county_d": 3572,
      "concept_restaurant": 3573,
      "_deve": 3574,
      "open": 3575,
      "concept_personus_": 3576,
      "_ox": 3577,
      "concept_city_new_york": 3578,
      "ontario": 3579,
      "concept_invertebrate_b": 3580,
      "ails": 3581,
      "umbus": 3582,
      "atory_": 3583,
      "lower": 3584,
      "concept_software_microsoft": 3585,
      "_anton": 3586,
      "italy": 3587,
      "_delawar": 3588,
      "ive_oil": 3589,
      "concept_visualartist": 3590,
      "concept_athlete_j_p_": 3591,
      "concept_vegetable_onion": 3592,
      "_condition": 3593,
      "_supply": 3594,
      "concept_county_san_francisco": 3595,
      "_kennedy": 3596,
      "_committee": 3597,
      "support": 3598,
      "concept_dateliteral_n2010": 3599,
      "_tech": 3600,
      "ble_b": 3601,
      "dom": 3602,
      "har": 3603,
      "hio": 3604,
      "iro": 3605,
      "ote": 3606,
      "pa": 3607,
      "rys": 3608,
      "ue": 3609,
      "uation": 3610,
      "ce_president": 3611,
      "_net": 3612,
      "concept_bone_": 3613,
      "lee": 3614,
      "leaf": 3615,
      "xygen": 3616,
      "_clos": 3617,
      "oles": 3618,
      "_ticks": 3619,
      "_down": 3620,
      "_hom": 3621,
      "_four": 3622,
      "concept_profession_individuals": 3623,
      "concept_country_countries": 3624,
      "concept_skys": 3625,
      "concept_room_lo": 3626,
      "_jos": 3627,
      "wines": 3628,
      "concept_musicartist_t": 3629,
      "concept_retailstore_b": 3630,
      "_sugar": 3631,
      "concept_city_cap": 3632,
      "concept_male_world": 3633,
      "ireland": 3634,
      "attorne": 3635,
      "concept_hallwayitem_body": 3636,
      "concept_politicaloffice_assistant": 3637,
      "head": 3638,
      "architect": 3639,
      "concept_date_n1968": 3640,
      "concept_dateliteral_n1980": 3641,
      "concept_country_new": 3642,
      "concept_vegetable_onions": 3643,
      "concept_politicianus_bill_clinton": 3644,
      "times": 3645,
      "concept_book_release": 3646,
      "concept_politicianus_biden": 3647,
      "concept_profession_professions": 3648,
      "gnit": 3649,
      "_sunday": 3650,
      "spinal_cord": 3651,
      "craper": 3652,
      "_saturday": 3653,
      "rysler": 3654,
      "concept_skyscraper": 3655,
      "aven": 3656,
      "birds": 3657,
      "cc": 3658,
      "ga": 3659,
      "min": 3660,
      "concept_olymp": 3661,
      "rob": 3662,
      "rop": 3663,
      "anz": 3664,
      "ancial": 3665,
      "ini": 3666,
      "e_co": 3667,
      "urse": 3668,
      "concept_date_meeting": 3669,
      "pool": 3670,
      "istic": 3671,
      "concept_city_web": 3672,
      "oot": 3673,
      "_mart": 3674,
      "ream": 3675,
      "elt": 3676,
      "concept_stateorprovince_kansas": 3677,
      "_worms": 3678,
      "concept_chees": 3679,
      "idg": 3680,
      "concept_politicianus_j": 3681,
      "concept_politicianus_al": 3682,
      "concept_politicianus_kerry": 3683,
      "ression": 3684,
      "concept_country_b": 3685,
      "concept_country_italy": 3686,
      "concept_journalist_david": 3687,
      "concept_journalist_bob": 3688,
      "concept_bodypart_b": 3689,
      "_li": 3690,
      "anderson": 3691,
      "concept_artery_c": 3692,
      "concept_artery_s": 3693,
      "concept_county_paris": 3694,
      "concept_vegetable_gar": 3695,
      "concept_biotechcompany_mer": 3696,
      "concept_jobposition_p": 3697,
      "aud": 3698,
      "concept_televisionstation_kt": 3699,
      "ibm": 3700,
      "concept_automobilemaker_b": 3701,
      "concept_emotion_new": 3702,
      "_ohio": 3703,
      "epend": 3704,
      "concept_programminglanguage_state": 3705,
      "concept_celebrity_season": 3706,
      "_cancer": 3707,
      "concept_creditunion_north_carolina": 3708,
      "concept_product_m": 3709,
      "_herb": 3710,
      "concept_chemical_hydrocarbon": 3711,
      "mithk": 3712,
      "_market": 3713,
      "associate": 3714,
      "association": 3715,
      "agency": 3716,
      "_motors": 3717,
      "concept_politicsissue_m": 3718,
      "e_master": 3719,
      "_elections": 3720,
      "concept_biotechcompany_pfizer": 3721,
      "concept_bathroomitem_separate_shower": 3722,
      "concept_chemical_greenhouse_": 3723,
      "concept_city_spring": 3724,
      "concept_vegetable_garlic": 3725,
      "_one": 3726,
      "_island": 3727,
      "d_tv": 3728,
      "green": 3729,
      "lass": 3730,
      "oon": 3731,
      "pn": 3732,
      "yankees": 3733,
      "suit": 3734,
      "concept_city_lak": 3735,
      "concept_city_pr": 3736,
      "concept_city_uk": 3737,
      "concept_city_team": 3738,
      "partners": 3739,
      "read": 3740,
      "rict": 3741,
      "ooks": 3742,
      "concept_profession_d": 3743,
      "etn": 3744,
      "ump": 3745,
      "concept_company_a": 3746,
      "concept_company_w": 3747,
      "_hond": 3748,
      "rio": 3749,
      "e_new_jersey": 3750,
      "concept_website_visit": 3751,
      "licy": 3752,
      "cast": 3753,
      "concept_journalist_b": 3754,
      "concept_weatherphenomenon_tennessee": 3755,
      "_a_": 3756,
      "_author": 3757,
      "concept_musicalbum_days": 3758,
      "actions": 3759,
      "concept_cognit": 3760,
      "concept_bathroomitem_": 3761,
      "concept_coach_": 3762,
      "concept_bedroomitem_new": 3763,
      "concept_scientificterm_": 3764,
      "concept_jobposition_phys": 3765,
      "_valley": 3766,
      "concept_musicartist_journal": 3767,
      "essel": 3768,
      "concept_vertebrate_page": 3769,
      "first_class": 3770,
      "_trans": 3771,
      "concept_personnorthamerica_minnesota": 3772,
      "concept_professor_body": 3773,
      "assistants": 3774,
      "concept_bridge_new_jersey": 3775,
      "_cabin": 3776,
      "_family_": 3777,
      "concept_company_yahoo001": 3778,
      "lopment": 3779,
      "concept_programminglanguage_services": 3780,
      "concept_officebuildingroom_private_bathroom": 3781,
      "concept_jobposition_dut": 3782,
      "amazon": 3783,
      "concept_female_hillary": 3784,
      "olphins": 3785,
      "concept_website_trip": 3786,
      "concept_hospital": 3787,
      "concept_invertebrate_bees": 3788,
      "_antonio": 3789,
      "concept_cognitive": 3790,
      "ez": 3791,
      "gree": 3792,
      "ly_": 3793,
      "lymph": 3794,
      "cell": 3795,
      "stown": 3796,
      "e_j": 3797,
      "lection": 3798,
      "concept_city_y": 3799,
      "concept_city_area": 3800,
      "concept_city_fort": 3801,
      "ilver": 3802,
      "_cats": 3803,
      "_service": 3804,
      "add": 3805,
      "athan": 3806,
      "_gore": 3807,
      "irl": 3808,
      "concept_profession_engineers": 3809,
      "concept_profession_educators": 3810,
      "stein": 3811,
      "exot": 3812,
      "eau": 3813,
      "concept_coach_p": 3814,
      "concept_officebuildingroom_luxur": 3815,
      "concept_biotechcompany_b": 3816,
      "_street": 3817,
      "parliament": 3818,
      "concept_televisionstation_wg": 3819,
      "concept_city_ber": 3820,
      "_prem": 3821,
      "concept_geometricshape_b": 3822,
      "_sept": 3823,
      "_arizona": 3824,
      "ross": 3825,
      "concept_animal_bea": 3826,
      "bury": 3827,
      "concept_politicianus_presidential": 3828,
      "concept_politicalparty_parliament": 3829,
      "concept_visualizablething_bathrooms": 3830,
      "concept_company_clinton": 3831,
      "acebook": 3832,
      "concept_city_fair": 3833,
      "ham_clinton": 3834,
      "concept_female_yankees": 3835,
      "_grand": 3836,
      "_brian": 3837,
      "concept_city_jackson": 3838,
      "_salmon": 3839,
      "_ronal": 3840,
      "concept_website_facebook": 3841,
      "concept_governmentorganization_navy": 3842,
      "concept_fish_sharks": 3843,
      "concept_nerve_nervous_system": 3844,
      "concept_website_tour": 3845,
      "oogle_": 3846,
      "concept_visualizablething_tree": 3847,
      "concept_chemical_monoxide": 3848,
      "_1": 3849,
      "_pet": 3850,
      "_america": 3851,
      "_field": 3852,
      "hi": 3853,
      "ho": 3854,
      "yal": 3855,
      "ceans": 3856,
      "ite_": 3857,
      "rodu": 3858,
      "_nex": 3859,
      "ends": 3860,
      "eman": 3861,
      "ista": 3862,
      "left": 3863,
      "ews": 3864,
      "ing_water": 3865,
      "_sam": 3866,
      "_mur": 3867,
      "abra": 3868,
      "real": 3869,
      "acr": 3870,
      "acific": 3871,
      "_ton": 3872,
      "_top": 3873,
      "_wed": 3874,
      "_wall": 3875,
      "iders": 3876,
      "irement": 3877,
      "concept_animal_mar": 3878,
      "concept_sportsteam_red": 3879,
      "_jac": 3880,
      "_jackson": 3881,
      "oto": 3882,
      "concept_mammal_ante": 3883,
      "eva": 3884,
      "concept_chemical_ox": 3885,
      "concept_officebuildingroom_master": 3886,
      "introdu": 3887,
      "concept_politicaloffice_wisconsin": 3888,
      "concept_company_prior": 3889,
      "concept_stateorprovince_mississippi": 3890,
      "_arena": 3891,
      "_opt": 3892,
      "concept_city_north": 3893,
      "ldogs": 3894,
      "concept_year_n1982": 3895,
      "rimates": 3896,
      "concept_food_c": 3897,
      "_sciences": 3898,
      "_leg": 3899,
      "_marin": 3900,
      "ryer": 3901,
      "concept_chemical_meth": 3902,
      "concept_beverage_juices": 3903,
      "arm_animals": 3904,
      "_southern": 3905,
      "annual": 3906,
      "_guinea": 3907,
      "concept_perceptionaction_ret": 3908,
      "ugabe": 3909,
      "concept_creditunion_kansas": 3910,
      "concept_politicianus_john_mccain": 3911,
      "concept_city_new_orleans": 3912,
      "_tomatoes": 3913,
      "concept_politicianus_sen_": 3914,
      "legum": 3915,
      "le_bed": 3916,
      "altimor": 3917,
      "_pharmac": 3918,
      "concept_university_microsoft": 3919,
      "_los_angeles_times": 3920,
      "concept_chemical_chlor": 3921,
      "_today": 3922,
      "_widow": 3923,
      "concept_eventoutcome_business": 3924,
      "concept_mammal_elephants": 3925,
      "_development": 3926,
      "ble_bathroom": 3927,
      "concept_biotechcompany_merck": 3928,
      "etnam": 3929,
      "concept_company_priority": 3930,
      "concept_perceptionaction_retirement": 3931,
      "_emissions": 3932,
      "cot": 3933,
      "iod": 3934,
      "rh": 3935,
      "t_tv": 3936,
      "vo": 3937,
      "worms": 3938,
      "concept_par": 3939,
      "ano": 3940,
      "esday": 3941,
      "amin": 3942,
      "leum": 3943,
      "ask": 3944,
      "_sauce": 3945,
      "_metal": 3946,
      "_tissue": 3947,
      "_prey": 3948,
      "eter": 3949,
      "eties": 3950,
      "_gul": 3951,
      "ival": 3952,
      "concept_company_t": 3953,
      "phy": 3954,
      "stephen": 3955,
      "concept_website_chicago": 3956,
      "veins": 3957,
      "concept_politicianus_george_w": 3958,
      "concept_sportsteam_c": 3959,
      "concept_insect_lad": 3960,
      "_ke": 3961,
      "resour": 3962,
      "concept_nonn": 3963,
      "concept_journalist_dan": 3964,
      "iger": 3965,
      "_liver": 3966,
      "_life": 3967,
      "concept_room_private": 3968,
      "_chief": 3969,
      "concept_musicalbum_st": 3970,
      "concept_vegetable_vinegar": 3971,
      "_jose": 3972,
      "concept_river_y": 3973,
      "_vol": 3974,
      "ports": 3975,
      "eginte": 3976,
      "osmithk": 3977,
      "_colorado": 3978,
      "ickens": 3979,
      "coln": 3980,
      "aily": 3981,
      "concept_female_m": 3982,
      "_master_suite": 3983,
      "concept_physicalaction_position": 3984,
      "concept_city_green": 3985,
      "_paras": 3986,
      "illiams": 3987,
      "concept_person_mugabe": 3988,
      "concept_year_n1978": 3989,
      "count": 3990,
      "concept_date_n1969": 3991,
      "_larry_": 3992,
      "concept_sociopolitical_war": 3993,
      "_studio": 3994,
      "_bears": 3995,
      "concept_mammal_squirrels": 3996,
      "eavy_m": 3997,
      "_problem": 3998,
      "petroleum": 3999,
      "concept_biotechcompany_novartis": 4000,
      "_counselors": 4001,
      "laxosmithk": 4002,
      "_attack": 4003,
      "concept_profession_lawyers": 4004,
      "concept_jobposition_physician": 4005,
      "concept_animal_beasts": 4006,
      "concept_animal_marine_": 4007,
      "concept_parlour": 4008,
      "concept_nonneginte": 4009,
      "laxosmithkline": 4010,
      "concept_nonneginteger": 4011,
      "_te": 4012,
      "bank": 4013,
      "dation": 4014,
      "ience": 4015,
      "pal": 4016,
      "place": 4017,
      "present": 4018,
      "rists": 4019,
      "yl": 4020,
      "onprofit": 4021,
      "oria": 4022,
      "orea": 4023,
      "invest": 4024,
      "concept_cand": 4025,
      "y_s": 4026,
      "enton": 4027,
      "urch": 4028,
      "usk": 4029,
      "unic": 4030,
      "istan": 4031,
      "concept_city_co": 4032,
      "_mer": 4033,
      "abs": 4034,
      "ular": 4035,
      "inson": 4036,
      "concept_person_h": 4037,
      "_prad": 4038,
      "_dod": 4039,
      "appe": 4040,
      "concept_book_st": 4041,
      "umin": 4042,
      "concept_company_japan": 4043,
      "owls": 4044,
      "cision": 4045,
      "concept_nonprofit": 4046,
      "concept_stateorprovince_iowa": 4047,
      "raw": 4048,
      "_apartment": 4049,
      "concept_artery_pul": 4050,
      "concept_musicalbum_fam": 4051,
      "concept_county_col": 4052,
      "_job": 4053,
      "pract": 4054,
      "_van": 4055,
      "concept_drug_c": 4056,
      "concept_bank_priority_mail": 4057,
      "_doug": 4058,
      "concept_automobilemaker_toyota": 4059,
      "upstairs": 4060,
      "concept_governmentorganization_program": 4061,
      "_philip": 4062,
      "_western": 4063,
      "firm": 4064,
      "concept_visualizablething_residence": 4065,
      "concept_arthropod_prey": 4066,
      "concept_nongovorganization_council": 4067,
      "concept_perceptionaction_hear": 4068,
      "_living_room": 4069,
      "concept_year_n1975": 4070,
      "struct": 4071,
      "_zeal": 4072,
      "concept_director_committee": 4073,
      "_midwest": 4074,
      "inking_water": 4075,
      "concept_mammal_domestic_animals": 4076,
      "_golden": 4077,
      "concept_musicfestival_": 4078,
      "application": 4079,
      "cluse": 4080,
      "concept_politicianus_hillary_clinton": 4081,
      "concept_vegetable_potatoes": 4082,
      "concept_county_detroit": 4083,
      "concept_company_aol": 4084,
      "_honda": 4085,
      "_pradesh": 4086,
      "concept_nonprofitorganization": 4087,
      "_zealand": 4088,
      "_qu": 4089,
      "_pests": 4090,
      "eh": 4091,
      "lb": 4092,
      "lington": 4093,
      "mw": 4094,
      "material": 4095,
      "ns": 4096,
      "sw": 4097,
      "vari": 4098,
      "al_m": 4099,
      "star": 4100,
      "enver": 4101,
      "ency": 4102,
      "oma": 4103,
      "e_state": 4104,
      "agon": 4105,
      "pean": 4106,
      "concept_city_ro": 4107,
      "edg": 4108,
      "inger": 4109,
      "_new_": 4110,
      "_brook": 4111,
      "_mem": 4112,
      "ula": 4113,
      "elk": 4114,
      "concept_stateorprovince_kentucky": 4115,
      "acle": 4116,
      "account": 4117,
      "_hot": 4118,
      "_human": 4119,
      "concept_animal_herb": 4120,
      "uburn": 4121,
      "concept_website_p": 4122,
      "concept_website_south": 4123,
      "concept_politicianus_n": 4124,
      "concept_politicianus_l": 4125,
      "cies": 4126,
      "concept_sportsteam_t": 4127,
      "concept_sportsteam_d": 4128,
      "concept_insect_wasps": 4129,
      "_jeff": 4130,
      "dson": 4131,
      "concept_stateorprovince_idaho": 4132,
      "obile": 4133,
      "ayette": 4134,
      "e_bank": 4135,
      "e_san": 4136,
      "concept_newspaper_th": 4137,
      "illar": 4138,
      "concept_county_man": 4139,
      "concept_county_york": 4140,
      "lett": 4141,
      "ardian": 4142,
      "concept_televisionstation_wt": 4143,
      "sec": 4144,
      "concept_geometricshape_effect": 4145,
      "berman": 4146,
      "_doc": 4147,
      "_doctor": 4148,
      "_johnson": 4149,
      "concept_automobilemaker_": 4150,
      "_arm": 4151,
      "_george_h": 4152,
      "concept_vehicle_countries": 4153,
      "juice": 4154,
      "units": 4155,
      "concept_island_post": 4156,
      "concept_hallwayitem_air": 4157,
      "eetings": 4158,
      "apple_": 4159,
      "concept_politicianus_president_george_w__bush": 4160,
      "e_tim": 4161,
      "concept_mammal_cows": 4162,
      "concept_musicgenre_pro": 4163,
      "ussels": 4164,
      "_senate": 4165,
      "concept_drug_acid": 4166,
      "concept_mlconference": 4167,
      "concept_mammal_small_pets": 4168,
      "concept_profession_craf": 4169,
      "concept_mammal_primates": 4170,
      "concept_year_n1965": 4171,
      "amento": 4172,
      "_charles": 4173,
      "_franklin": 4174,
      "_snails": 4175,
      "utterflies": 4176,
      "_morris": 4177,
      "concept_visualizablething_water_supply": 4178,
      "accoons": 4179,
      "fluid": 4180,
      "_session": 4181,
      "concept_stateorprovince_north_dakota": 4182,
      "attorneys": 4183,
      "concept_country_new_zealand": 4184,
      "concept_coach_p_j_": 4185,
      "acramento": 4186,
      "concept_profession_crafts": 4187,
      "_is": 4188,
      "_rom": 4189,
      "cs": 4190,
      "earth": 4191,
      "eagles": 4192,
      "opar": 4193,
      "vers": 4194,
      "wis": 4195,
      "cem": 4196,
      "erman": 4197,
      "ince": 4198,
      "ineral": 4199,
      "inception": 4200,
      "ofa": 4201,
      "unks": 4202,
      "concept_city_po": 4203,
      "concept_city_re": 4204,
      "concept_city_gr": 4205,
      "concept_city_au": 4206,
      "concept_city_article": 4207,
      "edman": 4208,
      "ils": 4209,
      "illa": 4210,
      "_beg": 4211,
      "_m_": 4212,
      "_matter": 4213,
      "vietnam": 4214,
      "_don": 4215,
      "concept_mammal_mon": 4216,
      "_feb": 4217,
      "phone": 4218,
      "d_j": 4219,
      "concept_profession_jobs": 4220,
      "concept_profession_technicians": 4221,
      "concept_sportsteam_w": 4222,
      "otes": 4223,
      "concept_bodypart_nerv": 4224,
      "_long": 4225,
      "anda": 4226,
      "concept_buildingmaterial": 4227,
      "_chen": 4228,
      "concept_governmentorganization_commission": 4229,
      "evening": 4230,
      "illas": 4231,
      "concept_insect_aph": 4232,
      "akes": 4233,
      "concept_beverage_c": 4234,
      "concept_officebuildingroom_guest": 4235,
      "incinn": 4236,
      "concept_biotechcompany_l": 4237,
      "e_mammals": 4238,
      "concept_scientificterm_linear": 4239,
      "concept_academicfield_p": 4240,
      "concept_city_bar": 4241,
      "geons": 4242,
      "arket": 4243,
      "concept_musicsong_s": 4244,
      "concept_book_inception": 4245,
      "ours": 4246,
      "e_washington": 4247,
      "_heights": 4248,
      "_march": 4249,
      "_marble_bathroom": 4250,
      "_commer": 4251,
      "concept_bank_express": 4252,
      "concept_bird_water": 4253,
      "aves": 4254,
      "concept_city_nor": 4255,
      "ility": 4256,
      "_palm": 4257,
      "_months": 4258,
      "ixon": 4259,
      "ridge": 4260,
      "concept_date_n1977": 4261,
      "concept_wine_ch": 4262,
      "concept_visualizableattribute_d": 4263,
      "ustom": 4264,
      "_variational": 4265,
      "concept_city_alaska": 4266,
      "economics": 4267,
      "concept_mammal_foxes": 4268,
      "concept_profession_clinicians": 4269,
      "emocratic": 4270,
      "concept_chemical_hydrocarbons": 4271,
      "concept_city_springfield": 4272,
      "concept_chemical_chlorine": 4273,
      "concept_website_chicago_tribune": 4274,
      "concept_book_stay": 4275,
      "concept_county_columbus": 4276,
      "concept_animal_herbivores": 4277,
      "concept_insect_aphids": 4278,
      "incinnati": 4279,
      "concept_bank_express_mail": 4280,
      "_lan": 4281,
      "_assembly": 4282,
      "bab": 4283,
      "lad": 4284,
      "lies": 4285,
      "nel": 4286,
      "ram": 4287,
      "rinking_water": 4288,
      "uver": 4289,
      "yspace": 4290,
      "atom": 4291,
      "roc": 4292,
      "orland": 4293,
      "enix": 4294,
      "age_": 4295,
      "lope": 4296,
      "forman": 4297,
      "anies": 4298,
      "istol": 4299,
      "lex": 4300,
      "_cam": 4301,
      "_sw": 4302,
      "_new_hampshire": 4303,
      "_bir": 4304,
      "isra": 4305,
      "rest": 4306,
      "personnel": 4307,
      "concept_person_c": 4308,
      "_pl": 4309,
      "_drug": 4310,
      "_dire": 4311,
      "ety": 4312,
      "contin": 4313,
      "concept_profession_therapists": 4314,
      "concept_sportsteam_h": 4315,
      "concept_sportsteam_florida": 4316,
      "concept_insect_ticks": 4317,
      "concept_country_br": 4318,
      "concept_country_isra": 4319,
      "concept_stateorprovince_west_virginia": 4320,
      "aterp": 4321,
      "e_books": 4322,
      "concept_room_south": 4323,
      "concept_cell": 4324,
      "concept_bathroomitem_toilet": 4325,
      "_r_": 4326,
      "indows": 4327,
      "concept_scientificterm_gaussian": 4328,
      "concept_jobposition_group": 4329,
      "concept_weapon_weeks": 4330,
      "concept_fish_t": 4331,
      "opening": 4332,
      "concept_city_sa": 4333,
      "concept_city_hawaii": 4334,
      "_pollutants": 4335,
      "residents": 4336,
      "concept_geometricshape_c": 4337,
      "concept_geometricshape_shape": 4338,
      "_dog": 4339,
      "_dogs": 4340,
      "concept_politicsissue_elections": 4341,
      "pecies": 4342,
      "concept_emotion_mississippi": 4343,
      "_oven": 4344,
      "_george_b": 4345,
      "video": 4346,
      "concept_governmentorganization_law": 4347,
      "_philadelphia": 4348,
      "concept_person_al": 4349,
      "concept_invertebrate_larvae": 4350,
      "concept_invertebrate_worms": 4351,
      "concept_musicgenre_h": 4352,
      "concept_sportsteam_texas": 4353,
      "concept_website_new_york_american": 4354,
      "concept_reptile_s": 4355,
      "concept_televisionshow_m": 4356,
      "concept_mammal_dog": 4357,
      "concept_plant_trees": 4358,
      "concept_eventoutcome_report": 4359,
      "ugars": 4360,
      "ronic": 4361,
      "concept_ceo_richard": 4362,
      "concept_year_n1974": 4363,
      "monary_": 4364,
      "concept_politicianus_giuliani": 4365,
      "concept_city_santa": 4366,
      "struction": 4367,
      "agencies": 4368,
      "_walter": 4369,
      "_spring": 4370,
      "concept_county_miami": 4371,
      "_howard": 4372,
      "anagement": 4373,
      "concept_biotechcompany_glaxosmithkline": 4374,
      "concept_year_n1946": 4375,
      "concept_mediatype_books": 4376,
      "concept_insect_mosquitoes": 4377,
      "_nichol": 4378,
      "concept_blog_myspace": 4379,
      "concept_automobilemaker_bmw": 4380,
      "concept_cognitiveactions": 4381,
      "exotic": 4382,
      "concept_profession_craftsmen": 4383,
      "concept_mammal_monkeys": 4384,
      "concept_country_israel": 4385,
      "concept_cellty": 4386,
      "_asia": 4387,
      "but": 4388,
      "ha": 4389,
      "ja": 4390,
      "larg": 4391,
      "oy": 4392,
      "oenix": 4393,
      "qual": 4394,
      "williams": 4395,
      "yotes": 4396,
      "onathan": 4397,
      "concept_legum": 4398,
      "alm": 4399,
      "iti": 4400,
      "rots": 4401,
      "stin": 4402,
      "ares": 4403,
      "amil": 4404,
      "concept_city_ex": 4405,
      "_big": 4406,
      "_bron": 4407,
      "administration": 4408,
      "_mir": 4409,
      "aby": 4410,
      "concept_stateorprovince_nebraska": 4411,
      "_pay": 4412,
      "_wast": 4413,
      "_d_": 4414,
      "etown": 4415,
      "ider": 4416,
      "_grad": 4417,
      "concept_company_k": 4418,
      "last": 4419,
      "_fred": 4420,
      "concept_website_s": 4421,
      "concept_website_per": 4422,
      "concept_website_information": 4423,
      "rud": 4424,
      "pert": 4425,
      "concept_journalist_bill": 4426,
      "concept_journalist_michael": 4427,
      "concept_newspaper_b": 4428,
      "concept_insect_insect": 4429,
      "concept_beverage_wines": 4430,
      "_cardin": 4431,
      "concept_ceo_john": 4432,
      "gust": 4433,
      "concept_drug_s": 4434,
      "concept_date_n195": 4435,
      "concept_musicartist_session": 4436,
      "concept_male_m": 4437,
      "_comb": 4438,
      "concept_retailstore_c": 4439,
      "concept_politicsissue_stud": 4440,
      "egg": 4441,
      "concept_book_arkansas": 4442,
      "concept_year_n1981": 4443,
      "concept_stadiumoreventvenue_m": 4444,
      "_information": 4445,
      "concept_city_del": 4446,
      "stone": 4447,
      "concept_sportsleague_m": 4448,
      "concept_publication_": 4449,
      "_secur": 4450,
      "_living": 4451,
      "centre": 4452,
      "cedar": 4453,
      "_independ": 4454,
      "_facility": 4455,
      "_globe": 4456,
      "_distributions": 4457,
      "concept_mammal_farm_animals": 4458,
      "concept_animal_mice": 4459,
      "concept_politicianus_mr": 4460,
      "_trial": 4461,
      "concept_insect_fleas": 4462,
      "_trainers": 4463,
      "_computer": 4464,
      "concept_male_jesus": 4465,
      "_bulldogs": 4466,
      "concept_chemical_particul": 4467,
      "_august": 4468,
      "concept_animal_large_animals": 4469,
      "_foundation": 4470,
      "_wall_street": 4471,
      "concept_chemical_oxides": 4472,
      "concept_bodypart_nerves001": 4473,
      "_cheney": 4474,
      "_position": 4475,
      "cu": 4476,
      "gm": 4477,
      "mail": 4478,
      "ril": 4479,
      "tle": 4480,
      "u_": 4481,
      "uzz": 4482,
      "vol": 4483,
      "pton": 4484,
      "erus": 4485,
      "inland": 4486,
      "enry_": 4487,
      "esign": 4488,
      "espn": 4489,
      "omine": 4490,
      "e_of": 4491,
      "agre": 4492,
      "enter": 4493,
      "_custom": 4494,
      "_brad": 4495,
      "_members": 4496,
      "_milk": 4497,
      "ells": 4498,
      "ompson": 4499,
      "_pat": 4500,
      "orta": 4501,
      "ide_": 4502,
      "concept_chemical_t": 4503,
      "concept_chemical_air": 4504,
      "_fre": 4505,
      "irates": 4506,
      "concept_profession_research": 4507,
      "ube": 4508,
      "concept_website_de": 4509,
      "concept_stateorprovince_utah": 4510,
      "concept_agriculturalproduct_l": 4511,
      "concept_agriculturalproduct_red": 4512,
      "ober": 4513,
      "aylor": 4514,
      "concept_journalist_g": 4515,
      "ander": 4516,
      "_chris": 4517,
      "concept_artery_fluid": 4518,
      "concept_musicalbum_life": 4519,
      "concept_beverage_h": 4520,
      "concept_coach_b": 4521,
      "concept_biotechcompany_ast": 4522,
      "concept_biotechcompany_china": 4523,
      "_st_": 4524,
      "concept_scientificterm_variational": 4525,
      "concept_jobposition_n": 4526,
      "concept_academicfield_trial": 4527,
      "concept_city_south": 4528,
      "concept_geometricshape_ang": 4529,
      "_sum": 4530,
      "_maxim": 4531,
      "concept_dateliteral_n193": 4532,
      "_space": 4533,
      "_instit": 4534,
      "e_day": 4535,
      "_barb": 4536,
      "concept_city_dallas": 4537,
      "_marc": 4538,
      "concept_arthropod_m": 4539,
      "concept_bodypart_atrium": 4540,
      "concept_geopoliticalorganization_": 4541,
      "_diox": 4542,
      "concept_musicalbum_us": 4543,
      "onaut": 4544,
      "concept_automobilemodel_": 4545,
      "indianapolis": 4546,
      "concept_bird_ch": 4547,
      "_companies": 4548,
      "concept_meat_ch": 4549,
      "concept_animal_ham": 4550,
      "concept_kitchenitem_oven": 4551,
      "concept_stateorprovince_south_dakota": 4552,
      "concept_year_n1967": 4553,
      "_lake": 4554,
      "concept_country_finland": 4555,
      "cules": 4556,
      "cords": 4557,
      "concept_county_new_mexico": 4558,
      "concept_sportsteam_new_york_giants": 4559,
      "concept_book_morning": 4560,
      "concept_mlalgorithm_s": 4561,
      "_juice": 4562,
      "_communications": 4563,
      "concept_officebuildingroom_en_suite_bathroom": 4564,
      "_oxides": 4565,
      "_delaware": 4566,
      "_downstairs": 4567,
      "concept_chemical_greenhouse_gas": 4568,
      "aily_news": 4569,
      "presentatives": 4570,
      "concept_artery_pulmonary_": 4571,
      "_beginn": 4572,
      "concept_visualizableattribute_drinking_water": 4573,
      "_lit": 4574,
      "ful": 4575,
      "i_tv": 4576,
      "metric": 4577,
      "na": 4578,
      "oats": 4579,
      "uch": 4580,
      "var": 4581,
      "x_tv": 4582,
      "ala": 4583,
      "stall": 4584,
      "stock": 4585,
      "unge": 4586,
      "ungs": 4587,
      "_caterp": 4588,
      "_sem": 4589,
      "_sand": 4590,
      "adison": 4591,
      "_myers": 4592,
      "dustr": 4593,
      "reagan": 4594,
      "concept_person_r": 4595,
      "_paper": 4596,
      "idd": 4597,
      "apor": 4598,
      "concept_chemical_d": 4599,
      "launch": 4600,
      "ysis": 4601,
      "_hel": 4602,
      "philip": 4603,
      "concept_profession_associate": 4604,
      "concept_profession_attorneys": 4605,
      "concept_animal_head": 4606,
      "concept_website_y": 4607,
      "concept_politicianus_h": 4608,
      "concept_politicianus_george_w__bush": 4609,
      "imization": 4610,
      "ruce": 4611,
      "bridge": 4612,
      "concept_mammal_re": 4613,
      "concept_journalist_m": 4614,
      "concept_journalist_d": 4615,
      "e_se": 4616,
      "logists": 4617,
      "rah": 4618,
      "illion": 4619,
      "ake": 4620,
      "concept_officebuildingroom_two": 4621,
      "concept_officebuildingroom_on": 4622,
      "less": 4623,
      "concept_scientificterm_s": 4624,
      "concept_scientificterm_ex": 4625,
      "_university_": 4626,
      "concept_city_be": 4627,
      "concept_drug_t": 4628,
      "georg": 4629,
      "augh": 4630,
      "ized": 4631,
      "concept_book_on": 4632,
      "e_col": 4633,
      "concept_personcanada_": 4634,
      "concept_visualizablescene_bedroom": 4635,
      "concept_vehicle_s": 4636,
      "concept_chemical_mineral": 4637,
      "jects": 4638,
      "_bill_clinton": 4639,
      "concept_musicalbum_vietnam": 4640,
      "concept_city_ne": 4641,
      "concept_insect_meal": 4642,
      "ilitary": 4643,
      "concept_sportsgame_first": 4644,
      "concept_physicalaction_production": 4645,
      "ronicle": 4646,
      "concept_journalist_jeff": 4647,
      "concept_date_n1972": 4648,
      "concept_date_n1976": 4649,
      "concept_mlmetric": 4650,
      "concept_tradeunion_congress": 4651,
      "_grains": 4652,
      "concept_charactertrait_opening": 4653,
      "concept_mammal_wild": 4654,
      "_acid": 4655,
      "_manager": 4656,
      "_norway": 4657,
      "eneca": 4658,
      "_gaussians": 4659,
      "_server": 4660,
      "concept_videogame_": 4661,
      "altimore": 4662,
      "concept_jobposition_agency": 4663,
      "_modern": 4664,
      "concept_householditem_bedroom": 4665,
      "_electric": 4666,
      "concept_academicfield_biology": 4667,
      "concept_date_n1939": 4668,
      "concept_jobposition_duty": 4669,
      "resources": 4670,
      "continent": 4671,
      "concept_bird_chickens": 4672,
      "concept_meat_chicken": 4673,
      "concept_animal_hamsters": 4674,
      "concept_chemical_minerals": 4675,
      "_station": 4676,
      "_insects": 4677,
      "avi": 4678,
      "aine": 4679,
      "auburn": 4680,
      "eing": 4681,
      "fed": 4682,
      "han": 4683,
      "mark": 4684,
      "nakes": 4685,
      "pines": 4686,
      "rus": 4687,
      "ray": 4688,
      "tro": 4689,
      "tissues": 4690,
      "on_m": 4691,
      "aton": 4692,
      "atin": 4693,
      "itz": 4694,
      "roe": 4695,
      "roll": 4696,
      "roaches": 4697,
      "orm": 4698,
      "international": 4699,
      "indust": 4700,
      "_ny": 4701,
      "ammon": 4702,
      "peas": 4703,
      "suite": 4704,
      "concept_city_ta": 4705,
      "_cat": 4706,
      "_clo": 4707,
      "_coo": 4708,
      "_ba": 4709,
      "adob": 4710,
      "_me": 4711,
      "_mens": 4712,
      "eland": 4713,
      "the_": 4714,
      "thers": 4715,
      "ural_gas": 4716,
      "olive_oil": 4717,
      "concept_profession_pharmac": 4718,
      "concept_person_t": 4719,
      "_trad": 4720,
      "_pen": 4721,
      "_pur": 4722,
      "_pri": 4723,
      "_wat": 4724,
      "_walt": 4725,
      "_data": 4726,
      "eter_": 4727,
      "concept_company_ch": 4728,
      "concept_company_west_virginia": 4729,
      "_function": 4730,
      "iran": 4731,
      "iraq": 4732,
      "concept_film": 4733,
      "uba": 4734,
      "concept_website_issue": 4735,
      "concept_sportsteam_north": 4736,
      "_kid": 4737,
      "imp": 4738,
      "extern": 4739,
      "concept_mammal_elk": 4740,
      "concept_journalist_paul": 4741,
      "concept_room_large_": 4742,
      "_aust": 4743,
      "concept_newspaper_w": 4744,
      "concept_chemical_o": 4745,
      "concept_astr": 4746,
      "concept_buildingfeature_s": 4747,
      "concept_jobposition_doctor": 4748,
      "concept_jobposition_facility": 4749,
      "_decem": 4750,
      "concept_televisionstation_wp": 4751,
      "ashville": 4752,
      "artists": 4753,
      "concept_wine_wh": 4754,
      "concept_televisionstation_km": 4755,
      "concept_programminglanguage_m": 4756,
      "concept_programminglanguage_p": 4757,
      "concept_city_mar": 4758,
      "couver": 4759,
      "anger": 4760,
      "concept_politicsissue_oregon": 4761,
      "_maine": 4762,
      "_ros": 4763,
      "_roberts": 4764,
      "concept_male_russia": 4765,
      "_thre": 4766,
      "_thompson": 4767,
      "_george_": 4768,
      "upp": 4769,
      "e_city": 4770,
      "concept_governmentorganization_iowa": 4771,
      "concept_visualizablescene_n": 4772,
      "concept_politicsblog_": 4773,
      "concept_food_tomatoes": 4774,
      "ways": 4775,
      "viron": 4776,
      "concept_agriculturalproduct_olive_oil": 4777,
      "concept_insect_butterflies": 4778,
      "concept_visualizablething_use": 4779,
      "concept_chemical_mole": 4780,
      "lywood": 4781,
      "concept_month_oct": 4782,
      "concept_month_march": 4783,
      "ague": 4784,
      "_alabama": 4785,
      "concept_company_case": 4786,
      "eese": 4787,
      "_nurses": 4788,
      "concept_sportsteam_ncaa_mens": 4789,
      "_flight": 4790,
      "_tract": 4791,
      "career": 4792,
      "agazine": 4793,
      "riday": 4794,
      "concept_skiarea_maine": 4795,
      "_weekend": 4796,
      "_delhi": 4797,
      "ieberman": 4798,
      "_regression": 4799,
      "beans": 4800,
      "atrix": 4801,
      "concept_nondiseasecondition_": 4802,
      "concept_musicsong_end": 4803,
      "concept_mammal_mountain": 4804,
      "iological": 4805,
      "concept_amphibian_larvae": 4806,
      "_variables": 4807,
      "festival": 4808,
      "_period": 4809,
      "_edwards": 4810,
      "concept_highway_the_new": 4811,
      "concept_month_june": 4812,
      "concept_city_van": 4813,
      "concept_dateliteral_n1917": 4814,
      "_termites": 4815,
      "concept_city_vegas_casino": 4816,
      "_regionals": 4817,
      "concept_officebuildingroom_large_bathroom": 4818,
      "concept_athlete_p_j_": 4819,
      "ergy": 4820,
      "concept_aquarium_": 4821,
      "_random": 4822,
      "abraham": 4823,
      "concept_nonneginteger_one": 4824,
      "_midwest_regionals": 4825,
      "concept_musicfestival_annual": 4826,
      "concept_county_york_city": 4827,
      "concept_sportsleague_mlb": 4828,
      "_wall_street_journal": 4829,
      "concept_biotechcompany_astraz": 4830,
      "concept_filmfestival": 4831,
      "concept_astronaut": 4832,
      "_december": 4833,
      "concept_wine_white_": 4834,
      "concept_month_october": 4835,
      "concept_sportsteam_ncaa_mens_midwest_regionals": 4836,
      "_em": 4837,
      "_peppers": 4838,
      "human": 4839,
      "lins": 4840,
      "me": 4841,
      "mit": 4842,
      "sm": 4843,
      "u_tv": 4844,
      "wives": 4845,
      "za": 4846,
      "cond_": 4847,
      "concept_race": 4848,
      "_nut": 4849,
      "eneg": 4850,
      "concept_card": 4851,
      "y_h": 4852,
      "e_sp": 4853,
      "amster": 4854,
      "leopar": 4855,
      "concept_city_ca": 4856,
      "concept_city_rio": 4857,
      "_bro": 4858,
      "_blan": 4859,
      "_band": 4860,
      "_bea": 4861,
      "_bern": 4862,
      "adam": 4863,
      "_mother": 4864,
      "rets": 4865,
      "rican": 4866,
      "oline": 4867,
      "concept_profession_trainers": 4868,
      "_patri": 4869,
      "_writ": 4870,
      "concept_mammal_guinea": 4871,
      "idwives": 4872,
      "_gm": 4873,
      "_gard": 4874,
      "_friday": 4875,
      "concept_animal_p": 4876,
      "vey": 4877,
      "link": 4878,
      "linators": 4879,
      "concept_agriculturalproduct_f": 4880,
      "e_search": 4881,
      "concept_musicalbum_months": 4882,
      "concept_officebuildingroom_bedroom": 4883,
      "_shel": 4884,
      "residency": 4885,
      "ardi": 4886,
      "_rad": 4887,
      "esth": 4888,
      "estim": 4889,
      "concept_jobposition_de": 4890,
      "roman": 4891,
      "prem": 4892,
      "concept_televisionstation_wc": 4893,
      "concept_river_s": 4894,
      "concept_drug_f": 4895,
      "concept_animal_leopar": 4896,
      "concept_televisionstation_kn": 4897,
      "concept_city_har": 4898,
      "concept_city_mon": 4899,
      "concept_radiostation_w": 4900,
      "_road": 4901,
      "concept_city_wh": 4902,
      "concept_automobilemaker_honda": 4903,
      "_oxide": 4904,
      "concept_person_le": 4905,
      "_inj": 4906,
      "_inter": 4907,
      "concept_politicsblog_tribune": 4908,
      "concept_food_s": 4909,
      "home": 4910,
      "concept_transportation_operation": 4911,
      "concept_island_staff": 4912,
      "concept_vertebrate_r": 4913,
      "concept_arthropod_pol": 4914,
      "_guardian": 4915,
      "concept_perceptionaction_": 4916,
      "technologies": 4917,
      "ilities": 4918,
      "concept_city_fr": 4919,
      "concept_city_tit": 4920,
      "concept_artery_ventricle": 4921,
      "concept_terroristorganization_force": 4922,
      "concept_product_": 4923,
      "concept_journalist_jim": 4924,
      "concept_date_n1971": 4925,
      "concept_musicalbum_debut": 4926,
      "concept_year_n1970": 4927,
      "_san_antonio": 4928,
      "_november": 4929,
      "_studies": 4930,
      "_crabs": 4931,
      "rooklyn": 4932,
      "concept_scientificterm_multivariate": 4933,
      "_executive_": 4934,
      "_appro": 4935,
      "concept_musicfestival": 4936,
      "_haird": 4937,
      "witter": 4938,
      "concept_blog_iowa": 4939,
      "concept_country_south_africa": 4940,
      "concept_mammal_coyotes": 4941,
      "concept_website_google_": 4942,
      "internet": 4943,
      "_double_bed": 4944,
      "concept_politicsissue_meetings": 4945,
      "_jacuzz": 4946,
      "_optimization": 4947,
      "practice": 4948,
      "orlando": 4949,
      "_drug_administration": 4950,
      "concept_insect_insect_pests": 4951,
      "concept_animal_mice001": 4952,
      "concept_website_yout": 4953,
      "concept_chemical_oxygen": 4954,
      "concept_biotechcompany_astrazeneca": 4955,
      "concept_mammal_guinea_pigs": 4956,
      "concept_animal_leopards": 4957,
      "concept_arthropod_pollinators": 4958,
      "_jacuzzi": 4959,
      "_therapists": 4960,
      "bi": 4961,
      "dam": 4962,
      "fic": 4963,
      "flic": 4964,
      "hib": 4965,
      "ioles": 4966,
      "lag": 4967,
      "ning": 4968,
      "n_tv": 4969,
      "nats": 4970,
      "osh": 4971,
      "tom": 4972,
      "yb": 4973,
      "onia": 4974,
      "roat": 4975,
      "and_": 4976,
      "emon": 4977,
      "e_juice": 4978,
      "ura": 4979,
      "urkey": 4980,
      "concept_bak": 4981,
      "sugar": 4982,
      "ingham": 4983,
      "asons": 4984,
      "_corn": 4985,
      "_bal": 4986,
      "_ben": 4987,
      "_mac": 4988,
      "_miller": 4989,
      "_musc": 4990,
      "utes": 4991,
      "ablish": 4992,
      "thail": 4993,
      "apes": 4994,
      "_gl": 4995,
      "ivan": 4996,
      "ive_d": 4997,
      "_factor": 4998,
      "iron": 4999,
      "d_reagan": 5000,
      "concept_profession_re": 5001,
      "veget": 5002,
      "concept_insect_termites": 5003,
      "concept_insect_crabs": 5004,
      "rubs": 5005,
      "concept_country_career": 5006,
      "concept_country_thail": 5007,
      "otta": 5008,
      "concept_journalist_s": 5009,
      "concept_visualizablething_bedrooms": 5010,
      "iesel": 5011,
      "concept_university_k": 5012,
      "concept_room_community": 5013,
      "concept_room_full": 5014,
      "concept_room_level": 5015,
      "ravens": 5016,
      "_chang": 5017,
      "_child": 5018,
      "evan": 5019,
      "concept_newspaper_tribune": 5020,
      "concept_chemical_oxide": 5021,
      "concept_beverage_f": 5022,
      "concept_beverage_p": 5023,
      "concept_officebuildingroom_": 5024,
      "e_metal": 5025,
      "establish": 5026,
      "_baths": 5027,
      "concept_geopoliticallocation_k": 5028,
      "concept_televisionstation_wun": 5029,
      "ick_cheney": 5030,
      "concept_drug_h": 5031,
      "composition": 5032,
      "concept_bank_fed": 5033,
      "concept_fish_salmon": 5034,
      "concept_academicfield_elect": 5035,
      "izards": 5036,
      "concept_male_n": 5037,
      "_second_": 5038,
      "concept_stateorprovince_maine": 5039,
      "concept_radiostation_nevada": 5040,
      "concept_politicsissue_program": 5041,
      "concept_city_cal": 5042,
      "_roger": 5043,
      "concept_emotion_band": 5044,
      "e_cat": 5045,
      "e_car": 5046,
      "concept_governmentorganization_action": 5047,
      "concept_governmentorganization_usps": 5048,
      "_los": 5049,
      "_cock": 5050,
      "ptiles": 5051,
      "concept_month_sept": 5052,
      "_process": 5053,
      "_exp": 5054,
      "anna": 5055,
      "concept_braintissue_spinal_cord": 5056,
      "boston": 5057,
      "concept_city_number": 5058,
      "concept_room_office": 5059,
      "concept_building_years": 5060,
      "experience": 5061,
      "_money": 5062,
      "lowers": 5063,
      "concept_reptile_l": 5064,
      "_complet": 5065,
      "concept_year_n1973": 5066,
      "iatrists": 5067,
      "ruits": 5068,
      "_powder": 5069,
      "_onions": 5070,
      "_study": 5071,
      "concept_ceo_james": 5072,
      "_series": 5073,
      "concept_wallitem_beginn": 5074,
      "concept_month_janu": 5075,
      "_april": 5076,
      "_models": 5077,
      "_kingdom": 5078,
      "_candidate_barack_obama": 5079,
      "concept_sportsteamposition_": 5080,
      "dublin": 5081,
      "concept_sportsgame_m": 5082,
      "_martin": 5083,
      "concept_country_bel": 5084,
      "concept_product_minister": 5085,
      "concept_profession_dent": 5086,
      "_ronald_reagan": 5087,
      "concept_animal_marine_life": 5088,
      "_birth": 5089,
      "_george_bush": 5090,
      "_nicholas": 5091,
      "_cardinals": 5092,
      "external": 5093,
      "_patriots": 5094,
      "flict": 5095,
      "concept_bakedg": 5096,
      "concept_country_thailand": 5097,
      "concept_politicsissue_programs": 5098,
      "concept_month_september": 5099,
      "concept_wallitem_beginning": 5100,
      "concept_month_january": 5101,
      "_law": 5102,
      "aro": 5103,
      "cott": 5104,
      "hood": 5105,
      "ij": 5106,
      "ien": 5107,
      "jay_": 5108,
      "lam": 5109,
      "oths": 5110,
      "rang": 5111,
      "zim": 5112,
      "alysis": 5113,
      "round": 5114,
      "ora": 5115,
      "oracle": 5116,
      "ints": 5117,
      "_ny_": 5118,
      "y_d": 5119,
      "concept_city_ar": 5120,
      "concept_city_win": 5121,
      "concept_city_rock": 5122,
      "concept_mla": 5123,
      "ilton": 5124,
      "_cru": 5125,
      "_side": 5126,
      "_buffalo": 5127,
      "ador": 5128,
      "_medicine": 5129,
      "concept_person_n": 5130,
      "_tra": 5131,
      "_wa": 5132,
      "_whol": 5133,
      "_dani": 5134,
      "concept_mammal_whales": 5135,
      "concept_chef": 5136,
      "_gar": 5137,
      "_gri": 5138,
      "_governor": 5139,
      "um_l": 5140,
      "steven": 5141,
      "concept_website_links": 5142,
      "result": 5143,
      "_just": 5144,
      "_jeep": 5145,
      "bristol": 5146,
      "carot": 5147,
      "concept_agriculturalproduct_green": 5148,
      "concept_bodypart_kid": 5149,
      "concept_visualizablething_haird": 5150,
      "igators": 5151,
      "_chair": 5152,
      "_church": 5153,
      "concept_governmentorganization_f": 5154,
      "concept_artery_a": 5155,
      "concept_artery_carot": 5156,
      "concept_beverage_te": 5157,
      "concept_beverage_red": 5158,
      "concept_award": 5159,
      "cientists": 5160,
      "events": 5161,
      "_rul": 5162,
      "_carib": 5163,
      "concept_scientificterm_b": 5164,
      "concept_scientificterm_d": 5165,
      "prison": 5166,
      "concept_river_n": 5167,
      "ahe": 5168,
      "concept_televisionstation_kl": 5169,
      "concept_physicalaction_work": 5170,
      "enna": 5171,
      "concept_male_abraham": 5172,
      "vidence": 5173,
      "elly": 5174,
      "concept_stadiumoreventvenue_c": 5175,
      "_coleman": 5176,
      "concept_person_roman": 5177,
      "concept_city_pittsburgh": 5178,
      "_barr": 5179,
      "concept_invertebrate_": 5180,
      "azil": 5181,
      "rows": 5182,
      "e_new_york_times": 5183,
      "concept_profession_sur": 5184,
      "concept_female_s": 5185,
      "concept_month_august": 5186,
      "_newsweek": 5187,
      "concept_politicianus_president_clinton": 5188,
      "airs": 5189,
      "aftern": 5190,
      "concept_programminglanguage_project": 5191,
      "_alan": 5192,
      "concept_stateorprovince_new_mexico": 5193,
      "rustaceans": 5194,
      "ike": 5195,
      "concept_perceptionaction_first": 5196,
      "concept_visualizablescene_br": 5197,
      "concept_company_daily_news": 5198,
      "concept_insect_moths": 5199,
      "ocial": 5200,
      "_senator": 5201,
      "_grove": 5202,
      "concept_city_children": 5203,
      "visors": 5204,
      "_nerve_": 5205,
      "police": 5206,
      "rights": 5207,
      "concept_geopoliticallocation_iraq": 5208,
      "_front": 5209,
      "_varieties": 5210,
      "valu": 5211,
      "_beef": 5212,
      "concept_crimeorcharge_prison": 5213,
      "studio": 5214,
      "concept_city_contract": 5215,
      "_web_site": 5216,
      "concept_dateliteral_n1918": 5217,
      "_friedman": 5218,
      "concept_profession_psychologists": 5219,
      "_britain": 5220,
      "_standard": 5221,
      "_theatre": 5222,
      "concept_city_phoenix": 5223,
      "concept_city_montreal": 5224,
      "concept_profession_division": 5225,
      "_networks": 5226,
      "concept_politicianus_al_gore": 5227,
      "concept_officebuildingroom_luxurious": 5228,
      "_next": 5229,
      "concept_mammal_antelope": 5230,
      "_gulf": 5231,
      "phytournament": 5232,
      "concept_politicianus_lieberman": 5233,
      "concept_country_brazil": 5234,
      "concept_reptile_snakes": 5235,
      "concept_politicsissue_students": 5236,
      "erusalem": 5237,
      "agreement": 5238,
      "trophytournament": 5239,
      "vironment": 5240,
      "estimation": 5241,
      "zimbab": 5242,
      "concept_mlauthor": 5243,
      "_justice": 5244,
      "concept_visualizablething_hairdryer": 5245,
      "concept_awardtrophytournament": 5246,
      "afternoon": 5247,
      "concept_company_daily_news001": 5248,
      "_as": 5249,
      "_arteries": 5250,
      "band": 5251,
      "folk": 5252,
      "go": 5253,
      "hawks": 5254,
      "lim": 5255,
      "lice": 5256,
      "light": 5257,
      "w_tv": 5258,
      "onz": 5259,
      "one_m": 5260,
      "era": 5261,
      "anol": 5262,
      "inci": 5263,
      "inach": 5264,
      "stro": 5265,
      "ar_pradesh": 5266,
      "malays": 5267,
      "lock": 5268,
      "leep": 5269,
      "concept_city_r": 5270,
      "concept_city_se": 5271,
      "concept_city_rich": 5272,
      "concept_military": 5273,
      "party": 5274,
      "ingc": 5275,
      "ingap": 5276,
      "ilw": 5277,
      "_cur": 5278,
      "_newark": 5279,
      "vermont": 5280,
      "_min": 5281,
      "_mus": 5282,
      "_mollus": 5283,
      "isc": 5284,
      "rey_": 5285,
      "sph": 5286,
      "_tru": 5287,
      "_word": 5288,
      "_wright": 5289,
      "concept_book_f": 5290,
      "concept_book_north": 5291,
      "concept_book_term": 5292,
      "concept_book_job": 5293,
      "umes": 5294,
      "_haven": 5295,
      "rips": 5296,
      "petersburg": 5297,
      "ircul": 5298,
      "phis": 5299,
      "concept_profession_an": 5300,
      "concept_profession_ch": 5301,
      "concept_politicianus_republican": 5302,
      "zabeth": 5303,
      "execut": 5304,
      "concept_stateorprovince_rh": 5305,
      "concept_agriculturalproduct_grains": 5306,
      "concept_bodypart_tract": 5307,
      "concept_visualizablething_bedroom": 5308,
      "concept_university_b": 5309,
      "concept_university_minist": 5310,
      "concept_university_administration": 5311,
      "raine": 5312,
      "concept_artery_m": 5313,
      "concept_artery_veins": 5314,
      "concept_chemical_atom": 5315,
      "concept_chemical_ammon": 5316,
      "concept_chemical_iron": 5317,
      "concept_musicalbum_air": 5318,
      "concept_vegetable_car": 5319,
      "geneva": 5320,
      "concept_insect_leaf": 5321,
      "concept_coach_c": 5322,
      "concept_officebuildingroom_full": 5323,
      "letter": 5324,
      "_real": 5325,
      "_report": 5326,
      "pars": 5327,
      "concept_academicfield_dire": 5328,
      "wine": 5329,
      "practitioners": 5330,
      "_vista": 5331,
      "concept_physiological": 5332,
      "concept_drug_b": 5333,
      "concept_drug_v": 5334,
      "aug": 5335,
      "_airways": 5336,
      "concept_academicfield_arts": 5337,
      "concept_televisionstation_kc": 5338,
      "iber": 5339,
      "_comfort": 5340,
      "_policy": 5341,
      "concept_stateorprovince_montana": 5342,
      "_suprem": 5343,
      "_major": 5344,
      "concept_city_cam": 5345,
      "_oak": 5346,
      "concept_governmentorganization_launch": 5347,
      "concept_chemical_carbon_mon": 5348,
      "concept_stadiumoreventvenue_s": 5349,
      "ivery": 5350,
      "onday": 5351,
      "_forces": 5352,
      "_former": 5353,
      "e_house": 5354,
      "_gases": 5355,
      "concept_mammal_bats": 5356,
      "ology": 5357,
      "concept_chemical_mer": 5358,
      "concept_month_april": 5359,
      "concept_arthropod_external": 5360,
      "kie": 5361,
      "concept_politicaloffice_u_s_": 5362,
      "concept_programminglanguage_the_new": 5363,
      "european": 5364,
      "concept_journalist_peter": 5365,
      "_wilson": 5366,
      "concept_city_father": 5367,
      "concept_person_jeff": 5368,
      "_white_": 5369,
      "concept_bird_owls": 5370,
      "kee": 5371,
      "concept_politicianus_john_kerry": 5372,
      "y_bathroom": 5373,
      "ukraine": 5374,
      "concept_date_n1966": 5375,
      "associates": 5376,
      "_brun": 5377,
      "david": 5378,
      "commend": 5379,
      "concept_nondiseasecondition_period": 5380,
      "reatment": 5381,
      "concept_grain_sugar": 5382,
      "concept_mammal_mice": 5383,
      "concept_bank_usps_global_priority": 5384,
      "concept_website_market": 5385,
      "_carneg": 5386,
      "elizabeth": 5387,
      "concept_invertebrate_cattle": 5388,
      "queens": 5389,
      "concept_agriculturalproduct_chili": 5390,
      "concept_city_oak": 5391,
      "concept_politicianus_dick_cheney": 5392,
      "uttar_pradesh": 5393,
      "pectation": 5394,
      "concept_mammal_kitt": 5395,
      "_closet": 5396,
      "concept_olympics": 5397,
      "_authorities": 5398,
      "cotland": 5399,
      "_parasites": 5400,
      "unicip": 5401,
      "uminants": 5402,
      "u__s_": 5403,
      "concept_profession_pharmacists": 5404,
      "concept_city_vancouver": 5405,
      "concept_vertebrate_ruminants": 5406,
      "concept_website_youtube": 5407,
      "ybugs": 5408,
      "concept_reptile_lizards": 5409,
      "concept_artery_aorta": 5410,
      "malaysia": 5411,
      "ingapore": 5412,
      "concept_bodypart_tract001": 5413,
      "concept_university_ministry": 5414,
      "concept_academicfield_directors": 5415,
      "concept_physiologicalcondition": 5416,
      "concept_arthropod_external_parasites": 5417,
      "61": 5418,
      "_el": 5419,
      "_office": 5420,
      "_illinois": 5421,
      "_rain": 5422,
      "hy": 5423,
      "hart": 5424,
      "high": 5425,
      "iw": 5426,
      "och": 5427,
      "rates": 5428,
      "tz": 5429,
      "van": 5430,
      "concept_architect": 5431,
      "concept_continent": 5432,
      "itish": 5433,
      "ital_": 5434,
      "rous": 5435,
      "ore_": 5436,
      "ateg": 5437,
      "ic_acid": 5438,
      "omb": 5439,
      "agg": 5440,
      "character": 5441,
      "ctur": 5442,
      "local": 5443,
      "istory": 5444,
      "concept_city_e": 5445,
      "concept_city_ed": 5446,
      "concept_city_lan": 5447,
      "concept_city_red": 5448,
      "concept_movi": 5449,
      "ingular": 5450,
      "_camp": 5451,
      "_cities": 5452,
      "_sox": 5453,
      "_species": 5454,
      "_music": 5455,
      "_mix": 5456,
      "abil": 5457,
      "uly": 5458,
      "ounds": 5459,
      "omput": 5460,
      "vina": 5461,
      "concept_stateorprovince_nevada": 5462,
      "concept_profession_counselors": 5463,
      "spinach": 5464,
      "aca": 5465,
      "concept_person_david": 5466,
      "_tar": 5467,
      "_will": 5468,
      "_dolphins": 5469,
      "appoint": 5470,
      "lair": 5471,
      "_hur": 5472,
      "_home": 5473,
      "_houston": 5474,
      "_f_": 5475,
      "_father": 5476,
      "ird": 5477,
      "concept_profession_assistants": 5478,
      "university_": 5479,
      "concept_sportsteam_arizona": 5480,
      "concept_country_japan": 5481,
      "concept_country_china": 5482,
      "concept_country_gree": 5483,
      "control": 5484,
      "concept_stateorprovince_uttar_pradesh": 5485,
      "concept_agriculturalproduct_season": 5486,
      "concept_agriculturalproduct_plants": 5487,
      "concept_mammal_exotic": 5488,
      "concept_televisionstation_we": 5489,
      "concept_room_suite": 5490,
      "enderson": 5491,
      "concept_governmentorganization_health": 5492,
      "concept_newspaper_los_angeles_times": 5493,
      "concept_artery_arter": 5494,
      "concept_vegetable_spinach": 5495,
      "concept_insect_earth": 5496,
      "concept_bathroomitem_jacuzzi": 5497,
      "concept_coach_n": 5498,
      "concept_officebuildingroom_second": 5499,
      "concept_officebuildingroom_living_room": 5500,
      "concept_biotechcompany_h": 5501,
      "concept_biotechcompany_wh": 5502,
      "concept_biotechcompany_bristol": 5503,
      "syd": 5504,
      "yme": 5505,
      "_start": 5506,
      "concept_jobposition_court": 5507,
      "rome": 5508,
      "concept_ceo_k": 5509,
      "concept_athlete_b": 5510,
      "concept_televisionstation_wd": 5511,
      "concept_city_bel": 5512,
      "concept_river_state": 5513,
      "physicians": 5514,
      "_princi": 5515,
      "concept_bank_dh": 5516,
      "concept_date_n192": 5517,
      "concept_televisionstation_kb": 5518,
      "concept_televisionstation_kd": 5519,
      "concept_televisionstation_ku": 5520,
      "ova": 5521,
      "_seeds": 5522,
      "chools": 5523,
      "concept_geometricshape_per": 5524,
      "concept_retailstore_s": 5525,
      "concept_musicsong_louisiana": 5526,
      "concept_musicsong_sunday": 5527,
      "therlands": 5528,
      "_royal": 5529,
      "concept_city_wood": 5530,
      "concept_automobilemaker_ch": 5531,
      "concept_male_h": 5532,
      "concept_charactertrait_heart": 5533,
      "ranch": 5534,
      "concept_dateliteral_n1961": 5535,
      "_loft": 5536,
      "_phil": 5537,
      "concept_person_iran": 5538,
      "concept_landscapefeatures_weekend": 5539,
      "concept_island_head": 5540,
      "innea": 5541,
      "concept_arthropod_snails": 5542,
      "concept_month_december": 5543,
      "concept_month_november": 5544,
      "concept_politicianus_president_bill_clinton": 5545,
      "_workshop": 5546,
      "avis": 5547,
      "ikeli": 5548,
      "concept_city_name": 5549,
      "concept_eventoutcome_practice": 5550,
      "concept_eventoutcome_establish": 5551,
      "concept_city_tampa": 5552,
      "concept_chemical_heavy_m": 5553,
      "_netherlands": 5554,
      "_parcel": 5555,
      "care": 5556,
      "concept_attraction_": 5557,
      "concept_attraction_mississippi": 5558,
      "concept_sportsteam_boston": 5559,
      "concept_hotel_north": 5560,
      "uther": 5561,
      "ebay": 5562,
      "ebec": 5563,
      "zerland": 5564,
      "_squib": 5565,
      "_midd": 5566,
      "_falcons": 5567,
      "concept_invertebrate_crustaceans": 5568,
      "concept_month_july": 5569,
      "oviet": 5570,
      "_executive": 5571,
      "pedia": 5572,
      "concept_country_swit": 5573,
      "_cabins": 5574,
      "concept_nerve_nerve_": 5575,
      "_training": 5576,
      "_vice_president": 5577,
      "concept_landscapefeatures_firm": 5578,
      "anagers": 5579,
      "_saint": 5580,
      "concept_chemical_particles": 5581,
      "concept_year_n1919": 5582,
      "concept_musicartist_television": 5583,
      "accident": 5584,
      "certific": 5585,
      "concept_sportsteam_chicago": 5586,
      "e_court": 5587,
      "concept_artery_cap": 5588,
      "introduction": 5589,
      "concept_room_private_bath": 5590,
      "_joseph": 5591,
      "concept_perceptionaction_hearing": 5592,
      "structure": 5593,
      "_new_england": 5594,
      "concept_musicsong_sale": 5595,
      "concept_male_jesus_christ": 5596,
      "_maximum_l": 5597,
      "amsterdam": 5598,
      "_injury": 5599,
      "roatia": 5600,
      "_ny_times": 5601,
      "concept_artery_carotid": 5602,
      "aheim": 5603,
      "concept_perceptionaction_first_meeting": 5604,
      "concept_visualizablescene_brussels": 5605,
      "concept_stateorprovince_rhode_island": 5606,
      "_supreme_court": 5607,
      "concept_country_greece": 5608,
      "concept_insect_earthworms": 5609,
      "concept_biotechcompany_bristol_myers": 5610,
      "concept_bank_dhl": 5611,
      "concept_charactertrait_heart_attack": 5612,
      "concept_eventoutcome_establishment": 5613,
      "concept_city_tampa_bay": 5614,
      "concept_chemical_heavy_metals": 5615,
      "concept_country_switzerland": 5616,
      "_maximum_likeli": 5617,
      "_sub": 5618,
      "_artery": 5619,
      "_technology": 5620,
      "_central": 5621,
      "_richard": 5622,
      "a_": 5623,
      "back": 5624,
      "bell": 5625,
      "cas": 5626,
      "cad": 5627,
      "d_water": 5628,
      "eers": 5629,
      "f_tv": 5630,
      "gium": 5631,
      "ky": 5632,
      "m_tv": 5633,
      "ness": 5634,
      "oul": 5635,
      "oph": 5636,
      "rence": 5637,
      "uz": 5638,
      "vil": 5639,
      "vard": 5640,
      "conut": 5641,
      "atic": 5642,
      "atural_gas": 5643,
      "erb": 5644,
      "arat": 5645,
      "arner": 5646,
      "arrest": 5647,
      "eme": 5648,
      "emont": 5649,
      "e_k": 5650,
      "agn": 5651,
      "champ": 5652,
      "chief": 5653,
      "concept_city_pro": 5654,
      "concept_city_th": 5655,
      "concept_city_philadelphia": 5656,
      "asil": 5657,
      "ile_": 5658,
      "_cow": 5659,
      "_sit": 5660,
      "_samp": 5661,
      "_sites": 5662,
      "_special": 5663,
      "_broad": 5664,
      "ads": 5665,
      "isa": 5666,
      "elines": 5667,
      "ode": 5668,
      "three": 5669,
      "concept_stateorprovince_b": 5670,
      "olds": 5671,
      "ollection": 5672,
      "spa": 5673,
      "_wash": 5674,
      "_wales": 5675,
      "apids": 5676,
      "_gaz": 5677,
      "umn": 5678,
      "concept_company_general": 5679,
      "lav": 5680,
      "_fun": 5681,
      "_ful": 5682,
      "_fund": 5683,
      "_farm": 5684,
      "concept_profession_support": 5685,
      "eattle": 5686,
      "_kal": 5687,
      "_krist": 5688,
      "imo": 5689,
      "rule": 5690,
      "ruary": 5691,
      "_jun": 5692,
      "_james": 5693,
      "telegraph": 5694,
      "concept_stateorprovince_al": 5695,
      "ayer": 5696,
      "concept_journalist_tim": 5697,
      "concept_journalist_thomas": 5698,
      "concept_bodypart_tissue": 5699,
      "igen": 5700,
      "_l_": 5701,
      "_charg": 5702,
      "_chronicle": 5703,
      "_cheese": 5704,
      "concept_weatherphenomenon_two": 5705,
      "concept_newspaper_d": 5706,
      "concept_newspaper_alabama": 5707,
      "concept_artery_tissues": 5708,
      "concept_chemical_eth": 5709,
      "owners": 5710,
      "akistan": 5711,
      "concept_officebuildingroom_s": 5712,
      "_russ": 5713,
      "_stre": 5714,
      "concept_geopoliticallocation_authorities": 5715,
      "concept_academicfield_computer": 5716,
      "concept_televisionstation_wj": 5717,
      "concept_televisionstation_wv": 5718,
      "concept_city_bud": 5719,
      "_vict": 5720,
      "_vapor": 5721,
      "concept_bank_global_priority": 5722,
      "concept_city_singapore": 5723,
      "concept_academicfield_con": 5724,
      "_super": 5725,
      "oride": 5726,
      "concept_city_car": 5727,
      "concept_book_education": 5728,
      "concept_book_evening": 5729,
      "concept_emotion_senate": 5730,
      "concept_personus_john": 5731,
      "_bathrooms": 5732,
      "ichita": 5733,
      "concept_stadiumoreventvenue_b": 5734,
      "_colts": 5735,
      "_cons": 5736,
      "concept_visualizablescene_d": 5737,
      "_creek": 5738,
      "_init": 5739,
      "e_de": 5740,
      "concept_politicsblog_whit": 5741,
      "concept_city_denver": 5742,
      "concept_mammal_big": 5743,
      "concept_profession_social": 5744,
      "inner": 5745,
      "concept_city_washington_dc": 5746,
      "concept_visualizablething_en": 5747,
      "concept_arthropod_c": 5748,
      "concept_hallwayitem_tub": 5749,
      "concept_geopoliticalorganization_web_site": 5750,
      "concept_month_feb": 5751,
      "concept_food_oils": 5752,
      "boy": 5753,
      "_guide": 5754,
      "concept_chemical_natural_gas": 5755,
      "concept_room_unit": 5756,
      "concept_city_toronto": 5757,
      "concept_chemical_water_vapor": 5758,
      "care_": 5759,
      "concept_attraction_louisiana": 5760,
      "orpions": 5761,
      "concept_tradeunion_": 5762,
      "concept_skiarea_kentucky": 5763,
      "concept_professor_david": 5764,
      "iatric": 5765,
      "_parker": 5766,
      "concept_meat_beef": 5767,
      "_terms": 5768,
      "concept_election_general": 5769,
      "concept_election_white": 5770,
      "_gras": 5771,
      "concept_county_seattle": 5772,
      "concept_planet_": 5773,
      "concept_monument_rh": 5774,
      "concept_dayofweek_saturday": 5775,
      "concept_charactertrait_agreement": 5776,
      "iologists": 5777,
      "lotte": 5778,
      "concept_company_sun": 5779,
      "lemon": 5780,
      "_holland": 5781,
      "_hollywood": 5782,
      "concept_crimeorcharge_arrest": 5783,
      "concept_year_n1959": 5784,
      "_hotel": 5785,
      "applications": 5786,
      "yrac": 5787,
      "lickr": 5788,
      "concept_programminglanguage_collection": 5789,
      "concept_physicalaction_projects": 5790,
      "employees": 5791,
      "activities": 5792,
      "_marine_mammals": 5793,
      "concept_chemical_methane": 5794,
      "concept_female_mary": 5795,
      "_problems": 5796,
      "swick": 5797,
      "illaries": 5798,
      "_document": 5799,
      "_george_h_w__bush": 5800,
      "inceton": 5801,
      "concept_televisionshow_mission": 5802,
      "_mirage": 5803,
      "concept_newspaper_boston": 5804,
      "concept_chemical_air_pollutants": 5805,
      "concept_profession_researchers": 5806,
      "concept_scientificterm_expectation": 5807,
      "concept_vehicle_services": 5808,
      "adobe": 5809,
      "_walters": 5810,
      "concept_visualizablescene_ny": 5811,
      "_random_variables": 5812,
      "_blanc": 5813,
      "_gardens": 5814,
      "ottawa": 5815,
      "concept_room_offices": 5816,
      "concept_bakedgood": 5817,
      "concept_profession_surgeons": 5818,
      "concept_chemical_ammonia": 5819,
      "_comfortable_": 5820,
      "concept_chemical_carbon_monoxide": 5821,
      "concept_chemical_mercury": 5822,
      "concept_artery_capillaries": 5823,
      "concept_biotechcompany_bristol_myers_squib": 5824,
      "concept_politicsblog_white_house": 5825,
      "concept_profession_social_workers": 5826,
      "concept_month_february": 5827,
      "concept_monument_rhode_island": 5828,
      "_ash": 5829,
      "_team": 5830,
      "bow": 5831,
      "cover": 5832,
      "cup": 5833,
      "fri": 5834,
      "hur": 5835,
      "kom": 5836,
      "mitt": 5837,
      "ui": 5838,
      "uge": 5839,
      "wings": 5840,
      "cement": 5841,
      "concept_port": 5842,
      "concept_economics": 5843,
      "erver": 5844,
      "errets": 5845,
      "oral": 5846,
      "ics_": 5847,
      "inar": 5848,
      "inks": 5849,
      "ionship": 5850,
      "aria": 5851,
      "_niss": 5852,
      "ension": 5853,
      "esville": 5854,
      "emat": 5855,
      "e_john": 5856,
      "lob": 5857,
      "ention": 5858,
      "change": 5859,
      "artz": 5860,
      "pop": 5861,
      "pest": 5862,
      "unn": 5863,
      "super": 5864,
      "sums": 5865,
      "concept_city_ros": 5866,
      "concept_city_united": 5867,
      "concept_city_rome": 5868,
      "edu": 5869,
      "oos": 5870,
      "_bow": 5871,
      "adren": 5872,
      "_mitch": 5873,
      "_mites": 5874,
      "_miami": 5875,
      "abad": 5876,
      "odes": 5877,
      "ultry": 5878,
      "olv": 5879,
      "concept_profession_design": 5880,
      "concept_person_state": 5881,
      "concept_person_bill": 5882,
      "_pack": 5883,
      "_wife": 5884,
      "eta": 5885,
      "trans": 5886,
      "appro": 5887,
      "_great": 5888,
      "_game": 5889,
      "concept_chemical_li": 5890,
      "concept_chemical_diox": 5891,
      "concept_book_n": 5892,
      "concept_book_network": 5893,
      "concept_company_first_class": 5894,
      "contact": 5895,
      "_han": 5896,
      "ri_lan": 5897,
      "_fe": 5898,
      "_fuel": 5899,
      "concept_profession_a": 5900,
      "concept_profession_account": 5901,
      "concept_farm": 5902,
      "concept_politicianus_jo": 5903,
      "concept_politicianus_rod": 5904,
      "concept_sportsteam_michigan": 5905,
      "concept_sportsteam_northern": 5906,
      "concept_insect_caterp": 5907,
      "imon": 5908,
      "concept_country_us": 5909,
      "concept_country_russia": 5910,
      "concept_country_party": 5911,
      "british": 5912,
      "concept_beverage_n": 5913,
      "quebec": 5914,
      "concept_journalist_tom": 5915,
      "concept_journalist_william": 5916,
      "concept_visualizablething_master_bedroom": 5917,
      "_ll": 5918,
      "_lyn": 5919,
      "concept_room_e": 5920,
      "concept_room_area": 5921,
      "concept_room_spacious": 5922,
      "concept_room_second": 5923,
      "concept_governmentorganization_federal": 5924,
      "evelt": 5925,
      "_aff": 5926,
      "concept_artery_right": 5927,
      "concept_chemical_products": 5928,
      "concept_chemical_lead": 5929,
      "concept_chemical_production": 5930,
      "concept_musicalbum_system": 5931,
      "concept_musicalbum_suit": 5932,
      "illars": 5933,
      "concept_vegetable_rice": 5934,
      "concept_vegetable_beans": 5935,
      "eflies": 5936,
      "akers": 5937,
      "concept_bathroomitem_new": 5938,
      "concept_bathroomitem_closet": 5939,
      "posal": 5940,
      "possums": 5941,
      "concept_biotechcompany_bo": 5942,
      "concept_biotechcompany_cisco": 5943,
      "cense": 5944,
      "_representatives": 5945,
      "concept_scientificterm_maximum_likeli": 5946,
      "concept_geopoliticallocation_d": 5947,
      "_deal": 5948,
      "concept_televisionstation_ws": 5949,
      "concept_city_bush": 5950,
      "_ven": 5951,
      "_vote": 5952,
      "_vessel": 5953,
      "concept_athlete_williams": 5954,
      "concept_drug_m": 5955,
      "concept_animal_po": 5956,
      "_airlines": 5957,
      "concept_televisionstation_kf": 5958,
      "cancer": 5959,
      "concept_physicalcharacter": 5960,
      "concept_city_mur": 5961,
      "concept_city_mount": 5962,
      "course": 5963,
      "concept_geometricshape_activities": 5964,
      "concept_retailstore_m": 5965,
      "concept_retailstore_h": 5966,
      "concept_musicsong_sp": 5967,
      "berry": 5968,
      "concept_book_ireland": 5969,
      "_thurs": 5970,
      "osa": 5971,
      "osevelt": 5972,
      "e_world": 5973,
      "_consult": 5974,
      "_photo": 5975,
      "concept_politicsblog_wall_street_journal": 5976,
      "concept_animal_children": 5977,
      "warz": 5978,
      "concept_island_mother": 5979,
      "concept_month_may": 5980,
      "concept_vertebrate_search": 5981,
      "concept_city_king": 5982,
      "concept_profession_staff_members": 5983,
      "ucks": 5984,
      "eurotrans": 5985,
      "concept_nongovorganization_forces": 5986,
      "lacewings": 5987,
      "announ": 5988,
      "_larger": 5989,
      "concept_writer_hus": 5990,
      "aleigh": 5991,
      "concept_product_car": 5992,
      "_manhattan": 5993,
      "concept_journalist_james": 5994,
      "y_morning": 5995,
      "y_bugs": 5996,
      "_scal": 5997,
      "_scorpions": 5998,
      "_santa": 5999,
      "concept_election_complet": 6000,
      "_compound": 6001,
      "_delux": 6002,
      "bean": 6003,
      "regul": 6004,
      "_general_assembly": 6005,
      "_district": 6006,
      "ungus": 6007,
      "concept_year_n1960": 6008,
      "_squash": 6009,
      "_franken": 6010,
      "concept_mammal_ferrets": 6011,
      "cular": 6012,
      "concept_biotechcompany_sch": 6013,
      "concept_visualartform": 6014,
      "_survey": 6015,
      "utsch": 6016,
      "concept_river_arts": 6017,
      "concept_city_construction": 6018,
      "concept_country_cuba": 6019,
      "arning": 6020,
      "_natural": 6021,
      "_social": 6022,
      "cluse_sp": 6023,
      "_grand_": 6024,
      "concept_scientificterm_bayesian_param": 6025,
      "banon": 6026,
      "_game_": 6027,
      "concept_medicalprocedure_cancer": 6028,
      "ultivariate_gaussians": 6029,
      "untington": 6030,
      "_valve": 6031,
      "minster": 6032,
      "concept_city_jacksonville": 6033,
      "_tony_": 6034,
      "_legisl": 6035,
      "_brooks": 6036,
      "concept_county_manhattan": 6037,
      "formance": 6038,
      "concept_city_saint": 6039,
      "concept_city_delivery": 6040,
      "_security_": 6041,
      "concept_website_decision": 6042,
      "concept_jobposition_nurse": 6043,
      "concept_geometricshape_angle": 6044,
      "industri": 6045,
      "_cooper": 6046,
      "_waters": 6047,
      "eter_estimation": 6048,
      "uppies": 6049,
      "concept_chemical_molecules": 6050,
      "_radio": 6051,
      "concept_profession_dentists": 6052,
      "ilwau": 6053,
      "concept_profession_anesth": 6054,
      "appointment": 6055,
      "concept_artery_arterioles": 6056,
      "concept_geometricshape_percent": 6057,
      "oviet_union": 6058,
      "_sampling": 6059,
      "_grasshop": 6060,
      "concept_economicsector": 6061,
      "_nissan": 6062,
      "concept_city_united_kingdom": 6063,
      "ri_lanka": 6064,
      "concept_politicianus_rodham_clinton": 6065,
      "concept_physicalcharacteristic": 6066,
      "concept_musicsong_spain": 6067,
      "concept_writer_husband": 6068,
      "concept_election_completion": 6069,
      "concept_scientificterm_bayesian_parameter_estimation": 6070,
      "50": 6071,
      "_organization": 6072,
      "_tele": 6073,
      "_agencies": 6074,
      "cle": 6075,
      "cri": 6076,
      "equipment": 6077,
      "fayette": 6078,
      "ilo": 6079,
      "ivision": 6080,
      "ji": 6081,
      "lar": 6082,
      "nt": 6083,
      "rical": 6084,
      "rill": 6085,
      "voc": 6086,
      "yle": 6087,
      "concept_petroleum": 6088,
      "atus": 6089,
      "aly": 6090,
      "itamin": 6091,
      "roche": 6092,
      "eriv": 6093,
      "orange": 6094,
      "_ni": 6095,
      "esystem": 6096,
      "y_w": 6097,
      "e_university": 6098,
      "ations_": 6099,
      "forum": 6100,
      "forest": 6101,
      "urb": 6102,
      "anistan": 6103,
      "amas": 6104,
      "peech": 6105,
      "led": 6106,
      "lear": 6107,
      "leaves": 6108,
      "concept_city_lo": 6109,
      "concept_city_pe": 6110,
      "concept_city_vi": 6111,
      "concept_city_per": 6112,
      "concept_city_can": 6113,
      "concept_city_internet": 6114,
      "concept_city_police": 6115,
      "ewater": 6116,
      "concept_model": 6117,
      "edford": 6118,
      "_c_": 6119,
      "_sm": 6120,
      "_bre": 6121,
      "_mey": 6122,
      "_morning": 6123,
      "_monday": 6124,
      "refin": 6125,
      "recluse": 6126,
      "records": 6127,
      "vice_president": 6128,
      "thre": 6129,
      "thrips": 6130,
      "concept_stateorprovince_times": 6131,
      "concept_stateorprovince_training": 6132,
      "_n17": 6133,
      "_pacific": 6134,
      "_deriv": 6135,
      "_grey": 6136,
      "concept_chemical_companies": 6137,
      "concept_company_re": 6138,
      "concept_company_canada": 6139,
      "concept_company_air": 6140,
      "_hous": 6141,
      "_horn": 6142,
      "_final": 6143,
      "d_air": 6144,
      "concept_profession_artists": 6145,
      "concept_animal_deer": 6146,
      "concept_website_li": 6147,
      "concept_website_introduction": 6148,
      "vegetable_": 6149,
      "cial_": 6150,
      "concept_insect_grasshop": 6151,
      "laborator": 6152,
      "_jets": 6153,
      "quid": 6154,
      "concept_journalist_mark": 6155,
      "concept_journalist_david_": 6156,
      "concept_journalist_nicholas": 6157,
      "concept_visualizablething_c": 6158,
      "_lu": 6159,
      "_list": 6160,
      "grass": 6161,
      "eyes": 6162,
      "eval": 6163,
      "evils": 6164,
      "_aud": 6165,
      "concept_newspaper_new_york": 6166,
      "concept_newspaper_the_": 6167,
      "concept_newspaper_new_hampshire": 6168,
      "concept_musicalbum_c": 6169,
      "concept_musicalbum_press": 6170,
      "illage": 6171,
      "concept_vegetable_peas": 6172,
      "concept_insect_thrips": 6173,
      "concept_bathroomitem_s": 6174,
      "concept_coach_bill": 6175,
      "concept_officebuildingroom_suites": 6176,
      "concept_officebuildingroom_suite_bathroom": 6177,
      "_ridge": 6178,
      "_st__": 6179,
      "concept_televisionstation_wl": 6180,
      "concept_politicaloffice_governor": 6181,
      "concept_city_bu": 6182,
      "concept_city_bang": 6183,
      "concept_river_american": 6184,
      "concept_food_y": 6185,
      "concept_bank_air": 6186,
      "concept_fish_pe": 6187,
      "ampus": 6188,
      "concept_televisionstation_ks": 6189,
      "ize": 6190,
      "izon": 6191,
      "overs": 6192,
      "_seals": 6193,
      "concept_city_mad": 6194,
      "_pop": 6195,
      "concept_geometricshape_course": 6196,
      "concept_musicsong_two": 6197,
      "berra": 6198,
      "ennis": 6199,
      "ango": 6200,
      "concept_politicsissue_c": 6201,
      "egan": 6202,
      "concept_automobilemaker_gm": 6203,
      "_arr": 6204,
      "_occ": 6205,
      "_davis": 6206,
      "_estate": 6207,
      "concept_charactertrait_state": 6208,
      "concept_charactertrait_survey": 6209,
      "ellfish": 6210,
      "_column": 6211,
      "concept_visualizablescene_m": 6212,
      "concept_city_palm": 6213,
      "_co_": 6214,
      "concept_city_dan": 6215,
      "concept_city_design": 6216,
      "concept_invertebrate_s": 6217,
      "ward_": 6218,
      "jud": 6219,
      "concept_musicgenre_metal": 6220,
      "ghanistan": 6221,
      "concept_profession_scientists": 6222,
      "concept_transportation_two": 6223,
      "concept_bank_first_class": 6224,
      "concept_visualizablething_appointment": 6225,
      "e_punk": 6226,
      "concept_reptile_t": 6227,
      "afghanistan": 6228,
      "concept_musicalbum_order": 6229,
      "_offic": 6230,
      "concept_writer_": 6231,
      "concept_sportsgame_tournament": 6232,
      "_postal": 6233,
      "concept_city_char": 6234,
      "_analysis": 6235,
      "concept_hobby_studio": 6236,
      "y_bed": 6237,
      "concept_company_flickr": 6238,
      "_terry_": 6239,
      "concept_date_n1964": 6240,
      "_markov": 6241,
      "concept_politicianus_rud": 6242,
      "concept_chemical_nitrogen_oxides": 6243,
      "_brand": 6244,
      "concept_country_republic_of_aust": 6245,
      "commod": 6246,
      "ministrators": 6247,
      "_kansas_city_": 6248,
      "concept_city_st_louis": 6249,
      "concept_braintissue_s": 6250,
      "concept_braintissue_m": 6251,
      "concept_mammal_puppies": 6252,
      "concept_arachnid_scorpions": 6253,
      "concept_ceo_jeff": 6254,
      "concept_country_norway": 6255,
      "concept_country_netherlands": 6256,
      "concept_company_services": 6257,
      "concept_currency_s": 6258,
      "_tuesday": 6259,
      "concept_scientificterm_matrix": 6260,
      "concept_insect_mosquitos": 6261,
      "_finan": 6262,
      "_portland": 6263,
      "concept_county_san_diego": 6264,
      "_friends": 6265,
      "concept_year_n1862": 6266,
      "wheat": 6267,
      "concept_website_the_san": 6268,
      "concept_city_club": 6269,
      "concept_vegetable_corn": 6270,
      "concept_male_son": 6271,
      "concept_year_n1948": 6272,
      "concept_profession_psychiatrists": 6273,
      "_british": 6274,
      "questions": 6275,
      "_wildcats": 6276,
      "concept_videogamesystem": 6277,
      "_playoff": 6278,
      "concept_bird_ducks": 6279,
      "concept_insect_gnats": 6280,
      "leeper": 6281,
      "anzania": 6282,
      "idges": 6283,
      "_wedn": 6284,
      "concept_parlourgam": 6285,
      "e_times": 6286,
      "_commercial": 6287,
      "concept_fish_tuna": 6288,
      "entertain": 6289,
      "_summer": 6290,
      "_barbara": 6291,
      "concept_chemical_greenhouse_gases": 6292,
      "concept_wine_white_wine": 6293,
      "concept_city_title": 6294,
      "results": 6295,
      "stroke": 6296,
      "concept_chemical_atoms": 6297,
      "_brunswick": 6298,
      "concept_biotechcompany_white": 6299,
      "championship": 6300,
      "concept_profession_accountants": 6301,
      "concept_insect_caterpillars": 6302,
      "concept_petroleumrefin": 6303,
      "concept_animal_deer001": 6304,
      "concept_website_license": 6305,
      "concept_fish_pelag": 6306,
      "concept_musicsong_two_weeks": 6307,
      "_occup": 6308,
      "_officials": 6309,
      "concept_country_republic_of_austria": 6310,
      "concept_petroleumrefiningc": 6311,
      "_res": 6312,
      "_land": 6313,
      "_virgin": 6314,
      "_rica": 6315,
      "_personnel": 6316,
      "a_l": 6317,
      "fr": 6318,
      "gary": 6319,
      "hen": 6320,
      "ipo": 6321,
      "iri": 6322,
      "list": 6323,
      "m_coleman": 6324,
      "no": 6325,
      "oor": 6326,
      "rs": 6327,
      "rent": 6328,
      "s_tv": 6329,
      "tal": 6330,
      "ubs": 6331,
      "zoo": 6332,
      "conflict": 6333,
      "ptcy": 6334,
      "ative": 6335,
      "ald": 6336,
      "itiz": 6337,
      "orce": 6338,
      "anas": 6339,
      "an_jos": 6340,
      "icro": 6341,
      "stand": 6342,
      "_nations": 6343,
      "_nyc": 6344,
      "_nixon": 6345,
      "_nomine": 6346,
      "enz": 6347,
      "energy": 6348,
      "emer": 6349,
      "emony": 6350,
      "concept_bon": 6351,
      "amine": 6352,
      "und_": 6353,
      "istrict": 6354,
      "ley_": 6355,
      "concept_city_ontario": 6356,
      "edge": 6357,
      "ilter": 6358,
      "_cor": 6359,
      "_cook": 6360,
      "_company": 6361,
      "_sofa": 6362,
      "ooth": 6363,
      "_ball": 6364,
      "version": 6365,
      "_mom": 6366,
      "_mck": 6367,
      "_mobile": 6368,
      "oung": 6369,
      "weet": 6370,
      "vine": 6371,
      "concept_profession_cl": 6372,
      "athens": 6373,
      "_tour": 6374,
      "_pres": 6375,
      "_pati": 6376,
      "_pict": 6377,
      "_punk": 6378,
      "_wel": 6379,
      "concept_mammal_kids": 6380,
      "earn": 6381,
      "ection": 6382,
      "_gonz": 6383,
      "concept_company_ibm": 6384,
      "_hay": 6385,
      "_hyd": 6386,
      "_honey": 6387,
      "_fro": 6388,
      "dings": 6389,
      "stef": 6390,
      "stev": 6391,
      "eattle_": 6392,
      "concept_politicianus_sarah_palin": 6393,
      "concept_sportsteam_l": 6394,
      "concept_sportsteam_r": 6395,
      "concept_sportsteam_ohio": 6396,
      "concept_sportsteam_colts": 6397,
      "concept_insect_small": 6398,
      "concept_insect_cock": 6399,
      "chase": 6400,
      "resign": 6401,
      "rup": 6402,
      "ruptcy": 6403,
      "concept_country_h": 6404,
      "concept_country_mo": 6405,
      "concept_country_philip": 6406,
      "exx": 6407,
      "line_": 6408,
      "lincoln": 6409,
      "concept_agriculturalproduct_varieties": 6410,
      "obcats": 6411,
      "oti": 6412,
      "lake": 6413,
      "e_sam": 6414,
      "_london": 6415,
      "raft": 6416,
      "concept_building_west": 6417,
      "_a_m": 6418,
      "concept_newspaper_la": 6419,
      "concept_artery_left": 6420,
      "concept_chemical_for": 6421,
      "concept_musicalbum_four": 6422,
      "concept_county_c": 6423,
      "concept_county_j": 6424,
      "concept_vegetable_leaves": 6425,
      "concept_vegetable_grass": 6426,
      "concept_beverage_lemon": 6427,
      "concept_bathroomitem_double_bed": 6428,
      "concept_coach_new_york": 6429,
      "concept_officebuildingroom_large_": 6430,
      "concept_officebuildingroom_comfortable_": 6431,
      "concept_biotechcompany_w": 6432,
      "e_minister": 6433,
      "ackers": 6434,
      "ack_obama": 6435,
      "ally": 6436,
      "indones": 6437,
      "concept_scientificterm_optimization": 6438,
      "romney": 6439,
      "concept_ceo_m": 6440,
      "concept_weapon_": 6441,
      "pred": 6442,
      "concept_televisionstation_ww": 6443,
      "sta_rica": 6444,
      "lugs": 6445,
      "concept_wine_mer": 6446,
      "oppers": 6447,
      "stores": 6448,
      "_air_condition": 6449,
      "concept_academicfield_information": 6450,
      "concept_musicartist_arr": 6451,
      "ov_": 6452,
      "concept_city_ho": 6453,
      "concept_city_man": 6454,
      "concept_city_map": 6455,
      "concept_physicalaction_study": 6456,
      "concept_geometricshape_d": 6457,
      "concept_retailstore_microsoft": 6458,
      "_roosevelt": 6459,
      "concept_emotion_con": 6460,
      "graduate": 6461,
      "argent": 6462,
      "concept_charactertrait_church": 6463,
      "quirer": 6464,
      "ellington": 6465,
      "_condo": 6466,
      "_connect": 6467,
      "rime_minister": 6468,
      "_inaug": 6469,
      "e_days": 6470,
      "concept_museum_ste": 6471,
      "_lewis": 6472,
      "unities": 6473,
      "e_nights": 6474,
      "umbers": 6475,
      "concept_politicianus_president_elect": 6476,
      "concept_programminglanguage_stroke": 6477,
      "concept_televisionshow_region": 6478,
      "concept_nongovorganization_general_assembly": 6479,
      "concept_profession_midwives": 6480,
      "concept_musicalbum_line": 6481,
      "boys": 6482,
      "concept_visualizablescene_con": 6483,
      "concept_insect_midges": 6484,
      "concept_plant_f": 6485,
      "gery": 6486,
      "concept_beach_ver": 6487,
      "_clark": 6488,
      "lawrence": 6489,
      "concept_building_america": 6490,
      "ceremony": 6491,
      "concept_musician_vice_president": 6492,
      "concept_terroristorganization_inc": 6493,
      "_herbs": 6494,
      "orporation": 6495,
      "concept_chemical_fumes": 6496,
      "concept_agriculturalproduct_butter": 6497,
      "concept_nerve_m": 6498,
      "concept_mammal_raccoons": 6499,
      "concept_airport_north": 6500,
      "concept_company_fda": 6501,
      "council": 6502,
      "abbage": 6503,
      "concept_date_n1962": 6504,
      "rodham_clinton": 6505,
      "concept_politicianus_romney": 6506,
      "_lincoln": 6507,
      "layoff": 6508,
      "concept_musicsong_resign": 6509,
      "concept_dayofweek_monday": 6510,
      "concept_crimeorcharge_bank": 6511,
      "_browns": 6512,
      "concept_chemical_solution": 6513,
      "immy_c": 6514,
      "_walk": 6515,
      "_norm_coleman": 6516,
      "concept_website_million": 6517,
      "concept_bathroomitem_bath_tub": 6518,
      "concept_person_governor": 6519,
      "_rays": 6520,
      "concept_politicianus_senator_barack_obama": 6521,
      "y_city": 6522,
      "concept_biotechcompany_n": 6523,
      "_surgery": 6524,
      "officers": 6525,
      "concept_clothing_white": 6526,
      "concept_county_baltimore": 6527,
      "_european": 6528,
      "_executive_d": 6529,
      "ampaign": 6530,
      "_financial": 6531,
      "concept_country_croatia": 6532,
      "_black_widow": 6533,
      "_society": 6534,
      "concept_athlete_playoff": 6535,
      "e_mercury": 6536,
      "concept_mammal_cougars": 6537,
      "respons": 6538,
      "concept_country_turkey": 6539,
      "concept_personeurope_d": 6540,
      "cerebr": 6541,
      "concept_company_apple002": 6542,
      "concept_dateliteral_n1950": 6543,
      "employment": 6544,
      "activity": 6545,
      "concept_insect_grubs": 6546,
      "concept_country_korea": 6547,
      "concept_jobposition_presidency": 6548,
      "_marketing": 6549,
      "amazon_com": 6550,
      "concept_musicalbum_story": 6551,
      "concept_musicalbum_family": 6552,
      "concept_newspaper_the_d": 6553,
      "_islands": 6554,
      "concept_biotechcompany_lilly": 6555,
      "concept_academicfield_pakistan": 6556,
      "_independent": 6557,
      "_little_": 6558,
      "dustry": 6559,
      "concept_cardgame_": 6560,
      "vegetables": 6561,
      "_chairman": 6562,
      "concept_militaryconflict": 6563,
      "concept_automobilemaker_chrysler": 6564,
      "inneapolis": 6565,
      "concept_bodypart_tissue001": 6566,
      "concept_academicfield_computer_science": 6567,
      "_initiat": 6568,
      "concept_mammal_big_cats": 6569,
      "hurst": 6570,
      "_thursday": 6571,
      "concept_city_vienna": 6572,
      "vegetable_oil": 6573,
      "concept_insect_grasshoppers": 6574,
      "concept_invertebrate_slugs": 6575,
      "concept_company_flickr001": 6576,
      "_financial_": 6577,
      "entertainment": 6578,
      "concept_insect_cockroaches": 6579,
      "concept_country_philippines": 6580,
      "concept_scientificterm_optimization_problems": 6581,
      "concept_musicartist_arrival": 6582,
      "concept_museum_steve": 6583,
      "concept_beach_vermont": 6584,
      "concept_terroristorganization_incident": 6585,
      "concept_musicsong_resignation": 6586,
      "concept_crimeorcharge_bankruptcy": 6587,
      "immy_carter": 6588,
      "_executive_director": 6589,
      "7_2": 6590,
      "_am": 6591,
      "_ut": 6592,
      "_chemicals": 6593,
      "bees": 6594,
      "c_": 6595,
      "ccess": 6596,
      "fowl": 6597,
      "iph": 6598,
      "j_hill": 6599,
      "ken": 6600,
      "king": 6601,
      "kill": 6602,
      "lla": 6603,
      "olo": 6604,
      "ove": 6605,
      "put": 6606,
      "q_tv": 6607,
      "rw": 6608,
      "ral": 6609,
      "udson": 6610,
      "vels": 6611,
      "vict": 6612,
      "yt": 6613,
      "yen": 6614,
      "ynn": 6615,
      "yria": 6616,
      "onent": 6617,
      "onse": 6618,
      "concept_lymph": 6619,
      "al_health": 6620,
      "inancial": 6621,
      "proposal": 6622,
      "arab": 6623,
      "enin": 6624,
      "enci": 6625,
      "ense": 6626,
      "enya": 6627,
      "e_ch": 6628,
      "look": 6629,
      "urlington": 6630,
      "concept_bacter": 6631,
      "concept_date_nov": 6632,
      "concept_date_wife": 6633,
      "ussion": 6634,
      "ity_water": 6635,
      "suites": 6636,
      "lewood": 6637,
      "concept_city_am": 6638,
      "concept_city_parent": 6639,
      "concept_city_orlando": 6640,
      "ewood": 6641,
      "ilford": 6642,
      "_saf": 6643,
      "_sauvignon": 6644,
      "_bell": 6645,
      "_bay_": 6646,
      "adm": 6647,
      "_mes": 6648,
      "_motion": 6649,
      "_member": 6650,
      "isney": 6651,
      "concept_dateliteral_n18": 6652,
      "ability": 6653,
      "rel": 6654,
      "ricci": 6655,
      "via": 6656,
      "odia": 6657,
      "odium": 6658,
      "figh": 6659,
      "fide": 6660,
      "concept_stateorprovince_h": 6661,
      "olutions": 6662,
      "concept_profession_h": 6663,
      "concept_profession_family_": 6664,
      "acob": 6665,
      "aths": 6666,
      "concept_person_car": 6667,
      "concept_person_michael": 6668,
      "_tal": 6669,
      "_tur": 6670,
      "_ted": 6671,
      "_town": 6672,
      "_pass": 6673,
      "_pine": 6674,
      "_p__": 6675,
      "_wire": 6676,
      "_daugh": 6677,
      "concept_mammal_carib": 6678,
      "ectar": 6679,
      "bserver": 6680,
      "aples": 6681,
      "_g_": 6682,
      "_good": 6683,
      "concept_chemical_wast": 6684,
      "concept_book_w": 6685,
      "concept_company_th": 6686,
      "concept_company_telegraph": 6687,
      "uala_l": 6688,
      "_hob": 6689,
      "_fly": 6690,
      "ira": 6691,
      "iraff": 6692,
      "fields": 6693,
      "ia_s": 6694,
      "concept_website_show": 6695,
      "concept_website_bo": 6696,
      "concept_website_support": 6697,
      "concept_politicianus_ronald_reagan": 6698,
      "owens": 6699,
      "concept_insect_spider": 6700,
      "_kong": 6701,
      "_korea": 6702,
      "import": 6703,
      "_jim": 6704,
      "_jones": 6705,
      "concept_country_u_s_": 6706,
      "bra": 6707,
      "caro": 6708,
      "shir": 6709,
      "concept_agriculturalproduct_herbs": 6710,
      "concept_journalist_mike_": 6711,
      "concept_bodypart_s": 6712,
      "concept_bodypart_le": 6713,
      "e_bar": 6714,
      "concept_visualizablething_b": 6715,
      "concept_visualizablething_f": 6716,
      "concept_university_f": 6717,
      "concept_school": 6718,
      "concept_room_separate": 6719,
      "ray_": 6720,
      "tsville": 6721,
      "_change": 6722,
      "concept_governmentorganization_m": 6723,
      "_av": 6724,
      "concept_musicalbum_b": 6725,
      "concept_musicalbum_head": 6726,
      "concept_musicalbum_review": 6727,
      "concept_musicalbum_foundation": 6728,
      "concept_musicalbum_holland": 6729,
      "illips": 6730,
      "concept_county_ch": 6731,
      "concept_county_atlanta": 6732,
      "akh": 6733,
      "concept_beverage_vari": 6734,
      "concept_coach_d": 6735,
      "concept_officebuildingroom_main": 6736,
      "concept_biotechcompany_abb": 6737,
      "ong_kong": 6738,
      "e_mar": 6739,
      "lesimo": 6740,
      "ardonn": 6741,
      "_carlesimo": 6742,
      "_recluse_sp": 6743,
      "concept_scientificterm_cond": 6744,
      "concept_ceo_s": 6745,
      "concept_ceo_d": 6746,
      "sein": 6747,
      "_new_york_times": 6748,
      "concept_city_bell": 6749,
      "concept_river_ohio": 6750,
      "_vac": 6751,
      "_ventricle": 6752,
      "concept_food_ch": 6753,
      "ordan": 6754,
      "concept_bank_parcel": 6755,
      "venport": 6756,
      "ahar": 6757,
      "concept_televisionstation_ktv": 6758,
      "concept_city_mor": 6759,
      "concept_city_mid": 6760,
      "concept_city_mos": 6761,
      "cohol": 6762,
      "_presidential": 6763,
      "elson": 6764,
      "concept_city_cleveland": 6765,
      "_role": 6766,
      "concept_emotion_series": 6767,
      "concept_personus_ad": 6768,
      "concept_personus_part": 6769,
      "_arenci": 6770,
      "concept_blog_sun": 6771,
      "concept_blog_manager": 6772,
      "concept_male_david": 6773,
      "_the_b": 6774,
      "argo": 6775,
      "ranton": 6776,
      "concept_stadiumoreventvenue_t": 6777,
      "_spa": 6778,
      "concept_visualizablescene_b": 6779,
      "_cream": 6780,
      "concept_vehicle_research": 6781,
      "_barry_": 6782,
      "concept_city_dec": 6783,
      "concept_profession_school": 6784,
      "concept_sportsteam_ravens": 6785,
      "concept_island_inter": 6786,
      "concept_island_proposal": 6787,
      "appli": 6788,
      "concept_vertebrate_sk": 6789,
      "concept_arthropod_recluse": 6790,
      "e_town": 6791,
      "_project": 6792,
      "_exist": 6793,
      "_exchange": 6794,
      "concept_stateorprovince_new_hampshire": 6795,
      "concept_musicgenre_pop": 6796,
      "concept_insect_moth": 6797,
      "concept_chemical_nor": 6798,
      "concept_celebrity_law": 6799,
      "concept_eventoutcome_state": 6800,
      "concept_sportsgame_championship": 6801,
      "law_school": 6802,
      "concept_mountainrang": 6803,
      "_compla": 6804,
      "doch": 6805,
      "rison": 6806,
      "concept_politicianus_john_edwards": 6807,
      "concept_professor_david_": 6808,
      "garia": 6809,
      "leader": 6810,
      "usa_today": 6811,
      "abbas": 6812,
      "_register": 6813,
      "loss": 6814,
      "_nova": 6815,
      "_schedu": 6816,
      "_schwarz": 6817,
      "_linux": 6818,
      "_orange": 6819,
      "concept_musicsong_oklahoma": 6820,
      "offman": 6821,
      "concept_sportsteam_minnesota": 6822,
      "concept_sportsteam_miami": 6823,
      "concept_governmentorganization_governments": 6824,
      "concept_mammal_por": 6825,
      "_fisher": 6826,
      "_moines": 6827,
      "concept_visualizableobject_workshop": 6828,
      "concept_athlete_j_p__": 6829,
      "concept_politicsissue_n": 6830,
      "uscles": 6831,
      "_trip": 6832,
      "_howell": 6833,
      "concept_year_n1956": 6834,
      "integr": 6835,
      "concept_person_pj_hill": 6836,
      "concept_officebuildingroom_large_master": 6837,
      "concept_male_jacob": 6838,
      "_bulls": 6839,
      "concept_person_lor": 6840,
      "plement": 6841,
      "concept_visualartmovement_britain": 6842,
      "_hussein": 6843,
      "_juan": 6844,
      "concept_animal_large_pred": 6845,
      "bany": 6846,
      "_higher_": 6847,
      "cereals": 6848,
      "_jackets": 6849,
      "concept_videogame_nights": 6850,
      "_germany": 6851,
      "concept_athlete_j_p__los": 6852,
      "concept_athlete_j_p__arenci": 6853,
      "concept_city_capital": 6854,
      "concept_olympics_": 6855,
      "concept_city_princeton": 6856,
      "umpur": 6857,
      "irlpool": 6858,
      "concept_food_crop": 6859,
      "concept_parlourgame_": 6860,
      "concept_musicalbum_fame": 6861,
      "concept_musicgenre_prog": 6862,
      "concept_coach_p_j__hill": 6863,
      "concept_coach_p_j__carlesimo": 6864,
      "d_jesus": 6865,
      "concept_wine_chardonn": 6866,
      "lexington": 6867,
      "concept_celltype_": 6868,
      "concept_website_performance": 6869,
      "perties": 6870,
      "_combination": 6871,
      "concept_mammal_reptiles": 6872,
      "feder": 6873,
      "concept_athlete_p_j__walters": 6874,
      "concept_city_frank": 6875,
      "_executive_officer": 6876,
      "hibition": 6877,
      "concept_academicfield_electrical": 6878,
      "_daniels": 6879,
      "zimbabwe": 6880,
      "iscussion": 6881,
      "irculation": 6882,
      "concept_drug_vitamin": 6883,
      "_carnegi": 6884,
      "concept_male_history": 6885,
      "_cowboys": 6886,
      "_situation": 6887,
      "concept_company_general_motors": 6888,
      "concept_tradeunion_article": 6889,
      "yracuse": 6890,
      "mitters": 6891,
      "adrenal": 6892,
      "olvents": 6893,
      "concept_animal_poultry": 6894,
      "eurotransmitters": 6895,
      "concept_biotechcompany_schering": 6896,
      "_legislature": 6897,
      "_security_council": 6898,
      "cription": 6899,
      "_hornets": 6900,
      "concept_bank_first_class_mail": 6901,
      "_wednesday": 6902,
      "concept_petroleumrefiningcompany_": 6903,
      "concept_wine_merlot": 6904,
      "concept_airport_north_america": 6905,
      "e_mercury_news": 6906,
      "concept_lymphn": 6907,
      "ricciardi": 6908,
      "fight": 6909,
      "concept_mammal_caribou": 6910,
      "concept_company_telegraph001": 6911,
      "uala_lumpur": 6912,
      "concept_insect_spider_mites": 6913,
      "concept_scientificterm_conditional": 6914,
      "concept_river_ohio_river": 6915,
      "concept_bank_parcel_post": 6916,
      "concept_city_decatur": 6917,
      "concept_island_interview": 6918,
      "applied": 6919,
      "concept_vertebrate_skunks": 6920,
      "concept_celebrity_lawsuit": 6921,
      "concept_athlete_j_p__ricciardi": 6922,
      "concept_athlete_j_p__losman": 6923,
      "concept_athlete_j_p__arencibia": 6924,
      "_un": 6925,
      "_ins": 6926,
      "_year": 6927,
      "_texas": 6928,
      "_technologies": 6929,
      "apo": 6930,
      "aul": 6931,
      "apartment": 6932,
      "bers": 6933,
      "cow": 6934,
      "corn": 6935,
      "hman": 6936,
      "house": 6937,
      "ibr": 6938,
      "jarat": 6939,
      "kok": 6940,
      "late": 6941,
      "loride": 6942,
      "mar": 6943,
      "ne_tv": 6944,
      "opt": 6945,
      "oice": 6946,
      "pur": 6947,
      "pb_tv": 6948,
      "rition": 6949,
      "raccoons": 6950,
      "sville": 6951,
      "tid": 6952,
      "ture": 6953,
      "two": 6954,
      "uy": 6955,
      "ustr": 6956,
      "wors": 6957,
      "ptors": 6958,
      "concept_place": 6959,
      "ating": 6960,
      "alcare": 6961,
      "roy": 6962,
      "roots": 6963,
      "eron": 6964,
      "orence": 6965,
      "ate_matter": 6966,
      "atent": 6967,
      "anines": 6968,
      "intest": 6969,
      "instit": 6970,
      "_nick": 6971,
      "_nuts": 6972,
      "environment": 6973,
      "omon": 6974,
      "ements": 6975,
      "e_room": 6976,
      "e_sh": 6977,
      "entucky": 6978,
      "ental_health": 6979,
      "ofwors": 6980,
      "uras": 6981,
      "arta": 6982,
      "arters": 6983,
      "amm": 6984,
      "policy": 6985,
      "erse": 6986,
      "unte": 6987,
      "istry": 6988,
      "leston": 6989,
      "concept_city_state": 6990,
      "concept_city_central": 6991,
      "ewlett": 6992,
      "ases": 6993,
      "asis": 6994,
      "ila": 6995,
      "ilant": 6996,
      "_california": 6997,
      "_cleveland": 6998,
      "_book": 6999,
      "_bra": 7000,
      "verizon": 7001,
      "adgers": 7002,
      "_mach": 7003,
      "_morgan": 7004,
      "iant": 7005,
      "rex": 7006,
      "eld": 7007,
      "ella": 7008,
      "elena": 7009,
      "ulty": 7010,
      "the": 7011,
      "olic": 7012,
      "concept_profession_co": 7013,
      "aco": 7014,
      "acy_": 7015,
      "concept_personalcare": 7016,
      "_taylor": 7017,
      "_place": 7018,
      "_wine": 7019,
      "_din": 7020,
      "_det": 7021,
      "_director": 7022,
      "concept_mammal_mar": 7023,
      "_gland": 7024,
      "_gall": 7025,
      "_gary_": 7026,
      "_garden": 7027,
      "concept_book_terms": 7028,
      "concept_company_ford": 7029,
      "concept_company_york": 7030,
      "concept_company_video": 7031,
      "concept_company_ebay": 7032,
      "laim": 7033,
      "_hug": 7034,
      "irk": 7035,
      "iop": 7036,
      "ated_animals": 7037,
      "concept_profession_artis": 7038,
      "stees": 7039,
      "steel": 7040,
      "concept_animal_sea": 7041,
      "concept_animal_dog": 7042,
      "concept_website_jobs": 7043,
      "concept_website_amazon": 7044,
      "concept_politicianus_barr": 7045,
      "cium": 7046,
      "concept_sportsteam_south": 7047,
      "concept_sportsteam_western": 7048,
      "ima": 7049,
      "implement": 7050,
      "_jagu": 7051,
      "concept_country_afghanistan": 7052,
      "concept_country_indones": 7053,
      "concept_country_zimbabwe": 7054,
      "concept_stateorprovince_afternoon": 7055,
      "ques": 7056,
      "concept_agriculturalproduct_g": 7057,
      "concept_bodypart_v": 7058,
      "e_biden": 7059,
      "pret": 7060,
      "concept_visualizablething_n": 7061,
      "concept_visualizablething_lo": 7062,
      "concept_visualizablething_master_suite": 7063,
      "concept_visualizablething_baths": 7064,
      "concept_televisionstation_": 7065,
      "igg": 7066,
      "concept_university_d": 7067,
      "_lungs": 7068,
      "concept_room_st": 7069,
      "concept_room_main": 7070,
      "logy": 7071,
      "eye": 7072,
      "raptors": 7073,
      "concept_building_bill": 7074,
      "concept_governmentorganization_management": 7075,
      "even": 7076,
      "concept_newspaper_national": 7077,
      "concept_musicalbum_child": 7078,
      "concept_musicalbum_document": 7079,
      "illustr": 7080,
      "concept_vegetable_pars": 7081,
      "concept_vegetable_wheat": 7082,
      "concept_officebuildingroom_delux": 7083,
      "_rate": 7084,
      "ymouth": 7085,
      "_recluse": 7086,
      "_store": 7087,
      "concept_year_n192": 7088,
      "concept_scientificterm_ch": 7089,
      "concept_scientificterm_comput": 7090,
      "concept_scientificterm_prob": 7091,
      "concept_geopoliticallocation_south": 7092,
      "concept_geopoliticallocation_surgery": 7093,
      "concept_ceo_robert": 7094,
      "guid": 7095,
      "concept_televisionstation_wf": 7096,
      "concept_city_bloom": 7097,
      "concept_river_mississippi": 7098,
      "concept_buildingfeature_home": 7099,
      "_print": 7100,
      "ample": 7101,
      "concept_academicfield_applied": 7102,
      "concept_televisionstation_kw": 7103,
      "ovo": 7104,
      "concept_physicalaction_development": 7105,
      "berta": 7106,
      "concept_politicsissue_cre": 7107,
      "concept_book_forum": 7108,
      "concept_personus_operation": 7109,
      "_georgetown": 7110,
      "e_class": 7111,
      "feed": 7112,
      "concept_governmentorganization_u_s_": 7113,
      "eller": 7114,
      "_cold_water": 7115,
      "concept_person_peter": 7116,
      "_cav": 7117,
      "_fort": 7118,
      "_cohen": 7119,
      "concept_city_down": 7120,
      "s_of": 7121,
      "concept_musicgenre_punk": 7122,
      "concept_musicgenre_class": 7123,
      "_learning": 7124,
      "eley": 7125,
      "concept_sportsteam_uc": 7126,
      "concept_visualizablething_al": 7127,
      "concept_furniture_sleeper": 7128,
      "concept_bodypart_organs": 7129,
      "_carotid": 7130,
      "concept_arthropod_raccoons": 7131,
      "_express": 7132,
      "concept_profession_mental_health": 7133,
      "concept_mammal_cat": 7134,
      "concept_mammal_canines": 7135,
      "annel": 7136,
      "concept_musicalbum_station": 7137,
      "_gujarat": 7138,
      "aceut": 7139,
      "ary_elections": 7140,
      "concept_plant_": 7141,
      "concept_city_long": 7142,
      "concept_room_open": 7143,
      "concept_celebrity_s": 7144,
      "concept_automobilemodel_f": 7145,
      "_clams": 7146,
      "concept_city_glen": 7147,
      "concept_retailstore_ibm": 7148,
      "heim": 7149,
      "concept_bird_eagles": 7150,
      "concept_artery_vessel": 7151,
      "concept_chemical_flu": 7152,
      "y_members": 7153,
      "ferences": 7154,
      "concept_dateliteral_n1947": 7155,
      "concept_chemical_nitrous": 7156,
      "concept_mldataset__": 7157,
      "concept_personeurope_j": 7158,
      "ney_": 7159,
      "neys": 7160,
      "_fox_news": 7161,
      "_scot": 7162,
      "uk_": 7163,
      "ukon": 7164,
      "_territ": 7165,
      "concept_mammal_small_dogs": 7166,
      "concept_mammal_hares": 7167,
      "concept_website_kenya": 7168,
      "concept_politicianus_governor": 7169,
      "concept_politicianus_gov_": 7170,
      "lege_": 7171,
      "legisl": 7172,
      "_steve_": 7173,
      "concept_dayofweek_sunday": 7174,
      "_corp_": 7175,
      "ambodia": 7176,
      "concept_city_st__": 7177,
      "concept_city_status": 7178,
      "central_nervous_system": 7179,
      "concept_emotion_officer": 7180,
      "concept_emotion_appe": 7181,
      "concept_shoppingmall_columbia": 7182,
      "concept_ceo_jim": 7183,
      "_harry_": 7184,
      "concept_country_n": 7185,
      "concept_nerve_spinal_cord": 7186,
      "_mole": 7187,
      "_managers": 7188,
      "concept_mammal_sheep_": 7189,
      "concept_amphibian_fro": 7190,
      "_first_": 7191,
      "concept_profession_health_care_professionals": 7192,
      "johnson": 7193,
      "concept_mammal_lion": 7194,
      "_lakes": 7195,
      "concept_person_sri_lanka": 7196,
      "concept_wallitem_": 7197,
      "_snow": 7198,
      "concept_university_national": 7199,
      "urtles": 7200,
      "concept_sportsteam_packers": 7201,
      "concept_wine_cabernet_sauvignon": 7202,
      "allas_morning": 7203,
      "concept_mediatype_": 7204,
      "concept_agent_start": 7205,
      "concept_profession_professional": 7206,
      "_27_2": 7207,
      "concept_year_n1865": 7208,
      "concept_politicianus_democratic": 7209,
      "concept_person_lord": 7210,
      "_and_var": 7211,
      "_husk": 7212,
      "_return": 7213,
      "concept_vegetable_cabbage": 7214,
      "ximation": 7215,
      "concept_newspaper_idaho": 7216,
      "_stanley": 7217,
      "_panthers": 7218,
      "response": 7219,
      "_limit": 7220,
      "concept_chemical_organic_compounds": 7221,
      "concept_dateliteral_n1953": 7222,
      "vention": 7223,
      "concept_politicsbill_compla": 7224,
      "concept_profession_diet": 7225,
      "concept_restaurant_m": 7226,
      "concept_artery_skin": 7227,
      "suite_bathroom": 7228,
      "e_jays": 7229,
[...]
