{
  "version": "1.0",
  "truncation": null,
  "padding": null,
  "added_tokens": [
    {
      "id": 0,
      "content": "[UNK]",
      "single_word": false,
      "lstrip": false,
      "rstrip": false,
      "normalized": false,
      "special": true
    },
    {
      "id": 1,
      "content": "[CLS]",
      "single_word": false,
      "lstrip": false,
      "rstrip": false,
      "normalized": false,
      "special": true
    },
    {
      "id": 2,
      "content": "[SEP]",
      "single_word": false,
      "lstrip": false,
      "rstrip": false,
      "normalized": false,
      "special": true
    },
    {
      "id": 3,
      "content": "[PAD]",
      "single_word": false,
      "lstrip": false,
      "rstrip": false,
      "normalized": false,
      "special": true
    },
    {
      "id": 4,
      "content": "[MASK]",
      "single_word": false,
      "lstrip": false,
      "rstrip": false,
      "normalized": false,
      "special": true
    },
    {
      "id": 33929,
      "content": " ",
      "single_word": false,
      "lstrip": false,
      "rstrip": false,
      "normalized": true,
      "special": false
    }
  ],
  "normalizer": null,
  "pre_tokenizer": {
    "type": "WhitespaceSplit"
  },
  "post_processor": null,
  "decoder": null,
  "model": {
    "type": "BPE",
    "dropout": null,
    "unk_token": "[UNK]",
    "continuing_subword_prefix": null,
    "end_of_word_suffix": null,
    "fuse_unk": false,
    "byte_fallback": false,
    "ignore_merges": false,
    "vocab": {
      "[UNK]": 0,
      "[CLS]": 1,
      "[SEP]": 2,
      "[PAD]": 3,
      "[MASK]": 4,
      "0": 5,
      "1": 6,
      "2": 7,
      "3": 8,
      "4": 9,
      "5": 10,
      "6": 11,
      "7": 12,
      "8": 13,
      "9": 14,
      ":": 15,
      "_": 16,
      "a": 17,
      "b": 18,
      "c": 19,
      "d": 20,
      "e": 21,
      "f": 22,
      "g": 23,
      "h": 24,
      "i": 25,
      "j": 26,
      "k": 27,
      "l": 28,
      "m": 29,
      "n": 30,
      "o": 31,
      "p": 32,
      "q": 33,
      "r": 34,
      "s": 35,
      "t": 36,
      "u": 37,
      "v": 38,
      "w": 39,
      "x": 40,
      "y": 41,
      "z": 42,
      "on": 43,
      "ce": 44,
      "con": 45,
      "pt": 46,
      "cept": 47,
      "concept": 48,
      "concept_": 49,
      "at": 50,
      "concept:": 51,
      "al": 52,
      "ate": 53,
      "it": 54,
      "er": 55,
      "ro": 56,
      "an": 57,
      "ion": 58,
      "or": 59,
      "in": 60,
      "ic": 61,
      "date": 62,
      "pro": 63,
      "_n": 64,
      "st": 65,
      "ar": 66,
      "en": 67,
      "concept_c": 68,
      "es": 69,
      "y_": 70,
      "concept:at": 71,
      "ation": 72,
      "mal": 73,
      "e_": 74,
      "concept:atdate": 75,
      "lo": 76,
      "em": 77,
      "ag": 78,
      "lit": 79,
      "ent": 80,
      "art": 81,
      "concept_date": 82,
      "00": 83,
      "sion": 84,
      "of": 85,
      "ani": 86,
      "om": 87,
      "loc": 88,
      "ch": 89,
      "am": 90,
      "ical": 91,
      "yp": 92,
      "for": 93,
      "concept_b": 94,
      "ity_": 95,
      "prof": 96,
      "ession": 97,
      "profession": 98,
      "us": 99,
      "_n2": 100,
      "_n200": 101,
      "su": 102,
      "po": 103,
      "location": 104,
      "animal": 105,
      "concept_city_": 106,
      "ct": 107,
      "ver": 108,
      "concept_m": 109,
      "et": 110,
      "xy": 111,
      "proxy": 112,
      "proxyfor": 113,
      "ew": 114,
      "se": 115,
      "agent": 116,
      "ist": 117,
      "_new": 118,
      "emical": 119,
      "el": 120,
      "_c": 121,
      "un": 122,
      "eral": 123,
      "as": 124,
      "literal": 125,
      "concept_dateliteral": 126,
      "ith": 127,
      "omp": 128,
      "state": 129,
      "with": 130,
      "son": 131,
      "eof": 132,
      "ad": 133,
      "ut": 134,
      "polit": 135,
      "concept_dateliteral_n200": 136,
      "ing": 137,
      "is": 138,
      "re": 139,
      "il": 140,
      "ur": 141,
      "od": 142,
      "ian": 143,
      "ypeof": 144,
      "istypeof": 145,
      "_m": 146,
      "prov": 147,
      "per": 148,
      "concept:proxyfor": 149,
      "ince": 150,
      "province": 151,
      "orprovince": 152,
      "stateorprovince": 153,
      "we": 154,
      "ammal": 155,
      "_s": 156,
      "la": 157,
      "concept_stateorprovince": 158,
      "concept:agent": 159,
      "concept_profession": 160,
      "_p": 161,
      "_n1": 162,
      "ician": 163,
      "vi": 164,
      "_n19": 165,
      "_b": 166,
      "part": 167,
      "concept:animal": 168,
      "ok": 169,
      "tr": 170,
      "concept:atlocation": 171,
      "ypart": 172,
      "odypart": 173,
      "sub": 174,
      "concept_we": 175,
      "concept_mammal": 176,
      "concept_ch": 177,
      "ac": 178,
      "concept:sub": 179,
      "partof": 180,
      "concept:subpartof": 181,
      "concept_polit": 182,
      "ompan": 183,
      "ol": 184,
      "_w": 185,
      "concept_date_n200": 186,
      "ort": 187,
      "concept:m": 188,
      "concept_co": 189,
      "person": 190,
      "sp": 191,
      "chemical": 192,
      "_d": 193,
      "icianus": 194,
      "fi": 195,
      "_t": 196,
      "concept_chemical": 197,
      "concept_bo": 198,
      "sit": 199,
      "ear": 200,
      "sect": 201,
      "concept_book": 202,
      "insect": 203,
      "concept_compan": 204,
      "ual": 205,
      "le": 206,
      "id": 207,
      "utual": 208,
      "concept:mutual": 209,
      "concept:mutualproxyfor": 210,
      "concept_mus": 211,
      "concept_person": 212,
      "cont": 213,
      "iver": 214,
      "lan": 215,
      "withagent": 216,
      "concept:agentc": 217,
      "concept_coun": 218,
      "um": 219,
      "ap": 220,
      "_g": 221,
      "year": 222,
      "concept_g": 223,
      "ain": 224,
      "ever": 225,
      "org": 226,
      "concept_year": 227,
      "bodypart": 228,
      "concept_company_": 229,
      "everag": 230,
      "concept_profession_": 231,
      "ric": 232,
      "ali": 233,
      "_n199": 234,
      "ul": 235,
      "ot": 236,
      "ph": 237,
      "eld": 238,
      "field": 239,
      "zation": 240,
      "ath": 241,
      "ab": 242,
      "sport": 243,
      "ia": 244,
      "concept_book_new": 245,
      "adem": 246,
      "academ": 247,
      "academic": 248,
      "academicfield": 249,
      "concept:profession": 250,
      "istypeofprofession": 251,
      "concept:professionistypeofprofession": 252,
      "_h": 253,
      "ompet": 254,
      "fe": 255,
      "ompetes": 256,
      "ls": 257,
      "ated": 258,
      "ci": 259,
      "organi": 260,
      "concept:location": 261,
      "inlocation": 262,
      "located": 263,
      "withinlocation": 264,
      "concept:locationlocated": 265,
      "concept:locationlocatedwithinlocation": 266,
      "du": 267,
      "ele": 268,
      "ir": 269,
      "bsit": 270,
      "bor": 271,
      "ers": 272,
      "concept_websit": 273,
      "ates": 274,
      "concept_sport": 275,
      "organization": 276,
      "_j": 277,
      "e_new": 278,
      "concept_website_": 279,
      "concept_insect": 280,
      "ex": 281,
      "concept_animal": 282,
      "ment": 283,
      "act": 284,
      "chas": 285,
      "station": 286,
      "suchas": 287,
      "ob": 288,
      "_f": 289,
      "ed": 290,
      "duct": 291,
      "labor": 292,
      "product": 293,
      "concept_countr": 294,
      "ult": 295,
      "arter": 296,
      "concept_t": 297,
      "ollabor": 298,
      "concept:agentcollabor": 299,
      "ateswithagent": 300,
      "concept:agentcollaborateswithagent": 301,
      "concept_politicianus": 302,
      "concept_r": 303,
      "concept_country_": 304,
      "concept:chemical": 305,
      "istypeofchemical": 306,
      "concept:chemicalistypeofchemical": 307,
      "vision": 308,
      "contro": 309,
      "ding": 310,
      "controls": 311,
      "concept:agentcontrols": 312,
      "elevision": 313,
      "let": 314,
      "land": 315,
      "br": 316,
      "concept_television": 317,
      "_k": 318,
      "ste": 319,
      "sh": 320,
      "concept_ge": 321,
      "te": 322,
      "th": 323,
      "atur": 324,
      "ural": 325,
      "istypeofanimal": 326,
      "concept:animalistypeofanimal": 327,
      "agric": 328,
      "agricult": 329,
      "ay": 330,
      "qu": 331,
      "lin": 332,
      "uralproduct": 333,
      "agriculturalproduct": 334,
      "concept_year_n199": 335,
      "ow": 336,
      "concept_beverag": 337,
      "concept_music": 338,
      "lak": 339,
      "concept_dateliteral_n2007": 340,
      "concept_stateorprovince_": 341,
      "rey": 342,
      "steam": 343,
      "ach": 344,
      "concept_sportsteam": 345,
      "ater": 346,
      "ter": 347,
      "concept_bodypart": 348,
      "univer": 349,
      "ather": 350,
      "als": 351,
      "concept_vi": 352,
      "ig": 353,
      "ains": 354,
      "over": 355,
      "_r": 356,
      "prey": 357,
      "concept:animalprey": 358,
      "concept:animalpreyson": 359,
      "concept_televisionstation": 360,
      "ve": 361,
      "001": 362,
      "concept:bodypart": 363,
      "contains": 364,
      "concept:bodypartcontains": 365,
      "concept:bodypartcontainsbodypart": 366,
      "concept_visu": 367,
      "animals": 368,
      "concept_academicfield": 369,
      "io": 370,
      "ish": 371,
      "concept_lak": 372,
      "ies": 373,
      "ton": 374,
      "overn": 375,
      "im": 376,
      "arth": 377,
      "concept_dateliteral_n2006": 378,
      "concept:c": 379,
      "end": 380,
      "overnment": 381,
      "_animals": 382,
      "pod": 383,
      "concept_lake_new": 384,
      "zab": 385,
      "sy": 386,
      "ropod": 387,
      "arthropod": 388,
      "alizab": 389,
      "concept_visualizab": 390,
      "uil": 391,
      "concept_dateliteral_n2008": 392,
      "phen": 393,
      "omen": 394,
      "uilding": 395,
      "ork": 396,
      "concept_building": 397,
      "omenon": 398,
      "concept_weather": 399,
      "phenomenon": 400,
      "concept_weatherphenomenon": 401,
      "beverag": 402,
      "and": 403,
      "concept_s": 404,
      "res": 405,
      "featur": 406,
      "concept_chemical_": 407,
      "ompeteswith": 408,
      "concept:competeswith": 409,
      "concept_dateliteral_n2005": 410,
      "ity": 411,
      "concept_arter": 412,
      "concept_artery_": 413,
      "log": 414,
      "concept_government": 415,
      "concept_governmentorganization": 416,
      "hing": 417,
      "ion_": 418,
      "non": 419,
      "bum": 420,
      "fish": 421,
      "concept:agentcompetes": 422,
      "concept:agentcompeteswithagent": 423,
      "icalbum": 424,
      "concept_musicalbum": 425,
      "stem": 426,
      "ys": 427,
      "_water": 428,
      "ics": 429,
      "opolit": 430,
      "opolitical": 431,
      "ts": 432,
      "concept_count": 433,
      "issu": 434,
      "concept:animalsuchas": 435,
      "out": 436,
      "_l": 437,
      "concept_date_n199": 438,
      "concept_county_": 439,
      "_a": 440,
      "ca": 441,
      "gen": 442,
      "concept_stateorprovince_c": 443,
      "concept_geopolitical": 444,
      "ail": 445,
      "verte": 446,
      "vertebr": 447,
      "ip": 448,
      "fic": 449,
      "concept_date_n2004": 450,
      "_y": 451,
      "red": 452,
      "concept_beverage_": 453,
      "ev": 454,
      "univers": 455,
      "bs": 456,
      "ors": 457,
      "le_": 458,
      "concept_date_n2003": 459,
      "sed": 460,
      "university_": 461,
      "nia": 462,
      "gr": 463,
      "concept_politics": 464,
      "ef": 465,
      "endor": 466,
      "ard": 467,
      "olit": 468,
      "byp": 469,
      "cient": 470,
      "concept:polit": 471,
      "fornia": 472,
      "icianusendor": 473,
      "alifornia": 474,
      "sedbyp": 475,
      "oliticianus": 476,
      "concept:politicianusendor": 477,
      "sedbypoliticianus": 478,
      "concept:politicianusendorsedbypoliticianus": 479,
      "posit": 480,
      "concept_university_": 481,
      "ea": 482,
      "shap": 483,
      "concept_stateorprovince_california": 484,
      "ational": 485,
      "issue_": 486,
      "concept_scient": 487,
      "est": 488,
      "eric": 489,
      "our": 490,
      "vertebrate": 491,
      "ific": 492,
      "_state": 493,
      "_in": 494,
      "concept_j": 495,
      "ico": 496,
      "americ": 497,
      "bl": 498,
      "feature_": 499,
      "ank": 500,
      "concept_buildingfeature_": 501,
      "exico": 502,
      "_tv": 503,
      "concept_dateliteral_n2002": 504,
      "concept_year_n19": 505,
      "concept_ce": 506,
      "_sy": 507,
      "term": 508,
      "arch": 509,
      "ech": 510,
      "concept_scientific": 511,
      "concept_scientificterm": 512,
      "ck": 513,
      "erse": 514,
      "ym": 515,
      "_nca": 516,
      "_ncaa": 517,
      "ersey": 518,
      "male_": 519,
      "_system": 520,
      "lething": 521,
      "concept_visualizablething": 522,
      "apon": 523,
      "concept_w": 524,
      "_national": 525,
      "professionals": 526,
      "concept_weapon": 527,
      "concept_date_n2001": 528,
      "mexico": 529,
      "room": 530,
      "obposit": 531,
      "concept_jobposit": 532,
      "fl": 533,
      "og": 534,
      "own": 535,
      "pr": 536,
      "concept_n": 537,
      "ass": 538,
      "cen": 539,
      "concept_televisionstation_w": 540,
      "ine_": 541,
      "_car": 542,
      "rom": 543,
      "concept_geopoliticallocation": 544,
      "ill": 545,
      "concept_date_n2000": 546,
      "les": 547,
      "event": 548,
      "island": 549,
      "concept_mammal_animals": 550,
      "concept_personmexico": 551,
      "_york": 552,
      "gu": 553,
      "her": 554,
      "concept_agriculturalproduct": 555,
      "athlet": 556,
      "concept_river": 557,
      "iv": 558,
      "_de": 559,
      "phys": 560,
      "ird": 561,
      "ak": 562,
      "concept_h": 563,
      "af": 564,
      "oun": 565,
      "concept_coach": 566,
      "concept_company": 567,
      "etric": 568,
      "ces": 569,
      "concept_insect_": 570,
      "gram": 571,
      "_ch": 572,
      "program": 573,
      "cl": 574,
      "oh": 575,
      "_se": 576,
      "concept_phys": 577,
      "concept:sy": 578,
      "concept_company_p": 579,
      "nonym": 580,
      "concept:synonym": 581,
      "concept:synonymfor": 582,
      "all": 583,
      "ometric": 584,
      "concept_geometric": 585,
      "concept_geometricshap": 586,
      "stor": 587,
      "concept_geometricshape_": 588,
      "_new_york": 589,
      "concept_political": 590,
      "par": 591,
      "offi": 592,
      "ru": 593,
      "concept_city_b": 594,
      "ming": 595,
      "concept_profession_professionals": 596,
      "aper": 597,
      "office": 598,
      "invertebrate": 599,
      "concept_fish": 600,
      "item": 601,
      "concept:beverag": 602,
      "emad": 603,
      "beverage": 604,
      "efrom": 605,
      "concept:beveragemad": 606,
      "efrombeverage": 607,
      "concept:beveragemadefrombeverage": 608,
      "concept_company_pbs": 609,
      "com": 610,
      "_jersey": 611,
      "age_": 612,
      "concept_politician": 613,
      "ah": 614,
      "ood": 615,
      "concept_tr": 616,
      "_v": 617,
      "_re": 618,
      "concept_island": 619,
      "op": 620,
      "concept_date_n19": 621,
      "concept_personmexico_ncaa": 622,
      "concept_jobposition": 623,
      "ib": 624,
      "concept_televisionstation_k": 625,
      "concept_ceo": 626,
      "_st": 627,
      "american": 628,
      "concept_bank": 629,
      "langu": 630,
      "ine": 631,
      "language_": 632,
      "ans": 633,
      "concept_politicsissue_": 634,
      "concept_physical": 635,
      "insects": 636,
      "programming": 637,
      "concept_programming": 638,
      "concept_date_n1999": 639,
      "_air": 640,
      "concept_weapon_national": 641,
      "concept_programminglanguage_": 642,
      "concept_athlet": 643,
      "concept_physicalact": 644,
      "concept_athlete_": 645,
      "concept_a": 646,
      "_new_jersey": 647,
      "song": 648,
      "concept_city_h": 649,
      "adio": 650,
      "ubl": 651,
      "etail": 652,
      "ada": 653,
      "concept_beverage_new": 654,
      "orth": 655,
      "concept_arthropod": 656,
      "spaper": 657,
      "ame_": 658,
      "concept_musicsong": 659,
      "ublic": 660,
      "igh": 661,
      "ition": 662,
      "concept_city_s": 663,
      "ewspaper": 664,
      "concept_newspaper": 665,
      "ets": 666,
      "concept_city_m": 667,
      "artist": 668,
      "concept_retail": 669,
      "outh": 670,
      "concept_retailstor": 671,
      "ice": 672,
      "concept_ve": 673,
      "concept_weatherphenomenon_water": 674,
      "concept_room": 675,
      "_pr": 676,
      "int": 677,
      "ark": 678,
      "ence": 679,
      "artery": 680,
      "concept_radio": 681,
      "concept_radiostation": 682,
      "concept_male_": 683,
      "concept_stateorprovince_m": 684,
      "can": 685,
      "ind": 686,
      "eci": 687,
      "iot": 688,
      "plan": 689,
      "ov": 690,
      "port": 691,
      "_com": 692,
      "linton": 693,
      "concept_bodypart_system": 694,
      "concept_wine_": 695,
      "orid": 696,
      "au": 697,
      "ne": 698,
      "bon": 699,
      "concept:academicfield": 700,
      "suchasacademicfield": 701,
      "concept:academicfieldsuchasacademicfield": 702,
      "ofperson": 703,
      "ium": 704,
      "emot": 705,
      "universit": 706,
      "compan": 707,
      "concept_emot": 708,
      "university": 709,
      "concept_city_w": 710,
      "concept_city_fl": 711,
      "public": 712,
      "ille": 713,
      "orida": 714,
      "_o": 715,
      "ord": 716,
      "concept_date_n2009": 717,
      "nown": 718,
      "oknown": 719,
      "tra": 720,
      "oknownas": 721,
      "suchasm": 722,
      "concept_insect_insects": 723,
      "ists": 724,
      "he": 725,
      "iotech": 726,
      "concept_biotech": 727,
      "acter": 728,
      "concept_biotechcompan": 729,
      "concept_musicartist": 730,
      "bc": 731,
      "concept_mammal_p": 732,
      "ide": 733,
      "game_": 734,
      "ack": 735,
      "isit": 736,
      "ang": 737,
      "clu": 738,
      "rain": 739,
      "sc": 740,
      "_ro": 741,
      "aracter": 742,
      "concept_mon": 743,
      "ama": 744,
      "concept_city_florida": 745,
      "_po": 746,
      "equ": 747,
      "e_n": 748,
      "concept_biotechcompany_": 749,
      "_sp": 750,
      "concept_year_n1998": 751,
      "concept_city_c": 752,
      "ace": 753,
      "concept_book_": 754,
      "exas": 755,
      "ville": 756,
      "ats": 757,
      "concept:animalsuchasinsect": 758,
      "str": 759,
      "enn": 760,
      "concept_buildingfeature_american": 761,
      "canada": 762,
      "concept_character": 763,
      "trait": 764,
      "concept_charactertrait": 765,
      "concept:agriculturalproduct": 766,
      "inclu": 767,
      "_pres": 768,
      "dingagriculturalproduct": 769,
      "concept:agriculturalproductinclu": 770,
      "concept:agriculturalproductincludingagriculturalproduct": 771,
      "each": 772,
      "ous": 773,
      "_university": 774,
      "concept_event": 775,
      "ident": 776,
      "outcom": 777,
      "concept_eventoutcom": 778,
      "concept_city_t": 779,
      "ven": 780,
      "_carbon": 781,
      "ators": 782,
      "_clinton": 783,
      "ue_": 784,
      "concept_governmentorganization_": 785,
      "lood": 786,
      "concept_bird": 787,
      "concept_dateliteral_n19": 788,
      "iss": 789,
      "ld": 790,
      "concept_sports": 791,
      "concept_year_n198": 792,
      "concept_politicaloffice": 793,
      "concept_chemical_carbon": 794,
      "ervi": 795,
      "concept_city": 796,
      "_bus": 797,
      "concept_re": 798,
      "concept_blog": 799,
      "_su": 800,
      "conceptpr": 801,
      "concept:conceptpr": 802,
      "erequ": 803,
      "isiteof": 804,
      "concept:conceptprerequ": 805,
      "concept:conceptprerequisiteof": 806,
      "_ge": 807,
      "feed": 808,
      "river": 809,
      "concept_bodypart_system001": 810,
      "ions": 811,
      "os": 812,
      "ourn": 813,
      "other": 814,
      "ber": 815,
      "ape": 816,
      "concept_non": 817,
      "ests": 818,
      "aff": 819,
      "ug": 820,
      "oninsect": 821,
      "atfeed": 822,
      "concept:animalth": 823,
      "atfeedoninsect": 824,
      "concept:animalthatfeedoninsect": 825,
      "man": 826,
      "concept_academicfield_": 827,
      "concept_personus": 828,
      "di": 829,
      "up": 830,
      "way": 831,
      "hic": 832,
      "plant": 833,
      "area": 834,
      "eng": 835,
      "_north": 836,
      "concept_personcanada": 837,
      "concept_city_p": 838,
      "_cre": 839,
      "ohn": 840,
      "ants": 841,
      "concept_year_n1997": 842,
      "_georg": 843,
      "usic": 844,
      "concept_retailstore_": 845,
      "obil": 846,
      "landsc": 847,
      "parent": 848,
      "hington": 849,
      "_we": 850,
      "002": 851,
      "concept_vehic": 852,
      "ashington": 853,
      "landscape": 854,
      "features": 855,
      "ount": 856,
      "_pests": 857,
      "acqu": 858,
      "_sh": 859,
      "de": 860,
      "esse": 861,
      "concept_landscape": 862,
      "concept_landscapefeatures": 863,
      "cc": 864,
      "ek": 865,
      "concept_f": 866,
      "rop": 867,
      "mall": 868,
      "concept_vehicle_": 869,
      "ired": 870,
      "eet": 871,
      "re_": 872,
      "ant": 873,
      "concept:acqu": 874,
      "concept:acquired": 875,
      "concept:parent": 876,
      "_gas": 877,
      "concept:parentofperson": 878,
      "eum": 879,
      "ournal": 880,
      "ari": 881,
      "concept_physicalaction_": 882,
      "concept:arthropod": 883,
      "andother": 884,
      "concept:arthropodandother": 885,
      "concept:arthropodandotherarthropod": 886,
      "arg": 887,
      "concept_musicgen": 888,
      "ines": 889,
      "concept_museum": 890,
      "_search": 891,
      "concept_emotion": 892,
      "day": 893,
      "concept:animalsuchasfish": 894,
      "concept_invertebrate": 895,
      "elect": 896,
      "atures": 897,
      "_president": 898,
      "thing": 899,
      "_sci": 900,
      "concept_politicsb": 901,
      "_creatures": 902,
      "concept_st": 903,
      "concept_visualizables": 904,
      "concept_musicgenre_": 905,
      "concept_visualizablescen": 906,
      "ary": 907,
      "_ph": 908,
      "concept_insect_pests": 909,
      "ore": 910,
      "system": 911,
      "concept_weatherphenomenon_air": 912,
      "speci": 913,
      "bo": 914,
      "utom": 915,
      "utomobil": 916,
      "al_": 917,
      "ich": 918,
      "concept_bodypart_": 919,
      "concept_brain": 920,
      "ammalsuchasm": 921,
      "concept:mammalsuchasm": 922,
      "concept_braint": 923,
      "concept:mammalsuchasmammal": 924,
      "empt": 925,
      "_john": 926,
      "concept_company_new_york": 927,
      "concept_automobil": 928,
      "gin": 929,
      "_col": 930,
      "concept_bank_": 931,
      "concept_mammal_b": 932,
      "concept_animal_creatures": 933,
      "co": 934,
      "genres": 935,
      "usicgenres": 936,
      "attr": 937,
      "ox": 938,
      "alsoknownas": 939,
      "_bush": 940,
      "concept_automobilem": 941,
      "concept:river": 942,
      "ansport": 943,
      "oriver": 944,
      "iders": 945,
      "iesint": 946,
      "concept_braintissue_": 947,
      "emptiesint": 948,
      "concept:riveremptiesint": 949,
      "concept:riveremptiesintoriver": 950,
      "_ca": 951,
      "ont": 952,
      "concept_mammal_d": 953,
      "ptil": 954,
      "alle": 955,
      "ids": 956,
      "ran": 957,
      "erv": 958,
      "_th": 959,
      "ammals": 960,
      "concept_company_n": 961,
      "concept_transport": 962,
      "concept_radiostation_new_jersey": 963,
      "concept_transportation": 964,
      "alization": 965,
      "ect": 966,
      "_co": 967,
      "aker": 968,
      "gas": 969,
      "ster": 970,
      "und": 971,
      "concept_date_n1996": 972,
      "li": 973,
      "concept:speci": 974,
      "_city": 975,
      "alizationof": 976,
      "concept:specializationof": 977,
      "eu": 978,
      "_tim": 979,
      "search": 980,
      "concept_insect_b": 981,
      "concept_eventoutcome_": 982,
      "concept_visualizablescene_": 983,
      "ipment": 984,
      "ogs": 985,
      "aw": 986,
      "ju": 987,
      "concept_animal_animals": 988,
      "ms": 989,
      "rim": 990,
      "az": 991,
      "att": 992,
      "_mcc": 993,
      "concept_mammal_m": 994,
      "concept_politicsblog": 995,
      "iana": 996,
      "_ob": 997,
      "oci": 998,
      "olog": 999,
      "concept:animalsuchasinvertebrate": 1000,
      "ick": 1001,
      "concept_automobilemaker": 1002,
      "concept_reptil": 1003,
      "_mccain": 1004,
      "adium": 1005,
      "bur": 1006,
      "ome": 1007,
      "_comm": 1008,
      "be": 1009,
      "concept_chemical_m": 1010,
      "action": 1011,
      "concept_geopoliticalorganization": 1012,
      "irds": 1013,
      "concept_politician_clinton": 1014,
      "staff": 1015,
      "ement": 1016,
      "_tech": 1017,
      "concept_food": 1018,
      "_con": 1019,
      "cord": 1020,
      "els": 1021,
      "concept_animal_b": 1022,
      "ashington_d": 1023,
      "concept_city_d": 1024,
      "concept_month": 1025,
      "vir": 1026,
      "_states": 1027,
      "concept_reptile_": 1028,
      "der": 1029,
      "_he": 1030,
      "_obama": 1031,
      "show": 1032,
      "ge": 1033,
      "concept_mammal_s": 1034,
      "concept_city_washington_d": 1035,
      "concept_personcanada_search": 1036,
      "e_w": 1037,
      "sul": 1038,
      "eeting": 1039,
      "ument": 1040,
      "concept_fe": 1041,
      "concept_beverage_ju": 1042,
      "ception": 1043,
      "concept_vertebrate": 1044,
      "fir": 1045,
      "concept_sportse": 1046,
      "concept_chemical_gas": 1047,
      "concept_female_": 1048,
      "_work": 1049,
      "concept_profession_staff": 1050,
      "_river": 1051,
      "orevent": 1052,
      "concept_visualizablething_": 1053,
      "concept_stadium": 1054,
      "oreventven": 1055,
      "concept_stadiumoreventven": 1056,
      "concept_year_n1995": 1057,
      "quipment": 1058,
      "concept_sportsequipment": 1059,
      "ud": 1060,
      "ell": 1061,
      "vegas": 1062,
      "_caro": 1063,
      "ois": 1064,
      "rist": 1065,
      "e_m": 1066,
      "concept_city_k": 1067,
      "concept_company_nbc": 1068,
      "concept_stadiumoreventvenue_": 1069,
      "uck": 1070,
      "ations": 1071,
      "inn": 1072,
      "arm": 1073,
      "istr": 1074,
      "_journal": 1075,
      "concept_hall": 1076,
      "wayitem": 1077,
      "concept_hallwayitem": 1078,
      "ens": 1079,
      "concept_sportsteam_": 1080,
      "ase": 1081,
      "age": 1082,
      "redators": 1083,
      "america": 1084,
      "concept_city_washington_d_c": 1085,
      "unit": 1086,
      "concept_stateorprovince_new_jersey": 1087,
      "concept_televisionshow": 1088,
      "concept_weatherphenomenon_new": 1089,
      "ission": 1090,
      "ota": 1091,
      "ibut": 1092,
      "ight": 1093,
      "virgin": 1094,
      "_ex": 1095,
      "calle": 1096,
      "dartery": 1097,
      "concept:artery": 1098,
      "row": 1099,
      "ild": 1100,
      "concept_stateorprovince_t": 1101,
      "calledartery": 1102,
      "concept:arterycalledartery": 1103,
      "form": 1104,
      "umb": 1105,
      "_techn": 1106,
      "lina": 1107,
      "concept_academicfield_sci": 1108,
      "_gr": 1109,
      "shape": 1110,
      "oog": 1111,
      "urs": 1112,
      "concept_politicalpart": 1113,
      "concept_trad": 1114,
      "illin": 1115,
      "concept_profession_m": 1116,
      "app": 1117,
      "concept_politicalparty_": 1118,
      "illinois": 1119,
      "gov": 1120,
      "concept_stateorprovince_new": 1121,
      "europ": 1122,
      "concept_year_new": 1123,
      "concept_beverage_juice": 1124,
      "iox": 1125,
      "ston": 1126,
      "union": 1127,
      "_meeting": 1128,
      "concept_sportsgame_": 1129,
      "_carolina": 1130,
      "perception": 1131,
      "concept_perception": 1132,
      "_bar": 1133,
      "concept_musicalbum_": 1134,
      "_of": 1135,
      "ay_": 1136,
      "air": 1137,
      "lace": 1138,
      "_diox": 1139,
      "ll": 1140,
      "concept_mammal_predators": 1141,
      "has": 1142,
      "err": 1143,
      "concept_mammal_c": 1144,
      "_ind": 1145,
      "rust": 1146,
      "concept_nongov": 1147,
      "concept_nongovorganization": 1148,
      "orld": 1149,
      "ents": 1150,
      "rustace": 1151,
      "_br": 1152,
      "concept_coach_new": 1153,
      "ervices": 1154,
      "products": 1155,
      "first": 1156,
      "rogen": 1157,
      "amp": 1158,
      "ohio": 1159,
      "ki": 1160,
      "_wh": 1161,
      "concept_physicalaction": 1162,
      "ouse": 1163,
      "s_": 1164,
      "ress": 1165,
      "virginia": 1166,
      "_bo": 1167,
      "_blood": 1168,
      "_fl": 1169,
      "ansas": 1170,
      "zon": 1171,
      "actition": 1172,
      "concept_politicianus_president": 1173,
      "concept_city_home": 1174,
      "ps": 1175,
      "ren": 1176,
      "concept:thing": 1177,
      "ania": 1178,
      "hasshape": 1179,
      "concept:thinghasshape": 1180,
      "west": 1181,
      "concept_chemical_n": 1182,
      "concept_insect_m": 1183,
      "concept_city_n": 1184,
      "concept_city_l": 1185,
      "concept_stateorprovince_illinois": 1186,
      "actitioners": 1187,
      "mon": 1188,
      "abc": 1189,
      "dise": 1190,
      "by": 1191,
      "lebr": 1192,
      "concept_city_texas": 1193,
      "_al": 1194,
      "ri": 1195,
      "eth": 1196,
      "republic": 1197,
      "_times": 1198,
      "concept_animal_animals001": 1199,
      "_le": 1200,
      "ey": 1201,
      "ks": 1202,
      "ure": 1203,
      "concept_year_n1994": 1204,
      "roomitem": 1205,
      "concept_crustace": 1206,
      "concept_crustacean": 1207,
      "ast": 1208,
      "igan": 1209,
      "concept_date_n194": 1210,
      "engine": 1211,
      "essels": 1212,
      "ial": 1213,
      "ject": 1214,
      "ite": 1215,
      "concept_celebr": 1216,
      "_dioxide": 1217,
      "etro": 1218,
      "concept_athlete_ind": 1219,
      "ichigan": 1220,
      "concept_beach": 1221,
      "concept_city_f": 1222,
      "concept_agriculturalproduct_": 1223,
      "_nurs": 1224,
      "ary_": 1225,
      "providers": 1226,
      "burg": 1227,
      "leag": 1228,
      "ountain": 1229,
      "concept_chemical_water": 1230,
      "oogle": 1231,
      "cond": 1232,
      "concept_plant": 1233,
      "concept_building_": 1234,
      "concept_mammal_dogs": 1235,
      "concept_mammal_pets": 1236,
      "ology": 1237,
      "united": 1238,
      "blood": 1239,
      "_south": 1240,
      "_di": 1241,
      "concept_celebrity_": 1242,
      "av": 1243,
      "ford": 1244,
      "icians": 1245,
      "aho": 1246,
      "_e": 1247,
      "_tr": 1248,
      "concept_chemical_h": 1249,
      "ervice": 1250,
      "concept_profession_pr": 1251,
      "concept_profession_providers": 1252,
      "tv": 1253,
      "ons": 1254,
      "_part": 1255,
      "exper": 1256,
      "concept_sportsteam_ncaa": 1257,
      "concept:organization": 1258,
      "alth": 1259,
      "concept_visualizable": 1260,
      "arge_": 1261,
      "concept:organizationalsoknownas": 1262,
      "lou": 1263,
      "concept_city_g": 1264,
      "olor": 1265,
      "concept_website_c": 1266,
      "concept_animal_m": 1267,
      "tea": 1268,
      "concept_chemical_sul": 1269,
      "_georgia": 1270,
      "old": 1271,
      "concept_stateorprovince_texas": 1272,
      "ilit": 1273,
      "jersey": 1274,
      "concept_mammal_": 1275,
      "_kids": 1276,
      "redit": 1277,
      "_workers": 1278,
      "concept_stateorprovince_newjersey": 1279,
      "concept_animal_birds": 1280,
      "ado": 1281,
      "_pal": 1282,
      "arteries": 1283,
      "tern": 1284,
      "pi": 1285,
      "concept_sportsleag": 1286,
      "min": 1287,
      "mals": 1288,
      "concept_profession_s": 1289,
      "_day": 1290,
      "concept_date_n1993": 1291,
      "states": 1292,
      "_state_university": 1293,
      "_deer": 1294,
      "are": 1295,
      "ins": 1296,
      "concept_mammal_bear": 1297,
      "ka": 1298,
      "concept_crim": 1299,
      "ugs": 1300,
      "louis": 1301,
      "cer": 1302,
      "ator": 1303,
      "an_": 1304,
      "concept_stateorprovince_p": 1305,
      "concept_artery_v": 1306,
      "concept_politicaloffice_": 1307,
      "years": 1308,
      "concept_stateorprovince_georgia": 1309,
      "concept_university_search": 1310,
      "erro": 1311,
      "concept_credit": 1312,
      "obs": 1313,
      "_li": 1314,
      "by_": 1315,
      "lv": 1316,
      "concept:tea": 1317,
      "law": 1318,
      "_res": 1319,
      "concept_retailstore_n": 1320,
      "malsoknownas": 1321,
      "concept:teamalsoknownas": 1322,
      "_cr": 1323,
      "_par": 1324,
      "__": 1325,
      "fer": 1326,
      "yd": 1327,
      "ale": 1328,
      "ann": 1329,
      "reen": 1330,
      "_do": 1331,
      "_house": 1332,
      "concept_jobposition_": 1333,
      "concept_attr": 1334,
      "union_": 1335,
      "concept_mammal_w": 1336,
      "border": 1337,
      "shop": 1338,
      "_technology": 1339,
      "concept_academicfield_science": 1340,
      "e_b": 1341,
      "ctor": 1342,
      "concept_terro": 1343,
      "east": 1344,
      "ristorganization": 1345,
      "umbia": 1346,
      "concept_profession_practitioners": 1347,
      "concept_website_cbs": 1348,
      "concept_terroristorganization": 1349,
      "concept_musician": 1350,
      "_youth": 1351,
      "indiana": 1352,
      "_speci": 1353,
      "oft": 1354,
      "ctors": 1355,
      "concept_person_": 1356,
      "concept_bodypart_blood": 1357,
      "concept_retailstore_nbc": 1358,
      "concept:stateorprovince": 1359,
      "isborder": 1360,
      "obby_": 1361,
      "edby": 1362,
      "erve_": 1363,
      "concept_sportsteam_ncaa_youth": 1364,
      "concept:stateorprovinceisborder": 1365,
      "edbystateorprovince": 1366,
      "concept_sportsteam_ncaa_youth_kids": 1367,
      "concept:stateorprovinceisborderedbystateorprovince": 1368,
      "concept:musicgenres": 1369,
      "rica": 1370,
      "suchasmusicgenres": 1371,
      "concept:musicgenressuchasmusicgenres": 1372,
      "ger": 1373,
      "omed": 1374,
      "_n18": 1375,
      "concept_website_w": 1376,
      "concept_year_n1992": 1377,
      "_pro": 1378,
      "_gro": 1379,
      "able_": 1380,
      "concept_animal_": 1381,
      "concept_animal_h": 1382,
      "concept_date_n197": 1383,
      "_north_carolina": 1384,
      "_phys": 1385,
      "father": 1386,
      "get": 1387,
      "ites": 1388,
      "concept_comed": 1389,
      "alia": 1390,
      "sylv": 1391,
      "concept_comedian": 1392,
      "sylvania": 1393,
      "col": 1394,
      "ep": 1395,
      "ior": 1396,
      "concept_ml": 1397,
      "_can": 1398,
      "_mon": 1399,
      "ennsylvania": 1400,
      "ec": 1401,
      "inal": 1402,
      "action_": 1403,
      "concept_university_state": 1404,
      "concept_hobby_": 1405,
      "concept_public": 1406,
      "ering": 1407,
      "otel": 1408,
      "_fran": 1409,
      "ultip": 1410,
      "experts": 1411,
      "concept_publication": 1412,
      "concept_ski": 1413,
      "concept_musicalbum_de": 1414,
      "concept_politicaloffice_new": 1415,
      "concept_skiarea": 1416,
      "ina": 1417,
      "ings": 1418,
      "partment": 1419,
      "concept_mammal_r": 1420,
      "_world": 1421,
      "irport": 1422,
      "concept_airport": 1423,
      "concept_dateliteral_n194": 1424,
      "ebe": 1425,
      "ros": 1426,
      "concept_city_ch": 1427,
      "_cl": 1428,
      "_fu": 1429,
      "_kent": 1430,
      "concept_emotion_": 1431,
      "concept_trade": 1432,
      "concept_perceptionaction": 1433,
      "concept_creditunion": 1434,
      "concept_university_state_university": 1435,
      "ke": 1436,
      "atas": 1437,
      "concept:father": 1438,
      "ism": 1439,
      "concept_stateorprovince_indiana": 1440,
      "concept:fatherofperson": 1441,
      "ess": 1442,
      "concept_mountain": 1443,
      "concept_profession_workers": 1444,
      "concept_company_m": 1445,
      "concept_year_n197": 1446,
      "orp": 1447,
      "_sen": 1448,
      "vid": 1449,
      "concept_city_new": 1450,
      "concept_city_place": 1451,
      "cr": 1452,
      "ly": 1453,
      "uss": 1454,
      "concept_mld": 1455,
      "_comp": 1456,
      "ington": 1457,
      "_bill": 1458,
      "_government": 1459,
      "concept_musicsong_": 1460,
      "attribut": 1461,
      "concept_chemical_nit": 1462,
      "concept_visualizableattribut": 1463,
      "ataset": 1464,
      "concept_mldataset": 1465,
      "work": 1466,
      "engineering": 1467,
      "low": 1468,
      "week": 1469,
      "stralia": 1470,
      "concept_stateorprovince_pennsylvania": 1471,
      "ai": 1472,
      "bers": 1473,
      "ning": 1474,
      "rock": 1475,
      "concept_personeurop": 1476,
      "concept_stateorprovince_virginia": 1477,
      "concept_tradeunion_": 1478,
      "cle_": 1479,
      "rit": 1480,
      "_ne": 1481,
      "concept_mammal_deer": 1482,
      "center": 1483,
      "ond": 1484,
      "esota": 1485,
      "etts": 1486,
      "_gu": 1487,
      "concept_mammal_mammals": 1488,
      "innesota": 1489,
      "concept_animal_birds002": 1490,
      "iat": 1491,
      "usetts": 1492,
      "achusetts": 1493,
      "assachusetts": 1494,
      "concept_river_": 1495,
      "zona": 1496,
      "iam": 1497,
      "arizona": 1498,
      "election": 1499,
      "_barack": 1500,
      "concept_agriculturalproduct_products": 1501,
      "ultipl": 1502,
      "ive_": 1503,
      "concept_mammal_cats": 1504,
      "_kentuck": 1505,
      "cons": 1506,
      "australia": 1507,
      "concept_chemical_hyd": 1508,
      "_and": 1509,
      "ody": 1510,
      "concept_stateorprovince_new_york": 1511,
      "concept_profession_experts": 1512,
      "concept_hotel": 1513,
      "concept_blog_g": 1514,
      "issions": 1515,
      "ament": 1516,
      "_s_": 1517,
      "concept_programminglanguage_system": 1518,
      "united_states": 1519,
      "concept_artery_cord": 1520,
      "ouri": 1521,
      "concept_nerve_": 1522,
      "_special": 1523,
      "concept_personeurope_": 1524,
      "ern": 1525,
      "etwork": 1526,
      "concept_year_n1991": 1527,
      "_sun": 1528,
      "bel": 1529,
      "cy": 1530,
      "hlet": 1531,
      "emissions": 1532,
      "iang": 1533,
      "concept_website_abc": 1534,
      "concept_politicianus_bush": 1535,
      "concept_artery_arteries": 1536,
      "hern": 1537,
      "concept_date_n196": 1538,
      "anag": 1539,
      "ences": 1540,
      "actor": 1541,
      "concept_academicfield_technology": 1542,
      "concept:city": 1543,
      "ardgame_": 1544,
      "_department": 1545,
      "issouri": 1546,
      "concept:cityalsoknownas": 1547,
      "fur": 1548,
      "rid": 1549,
      "concept:ism": 1550,
      "ene": 1551,
      "ash": 1552,
      "ign": 1553,
      "concept_city_service": 1554,
      "_compo": 1555,
      "_week": 1556,
      "concept_artery_vessels": 1557,
      "ultipleof": 1558,
      "concept:ismultipleof": 1559,
      "ds": 1560,
      "ust": 1561,
      "ong": 1562,
      "atathlet": 1563,
      "concept:athlet": 1564,
      "agaz": 1565,
      "concept_mammal_f": 1566,
      "nect": 1567,
      "_commun": 1568,
      "ministr": 1569,
      "ebeatathlet": 1570,
      "concept:athletebeatathlet": 1571,
      "concept:athletebeatathlete": 1572,
      "north": 1573,
      "e_h": 1574,
      "concept_personnorth": 1575,
      "concept_mammal_small": 1576,
      "ahoo": 1577,
      "_compound": 1578,
      "concept_personnorthamerica": 1579,
      "ra": 1580,
      "_news": 1581,
      "_bay": 1582,
      "lead": 1583,
      "edical": 1584,
      "concept_visualizableattribute_": 1585,
      "ock": 1586,
      "ced": 1587,
      "usps": 1588,
      "_pet": 1589,
      "concept_muscle_": 1590,
      "_gen": 1591,
      "concept_country_c": 1592,
      "rug": 1593,
      "strument": 1594,
      "olorado": 1595,
      "_kentucky": 1596,
      "alt": 1597,
      "ree": 1598,
      "concept_year_n18": 1599,
      "ards": 1600,
      "cent": 1601,
      "concept_geopoliticallocation_": 1602,
      "_rod": 1603,
      "getable_": 1604,
      "cy_": 1605,
      "ity_m": 1606,
      "usa": 1607,
      "concept_person_m": 1608,
      "duc": 1609,
      "concept_eventoutcome_new": 1610,
      "systems": 1611,
      "stern": 1612,
      "ital": 1613,
      "concept_profession_c": 1614,
      "ides": 1615,
      "ix": 1616,
      "instrument": 1617,
      "pol": 1618,
      "ction": 1619,
      "concept_company_c": 1620,
      "concept_company_d": 1621,
      "concept_musicinstrument": 1622,
      "concept_sportsteam_state_university": 1623,
      "planet": 1624,
      "ue": 1625,
      "uk": 1626,
      "concept_chemical_dioxide": 1627,
      "concept_politicianus_john": 1628,
      "concept_musicartist_": 1629,
      "ff": 1630,
      "connect": 1631,
      "_systems": 1632,
      "concept_chemical_nitrogen": 1633,
      "_barack_obama": 1634,
      "hom": 1635,
      "ino": 1636,
      "ars": 1637,
      "_beach": 1638,
      "concept_website_k": 1639,
      "iangle": 1640,
      "yahoo": 1641,
      "concept_planet": 1642,
      "ana": 1643,
      "orch": 1644,
      "aska": 1645,
      "_mar": 1646,
      "earch": 1647,
      "rich": 1648,
      "concept_country_united_states": 1649,
      "iness": 1650,
      "_for": 1651,
      "gon": 1652,
      "one_": 1653,
      "project": 1654,
      "concept_bed": 1655,
      "asia": 1656,
      "rector": 1657,
      "concept_profession_nurs": 1658,
      "concept_person_j": 1659,
      "concept_website_blood": 1660,
      "concept_politicianus_mccain": 1661,
      "owa": 1662,
      "concept_stateorprovince_colorado": 1663,
      "ississ": 1664,
      "concept_bedroomitem": 1665,
      "iowa": 1666,
      "press": 1667,
      "wood": 1668,
      "cel": 1669,
      "embers": 1670,
      "_sch": 1671,
      "_plan": 1672,
      "concept_chemical_fu": 1673,
      "_jobs": 1674,
      "concept_politicianus_g": 1675,
      "concept_ceo_": 1676,
      "ney": 1677,
      "formation": 1678,
      "ze": 1679,
      "ores": 1680,
      "icut": 1681,
      "_wis": 1682,
      "ippi": 1683,
      "concept_landscapefeatures_states": 1684,
      "concept_politicaloffice_office": 1685,
      "ississippi": 1686,
      "iner": 1687,
      "_nerv": 1688,
      "ena": 1689,
      "concept_mammal_h": 1690,
      "_green": 1691,
      "vest": 1692,
      "itional": 1693,
      "concept_musicalbum_death": 1694,
      "concept_blog_google": 1695,
      "_ass": 1696,
      "ales": 1697,
      "igs": 1698,
      "vertebrates": 1699,
      "concept_room_": 1700,
      "ennesse": 1701,
      "oregon": 1702,
      "_palin": 1703,
      "car": 1704,
      "one": 1705,
      "concept_election": 1706,
      "concept_city_j": 1707,
      "concept_chemical_s": 1708,
      "concept_profession_f": 1709,
      "angel": 1710,
      "concept_monument": 1711,
      "_post": 1712,
      "_general": 1713,
      "concept_profession_t": 1714,
      "concept_sportsequipment_new": 1715,
      "consin": 1716,
      "_specialists": 1717,
      "_wisconsin": 1718,
      "york": 1719,
      "ict": 1720,
      "concept_magaz": 1721,
      "view": 1722,
      "concept_country_republic": 1723,
      "concept_vegetable_": 1724,
      "louisiana": 1725,
      "_compounds": 1726,
      "connecticut": 1727,
      "concept_country_republic_of": 1728,
      "den": 1729,
      "mer": 1730,
      "south": 1731,
      "wo": 1732,
      "concept_actor": 1733,
      "_park": 1734,
      "oll": 1735,
      "concept_stateorprovince_connecticut": 1736,
      "concept_geopoliticallocation_national": 1737,
      "_board": 1738,
      "disease": 1739,
      "eorch": 1740,
      "ham": 1741,
      "los_": 1742,
      "_be": 1743,
      "centr": 1744,
      "_oper": 1745,
      "concept_nondisease": 1746,
      "england": 1747,
      "llut": 1748,
      "concept_chemical_sulfur": 1749,
      "concept_crimeorch": 1750,
      "concept_nondiseasecond": 1751,
      "__bush": 1752,
      "ping": 1753,
      "concept_day": 1754,
      "ofweek": 1755,
      "triangle": 1756,
      "_tro": 1757,
      "organ": 1758,
      "ott": 1759,
      "concept_visual": 1760,
      "park": 1761,
      "concept_insect_bugs": 1762,
      "concept_chemical_fuels": 1763,
      "concept_crimeorcharge_": 1764,
      "concept_dayofweek": 1765,
      "u_s_": 1766,
      "administr": 1767,
      "concept_boardgame_": 1768,
      "assi": 1769,
      "concept_politician_jobs": 1770,
      "concept_bodypart_system002": 1771,
      "ference": 1772,
      "ub": 1773,
      "water": 1774,
      "stan": 1775,
      "concept_politicianus_sen": 1776,
      "concept_scientificterm_m": 1777,
      "_columbia": 1778,
      "angeles": 1779,
      "ive": 1780,
      "abama": 1781,
      "concept_buildingfeature_systems": 1782,
      "health": 1783,
      "ta": 1784,
      "esus": 1785,
      "une": 1786,
      "_small": 1787,
      "concept_profession_specialists": 1788,
      "aily": 1789,
      "concept_food_ind": 1790,
      "educ": 1791,
      "_sc": 1792,
      "lay": 1793,
      "concept_soci": 1794,
      "concept_magazine_": 1795,
      "los_angeles": 1796,
      "llutants": 1797,
      "concept_sociopolitical": 1798,
      "chemicals": 1799,
      "fest": 1800,
      "concept_dateliteral_n198": 1801,
      "ue_n": 1802,
      "eland": 1803,
      "uth": 1804,
      "_pigs": 1805,
      "concept_newspaper_journal": 1806,
      "director": 1807,
      "concept_mammal_wild": 1808,
      "do": 1809,
      "ials": 1810,
      "ool": 1811,
      "arach": 1812,
      "ago": 1813,
      "ason": 1814,
      "reet": 1815,
      "vig": 1816,
      "concept_profession_in": 1817,
      "ives": 1818,
      "riter": 1819,
      "ik": 1820,
      "usk": 1821,
      "urren": 1822,
      "concept_stateorprovince_ohio": 1823,
      "diseas": 1824,
      "shopping": 1825,
      "_ac": 1826,
      "gro": 1827,
      "ler": 1828,
      "its": 1829,
      "itt": 1830,
      "concept_curren": 1831,
      "ame": 1832,
      "amil": 1833,
      "ung": 1834,
      "utah": 1835,
      "reat": 1836,
      "aph": 1837,
      "concept_country_usa": 1838,
      "iolog": 1839,
      "concept_governmentorganization_government": 1840,
      "bling": 1841,
      "concept_writer": 1842,
      "arkansas": 1843,
      "concept_stateorprovince_michigan": 1844,
      "_head": 1845,
      "festiv": 1846,
      "arachn": 1847,
      "grow": 1848,
      "concept_shopping": 1849,
      "y_m": 1850,
      "concept_mammal_l": 1851,
      "_del": 1852,
      "abb": 1853,
      "concept_agriculturalproduct_c": 1854,
      "concept_chemical_hydrogen": 1855,
      "concept_currency_": 1856,
      "concept_shoppingmall": 1857,
      "drug": 1858,
      "ial_": 1859,
      "concept_drug": 1860,
      "stru": 1861,
      "_mail": 1862,
      "_michigan": 1863,
      "acilit": 1864,
      "concept_politicianus_": 1865,
      "auvig": 1866,
      "erry": 1867,
      "ennessee": 1868,
      "auvignon": 1869,
      "hassi": 1870,
      "san": 1871,
      "ves": 1872,
      "concept_product": 1873,
      "concept:hassi": 1874,
      "ames": 1875,
      "ype_": 1876,
      "concept_dateliteral_n199": 1877,
      "lack": 1878,
      "lahom": 1879,
      "_da": 1880,
      "_her": 1881,
      "concept_animal_animals002": 1882,
      "concept_chemical_gases": 1883,
      "istribut": 1884,
      "etropolit": 1885,
      "concept_sportsleague_n": 1886,
      "concept:hassibling": 1887,
      "concept_dateliteral_n1990": 1888,
      "lahoma": 1889,
      "mun": 1890,
      "ner": 1891,
      "concept_diseas": 1892,
      "concept_arachn": 1893,
      "concept_city_st": 1894,
      "concept_profession_phys": 1895,
      "oklahoma": 1896,
      "_kansas": 1897,
      "concept_year_n196": 1898,
      "_oil": 1899,
      "_george_w": 1900,
      "concept_bank_usps": 1901,
      "central": 1902,
      "concept_arachnid": 1903,
      "pin": 1904,
      "concept:plant": 1905,
      "inplant": 1906,
      "_corp": 1907,
      "inginplant": 1908,
      "reg": 1909,
      "concept_country": 1910,
      "concept_sportsequipment_board": 1911,
      "growinginplant": 1912,
      "concept:plantgrowinginplant": 1913,
      "ron": 1914,
      "_distribut": 1915,
      "ider": 1916,
      "_hill": 1917,
      "brain": 1918,
      "issue": 1919,
      "concept_politician_obama": 1920,
      "concept_arthropod_sp": 1921,
      "_prior": 1922,
      "concept_wine_s": 1923,
      "concept_charactertrait_": 1924,
      "concept_traditional": 1925,
      "concept_traditionalgame_": 1926,
      "_lin": 1927,
      "va": 1928,
      "lob": 1929,
      "use": 1930,
      "concept_profession_p": 1931,
      "_war": 1932,
      "concept_personaf": 1933,
      "estic": 1934,
      "concept_winer": 1935,
      "concept_high": 1936,
      "_vari": 1937,
      "ights": 1938,
      "concept_politicalparty_republic": 1939,
      "_rodents": 1940,
      "concept_personafrica": 1941,
      "ty": 1942,
      "oth": 1943,
      "concept_academicfield_m": 1944,
      "concept_chemical_po": 1945,
      "ountr": 1946,
      "heep": 1947,
      "rimp": 1948,
      "europe": 1949,
      "leaders": 1950,
      "fin": 1951,
      "way_": 1952,
      "e_c": 1953,
      "concept_bath": 1954,
      "etal": 1955,
      "label": 1956,
      "acult": 1957,
      "_ga": 1958,
      "fed": 1959,
      "concept_stateorprovince_minnesota": 1960,
      "elections": 1961,
      "aryland": 1962,
      "concept_mammal_sheep": 1963,
      "ussian": 1964,
      "concept_bathroomitem": 1965,
      "ma": 1966,
      "sta": 1967,
      "lop": 1968,
      "isco": 1969,
      "apists": 1970,
      "concept_profession_health": 1971,
      "organis": 1972,
      "concept_university_ohio": 1973,
      "concept_journal": 1974,
      "ivores": 1975,
      "pinot": 1976,
      "concept_journalist": 1977,
      "ities": 1978,
      "concept_stateorprovince_south": 1979,
      "leg": 1980,
      "concept_website_m": 1981,
      "_fish": 1982,
      "_kerry": 1983,
      "position": 1984,
      "_invertebrates": 1985,
      "ups": 1986,
      "ills": 1987,
      "iden": 1988,
      "ows": 1989,
      "concept_chemical_emissions": 1990,
      "concept_newspaper_d": 1991,
      "_shrimp": 1992,
      "oxide": 1993,
      "concept_beach_m": 1994,
      "ou": 1995,
      "concept_city_al": 1996,
      "_spr": 1997,
      "_tig": 1998,
      "_facilit": 1999,
      "ediat": 2000,
      "concept_fish_b": 2001,
      "concept_jobposition_meeting": 2002,
      "concept_sportsleague_": 2003,
      "an_area": 2004,
      "concept_attraction": 2005,
      "concept_comedian_day": 2006,
      "itch": 2007,
      "_mot": 2008,
      "_pets": 2009,
      "concept_mammal_rodents": 2010,
      "_ter": 2011,
      "ley": 2012,
      "concept_stateorprovince_states": 2013,
      "concept_chemical_chemicals": 2014,
      "_care_": 2015,
      "_reg": 2016,
      "_staff": 2017,
      "_pow": 2018,
      "_days": 2019,
      "concept_attraction_": 2020,
      "concept_profession_nurses": 2021,
      "etropolitan_area": 2022,
      "concept_director": 2023,
      "icros": 2024,
      "lot": 2025,
      "etals": 2026,
      "_mark": 2027,
      "_pe": 2028,
      "_des": 2029,
      "ecut": 2030,
      "concept_dateliteral_n1945": 2031,
      "concept_tradeunion_search": 2032,
      "concept_winery_": 2033,
      "_gaussian": 2034,
      "icrosoft": 2035,
      "eg": 2036,
      "arr": 2037,
      "emp": 2038,
      "ember": 2039,
      "agen": 2040,
      "post": 2041,
      "ister": 2042,
      "_city_m": 2043,
      "flies": 2044,
      "ange": 2045,
      "concept_city_col": 2046,
      "sult": 2047,
      "gar": 2048,
      "ison": 2049,
      "las": 2050,
      "osp": 2051,
      "services": 2052,
      "alabama": 2053,
      "003": 2054,
      "amph": 2055,
      "concept_city_v": 2056,
      "_inc": 2057,
      "concept_record": 2058,
      "concept_musicgenre_rock": 2059,
      "concept_mammal_bears": 2060,
      "concept_recordlabel": 2061,
      "aul": 2062,
      "cisco": 2063,
      "lic": 2064,
      "yn": 2065,
      "atr": 2066,
      "icago": 2067,
      "usc": 2068,
      "_mor": 2069,
      "_manag": 2070,
      "_services": 2071,
      "last": 2072,
      "_bear": 2073,
      "cess": 2074,
      "_republic": 2075,
      "concept_ceo_j": 2076,
      "concept_stateorprovince_maryland": 2077,
      "heart": 2078,
      "_the_": 2079,
      "_time": 2080,
      "rown": 2081,
      "concept_academicfield_sciences": 2082,
      "_whit": 2083,
      "_trib": 2084,
      "concept_mammal_small_animals": 2085,
      "concept_wine_sauvignon": 2086,
      "concept_beach_massachusetts": 2087,
      "gh": 2088,
      "gor": 2089,
      "war": 2090,
      "ane": 2091,
      "omestic": 2092,
      "adel": 2093,
      "_mississippi": 2094,
      "_two": 2095,
      "lege": 2096,
      "express": 2097,
      "_au": 2098,
      "_new_york_city_m": 2099,
      "concept_island_new_york_city_m": 2100,
      "concept_year_n1989": 2101,
      "ondon": 2102,
      "administration": 2103,
      "concept_highway_": 2104,
      "concept_island_new_york_city_metropolitan_area": 2105,
      "_ste": 2106,
      "da": 2107,
      "uff": 2108,
      "agles": 2109,
      "acc": 2110,
      "concept_wine_pinot": 2111,
      "concept_book_years": 2112,
      "rops": 2113,
      "_community": 2114,
      "cells": 2115,
      "ie": 2116,
      "ire": 2117,
      "allit": 2118,
      "stud": 2119,
      "e_tv": 2120,
      "arts": 2121,
      "concept_chemical_compounds": 2122,
      "concept_personasia": 2123,
      "braska": 2124,
      "ays": 2125,
      "concept_scientist": 2126,
      "concept_wallit": 2127,
      "associ": 2128,
      "akota": 2129,
      "_rock": 2130,
      "concept_crustacean_shrimp": 2131,
      "concept_muscle_heart": 2132,
      "concept_arthropod_spiders": 2133,
      "concept_traditionalgame_vegas": 2134,
      "concept_wallitem": 2135,
      "ax": 2136,
      "fran": 2137,
      "oats": 2138,
      "town": 2139,
      "orms": 2140,
      "orthern": 2141,
      "_hol": 2142,
      "concept_animal_l": 2143,
      "sych": 2144,
      "concept_governmentorganization_house": 2145,
      "ester": 2146,
      "ibian": 2147,
      "_health": 2148,
      "ternational": 2149,
      "_trout": 2150,
      "ountries": 2151,
      "amphibian": 2152,
      "cur": 2153,
      "gress": 2154,
      "mot": 2155,
      "ward": 2156,
      "oration": 2157,
      "_dakota": 2158,
      "concept_personaustralia": 2159,
      "concept_grain": 2160,
      "concept_musicalbum_f": 2161,
      "concept_monarch": 2162,
      "concept_vehicle_states": 2163,
      "ridg": 2164,
      "concept_sportsleague_nfl": 2165,
      "organisms": 2166,
      "cab": 2167,
      "google": 2168,
      "pets": 2169,
      "concept_organization": 2170,
      "ati": 2171,
      "ition_": 2172,
      "esh": 2173,
      "eter": 2174,
      "concept_stateorprovince_north_carolina": 2175,
      "concept_profession_leaders": 2176,
      "ship": 2177,
      "line": 2178,
      "illiam": 2179,
      "concept_agriculturalproduct_pigs": 2180,
      "concept_coach_kentucky": 2181,
      "concept_invertebrate_c": 2182,
      "concept_street": 2183,
      "book": 2184,
      "concept_month_j": 2185,
      "concept_perceptionaction_": 2186,
      "concept_visualart": 2187,
      "uthor": 2188,
      "concept_agriculturalproduct_crops": 2189,
      "_david": 2190,
      "ling": 2191,
      "erve": 2192,
      "_network": 2193,
      "_sal": 2194,
      "phil": 2195,
      "_fox": 2196,
      "concept_politicianus_m": 2197,
      "concept_country_england": 2198,
      "concept_sportsteam_b": 2199,
      "arks": 2200,
      "eachers": 2201,
      "ous_system": 2202,
      "_business": 2203,
      "boro": 2204,
      "ammals001": 2205,
      "_india": 2206,
      "concept_animal_mammals001": 2207,
      "_doctors": 2208,
      "_bayes": 2209,
      "concept_chemical_pollutants": 2210,
      "aculty": 2211,
      "concept_park": 2212,
      "atlan": 2213,
      "ance": 2214,
      "ory": 2215,
      "_nor": 2216,
      "sel": 2217,
      "_mid": 2218,
      "tract": 2219,
      "_fr": 2220,
      "quir": 2221,
      "concept_governmentorganization_department": 2222,
      "_vessels": 2223,
      "concept_arthropod_invertebrates": 2224,
      "ouse_": 2225,
      "concept_year_n1988": 2226,
      "concept_chemical_sulph": 2227,
      "_nervous_system": 2228,
      "concept_politicianus_senator": 2229,
      "concept_mammal_wild_animals": 2230,
      "_peop": 2231,
      "_engineering": 2232,
      "ier": 2233,
      "wh": 2234,
      "los": 2235,
      "concept_bridg": 2236,
      "ithm": 2237,
      "adv": 2238,
      "_the": 2239,
      "concept_company_f": 2240,
      "concept_website_b": 2241,
      "concept_artery_brain": 2242,
      "_af": 2243,
      "officer": 2244,
      "concept_arthropod_": 2245,
      "_ox": 2246,
      "concept_charactertrait_world": 2247,
      "attle": 2248,
      "_flies": 2249,
      "concept_animal_organisms": 2250,
      "abbits": 2251,
      "_tigers": 2252,
      "gorithm": 2253,
      "_or": 2254,
      "_ar": 2255,
      "ees": 2256,
      "lor": 2257,
      "_night": 2258,
      "es001": 2259,
      "fort": 2260,
      "concept_company_t": 2261,
      "concept_university_google": 2262,
      "many": 2263,
      "_west": 2264,
      "_partic": 2265,
      "concept_company_dc": 2266,
      "concept_musicartist_american": 2267,
      "rook": 2268,
      "icle": 2269,
      "_northern": 2270,
      "_coun": 2271,
      "_mexico": 2272,
      "_mammals": 2273,
      "_site": 2274,
      "concept_televisionstation_wm": 2275,
      "ernet": 2276,
      "cabernet": 2277,
      "_lak": 2278,
      "_island": 2279,
      "cil": 2280,
      "y_b": 2281,
      "concept_city_br": 2282,
      "phia": 2283,
      "_fal": 2284,
      "quit": 2285,
      "concept_wine_cabernet": 2286,
      "apple": 2287,
      "concept_date_n1942": 2288,
      "concept_profession_services": 2289,
      "richard": 2290,
      "concept_nondiseasecondition_": 2291,
      "_tribune": 2292,
      "adelphia": 2293,
      "_people_": 2294,
      "_vegas": 2295,
      "inc": 2296,
      "prote": 2297,
      "_nov": 2298,
      "ening": 2299,
      "idge": 2300,
      "ackson": 2301,
      "concept_politicsblog_journal": 2302,
      "concept_publication_people_": 2303,
      "concept_disease_": 2304,
      "concept_newspaper_daily": 2305,
      "pp": 2306,
      "sch": 2307,
      "ert": 2308,
      "promot": 2309,
      "ara": 2310,
      "concept_city_abc": 2311,
      "eli": 2312,
      "web": 2313,
      "fect": 2314,
      "concept_country_australia": 2315,
      "the_new": 2316,
      "aterials": 2317,
      "concept_county_m": 2318,
      "herapists": 2319,
      "concept_room_systems": 2320,
      "concept_mammal_domestic": 2321,
      "concept_date_n1944": 2322,
      "_france": 2323,
      "concept_country_republic_of_india": 2324,
      "stances": 2325,
      "_herds": 2326,
      "itchen": 2327,
      "_care_professionals": 2328,
      "concept_chemical_sulphur": 2329,
      "_ap": 2330,
      "right": 2331,
      "concept_amphibian": 2332,
      "loy": 2333,
      "lothing": 2334,
      "sun": 2335,
      "concept_mediat": 2336,
      "_new_": 2337,
      "concept_company_b": 2338,
      "concept_stateorprovince_oregon": 2339,
      "concept_vide": 2340,
      "concept_artery_blood": 2341,
      "_sur": 2342,
      "eetles": 2343,
      "concept_creditunion_michigan": 2344,
      "concept_videog": 2345,
      "kitchen": 2346,
      "concept_agent": 2347,
      "concept_kitchen": 2348,
      "concept_clothing": 2349,
      "y_c": 2350,
      "fire": 2351,
      "_tre": 2352,
      "concept_website_d": 2353,
      "concept_sportsteam_m": 2354,
      "concept_governmentorganization_n": 2355,
      "ourt": 2356,
      "concept_city_bo": 2357,
      "comm": 2358,
      "concept_year_n1986": 2359,
      "osquit": 2360,
      "_college": 2361,
      "concept_bank_ups": 2362,
      "army": 2363,
      "concept_insect_mosquit": 2364,
      "concept_mammal_rabbits": 2365,
      "concept_kitchenitem": 2366,
      "_center": 2367,
      "oon": 2368,
      "sw": 2369,
      "consult": 2370,
      "itte": 2371,
      "concept_city_west": 2372,
      "ode_": 2373,
      "concept_stateorprovince_wisconsin": 2374,
      "substances": 2375,
      "spr": 2376,
      "concept_profession_profession": 2377,
      "que": 2378,
      "concept_county_b": 2379,
      "concept_county_ch": 2380,
      "orses": 2381,
      "concept_fish_sh": 2382,
      "ologists": 2383,
      "_cond": 2384,
      "_grand": 2385,
      "concept_date_n1941": 2386,
      "_group": 2387,
      "_francisco": 2388,
      "concept_dateliteral_n1987": 2389,
      "group": 2390,
      "lobal": 2391,
      "_virginia": 2392,
      "body": 2393,
      "iz": 2394,
      "conom": 2395,
      "ature": 2396,
      "alo": 2397,
      "concept_city_con": 2398,
      "asino": 2399,
      "ure_": 2400,
      "_port": 2401,
      "_paul": 2402,
      "_dis": 2403,
      "able": 2404,
      "_jo": 2405,
      "concept_politicianus_bill": 2406,
      "quar": 2407,
      "concept_musicfestiv": 2408,
      "_ra": 2409,
      "concept_year_n195": 2410,
      "concept_nerve": 2411,
      "concept_city_san": 2412,
      "_prim": 2413,
      "ovement": 2414,
      "concept_dateliteral_n191": 2415,
      "france": 2416,
      "_professionals": 2417,
      "_u_s_": 2418,
      "mont": 2419,
      "ovi": 2420,
      "orn": 2421,
      "sur": 2422,
      "_count": 2423,
      "ution": 2424,
      "uman": 2425,
      "apan": 2426,
      "concept_fish_trout": 2427,
      "concept_male_j": 2428,
      "concept_stateorprovince_missouri": 2429,
      "bert": 2430,
      "concept_profession_medical": 2431,
      "first_time": 2432,
      "concept_city_london": 2433,
      "concept_building_first_time": 2434,
      "_george_w__bush": 2435,
      "_hillary_": 2436,
      "concept_city_london_city": 2437,
      "king": 2438,
      "uc": 2439,
      "yers": 2440,
      "erb": 2441,
      "concept_city_la": 2442,
      "concept_city_vegas": 2443,
      "_cand": 2444,
      "_bl": 2445,
      "concept_company_yahoo": 2446,
      "dustr": 2447,
      "concept_website_t": 2448,
      "concept_politicianus_d": 2449,
      "concept_scientificterm_bayes": 2450,
      "concept_stateorprovince_massachusetts": 2451,
      "concept_musicartist_t": 2452,
      "icks": 2453,
      "concept_profession_members": 2454,
      "applic": 2455,
      "concept_building_vegas": 2456,
      "concept_terroristorganization_state": 2457,
      "concept_mountain_fox": 2458,
      "concept_year_n186": 2459,
      "concept_profession_teachers": 2460,
      "_acid": 2461,
      "_region": 2462,
      "ris": 2463,
      "ypromot": 2464,
      "concept_ever": 2465,
      "icster": 2466,
      "proper": 2467,
      "ario": 2468,
      "concept_city_port": 2469,
      "_sn": 2470,
      "_san": 2471,
      "_page": 2472,
      "concept_person_mccain": 2473,
      "_gold": 2474,
      "concept_company_los_angeles": 2475,
      "edthing": 2476,
      "production": 2477,
      "concept_politicianus_palin": 2478,
      "arthropods": 2479,
      "concept_chemical_substances": 2480,
      "concept_county": 2481,
      "concept_televisionstation_wh": 2482,
      "concept_televisionstation_wk": 2483,
      "concept_physicster": 2484,
      "concept_musicsong_night": 2485,
      "concept_vein": 2486,
      "concept_academicfield_engineering": 2487,
      "anta": 2488,
      "_science": 2489,
      "concept_vertebrate_herds": 2490,
      "ampsh": 2491,
      "_white": 2492,
      "concept_mammal_rats": 2493,
      "organic": 2494,
      "_corporation": 2495,
      "concept_city_columbia": 2496,
      "illiams": 2497,
      "ypromotedthing": 2498,
      "concept_everypromotedthing": 2499,
      "concept_physicsterm": 2500,
      "_ed": 2501,
      "nic": 2502,
      "oil": 2503,
      "pul": 2504,
      "visit": 2505,
      "world": 2506,
      "concept_university": 2507,
      "algorithm": 2508,
      "sters": 2509,
      "arva": 2510,
      "concept_color": 2511,
      "amb": 2512,
      "ams": 2513,
      "ett": 2514,
      "uter": 2515,
      "concept_profession_doctors": 2516,
      "cial": 2517,
      "concept_website_tr": 2518,
      "_fin": 2519,
      "_rele": 2520,
      "outhern": 2521,
      "concept_county_san": 2522,
      "blend": 2523,
      "_carn": 2524,
      "concept_agriculturalproduct_li": 2525,
      "mond": 2526,
      "concept_mammal_wol": 2527,
      "oftwar": 2528,
      "vestock": 2529,
      "concept_profession_faculty": 2530,
      "_distribution": 2531,
      "_power": 2532,
      "ampshire": 2533,
      "concept_agriculturalproduct_livestock": 2534,
      "b_tv": 2535,
      "dale": 2536,
      "ft": 2537,
      "japan": 2538,
      "ata": 2539,
      "ore_": 2540,
      "concept_bone_": 2541,
      "profess": 2542,
      "concept_city_r": 2543,
      "concept_moll": 2544,
      "pers": 2545,
      "_body": 2546,
      "spinal": 2547,
      "umans": 2548,
      "concept_website_f": 2549,
      "edia": 2550,
      "issues": 2551,
      "concept_geometricshape_triangle": 2552,
      "_stud": 2553,
      "concept_dateliteral_n1943": 2554,
      "_operations": 2555,
      "concept_mollusk": 2556,
      "_la": 2557,
      "idate": 2558,
      "sk": 2559,
      "concept_eth": 2560,
      "road": 2561,
      "off": 2562,
      "concept_city_york": 2563,
      "concept_person_s": 2564,
      "_global": 2565,
      "ainstation": 2566,
      "concept_website_g": 2567,
      "concept_animal_small": 2568,
      "concept_country_ger": 2569,
      "concept_stateorprovince_arizona": 2570,
      "concept_stateorprovince_alabama": 2571,
      "concept_scientificterm_": 2572,
      "ruit": 2573,
      "concept_trainstation": 2574,
      "concept_jobposition_d": 2575,
      "_web": 2576,
      "board": 2577,
      "concept_insect_beetles": 2578,
      "_commission": 2579,
      "_eagles": 2580,
      "_ground": 2581,
      "concept_airport_": 2582,
      "iami": 2583,
      "_weeks": 2584,
      "concept_profession_physicians": 2585,
      "_facilities": 2586,
      "_africa": 2587,
      "_candidate": 2588,
      "nicgroup": 2589,
      "concept_ethnicgroup": 2590,
      "concept_country_germany": 2591,
      "ael": 2592,
      "ban": 2593,
      "movement": 2594,
      "oc": 2595,
      "pport": 2596,
      "sn": 2597,
      "val": 2598,
      "vel": 2599,
      "erson": 2600,
      "_nev": 2601,
      "ush": 2602,
      "season": 2603,
      "_mil": 2604,
      "_soci": 2605,
      "_pbs": 2606,
      "idaho": 2607,
      "uli": 2608,
      "_hampshire": 2609,
      "edic": 2610,
      "concept_country_france": 2611,
      "concept_chemical_ch": 2612,
      "concept_county_utah": 2613,
      "_international": 2614,
      "concept_room_house": 2615,
      "_point": 2616,
      "_coast": 2617,
      "_committe": 2618,
      "concept_insect_mites": 2619,
      "riend": 2620,
      "concept_mlalgorithm": 2621,
      "_class": 2622,
      "concept_mammal_horses": 2623,
      "federal": 2624,
      "concept_stateorprovince_south_carolina": 2625,
      "_term": 2626,
      "concept_visualartmovement": 2627,
      "concept_country_france_france": 2628,
      "ee": 2629,
      "eal": 2630,
      "gers": 2631,
      "hip": 2632,
      "hold": 2633,
      "network": 2634,
      "oy": 2635,
      "tim": 2636,
      "concept_city_el": 2637,
      "concept_city_cl": 2638,
      "unk": 2639,
      "_mat": 2640,
      "western": 2641,
      "concept_chemical_p": 2642,
      "concept_person_l": 2643,
      "aine": 2644,
      "aint": 2645,
      "concept_animal_carn": 2646,
      "_ret": 2647,
      "_larva": 2648,
      "concept_beverage_m": 2649,
      "concept_beverage_arizona": 2650,
      "assist": 2651,
      "concept_agriculturalproduct_g": 2652,
      "concept_island_": 2653,
      "concept_year_n1985": 2654,
      "concept_museum_facilities": 2655,
      "_phil": 2656,
      "west_virginia": 2657,
      "concept_animal_humans": 2658,
      "_canada": 2659,
      "keys": 2660,
      "_nebraska": 2661,
      "concept_animal_small_mammals": 2662,
      "concept_animal_carnivores": 2663,
      "01": 2664,
      "econom": 2665,
      "ief": 2666,
      "ices": 2667,
      "microsoft": 2668,
      "ners": 2669,
      "zer": 2670,
      "ita": 2671,
      "information": 2672,
      "proced": 2673,
      "chester": 2674,
      "concept_city_o": 2675,
      "elig": 2676,
      "odel": 2677,
      "_sar": 2678,
      "concept_stateorprovince_w": 2679,
      "concept_chemical_partic": 2680,
      "leas": 2681,
      "umber": 2682,
      "e_new_york": 2683,
      "concept_insect_flies": 2684,
      "concept_table": 2685,
      "concept_politicianus_barack_obama": 2686,
      "concept_relig": 2687,
      "effect": 2688,
      "concept_year_n191": 2689,
      "concept_visualizablething_water": 2690,
      "concept_river_columbia": 2691,
      "_supp": 2692,
      "alley": 2693,
      "_conference": 2694,
      "e_water": 2695,
      "concept_visualizablething_triangle": 2696,
      "concept_criminal": 2697,
      "enefic": 2698,
      "concept_politicianus_gore": 2699,
      "education": 2700,
      "concept_mammal_lions": 2701,
      "concept_arthropod_arthropods": 2702,
      "_release": 2703,
      "concept_tableitem": 2704,
      "_fe": 2705,
      "cats": 2706,
      "lym": 2707,
      "ald": 2708,
      "alorganization": 2709,
      "stit": 2710,
      "e_p": 2711,
      "e_system": 2712,
      "china": 2713,
      "_min": 2714,
      "peri": 2715,
      "concept_professionalorganization": 2716,
      "lev": 2717,
      "leans": 2718,
      "idence": 2719,
      "ules": 2720,
      "actions": 2721,
      "concept_politicianus_b": 2722,
      "concept_televisionnetwork": 2723,
      "lines": 2724,
      "owl": 2725,
      "ips": 2726,
      "bly": 2727,
      "ound": 2728,
      "paris": 2729,
      "concept_island_operations": 2730,
      "neys": 2731,
      "concept_museum_pbs": 2732,
      "liament": 2733,
      "concept_insect_benefic": 2734,
      "concept_reptile_pets": 2735,
      "concept_female_h": 2736,
      "doors": 2737,
      "ial_insects": 2738,
      "_springs": 2739,
      "las_vegas": 2740,
      "concept_animal_large_": 2741,
      "concept_scientificterm_bayesian": 2742,
      "concept_insect_beneficial_insects": 2743,
      "_vi": 2744,
      "e_river": 2745,
      "article": 2746,
      "concept_date_community": 2747,
      "adu": 2748,
      "concept_profession_di": 2749,
      "concept_profession_care_professionals": 2750,
      "_bul": 2751,
      "train": 2752,
      "_wal": 2753,
      "_wild": 2754,
      "_tennessee": 2755,
      "concept_company_h": 2756,
      "concept_company_post": 2757,
      "eleph": 2758,
      "concept_website_yahoo": 2759,
      "lands": 2760,
      "_kenn": 2761,
      "concept_academicfield_b": 2762,
      "immun": 2763,
      "research": 2764,
      "concept_musicalbum_power": 2765,
      "concept_county_las_vegas": 2766,
      "concept_year_n194": 2767,
      "ymp": 2768,
      "ah_palin": 2769,
      "concept_politicsissue_c": 2770,
      "concept_politicsissue_public": 2771,
      "concept_aquar": 2772,
      "ournament": 2773,
      "concept_landscapefeatures_": 2774,
      "_john_mccain": 2775,
      "concept_food_oil": 2776,
      "_nursing": 2777,
      "ussia": 2778,
      "concept_fish_bass": 2779,
      "concept_mediatype_": 2780,
      "_county": 2781,
      "_sarah_palin": 2782,
      "concept_aquarium": 2783,
      "ization": 2784,
      "mo": 2785,
      "ocr": 2786,
      "ux": 2787,
      "concept_prote": 2788,
      "arian": 2789,
      "_n201": 2790,
      "concept_city_sh": 2791,
      "concept_city_de": 2792,
      "concept_city_army": 2793,
      "concept_medical": 2794,
      "_sk": 2795,
      "_satur": 2796,
      "_bank": 2797,
      "concept_company_w": 2798,
      "ular": 2799,
      "aterial": 2800,
      "_rh": 2801,
      "eff": 2802,
      "_christ": 2803,
      "_sea": 2804,
      "concept_fish_p": 2805,
      "_recl": 2806,
      "concept_year_n1984": 2807,
      "concept_bodypart_cells": 2808,
      "concept_braintissue_body": 2809,
      "awai": 2810,
      "attan": 2811,
      "concept_chemical_materials": 2812,
      "etroit": 2813,
      "concept_company_missouri": 2814,
      "polis": 2815,
      "concept_person_jesus": 2816,
      "carbon": 2817,
      "iology": 2818,
      "concept_profession_psych": 2819,
      "concept_protein": 2820,
      "concept_medicalproced": 2821,
      "concept_bodypart_cells001": 2822,
      "clinton": 2823,
      "jobs": 2824,
      "mith": 2825,
      "rin": 2826,
      "tro": 2827,
      "uary": 2828,
      "usiness": 2829,
      "adesh": 2830,
      "_ser": 2831,
      "concept_profession_d": 2832,
      "olymp": 2833,
      "space": 2834,
      "ext": 2835,
      "edy": 2836,
      "concept_stateorprovince_oklahoma": 2837,
      "eastern": 2838,
      "blem": 2839,
      "concept_bodypart_immun": 2840,
      "_param": 2841,
      "vidual": 2842,
      "altim": 2843,
      "_priority": 2844,
      "_linear": 2845,
      "employ": 2846,
      "_frank": 2847,
      "concept_city_boston": 2848,
      "_nevada": 2849,
      "concept_medicalprocedure_": 2850,
      "concept_bodypart_immune_system": 2851,
      "ise": 2852,
      "ona": 2853,
      "atives": 2854,
      "entric": 2855,
      "ellow": 2856,
      "utt": 2857,
      "ree_": 2858,
      "concept_profession_techn": 2859,
      "concept_mammal_g": 2860,
      "concept_mammal_ch": 2861,
      "concept_mammal_co": 2862,
      "concept_person_president": 2863,
      "concept_insect_f": 2864,
      "concept_animal_f": 2865,
      "_fun": 2866,
      "ultiv": 2867,
      "_author": 2868,
      "concept_beverage_s": 2869,
      "_information": 2870,
      "concept_hosp": 2871,
      "concept_date_n193": 2872,
      "concept_jobposition_nursing": 2873,
      "concept_chemical_carbon_dioxide": 2874,
      "dep": 2875,
      "concept_automobilemaker_": 2876,
      "concept_chemical_mon": 2877,
      "concept_month_m": 2878,
      "_exp": 2879,
      "_execut": 2880,
      "concept_stateorprovince_tennessee": 2881,
      "cert": 2882,
      "concept_date_n1979": 2883,
      "concept_boardgame_board": 2884,
      "staur": 2885,
      "concept_mammal_wolves": 2886,
      "oftware_": 2887,
      "awaii": 2888,
      "viduals": 2889,
      "bank": 2890,
      "gi": 2891,
      "jor": 2892,
      "nit": 2893,
      "oo": 2894,
      "ry": 2895,
      "ones": 2896,
      "itor": 2897,
      "anch": 2898,
      "esearch": 2899,
      "embly": 2900,
      "oming": 2901,
      "usse": 2902,
      "pos": 2903,
      "_cord": 2904,
      "_minnesota": 2905,
      "acco": 2906,
      "_texas": 2907,
      "concept_chemical_c": 2908,
      "concept_chemical_b": 2909,
      "concept_chemical_green": 2910,
      "organs": 2911,
      "ull": 2912,
      "concept_insect_h": 2913,
      "concept_research": 2914,
      "the_": 2915,
      "links": 2916,
      "concept_stateorprovince_louisiana": 2917,
      "concept_academicfield_business": 2918,
      "imp": 2919,
      "concept_chemical_organic": 2920,
      "concept_buildingfeature_doors": 2921,
      "_child": 2922,
      "concept_athlete_m": 2923,
      "concept_wine_blend": 2924,
      "concept_governmentorganization_fire": 2925,
      "ariate": 2926,
      "ontana": 2927,
      "msn": 2928,
      "ampa": 2929,
      "_force": 2930,
      "philadelphia": 2931,
      "_larvae": 2932,
      "ultivariate": 2933,
      "concept_researchproject": 2934,
      "_years": 2935,
      "c_tv": 2936,
      "lington": 2937,
      "men": 2938,
      "rels": 2939,
      "russia": 2940,
      "uid": 2941,
      "cere": 2942,
      "ption": 2943,
      "istric": 2944,
      "_casino": 2945,
      "ile": 2946,
      "ures": 2947,
      "_public": 2948,
      "olution": 2949,
      "_was": 2950,
      "left": 2951,
      "concept_person_john": 2952,
      "ths": 2953,
      "quest": 2954,
      "graph": 2955,
      "_char": 2956,
      "concept_geometricshape_proper": 2957,
      "concept_city_swe": 2958,
      "indi": 2959,
      "concept_book_america": 2960,
      "concept_dateliteral_n195": 2961,
      "attor": 2962,
      "_heart": 2963,
      "engineers": 2964,
      "concept_mammal_fox": 2965,
      "ity_mail": 2966,
      "concept_profession_instru": 2967,
      "_priority_mail": 2968,
      "_council": 2969,
      "concept_insect_mosquito": 2970,
      "staurant": 2971,
      "_ver": 2972,
      "_area": 2973,
      "bab": 2974,
      "birds": 2975,
      "mark": 2976,
      "ry_": 2977,
      "ues": 2978,
      "rocarbon": 2979,
      "ante": 2980,
      "support": 2981,
      "poland": 2982,
      "concept_city_ro": 2983,
      "unch": 2984,
      "isl": 2985,
      "ises": 2986,
      "report": 2987,
      "urch": 2988,
      "concept_mammal_k": 2989,
      "concept_mammal_tigers": 2990,
      "_wil": 2991,
      "_wid": 2992,
      "concept_book_services": 2993,
      "concept_company_msn": 2994,
      "concept_animal_pet": 2995,
      "object": 2996,
      "concept_politicianus_r": 2997,
      "concept_country_t": 2998,
      "concept_country_south": 2999,
      "concept_country_poland": 3000,
      "aches": 3001,
      "general": 3002,
      "_oct": 3003,
      "_spider": 3004,
      "_press": 3005,
      "ichael": 3006,
      "life": 3007,
      "awks": 3008,
      "concept_chemical_metals": 3009,
      "_brit": 3010,
      "_whales": 3011,
      "concept_politicianus_president_bush": 3012,
      "areas": 3013,
      "concept_mlarea": 3014,
      "_communic": 3015,
      "concept_profession_clin": 3016,
      "_operation": 3017,
      "_design": 3018,
      "concept_artery_blood_vessels": 3019,
      "ode_island": 3020,
      "concept_county_chicago": 3021,
      "_global_priority": 3022,
      "uliani": 3023,
      "edicine": 3024,
      "individuals": 3025,
      "_2": 3026,
      "_per": 3027,
      "business": 3028,
      "pres": 3029,
      "tournament": 3030,
      "yoming": 3031,
      "conference": 3032,
      "atic": 3033,
      "_court": 3034,
      "utter": 3035,
      "ilm": 3036,
      "ury": 3037,
      "_birds": 3038,
      "olec": 3039,
      "_way": 3040,
      "concept_company_express": 3041,
      "concept_profession_law": 3042,
      "concept_profession_consult": 3043,
      "ables": 3044,
      "concept_insect_g": 3045,
      "concept_politicianus_hillary_": 3046,
      "concept_country_canada": 3047,
      "_king": 3048,
      "_lad": 3049,
      "_lions": 3050,
      "ours": 3051,
      "concept_visualizablething_t": 3052,
      "concept_river_m": 3053,
      "concept_city_cap": 3054,
      "concept_bird_": 3055,
      "concept_year_n1983": 3056,
      "concept_politicsbill": 3057,
      "concept_animal_birds003": 3058,
      "concept_nondiseasecondition": 3059,
      "atrium": 3060,
      "_falls": 3061,
      "_trees": 3062,
      "spring": 3063,
      "professor": 3064,
      "concept_airport_europe": 3065,
      "concept_agriculturalproduct_goats": 3066,
      "concept_stateorprovince_wyoming": 3067,
      "entricle": 3068,
      "_wasps": 3069,
      "concept_geometricshape_property": 3070,
      "concept_city_sweden": 3071,
      "concept_profession_instructors": 3072,
      "concept_profession_consultants": 3073,
      "concept_country_canada_canada": 3074,
      "_ad": 3075,
      "dom": 3076,
      "house_": 3077,
      "hattan": 3078,
      "ola": 3079,
      "ua": 3080,
      "yr": 3081,
      "inea": 3082,
      "emocr": 3083,
      "concept_city_se": 3084,
      "ette": 3085,
      "concept_dateliteral_n201": 3086,
      "olk": 3087,
      "_w__bush": 3088,
      "_hear": 3089,
      "concept_country_mexico": 3090,
      "velop": 3091,
      "concept_chemical_o": 3092,
      "yscr": 3093,
      "ipp": 3094,
      "concept_company_north_carolina": 3095,
      "concept_insect_ants": 3096,
      "concept_geometricshape_c": 3097,
      "_review": 3098,
      "_str": 3099,
      "order": 3100,
      "concept_musicartist_s": 3101,
      "concept_blog_": 3102,
      "concept_academicfield_tr": 3103,
      "ontario": 3104,
      "concept_nongovorganization_u_s_": 3105,
      "concept_visualizableobject": 3106,
      "italy": 3107,
      "_school": 3108,
      "uffalo": 3109,
      "quirrels": 3110,
      "_orleans": 3111,
      "_supply": 3112,
      "concept_dateliteral_n2010": 3113,
      "yscraper": 3114,
      "_first": 3115,
      "eb": 3116,
      "kyscraper": 3117,
      "len": 3118,
      "ya": 3119,
      "ages": 3120,
      "concept_city_te": 3121,
      "etn": 3122,
      "xygen": 3123,
      "_mod": 3124,
      "_ticks": 3125,
      "concept_book_release": 3126,
      "concept_company_g": 3127,
      "concept_profession_individuals": 3128,
      "abe": 3129,
      "_har": 3130,
      "ireland": 3131,
      "activ": 3132,
      "concept_sportsteam_s": 3133,
      "concept_skyscraper": 3134,
      "concept_county_philadelphia": 3135,
      "eav": 3136,
      "concept_televisionstation_wn": 3137,
      "ake": 3138,
      "allas": 3139,
      "concept_male_world": 3140,
      "_pol": 3141,
      "concept_restaurant": 3142,
      "ugh": 3143,
      "concept_hallwayitem_body": 3144,
      "concept_insect_moth": 3145,
      "atory_": 3146,
      "_life": 3147,
      "_sunday": 3148,
      "concept_date_n1968": 3149,
      "concept_country_countries": 3150,
      "educators": 3151,
      "concept_dateliteral_n1980": 3152,
      "_morning": 3153,
      "concept_profession_professions": 3154,
      "spinal_cord": 3155,
      "_committee": 3156,
      "_saturday": 3157,
      "velopment": 3158,
      "_en": 3159,
      "aven": 3160,
      "eber": 3161,
      "onkeys": 3162,
      "concept_olymp": 3163,
      "atch": 3164,
      "itect": 3165,
      "y_h": 3166,
      "e_d": 3167,
      "lour": 3168,
      "concept_date_meeting": 3169,
      "sum": 3170,
      "concept_city_ar": 3171,
      "concept_city_pr": 3172,
      "concept_city_web": 3173,
      "istic": 3174,
      "_cbs": 3175,
      "concept_stateorprovince_north": 3176,
      "concept_stateorprovince_kansas": 3177,
      "_bur": 3178,
      "_black": 3179,
      "oles": 3180,
      "olph": 3181,
      "_dh": 3182,
      "concept_chemical_d": 3183,
      "_hall": 3184,
      "_hills": 3185,
      "concept_politicianus_kerry": 3186,
      "concept_country_italy": 3187,
      "concept_sportsteam_p": 3188,
      "imation": 3189,
      "concept_county_paris": 3190,
      "eville": 3191,
      "_inter": 3192,
      "architect": 3193,
      "_val": 3194,
      "concept_televisionstation_kt": 3195,
      "concept_programminglanguage_state": 3196,
      "concept_city_mont": 3197,
      "concept_blog_m": 3198,
      "essel": 3199,
      "concept_emotion_new": 3200,
      "attack": 3201,
      "concept_automobilemaker_b": 3202,
      "_exot": 3203,
      "concept_celebrity_season": 3204,
      "avy": 3205,
      "concept_mammal_eleph": 3206,
      "concept_creditunion_north_carolina": 3207,
      "concept_chemical_hydrocarbon": 3208,
      "anagement": 3209,
      "_delaw": 3210,
      "concept_county_new": 3211,
      "concept_county_san_francisco": 3212,
      "concept_televisionnetwork_cbs": 3213,
      "concept_chemical_greenhouse_": 3214,
      "concept_olympics": 3215,
      "_elect": 3216,
      "aq": 3217,
      "d_tv": 3218,
      "gree": 3219,
      "gnit": 3220,
      "john": 3221,
      "ost": 3222,
      "rc": 3223,
      "rew": 3224,
      "yank": 3225,
      "intern": 3226,
      "ica": 3227,
      "e_s": 3228,
      "concept_city_au": 3229,
      "concept_city_spring": 3230,
      "_cap": 3231,
      "unt": 3232,
      "erald": 3233,
      "ilver": 3234,
      "_back": 3235,
      "_wood": 3236,
      "_worms": 3237,
      "concept_cognit": 3238,
      "idg": 3239,
      "_gore": 3240,
      "_hom": 3241,
      "ersburg": 3242,
      "e_new_jersey": 3243,
      "concept_website_visit": 3244,
      "concept_politicianus_al": 3245,
      "concept_sportsteamposit": 3246,
      "concept_weatherphenomenon_tennessee": 3247,
      "concept_artery_c": 3248,
      "concept_musicalbum_days": 3249,
      "concept_beverage_w": 3250,
      "concept_visualizablething_res": 3251,
      "_development": 3252,
      "concept_city_ber": 3253,
      "concept_fish_t": 3254,
      "_valley": 3255,
      "concept_jobposition_phys": 3256,
      "concept_programminglanguage_services": 3257,
      "concept_musicartist_journal": 3258,
      "amazon": 3259,
      "_wed": 3260,
      "concept_vehicle_c": 3261,
      "concept_vertebrate_page": 3262,
      "ucks": 3263,
      "armac": 3264,
      "first_class": 3265,
      "concept_personnorthamerica_minnesota": 3266,
      "concept_bedroomitem_new": 3267,
      "iveactions": 3268,
      "_republican": 3269,
      "concept_bridge_new_jersey": 3270,
      "concept_company_yahoo001": 3271,
      "concept_website_trip": 3272,
      "concept_jobposition_dut": 3273,
      "concept_hospital": 3274,
      "present": 3275,
      "concept_cognitiveactions": 3276,
      "concept_sportsteamposition_": 3277,
      "_administration": 3278,
      "gy": 3279,
      "pur": 3280,
      "rah": 3281,
      "tid": 3282,
      "yc": 3283,
      "ancial": 3284,
      "stown": 3285,
      "emon": 3286,
      "concept_city_ph": 3287,
      "concept_city_lak": 3288,
      "concept_city_area": 3289,
      "_cal": 3290,
      "una": 3291,
      "_ma": 3292,
      "concept_profession_associ": 3293,
      "concept_profession_engineers": 3294,
      "concept_profession_educators": 3295,
      "arden": 3296,
      "concept_coach_": 3297,
      "parliament": 3298,
      "_report": 3299,
      "ibm": 3300,
      "acebook": 3301,
      "concept_female_yank": 3302,
      "oogle_": 3303,
      "concept_politicalparty_parliament": 3304,
      "_leop": 3305,
      "_cancer": 3306,
      "concept_company_clinton": 3307,
      "_plants": 3308,
      "ego": 3309,
      "agency": 3310,
      "concept_fish_sharks": 3311,
      "concept_nerve_nervous_system": 3312,
      "concept_website_tour": 3313,
      "concept_website_facebook": 3314,
      "lymph": 3315,
      "concept_politicianus_biden": 3316,
      "concept_chemical_monoxide": 3317,
      "antelop": 3318,
      "concept_visualizablething_tree": 3319,
      "concept_female_yankees": 3320,
      "_union": 3321,
      "_one": 3322,
      "key": 3323,
      "rys": 3324,
      "wards": 3325,
      "onia": 3326,
      "alem": 3327,
      "aland": 3328,
      "anton": 3329,
      "orning": 3330,
      "_no": 3331,
      "oms": 3332,
      "pot": 3333,
      "point": 3334,
      "concept_city_east": 3335,
      "concept_city_uk": 3336,
      "_cats": 3337,
      "ask": 3338,
      "_paper": 3339,
      "acific": 3340,
      "_test": 3341,
      "_ger": 3342,
      "concept_company_pr": 3343,
      "ote": 3344,
      "oto": 3345,
      "irement": 3346,
      "concept_website_new_york": 3347,
      "execut": 3348,
      "concept_politicianus_h": 3349,
      "concept_country_k": 3350,
      "concept_country_s": 3351,
      "concept_stateorprovince_arkansas": 3352,
      "concept_bodypart_l": 3353,
      "andard": 3354,
      "concept_software_": 3355,
      "concept_chemical_ox": 3356,
      "concept_county_d": 3357,
      "caro": 3358,
      "cast": 3359,
      "_sept": 3360,
      "concept_geometricshape_s": 3361,
      "concept_year_n1982": 3362,
      "concept_politicaloffice_wisconsin": 3363,
      "concept_city_north": 3364,
      "_pharmac": 3365,
      "concept_eventoutcome_business": 3366,
      "concept_chemical_meth": 3367,
      "arm_animals": 3368,
      "umbus": 3369,
      "_leg": 3370,
      "concept_city_fair": 3371,
      "concept_animal_mar": 3372,
      "annual": 3373,
      "easts": 3374,
      "iority": 3375,
      "concept_perceptionaction_ret": 3376,
      "_computer": 3377,
      "lower": 3378,
      "_guinea": 3379,
      "ham_clinton": 3380,
      "_management": 3381,
      "atlant": 3382,
      "concept_governmentorganization_navy": 3383,
      "concept_musicfestival_": 3384,
      "concept_chemical_chlor": 3385,
      "istrict": 3386,
      "_widow": 3387,
      "concept_city_team": 3388,
      "etnam": 3389,
      "rysler": 3390,
      "concept_company_priority": 3391,
      "concept_perceptionaction_retirement": 3392,
      "_emissions": 3393,
      "_attack": 3394,
      "hood": 3395,
      "jo": 3396,
      "nes": 3397,
      "pa": 3398,
      "pet": 3399,
      "place": 3400,
      "t_tv": 3401,
      "concept_par": 3402,
      "al_water": 3403,
      "inf": 3404,
      "inter": 3405,
      "profit": 3406,
      "concept_city_gr": 3407,
      "eties": 3408,
      "elk": 3409,
      "add": 3410,
      "iants": 3411,
      "_play": 3412,
      "_brown": 3413,
      "_tom": 3414,
      "lection": 3415,
      "concept_person_r": 3416,
      "concept_company_a": 3417,
      "_job": 3418,
      "eds": 3419,
      "teger": 3420,
      "concept_sportsteam_new_york": 3421,
      "veins": 3422,
      "case": 3423,
      "eva": 3424,
      "le_c": 3425,
      "concept_river_y": 3426,
      "concept_geometricshape_b": 3427,
      "negin": 3428,
      "_opt": 3429,
      "concept_nonnegin": 3430,
      "concept_personus_": 3431,
      "concept_physicalaction_position": 3432,
      "concept_animal_beasts": 3433,
      "_paras": 3434,
      "_problem": 3435,
      "concept_creditunion_kansas": 3436,
      "concept_year_n1978": 3437,
      "concept_date_n1969": 3438,
      "_peter": 3439,
      "concept_politicianus_john_mccain": 3440,
      "concept_visualartist": 3441,
      "concept_sociopolitical_war": 3442,
      "ouston": 3443,
      "_motors": 3444,
      "_market": 3445,
      "atlanta": 3446,
      "selors": 3447,
      "concept_politicianus_bill_clinton": 3448,
      "_primates": 3449,
      "_kennedy": 3450,
      "rinking": 3451,
      "attorneys": 3452,
      "concept_profession_lawyers": 3453,
      "eavy_m": 3454,
      "concept_jobposition_physician": 3455,
      "concept_animal_marine_": 3456,
      "concept_parlour": 3457,
      "concept_nonneginteger": 3458,
      "_field": 3459,
      "bi": 3460,
      "bour": 3461,
      "mail": 3462,
      "material": 3463,
      "oot": 3464,
      "rus": 3465,
      "rists": 3466,
      "worms": 3467,
      "itts": 3468,
      "oria": 3469,
      "orea": 3470,
      "e_g": 3471,
      "enton": 3472,
      "concept_city_fort": 3473,
      "istan": 3474,
      "ade": 3475,
      "ute": 3476,
      "ream": 3477,
      "_mo": 3478,
      "concept_profession_cr": 3479,
      "_prey": 3480,
      "trans": 3481,
      "_top": 3482,
      "leum": 3483,
      "concept_person_d": 3484,
      "_gl": 3485,
      "_gul": 3486,
      "concept_company_japan": 3487,
      "abs": 3488,
      "concept_insect_lad": 3489,
      "ments": 3490,
      "owls": 3491,
      "concept_bodypart_b": 3492,
      "iger": 3493,
      "concept_artery_pul": 3494,
      "concept_county_col": 3495,
      "gression": 3496,
      "pract": 3497,
      "concept_televisionstation_wg": 3498,
      "_star": 3499,
      "concept_bank_priority_mail": 3500,
      "concept_arthropod_prey": 3501,
      "concept_newspaper_": 3502,
      "_pradesh": 3503,
      "concept_stateorprovince_mississippi": 3504,
      "equipment": 3505,
      "concept_governmentorganization_program": 3506,
      "ldogs": 3507,
      "ugabe": 3508,
      "concept_invertebrate_be": 3509,
      "azil": 3510,
      "firm": 3511,
      "etroleum": 3512,
      "burgh": 3513,
      "condition": 3514,
      "concept_mammal_antelop": 3515,
      "concept_perceptionaction_hear": 3516,
      "concept_year_n1975": 3517,
      "_weekend": 3518,
      "concept_person_mugabe": 3519,
      "projects": 3520,
      "zealand": 3521,
      "_associ": 3522,
      "concept_country_n": 3523,
      "_motor": 3524,
      "concept_director_committee": 3525,
      "_bears": 3526,
      "_midwest": 3527,
      "concept_mammal_domestic_animals": 3528,
      "_new_zealand": 3529,
      "application": 3530,
      "concept_mammal_elephants": 3531,
      "concept_visualizablething_residence": 3532,
      "rinking_water": 3533,
      "concept_invertebrate_bees": 3534,
      "_america": 3535,
      "ba": 3536,
      "iuliani": 3537,
      "lb": 3538,
      "lies": 3539,
      "type_": 3540,
      "cell": 3541,
      "atre": 3542,
      "alm": 3543,
      "anal": 3544,
      "ination": 3545,
      "inte": 3546,
      "agan": 3547,
      "sure": 3548,
      "concept_city_y": 3549,
      "etown": 3550,
      "ewood": 3551,
      "_clo": 3552,
      "_man": 3553,
      "_metal": 3554,
      "_service": 3555,
      "_smith": 3556,
      "_bob": 3557,
      "concept_chemical_f": 3558,
      "sector": 3559,
      "concept_book_f": 3560,
      "concept_book_st": 3561,
      "concept_profession_o": 3562,
      "_jack": 3563,
      "concept_website_south": 3564,
      "concept_insect_wasps": 3565,
      "atural": 3566,
      "concept_stateorprovince_iowa": 3567,
      "imization": 3568,
      "concept_county_s": 3569,
      "concept_county_york": 3570,
      "ails": 3571,
      "universal": 3572,
      "fluid": 3573,
      "concept_televisionstation_wt": 3574,
      "concept_geopoliticallocation_s": 3575,
      "concept_geometricshape_effect": 3576,
      "concept_island_post": 3577,
      "_prem": 3578,
      "idents": 3579,
      "berg": 3580,
      "concept_musicgenre_pro": 3581,
      "onto": 3582,
      "ickens": 3583,
      "concept_mammal_squirrels": 3584,
      "eetings": 3585,
      "concept_beverage_juices": 3586,
      "concept_hallwayitem_air": 3587,
      "_diego": 3588,
      "concept_mlconference": 3589,
      "concept_mammal_small_pets": 3590,
      "concept_drug_acid": 3591,
      "concept_year_n1965": 3592,
      "concept_country_new_zealand": 3593,
      "account": 3594,
      "whit": 3595,
      "concept_visualizablething_water_supply": 3596,
      "accoons": 3597,
      "eberman": 3598,
      "_exotic": 3599,
      "concept_vehicle_countries": 3600,
      "antonio": 3601,
      "concept_profession_craf": 3602,
      "_z": 3603,
      "back": 3604,
      "cat": 3605,
      "cos": 3606,
      "earth": 3607,
      "hi": 3608,
      "mw": 3609,
      "play": 3610,
      "to": 3611,
      "vari": 3612,
      "cem": 3613,
      "ercur": 3614,
      "orado": 3615,
      "eman": 3616,
      "concept_city_le": 3617,
      "concept_city_article": 3618,
      "rest": 3619,
      "urn": 3620,
      "_sw": 3621,
      "concept_stateorprovince_kentucky": 3622,
      "_pla": 3623,
      "vietnam": 3624,
      "concept_mammal_primates": 3625,
      "acr": 3626,
      "_te": 3627,
      "_tod": 3628,
      "_tissue": 3629,
      "concept_book_in": 3630,
      "_game_": 3631,
      "concept_company_ch": 3632,
      "concept_profession_jobs": 3633,
      "concept_animal_d": 3634,
      "tech": 3635,
      "ayette": 3636,
      "concept_stateorprovince_r": 3637,
      "concept_stateorprovince_idaho": 3638,
      "concept_academicfield_p": 3639,
      "andom": 3640,
      "concept_county_man": 3641,
      "ources": 3642,
      "_invest": 3643,
      "concept_scientificterm_linear": 3644,
      "rome": 3645,
      "illary": 3646,
      "gust": 3647,
      "ival": 3648,
      "akes": 3649,
      "concept_insect_aph": 3650,
      "concept_city_bel": 3651,
      "_vol": 3652,
      "concept_wine_ch": 3653,
      "concept_bird_water": 3654,
      "_sugar": 3655,
      "concept_visualizablescene_n": 3656,
      "concept_bank_express": 3657,
      "euro": 3658,
      "bury": 3659,
      "geons": 3660,
      "concept_nongovorganization_council": 3661,
      "concept_city_nor": 3662,
      "_doctor": 3663,
      "concept_animal_herb": 3664,
      "concept_date_n1977": 3665,
      "_months": 3666,
      "ustom": 3667,
      "polic": 3668,
      "concept_city_jackson": 3669,
      "_variational": 3670,
      "books": 3671,
      "times": 3672,
      "oundation": 3673,
      "concept_aquarium_": 3674,
      "_recluse": 3675,
      "concept_profession_technicians": 3676,
      "concept_profession_clinicians": 3677,
      "utterflies": 3678,
      "olphins": 3679,
      "concept_chemical_hydrocarbons": 3680,
      "atlantic": 3681,
      "concept_chemical_chlorine": 3682,
      "concept_county_columbus": 3683,
      "concept_book_stay": 3684,
      "concept_book_inception": 3685,
      "concept_insect_aphids": 3686,
      "concept_bank_express_mail": 3687,
      "concept_animal_herbivores": 3688,
      "cument": 3689,
      "day_": 3690,
      "if": 3691,
      "iro": 3692,
      "me": 3693,
      "nel": 3694,
      "tissues": 3695,
      "ule": 3696,
      "onn": 3697,
      "ato": 3698,
      "ery": 3699,
      "oronto": 3700,
      "litt": 3701,
      "forman": 3702,
      "concept_city_re": 3703,
      "ista": 3704,
      "_new_hampshire": 3705,
      "_mem": 3706,
      "_musc": 3707,
      "_pan": 3708,
      "via": 3709,
      "_ben": 3710,
      "personnel": 3711,
      "_terr": 3712,
      "idd": 3713,
      "_giants": 3714,
      "rick": 3715,
      "phy": 3716,
      "concept_website_p": 3717,
      "concept_insect_ticks": 3718,
      "concept_animal_p": 3719,
      "concept_country_br": 3720,
      "concept_bodypart_nerv": 3721,
      "_rum": 3722,
      "concept_buildingmaterial": 3723,
      "concept_governmentorganization_commission": 3724,
      "tsmen": 3725,
      "_indep": 3726,
      "concept_cell": 3727,
      "concept_scientificterm_gaussian": 3728,
      "concept_weapon_weeks": 3729,
      "romney": 3730,
      "concept_geopoliticallocation_d": 3731,
      "illar": 3732,
      "concept_geometricshape_shape": 3733,
      "opening": 3734,
      "concept_jobposition_group": 3735,
      "concept_politicsissue_m": 3736,
      "concept_politicsissue_elections": 3737,
      "concept_city_hawaii": 3738,
      "concept_city_santa": 3739,
      "concept_newspaper_times": 3740,
      "concept_room_south": 3741,
      "_pollutants": 3742,
      "concept_city_co": 3743,
      "vens": 3744,
      "concept_governmentorganization_law": 3745,
      "ugars": 3746,
      "concept_emotion_mississippi": 3747,
      "concept_invertebrate_larvae": 3748,
      "concept_invertebrate_worms": 3749,
      "_sciences": 3750,
      "concept_mammal_dog": 3751,
      "concept_eventoutcome_report": 3752,
      "concept_mammal_monkeys": 3753,
      "_commer": 3754,
      "monary_": 3755,
      "concept_city_fr": 3756,
      "concept_plant_trees": 3757,
      "ility": 3758,
      "an_antonio": 3759,
      "_document": 3760,
      "concept_year_n1974": 3761,
      "_assembly": 3762,
      "concept_profession_therapists": 3763,
      "arry_": 3764,
      "_snails": 3765,
      "_matter": 3766,
      "concept_person_lord": 3767,
      "concept_year_n1946": 3768,
      "concept_mediatype_books": 3769,
      "ussels": 3770,
      "ultivariate_gaussian": 3771,
      "concept_mammal_foxes": 3772,
      "concept_politicianus_hillary_clinton": 3773,
      "concept_stateorprovince_north_dakota": 3774,
      "concept_city_springfield": 3775,
      "concept_company_aol": 3776,
      "concept_profession_craftsmen": 3777,
      "_independ": 3778,
      "__m": 3779,
      "but": 3780,
      "har": 3781,
      "nn": 3782,
      "sm": 3783,
      "wit": 3784,
      "yal": 3785,
      "yspace": 3786,
      "concept_professor": 3787,
      "iti": 3788,
      "ent_": 3789,
      "concept_city_po": 3790,
      "concept_city_ex": 3791,
      "cture": 3792,
      "ety": 3793,
      "isra": 3794,
      "record": 3795,
      "rectors": 3796,
      "ili": 3797,
      "_music": 3798,
      "_sem": 3799,
      "_bas": 3800,
      "_bir": 3801,
      "acle": 3802,
      "_wast": 3803,
      "concept_person_k": 3804,
      "concept_profession_re": 3805,
      "otes": 3806,
      "circ": 3807,
      "concept_website_per": 3808,
      "concept_website_information": 3809,
      "concept_country_isra": 3810,
      "_kn": 3811,
      "imm": 3812,
      "anda": 3813,
      "_a_": 3814,
      "_secur": 3815,
      "concept_island_m": 3816,
      "concept_date_n195": 3817,
      "concept_politicsissue_stud": 3818,
      "concept_arthropod_m": 3819,
      "heat": 3820,
      "concept_book_arkansas": 3821,
      "concept_year_n1981": 3822,
      "deo": 3823,
      "ccup": 3824,
      "concept_city_del": 3825,
      "_heights": 3826,
      "concept_politicianus_president_george_w__bush": 3827,
      "experi": 3828,
      "concept_city_new_orleans": 3829,
      "concept_mammal_farm_animals": 3830,
      "concept_visualizableattribute_d": 3831,
      "cedar": 3832,
      "concept_profession_coun": 3833,
      "concept_politicianus_giuliani": 3834,
      "amily_": 3835,
      "_distributions": 3836,
      "_august": 3837,
      "concept_male_jesus": 3838,
      "concept_chemical_particul": 3839,
      "concept_religion_": 3840,
      "leveland": 3841,
      "concept_animal_large_animals": 3842,
      "concept_insect_fleas": 3843,
      "_communications": 3844,
      "concept_musicartist_session": 3845,
      "concept_blog_myspace": 3846,
      "concept_automobilemaker_bmw": 3847,
      "concept_beverage_wines": 3848,
      "concept_chemical_oxides": 3849,
      "concept_county_detroit": 3850,
      "ercury": 3851,
      "concept_bodypart_nerves001": 3852,
      "concept_country_israel": 3853,
      "lam": 3854,
      "lish": 3855,
      "ns": 3856,
      "ose": 3857,
      "uation": 3858,
      "u_tv": 3859,
      "yotes": 3860,
      "onald": 3861,
      "ce_president": 3862,
      "_nom": 3863,
      "e_t": 3864,
      "agre": 3865,
      "anies": 3866,
      "concept_city_or": 3867,
      "_custom": 3868,
      "_members": 3869,
      "concept_stateorprovince_nebraska": 3870,
      "_williams": 3871,
      "orta": 3872,
      "concept_book_morning": 3873,
      "concept_person_g": 3874,
      "concept_profession_adv": 3875,
      "concept_profession_research": 3876,
      "ots": 3877,
      "_human": 3878,
      "cip": 3879,
      "cies": 3880,
      "_ju": 3881,
      "concept_country_h": 3882,
      "concept_country_fin": 3883,
      "concept_stateorprovince_utah": 3884,
      "concept_stateorprovince_west_virginia": 3885,
      "overnor": 3886,
      "concept_chemical_air": 3887,
      "concept_artery_fluid": 3888,
      "concept_musicalbum_life": 3889,
      "concept_university_microsoft": 3890,
      "concept_scientificterm_variational": 3891,
      "concept_insect_insect": 3892,
      "class": 3893,
      "concept_geometricshape_ang": 3894,
      "concept_city_bar": 3895,
      "_reagan": 3896,
      "ops": 3897,
      "concept_jobposition_n": 3898,
      "_stan": 3899,
      "concept_newspaper_w": 3900,
      "aud": 3901,
      "concept_bird_ch": 3902,
      "concept_dateliteral_n193": 3903,
      "concept_retailstore_c": 3904,
      "concept_bodypart_atrium": 3905,
      "_colorado": 3906,
      "concept_automobilemodel": 3907,
      "concept_geopoliticalorganization_": 3908,
      "_congress": 3909,
      "concept_hallwayitem_": 3910,
      "concept_musicalbum_us": 3911,
      "_florida": 3912,
      "rix": 3913,
      "concept_animal_mice": 3914,
      "_palm": 3915,
      "concept_animal_ham": 3916,
      "lyn": 3917,
      "concept_chemical_nitrogen_ox": 3918,
      "_begin": 3919,
      "concept_politicianus_sen_": 3920,
      "festival": 3921,
      "concept_year_n1967": 3922,
      "concept_city_alaska": 3923,
      "_spring": 3924,
      "_facility": 3925,
      "_golden": 3926,
      "assistant": 3927,
      "concept_female_hillary": 3928,
      "concept_person_john003": 3929,
      "concept_academicfield_trial": 3930,
      "concept_chemical_greenhouse_gas": 3931,
      "concept_artery_pulmonary_": 3932,
      "techn": 3933,
      "concept_visualizableattribute_drinking_water": 3934,
      "concept_country_finland": 3935,
      "dam": 3936,
      "ike": 3937,
      "lat": 3938,
      "lement": 3939,
      "metric": 3940,
      "n_tv": 3941,
      "ve_": 3942,
      "vis": 3943,
      "x_tv": 3944,
      "congress": 3945,
      "pton": 3946,
      "anz": 3947,
      "ineral": 3948,
      "y_g": 3949,
      "unction": 3950,
      "ilk": 3951,
      "illa": 3952,
      "concept_mammal_re": 3953,
      "_drug": 3954,
      "contin": 3955,
      "umes": 3956,
      "concept_company_apple": 3957,
      "concept_profession_attorneys": 3958,
      "concept_animal_head": 3959,
      "ober": 3960,
      "ther": 3961,
      "ysis": 3962,
      "eaver": 3963,
      "_industr": 3964,
      "programs": 3965,
      "concept_city_be": 3966,
      "_standard": 3967,
      "concept_athlete_w": 3968,
      "concept_city_south": 3969,
      "concept_city_mo": 3970,
      "concept_male_ab": 3971,
      "_pot": 3972,
      "concept_biotechcompany_apple": 3973,
      "concept_biotechcompany_china": 3974,
      "_space": 3975,
      "concept_charactertrait_ch": 3976,
      "concept_personus_j": 3977,
      "concept_physicalaction_production": 3978,
      "concept_musicgenre_h": 3979,
      "ocial": 3980,
      "concept_chemical_mineral": 3981,
      "concept_female_m": 3982,
      "_grains": 3983,
      "concept_sportsgame_first": 3984,
      "concept_musicalbum_vietnam": 3985,
      "concept_mammal_cows": 3986,
      "concept_insect_meal": 3987,
      "ilitary": 3988,
      "ternal": 3989,
      "concept_jobposition_agency": 3990,
      "concept_date_n1972": 3991,
      "concept_date_n1976": 3992,
      "concept_mlmetric": 3993,
      "concept_skiarea_m": 3994,
      "centre": 3995,
      "_assist": 3996,
      "ungs": 3997,
      "concept_charactertrait_opening": 3998,
      "concept_stateorprovince_south_dakota": 3999,
      "concept_sportsleague_m": 4000,
      "agencies": 4001,
      "_manager": 4002,
      "_norway": 4003,
      "concept_videogame_": 4004,
      "_bulldogs": 4005,
      "concept_academicfield_biology": 4006,
      "ariance": 4007,
      "concept_date_n1939": 4008,
      "concept_insect_mosquitoes": 4009,
      "ebay": 4010,
      "_delaware": 4011,
      "concept_jobposition_duty": 4012,
      "presentatives": 4013,
      "concept_profession_associate": 4014,
      "concept_celltype_": 4015,
      "_nomine": 4016,
      "concept_bird_chickens": 4017,
      "concept_animal_hamsters": 4018,
      "concept_chemical_minerals": 4019,
      "_est": 4020,
      "_richard": 4021,
      "human": 4022,
      "ient": 4023,
      "ife": 4024,
      "qual": 4025,
      "u_": 4026,
      "uf": 4027,
      "uel": 4028,
      "vent": 4029,
      "roe": 4030,
      "_nerve_": 4031,
      "_next": 4032,
      "stin": 4033,
      "eney": 4034,
      "esign": 4035,
      "male_n": 4036,
      "omas": 4037,
      "_city_": 4038,
      "real": 4039,
      "read": 4040,
      "iles": 4041,
      "_mc": 4042,
      "_mart": 4043,
      "_mobil": 4044,
      "_mens": 4045,
      "_mission": 4046,
      "_medicine": 4047,
      "_sit": 4048,
      "concept_profession_n": 4049,
      "concept_profession_pharmac": 4050,
      "_patr": 4051,
      "_dogs": 4052,
      "_data": 4053,
      "concept_book_h": 4054,
      "concept_profession_train": 4055,
      "iran": 4056,
      "concept_website_issue": 4057,
      "concept_sportsteam_ch": 4058,
      "_random": 4059,
      "concept_chemical_am": 4060,
      "concept_governmentorganization_c": 4061,
      "concept_county_los_angeles": 4062,
      "ardian": 4063,
      "concept_televisionstation_wp": 4064,
      "concept_river_s": 4065,
      "_decem": 4066,
      "_chief": 4067,
      "_regression": 4068,
      "concept_jobposition_doctor": 4069,
      "concept_jobposition_facility": 4070,
      "concept_televisionstation_km": 4071,
      "concept_politicsissue_oregon": 4072,
      "artists": 4073,
      "arket": 4074,
      "concept_male_russia": 4075,
      "head": 4076,
      "ange_": 4077,
      "_road": 4078,
      "_robert": 4079,
      "concept_governmentorganization_iowa": 4080,
      "concept_nonprofit": 4081,
      "upp": 4082,
      "_george_h": 4083,
      "concept_film": 4084,
      "concept_transportation_": 4085,
      "liqu": 4086,
      "concept_insect_butterflies": 4087,
      "concept_mammal_mountain": 4088,
      "burn": 4089,
      "bees": 4090,
      "concept_chemical_molec": 4091,
      "concept_month_oct": 4092,
      "viron": 4093,
      "concept_visualizablething_use": 4094,
      "_brad": 4095,
      "_flight": 4096,
      "_nurses": 4097,
      "_partners": 4098,
      "concept_sportsteam_ncaa_mens": 4099,
      "concept_mammal_elk": 4100,
      "areer": 4101,
      "concept_politicaloffice_assistant": 4102,
      "_lieberman": 4103,
      "concept_musician_": 4104,
      "concept_website_washington": 4105,
      "concept_publication_": 4106,
      "_companies": 4107,
      "concept_musicsong_end": 4108,
      "concept_tradeunion_congress": 4109,
      "amento": 4110,
      "riday": 4111,
      "_marine_": 4112,
      "iological": 4113,
      "struction": 4114,
      "_variables": 4115,
      "concept_highway_the_new": 4116,
      "concept_month_june": 4117,
      "_salmon": 4118,
      "concept_politicianus_mr": 4119,
      "_apr": 4120,
      "concept_dateliteral_n1917": 4121,
      "concept_city_vegas_casino": 4122,
      "_regionals": 4123,
      "_minister": 4124,
      "period": 4125,
      "_parameter": 4126,
      "concept_month_march": 4127,
      "concept_county_new_mexico": 4128,
      "concept_musicfestival_annual": 4129,
      "concept_nonneginteger_one": 4130,
      "_midwest_regionals": 4131,
      "atural_gas": 4132,
      "concept_county_york_city": 4133,
      "acramento": 4134,
      "concept_skiarea_maine": 4135,
      "concept_sportsleague_mlb": 4136,
      "concept_county_los_angeles_county": 4137,
      "_december": 4138,
      "concept_nonprofitorganization": 4139,
      "concept_month_october": 4140,
      "concept_sportsteam_ncaa_mens_midwest_regionals": 4141,
      "_red": 4142,
      "_insects": 4143,
      "_asia": 4144,
      "na": 4145,
      "ram": 4146,
      "uver": 4147,
      "ube": 4148,
      "wives": 4149,
      "yl": 4150,
      "rod": 4151,
      "anco": 4152,
      "arat": 4153,
      "concept_cardgame_": 4154,
      "loom": 4155,
      "ague": 4156,
      "ame_n": 4157,
      "_card": 4158,
      "utions": 4159,
      "_mir": 4160,
      "_sl": 4161,
      "_side": 4162,
      "_blan": 4163,
      "_band": 4164,
      "concept_mammal_guinea": 4165,
      "concept_book_re": 4166,
      "leaf": 4167,
      "idwives": 4168,
      "concept_person_f": 4169,
      "concept_company_s": 4170,
      "concept_company_case": 4171,
      "_high": 4172,
      "iron": 4173,
      "iraq": 4174,
      "concept_website_y": 4175,
      "concept_animal_leop": 4176,
      "_friday": 4177,
      "concept_race": 4178,
      "_kid": 4179,
      "linators": 4180,
      "oward": 4181,
      "vey": 4182,
      "concept_chemical_at": 4183,
      "logists": 4184,
      "concept_musicalbum_months": 4185,
      "_lim": 4186,
      "evening": 4187,
      "esth": 4188,
      "concept_buildingfeature_h": 4189,
      "concept_scientificterm_cond": 4190,
      "roman": 4191,
      "_cheney": 4192,
      "storm": 4193,
      "concept_fish_l": 4194,
      "concept_island_staff": 4195,
      "concept_televisionstation_kn": 4196,
      "_street": 4197,
      "concept_arthropod_pol": 4198,
      "concept_city_mon": 4199,
      "concept_city_mad": 4200,
      "concept_radiostation_w": 4201,
      "concept_biotechcompany": 4202,
      "concept_musicartist_times": 4203,
      "concept_city_tit": 4204,
      "concept_bird_p": 4205,
      "osa": 4206,
      "_western": 4207,
      "arger": 4208,
      "concept_transportation_operation": 4209,
      "e_min": 4210,
      "_bron": 4211,
      "concept_city_ne": 4212,
      "concept_artery_ventricle": 4213,
      "_crabs": 4214,
      "concept_terroristorganization_force": 4215,
      "_process": 4216,
      "concept_date_n1971": 4217,
      "concept_musicalbum_debut": 4218,
      "concept_company_microsoft": 4219,
      "concept_year_n1970": 4220,
      "_senate": 4221,
      "lywood": 4222,
      "one_day": 4223,
      "_delhi": 4224,
      "_lake": 4225,
      "_november": 4226,
      "_new_england": 4227,
      "concept_city_rio": 4228,
      "_studies": 4229,
      "concept_website_google_": 4230,
      "concept_mammal_coyotes": 4231,
      "concept_country_south_africa": 4232,
      "concept_chemical_oxygen": 4233,
      "ippines": 4234,
      "_optimization": 4235,
      "ittsburgh": 4236,
      "practice": 4237,
      "policy": 4238,
      "concept_politicsissue_meetings": 4239,
      "witter": 4240,
      "_drug_administration": 4241,
      "concept_profession_trainers": 4242,
      "concept_mammal_guinea_pigs": 4243,
      "concept_animal_leopards": 4244,
      "concept_arthropod_pollinators": 4245,
      "_on": 4246,
      "_em": 4247,
      "_arteries": 4248,
      "aro": 4249,
      "dis": 4250,
      "gm": 4251,
      "hib": 4252,
      "nats": 4253,
      "oen": 4254,
      "ria": 4255,
      "sville": 4256,
      "wer": 4257,
      "yb": 4258,
      "confl": 4259,
      "concept_male_n": 4260,
      "ala": 4261,
      "roat": 4262,
      "anuary": 4263,
      "icip": 4264,
      "stall": 4265,
      "stock": 4266,
      "char": 4267,
      "use_": 4268,
      "concept_city_red": 4269,
      "asons": 4270,
      "ador": 4271,
      "urt": 4272,
      "_sand": 4273,
      "_san_antonio": 4274,
      "launch": 4275,
      "video": 4276,
      "_ber": 4277,
      "_therapists": 4278,
      "lex": 4279,
      "ide_": 4280,
      "apor": 4281,
      "_game": 4282,
      "ablish": 4283,
      "_houston": 4284,
      "_jackson": 4285,
      "concept_insect_term": 4286,
      "concept_insect_crabs": 4287,
      "concept_politicianus_j": 4288,
      "concept_country_th": 4289,
      "concept_country_bel": 4290,
      "lett": 4291,
      "link": 4292,
      "_rain": 4293,
      "concept_academicfield_computer": 4294,
      "resh": 4295,
      "concept_chemical_oxide": 4296,
      "issue_n": 4297,
      "ailand": 4298,
      "establish": 4299,
      "ourse": 4300,
      "_instit": 4301,
      "concept_scientificterm_exp": 4302,
      "concept_weapon_": 4303,
      "concept_televisionstation_wun": 4304,
      "allen": 4305,
      "story": 4306,
      "mington": 4307,
      "concept_fish_salmon": 4308,
      "composition": 4309,
      "concept_televisionstation_kc": 4310,
      "concept_televisionstation_kd": 4311,
      "concept_televisionstation_kl": 4312,
      "concept_politicsissue_programs": 4313,
      "concept_newspaper_tribune": 4314,
      "concept_radiostation_nevada": 4315,
      "augh": 4316,
      "concept_city_wood": 4317,
      "concept_city_car": 4318,
      "concept_governmentorganization_action": 4319,
      "concept_governmentorganization_usps": 4320,
      "concept_academicfield_elect": 4321,
      "_george_b": 4322,
      "concept_emotion_band": 4323,
      "concept_bank_fed": 4324,
      "concept_braintissue_spinal_cord": 4325,
      "ptiles": 4326,
      "concept_politicsblog_tribune": 4327,
      "concept_month_sept": 4328,
      "concept_televisionshow_": 4329,
      "former": 4330,
      "concept_sportsgame_m": 4331,
      "concept_city_number": 4332,
      "_alabama": 4333,
      "concept_building_years": 4334,
      "_research": 4335,
      "_money": 4336,
      "concept_year_n1973": 4337,
      "iatrists": 4338,
      "_petersburg": 4339,
      "concept_country_career": 4340,
      "uba": 4341,
      "_scott": 4342,
      "concept_product_minister": 4343,
      "concept_wallitem_begin": 4344,
      "concept_month_january": 4345,
      "_northern_": 4346,
      "concept_musicfestival": 4347,
      "_candidate_barack_obama": 4348,
      "concept_profession_dent": 4349,
      "altimore_": 4350,
      "_kingdom": 4351,
      "emocratic": 4352,
      "_models": 4353,
      "concept_animal_marine_life": 4354,
      "_today": 4355,
      "_birth": 4356,
      "experience": 4357,
      "agreement": 4358,
      "concept_insect_insect_pests": 4359,
      "concept_animal_mice001": 4360,
      "_april": 4361,
      "conflict": 4362,
      "concept_insect_termites": 4363,
      "concept_country_thailand": 4364,
      "concept_month_september": 4365,
      "concept_wallitem_beginning": 4366,
      "_lan": 4367,
      "_elections": 4368,
      "avi": 4369,
      "i_tv": 4370,
      "mit": 4371,
      "oper": 4372,
      "td": 4373,
      "vict": 4374,
      "itzer": 4375,
      "ints": 4376,
      "process": 4377,
      "ares": 4378,
      "enver": 4379,
      "enry_": 4380,
      "e_f": 4381,
      "agon": 4382,
      "concept_date_": 4383,
      "chool": 4384,
      "amer": 4385,
      "concept_city_rock": 4386,
      "ether": 4387,
      "elag": 4388,
      "_cat": 4389,
      "_michael": 4390,
      "_squ": 4391,
      "_sale": 4392,
      "concept_mammal_whales": 4393,
      "_gm": 4394,
      "concept_company_k": 4395,
      "concept_company_west_virginia": 4396,
      "concept_profession_sur": 4397,
      "_jesus": 4398,
      "concept_website_links": 4399,
      "concept_politicianus_lieberman": 4400,
      "bridge": 4401,
      "concept_sportsteam_l": 4402,
      "aterp": 4403,
      "concept_bodypart_kid": 4404,
      "igators": 4405,
      "iesel": 4406,
      "resp": 4407,
      "concept_artery_a": 4408,
      "concept_artery_caro": 4409,
      "concept_beverage_c": 4410,
      "concept_scientificterm_b": 4411,
      "concept_scientificterm_comp": 4412,
      "concept_visualizablething_s": 4413,
      "prison": 4414,
      "concept_geopoliticallocation_k": 4415,
      "events": 4416,
      "concept_river_n": 4417,
      "aftern": 4418,
      "open": 4419,
      "concept_jobposition_de": 4420,
      "concept_programminglanguage_project": 4421,
      "concept_award": 4422,
      "concept_city_mar": 4423,
      "scot": 4424,
      "_spe": 4425,
      "concept_city_cam": 4426,
      "_sum": 4427,
      "_cock": 4428,
      "concept_visualizablescene_br": 4429,
      "concept_month_august": 4430,
      "concept_reptile_sn": 4431,
      "innati": 4432,
      "_barb": 4433,
      "airs": 4434,
      "concept_physicalaction_work": 4435,
      "concept_person_roman": 4436,
      "_proper": 4437,
      "_grove": 4438,
      "ashville": 4439,
      "ministry": 4440,
      "police": 4441,
      "richmond": 4442,
      "concept_crimeorcharge_prison": 4443,
      "amily": 4444,
      "_varieties": 4445,
      "european": 4446,
      "concept_perceptionaction_first": 4447,
      "_theatre": 4448,
      "rooklyn": 4449,
      "incinnati": 4450,
      "concept_city_contract": 4451,
      "concept_nerve_nerve_": 4452,
      "concept_dateliteral_n1918": 4453,
      "_edwards": 4454,
      "riends": 4455,
      "assistants": 4456,
      "concept_profession_division": 4457,
      "_rhode_island": 4458,
      "concept_profession_psychologists": 4459,
      "trophy": 4460,
      "_series": 4461,
      "_britain": 4462,
      "concept_blog_iowa": 4463,
      "concept_insect_moths": 4464,
      "concept_politicianus_al_gore": 4465,
      "executive_": 4466,
      "_gulf": 4467,
      "analysis": 4468,
      "concept_country_brazil": 4469,
      "concept_politicsissue_students": 4470,
      "_estimation": 4471,
      "vironment": 4472,
      "ancouver": 4473,
      "oenix": 4474,
      "afternoon": 4475,
      "concept_awardtrophy": 4476,
      "concept_reptile_snakes": 4477,
      "concept_awardtrophytournament": 4478,
      "_as": 4479,
      "band": 4480,
      "bell": 4481,
      "eagles": 4482,
      "folk": 4483,
      "ioles": 4484,
      "jury": 4485,
      "osh": 4486,
      "oice": 4487,
      "ricians": 4488,
      "well": 4489,
      "zz": 4490,
      "ergy": 4491,
      "ano": 4492,
      "inants": 4493,
      "icro": 4494,
      "ar_pradesh": 4495,
      "malays": 4496,
      "e_state": 4497,
      "lobe": 4498,
      "charg": 4499,
      "amster": 4500,
      "pool": 4501,
      "concept_city_ed": 4502,
      "concept_military": 4503,
      "eta": 4504,
      "sea": 4505,
      "ells": 4506,
      "ompson": 4507,
      "ades": 4508,
      "adob": 4509,
      "utes": 4510,
      "concept_stateorprovince_b": 4511,
      "_bro": 4512,
      "_wa": 4513,
      "_der": 4514,
      "_ducks": 4515,
      "concept_book_ch": 4516,
      "concept_book_north": 4517,
      "concept_book_job": 4518,
      "concept_person_h": 4519,
      "apes": 4520,
      "_gard": 4521,
      "concept_profession_ch": 4522,
      "ulation": 4523,
      "_haven": 4524,
      "_herald": 4525,
      "irl": 4526,
      "irates": 4527,
      "_flow": 4528,
      "concept_politicianus_republican": 4529,
      "letter": 4530,
      "thers": 4531,
      "concept_sportsteam_w": 4532,
      "concept_academicfield_di": 4533,
      "concept_chemical_iron": 4534,
      "concept_artery_m": 4535,
      "concept_artery_veins": 4536,
      "concept_musicalbum_air": 4537,
      "_lear": 4538,
      "geneva": 4539,
      "ficials": 4540,
      "concept_beverage_p": 4541,
      "concept_beverage_red": 4542,
      "concept_university_ministry": 4543,
      "practitioners": 4544,
      "_carib": 4545,
      "concept_agriculturalproduct_grains": 4546,
      "concept_coach_c": 4547,
      "_second": 4548,
      "concept_physiological": 4549,
      "all_street": 4550,
      "rubs": 4551,
      "concept_ceo_k": 4552,
      "_stadium": 4553,
      "concept_programminglanguage_the_new": 4554,
      "concept_athlete_j": 4555,
      "concept_city_har": 4556,
      "concept_arthropod_ex": 4557,
      "concept_stateorprovince_maine": 4558,
      "ecision": 4559,
      "angl": 4560,
      "raine": 4561,
      "concept_biotechcompany_wh": 4562,
      "concept_governmentorganization_launch": 4563,
      "concept_chemical_carbon_mon": 4564,
      "concept_academicfield_arts": 4565,
      "_gases": 4566,
      "concept_bodypart_tract": 4567,
      "concept_mammal_bats": 4568,
      "ectation": 4569,
      "awa": 4570,
      "concept_mammal_mice": 4571,
      "ologies": 4572,
      "ick_cheney": 4573,
      "concept_month_april": 4574,
      "concept_vertebrate_rum": 4575,
      "rows": 4576,
      "ildren": 4577,
      "concept_stateorprovince_new_mexico": 4578,
      "kie": 4579,
      "_whol": 4580,
      "ousehold": 4581,
      "concept_city_father": 4582,
      "_educ": 4583,
      "_resp": 4584,
      "coln": 4585,
      "_monday": 4586,
      "ross": 4587,
      "concept_city_children": 4588,
      "cret": 4589,
      "_bill_clinton": 4590,
      "_guardian": 4591,
      "concept_date_n1966": 4592,
      "concept_geopoliticallocation_iraq": 4593,
      "ukraine": 4594,
      "concept_politicianus_john_kerry": 4595,
      "_forces": 4596,
      "reatment": 4597,
      "concept_bank_usps_global_priority": 4598,
      "e_city": 4599,
      "concept_website_market": 4600,
      "association": 4601,
      "axim": 4602,
      "concept_invertebrate_cattle": 4603,
      "_networks": 4604,
      "concept_nondiseasecondition_period": 4605,
      "school": 4606,
      "concept_county_miami": 4607,
      "_appro": 4608,
      "commend": 4609,
      "queens": 4610,
      "_blue_": 4611,
      "uttar_pradesh": 4612,
      "_authorities": 4613,
      "concept_mammal_kitt": 4614,
      "concept_bird_owls": 4615,
      "raham": 4616,
      "_parasites": 4617,
      "white_w": 4618,
      "little_": 4619,
      "ternal_parasites": 4620,
      "concept_profession_pharmacists": 4621,
      "concept_chemical_ammon": 4622,
      "ybugs": 4623,
      "concept_artery_aorta": 4624,
      "malaysia": 4625,
      "concept_academicfield_directors": 4626,
      "concept_arthropod_external_parasites": 4627,
      "concept_bodypart_tract001": 4628,
      "concept_vertebrate_ruminants": 4629,
      "61": 4630,
      "_1": 4631,
      "_qu": 4632,
      "cor": 4633,
      "eat": 4634,
      "eing": 4635,
      "ful": 4636,
      "ga": 4637,
      "go": 4638,
      "gs": 4639,
      "keli": 4640,
      "ly_": 4641,
      "lue_": 4642,
      "rates": 4643,
      "vine": 4644,
      "w_tv": 4645,
      "zards": 4646,
      "anes": 4647,
      "anesth": 4648,
      "oracle": 4649,
      "international": 4650,
      "incip": 4651,
      "stro": 4652,
      "agg": 4653,
      "agu": 4654,
      "enter": 4655,
      "character": 4656,
      "pop": 4657,
      "ctions": 4658,
      "concept_movi": 4659,
      "sec": 4660,
      "istory": 4661,
      "elm": 4662,
      "elines": 4663,
      "_caterp": 4664,
      "inger": 4665,
      "ingap": 4666,
      "urr": 4667,
      "urkey": 4668,
      "ode": 4669,
      "_may": 4670,
      "_moll": 4671,
      "_buffalo": 4672,
      "concept_mammal_exotic": 4673,
      "aca": 4674,
      "oli": 4675,
      "olv": 4676,
      "_writ": 4677,
      "concept_book_term": 4678,
      "ivery": 4679,
      "um_li": 4680,
      "appoint": 4681,
      "concept_profession_assistants": 4682,
      "uly": 4683,
      "dub": 4684,
      "concept_insect_whit": 4685,
      "concept_politicianus_george_w__bush": 4686,
      "concept_country_sw": 4687,
      "concept_country_japan": 4688,
      "concept_country_gree": 4689,
      "lando": 4690,
      "concept_stateorprovince_uttar_pradesh": 4691,
      "concept_sportsteam_t": 4692,
      "concept_artery_l": 4693,
      "concept_artery_s": 4694,
      "concept_artery_arter": 4695,
      "concept_governmentorganization_f": 4696,
      "concept_governmentorganization_health": 4697,
      "evil": 4698,
      "cientists": 4699,
      "concept_university_administration": 4700,
      "eak": 4701,
      "eau": 4702,
      "concept_scientificterm_ch": 4703,
      "prem": 4704,
      "iller": 4705,
      "concept_river_state": 4706,
      "physicians": 4707,
      "ounds": 4708,
      "concept_insect_earth": 4709,
      "concept_insect_leaf": 4710,
      "stores": 4711,
      "concept_geometricshape_per": 4712,
      "_rec": 4713,
      "concept_island_head": 4714,
      "ope": 4715,
      "concept_date_n192": 4716,
      "concept_jobposition_court": 4717,
      "concept_televisionstation_kw": 4718,
      "concept_bank_dh": 4719,
      "concept_arthropod_snails": 4720,
      "concept_musicsong_sunday": 4721,
      "concept_musicsong_sale": 4722,
      "_practitioners": 4723,
      "concept_male_h": 4724,
      "concept_stateorprovince_montana": 4725,
      "iots": 4726,
      "concept_wine_white_w": 4727,
      "club": 4728,
      "enna": 4729,
      "concept_charactertrait_heart": 4730,
      "concept_dateliteral_n1961": 4731,
      "ways": 4732,
      "concept_landscapefeatures_weekend": 4733,
      "_thr": 4734,
      "_thompson": 4735,
      "lizards": 4736,
      "concept_eventoutcome_practice": 4737,
      "concept_eventoutcome_establish": 4738,
      "concept_city_dallas": 4739,
      "concept_month_december": 4740,
      "concept_month_november": 4741,
      "concept_reptile_lizards": 4742,
      "_workshop": 4743,
      "rustaceans": 4744,
      "_brian": 4745,
      "concept_city_name": 4746,
      "concept_chemical_heavy_m": 4747,
      "concept_person_iran": 4748,
      "concept_musicsong_louisiana": 4749,
      "concept_hotel_north": 4750,
      "concept_planet_": 4751,
      "idency": 4752,
      "concept_attraction_mississippi": 4753,
      "_austr": 4754,
      "accident": 4755,
      "concept_invertebrate_crustaceans": 4756,
      "concept_month_july": 4757,
      "_islands": 4758,
      "_portland": 4759,
      "concept_politicianus_dick_cheney": 4760,
      "economic": 4761,
      "concept_city_oak": 4762,
      "concept_chemical_particles": 4763,
      "concept_religion": 4764,
      "concept_year_n1919": 4765,
      "aduate": 4766,
      "concept_landscapefeatures_firm": 4767,
      "_franklin": 4768,
      "onaut": 4769,
      "_executive_": 4770,
      "certific": 4771,
      "concept_artery_cap": 4772,
      "_major": 4773,
      "concept_parlourgame_": 4774,
      "concept_mammal_antelope": 4775,
      "concept_perceptionaction_hearing": 4776,
      "concept_profession_counselors": 4777,
      "concept_male_jesus_christ": 4778,
      "u__s_": 4779,
      "_patriots": 4780,
      "concept_website_yout": 4781,
      "roatia": 4782,
      "_george_bush": 4783,
      "itzerland": 4784,
      "etherlands": 4785,
      "concept_artery_carotid": 4786,
      "scotland": 4787,
      "concept_visualizablescene_brussels": 4788,
      "concept_perceptionaction_first_meeting": 4789,
      "amsterdam": 4790,
      "aximum_li": 4791,
      "kelihood": 4792,
      "ingapore": 4793,
      "concept_country_switzerland": 4794,
      "concept_country_greece": 4795,
      "concept_insect_earthworms": 4796,
      "concept_bank_dhl": 4797,
      "concept_charactertrait_heart_attack": 4798,
      "concept_eventoutcome_establishment": 4799,
      "concept_chemical_heavy_metals": 4800,
      "aximum_likelihood": 4801,
      "_lo": 4802,
      "_artery": 4803,
      "_form": 4804,
      "cus": 4805,
      "cla": 4806,
      "cover": 4807,
      "def": 4808,
      "ez": 4809,
      "f_tv": 4810,
      "gium": 4811,
      "high": 4812,
      "jay_": 4813,
      "mammals": 4814,
      "ness": 4815,
      "och": 4816,
      "rac": 4817,
      "set": 4818,
      "ula": 4819,
      "washington": 4820,
      "zim": 4821,
      "oney": 4822,
      "concept_contin": 4823,
      "ative_": 4824,
      "ale_": 4825,
      "ality": 4826,
      "itish": 4827,
      "round": 4828,
      "anol": 4829,
      "inals": 4830,
      "industr": 4831,
      "ic_acid": 4832,
      "arn": 4833,
      "arrest": 4834,
      "concept_cand": 4835,
      "lom": 4836,
      "eme": 4837,
      "emont": 4838,
      "concept_city_vi": 4839,
      "concept_city_th": 4840,
      "concept_city_intern": 4841,
      "vermont": 4842,
      "concept_mla": 4843,
      "_newark": 4844,
      "_cor": 4845,
      "_camp": 4846,
      "_cities": 4847,
      "ingular": 4848,
      "_samp": 4849,
      "_sites": 4850,
      "_pay": 4851,
      "_bab": 4852,
      "_big": 4853,
      "concept_chef": 4854,
      "oline": 4855,
      "spect": 4856,
      "_dr": 4857,
      "concept_person_b": 4858,
      "apids": 4859,
      "concept_company_fl": 4860,
      "concept_profession_h": 4861,
      "concept_profession_support": 4862,
      "abin": 4863,
      "_hus": 4864,
      "_hot": 4865,
      "elegraph": 4866,
      "_just": 4867,
      "_factor": 4868,
      "edford": 4869,
      "duction": 4870,
      "concept_politicianus_george_w": 4871,
      "concept_politicianus_jo": 4872,
      "concept_country_r": 4873,
      "concept_country_part": 4874,
      "control": 4875,
      "bruary": 4876,
      "three": 4877,
      "line_": 4878,
      "concept_bodypart_tissue": 4879,
      "_ridge": 4880,
      "concept_lake_": 4881,
      "concept_weatherphenomenon_two": 4882,
      "concept_chemical_eth": 4883,
      "concept_artery_tissues": 4884,
      "concept_musicalbum_su": 4885,
      "_lu": 4886,
      "_lyn": 4887,
      "concept_county_se": 4888,
      "concept_scientificterm_h": 4889,
      "ogn": 4890,
      "owners": 4891,
      "concept_televisionstation_wj": 4892,
      "concept_televisionstation_wl": 4893,
      "concept_televisionstation_wv": 4894,
      "_care": 4895,
      "concept_geopoliticallocation_authorities": 4896,
      "illion": 4897,
      "illas": 4898,
      "akistan": 4899,
      "aft": 4900,
      "_chair": 4901,
      "_season": 4902,
      "store": 4903,
      "offices": 4904,
      "concept_city_bu": 4905,
      "concept_city_bud": 4906,
      "_vista": 4907,
      "_vapor": 4908,
      "iber": 4909,
      "concept_televisionstation_kb": 4910,
      "_start": 4911,
      "concept_bank_global_priority": 4912,
      "concept_programminglanguage_col": 4913,
      "concept_arthropod_c": 4914,
      "ighbor": 4915,
      "concept_city_singapore": 4916,
      "concept_city_mil": 4917,
      "concept_room_community": 4918,
      "indows": 4919,
      "ports": 4920,
      "ney_": 4921,
      "negi": 4922,
      "_royal": 4923,
      "concept_biotechcompany_s": 4924,
      "concept_book_education": 4925,
      "concept_book_evening": 4926,
      "concept_city_new_york": 4927,
      "berra": 4928,
      "_creek": 4929,
      "concept_fruit": 4930,
      "concept_vehicle_services": 4931,
      "concept_physicalaction_projects": 4932,
      "concept_emotion_senate": 4933,
      "_coleman": 4934,
      "concept_mammal_big": 4935,
      "concept_politicsblog_w": 4936,
      "ickr": 4937,
      "concept_chemical_mercury": 4938,
      "concept_geopoliticalorganization_web": 4939,
      "concept_month_fe": 4940,
      "concept_city_washington_dc": 4941,
      "concept_sportsteam_red": 4942,
      "concept_televisionshow_mission": 4943,
      "_gras": 4944,
      "lacew": 4945,
      "ampion": 4946,
      "_fly": 4947,
      "concept_chemical_natural_gas": 4948,
      "concept_chemical_water_vapor": 4949,
      "concept_city_green": 4950,
      "ilities": 4951,
      "concept_profession_social": 4952,
      "_parcel": 4953,
      "_doug": 4954,
      "concept_skiarea_kentucky": 4955,
      "orpions": 4956,
      "_complet": 4957,
      "_guide": 4958,
      "concept_room_offices": 4959,
      "care_": 4960,
      "concept_election_general": 4961,
      "concept_election_white": 4962,
      "concept_monument_rhode_island": 4963,
      "concept_crimeorcharge_arrest": 4964,
      "concept_dayofweek_saturday": 4965,
      "iologists": 4966,
      "ronic": 4967,
      "concept_charactertrait_agreement": 4968,
      "financial": 4969,
      "_terms": 4970,
      "concept_attraction_louisiana": 4971,
      "concept_city_vancouver": 4972,
      "study": 4973,
      "studio": 4974,
      "_hollywood": 4975,
      "concept_clothing_": 4976,
      "concept_year_n1959": 4977,
      "altimore": 4978,
      "employees": 4979,
      "activities": 4980,
      "concept_chemical_methane": 4981,
      "_problems": 4982,
      "concept_stateorprovince_rh": 4983,
      "concept_visualizablescene_ny": 4984,
      "illaries": 4985,
      "concept_profession_researchers": 4986,
      "concept_chemical_air_pollutants": 4987,
      "concept_male_abraham": 4988,
      "_random_variables": 4989,
      "concept_filmfestival": 4990,
      "_marine_mammals": 4991,
      "_blanc": 4992,
      "concept_scientificterm_conditional": 4993,
      "concept_scientificterm_expectation": 4994,
      "concept_profession_surgeons": 4995,
      "_gardens": 4996,
      "concept_chemical_carbon_monoxide": 4997,
      "concept_chemical_ammonia": 4998,
      "concept_artery_capillaries": 4999,
      "concept_website_youtube": 5000,
      "zimbab": 5001,
      "concept_mlauthor": 5002,
      "_justice": 5003,
      "concept_programminglanguage_collection": 5004,
      "concept_geopoliticalorganization_web_site": 5005,
      "concept_month_february": 5006,
      "concept_profession_social_workers": 5007,
      "_land": 5008,
      "_law": 5009,
      "gan": 5010,
      "m_tv": 5011,
      "nt": 5012,
      "pfi": 5013,
      "ras": 5014,
      "ui": 5015,
      "uste": 5016,
      "wor": 5017,
      "win": 5018,
      "zoo": 5019,
      "one_m": 5020,
      "cement": 5021,
      "concept_port": 5022,
      "concept_architect": 5023,
      "concept_economic": 5024,
      "ital_": 5025,
      "erus": 5026,
      "_nix": 5027,
      "arner": 5028,
      "y_t": 5029,
      "emat": 5030,
      "ental": 5031,
      "ention": 5032,
      "local": 5033,
      "super": 5034,
      "sums": 5035,
      "concept_city_united": 5036,
      "ctur": 5037,
      "_compan": 5038,
      "_cru": 5039,
      "unsw": 5040,
      "adren": 5041,
      "ile_": 5042,
      "urst": 5043,
      "urse": 5044,
      "_m_": 5045,
      "_mites": 5046,
      "proval": 5047,
      "concept_profession_design": 5048,
      "_psych": 5049,
      "subject": 5050,
      "_word": 5051,
      "_wales": 5052,
      "_tues": 5053,
      "concept_chemical_diox": 5054,
      "concept_book_n": 5055,
      "concept_book_t": 5056,
      "concept_book_network": 5057,
      "leston": 5058,
      "concept_person_state": 5059,
      "contact": 5060,
      "umn": 5061,
      "concept_company_first_class": 5062,
      "concept_profession_a": 5063,
      "concept_profession_account": 5064,
      "concept_profession_anesth": 5065,
      "ultr": 5066,
      "abad": 5067,
      "_jeff": 5068,
      "_fund": 5069,
      "concept_politicianus_rod": 5070,
      "concept_country_china": 5071,
      "the": 5072,
      "quebe": 5073,
      "lincoln": 5074,
      "concept_bodypart_in": 5075,
      "igen": 5076,
      "_rule": 5077,
      "_rapids": 5078,
      "imon": 5079,
      "syd": 5080,
      "residents": 5081,
      "resources": 5082,
      "concept_chemical_products": 5083,
      "concept_chemical_lead": 5084,
      "concept_chemical_production": 5085,
      "concept_artery_right": 5086,
      "concept_musicalbum_r": 5087,
      "concept_musicalbum_system": 5088,
      "_long": 5089,
      "concept_scientificterm_k": 5090,
      "cense": 5091,
      "concept_televisionstation_wc": 5092,
      "concept_river_t": 5093,
      "concept_household": 5094,
      "ouncil": 5095,
      "concept_geometricshape_activities": 5096,
      "concept_city_bush": 5097,
      "_vessel": 5098,
      "_vote": 5099,
      "concept_televisionstation_kf": 5100,
      "concept_ceo_h": 5101,
      "_st_": 5102,
      "concept_physicalcharacter": 5103,
      "concept_programminglanguage_c": 5104,
      "concept_astr": 5105,
      "concept_musicsong_sp": 5106,
      "concept_city_sc": 5107,
      "concept_city_saint": 5108,
      "concept_city_mount": 5109,
      "concept_room_le": 5110,
      "cancer": 5111,
      "oride": 5112,
      "aug": 5113,
      "_oak": 5114,
      "concept_biotechcompany_m": 5115,
      "concept_book_ireland": 5116,
      "concept_retailstore_m": 5117,
      "_show": 5118,
      "concept_farm": 5119,
      "concept_physicalaction_ass": 5120,
      "boston": 5121,
      "ranch": 5122,
      "_thurs": 5123,
      "libr": 5124,
      "concept_politicsblog_": 5125,
      "concept_automobilemaker_ch": 5126,
      "concept_food_f": 5127,
      "_consult": 5128,
      "concept_vertebrate_search": 5129,
      "concept_profession_staff_members": 5130,
      "units": 5131,
      "errets": 5132,
      "concept_nongovorganization_forces": 5133,
      "zone": 5134,
      "concept_politicianus_president_clinton": 5135,
      "concept_politicianus_presidential_": 5136,
      "concept_city_gl": 5137,
      "minster": 5138,
      "concept_creditunion_": 5139,
      "_species": 5140,
      "_fuel": 5141,
      "concept_river_arts": 5142,
      "_anderson": 5143,
      "_sunday_": 5144,
      "concept_mammal_ferrets": 5145,
      "e_house": 5146,
      "concept_company_cnn": 5147,
      "concept_ceo_richard": 5148,
      "concept_election_complet": 5149,
      "_general_assembly": 5150,
      "concept_scientificterm_maximum_likelihood": 5151,
      "_scorpions": 5152,
      "itters": 5153,
      "amilies": 5154,
      "concept_writer_hus": 5155,
      "concept_year_n1960": 5156,
      "concept_bathroomitem_new": 5157,
      "sta_": 5158,
      "_holland": 5159,
      "concept_visualartform": 5160,
      "loss": 5161,
      "y_bugs": 5162,
      "_survey": 5163,
      "concept_website_decision": 5164,
      "concept_city_construction": 5165,
      "oviet": 5166,
      "applications": 5167,
      "banon": 5168,
      "_social": 5169,
      "concept_scientificterm_bayesian_parameter": 5170,
      "training": 5171,
      "concept_food_oils": 5172,
      "concept_medicalprocedure_cancer": 5173,
      "concept_automobilemaker_ford": 5174,
      "concept_month_may": 5175,
      "_executive": 5176,
      "posal": 5177,
      "_valve": 5178,
      "concept_city_montreal": 5179,
      "idges": 5180,
      "concept_website_new_york_times": 5181,
      "concept_sportsteam_new_york_giants": 5182,
      "_premier": 5183,
      "eurotrans": 5184,
      "formance": 5185,
      "ultivariate_gaussians": 5186,
      "_security_": 5187,
      "concept_island_mother": 5188,
      "concept_city_delivery": 5189,
      "concept_profession_advis": 5190,
      "concept_geometricshape_angle": 5191,
      "concept_jobposition_nurse": 5192,
      "concept_athlete_williams": 5193,
      "uppies": 5194,
      "concept_chemical_molecules": 5195,
      "concept_website_washington_post": 5196,
      "use_sp": 5197,
      "concept_profession_dentists": 5198,
      "appointment": 5199,
      "concept_artery_arterioles": 5200,
      "concept_geometricshape_percent": 5201,
      "_sampling": 5202,
      "concept_musicalbum_suit": 5203,
      "concept_county_seattle": 5204,
      "_grasshop": 5205,
      "lacewings": 5206,
      "ampionship": 5207,
      "concept_stateorprovince_rhode_island": 5208,
      "pfizer": 5209,
      "concept_economicsector": 5210,
      "_nixon": 5211,
      "concept_city_united_kingdom": 5212,
      "unswick": 5213,
      "concept_politicianus_rodham_clinton": 5214,
      "quebec": 5215,
      "concept_householditem": 5216,
      "concept_physicalcharacteristic": 5217,
      "concept_astronaut": 5218,
      "concept_musicsong_spain": 5219,
      "concept_election_completion": 5220,
      "concept_writer_husband": 5221,
      "concept_scientificterm_bayesian_parameter_estimation": 5222,
      "_university_": 5223,
      "_arm": 5224,
      "ae": 5225,
      "don": 5226,
      "d_water": 5227,
      "eer": 5228,
      "edu": 5229,
      "green": 5230,
      "ie_": 5231,
      "ilo": 5232,
      "light": 5233,
      "metal": 5234,
      "ne_tv": 5235,
      "oal": 5236,
      "pe": 5237,
      "punk": 5238,
      "rical": 5239,
      "uy": 5240,
      "ystem": 5241,
      "concept_elect": 5242,
      "atus": 5243,
      "ating": 5244,
      "atrix": 5245,
      "alc": 5246,
      "itz": 5247,
      "rous": 5248,
      "roduction": 5249,
      "aria": 5250,
      "ension": 5251,
      "artis": 5252,
      "anistan": 5253,
      "chief": 5254,
      "forum": 5255,
      "concept_city_per": 5256,
      "concept_city_ca": 5257,
      "concept_city_can": 5258,
      "concept_city_police": 5259,
      "concept_city_club": 5260,
      "ewater": 5261,
      "utsch": 5262,
      "ingham": 5263,
      "ura": 5264,
      "urb": 5265,
      "odes": 5266,
      "iance": 5267,
      "_me": 5268,
      "concept_stateorprovince_nevada": 5269,
      "_pack": 5270,
      "_pacific": 5271,
      "truste": 5272,
      "_wife": 5273,
      "_dan": 5274,
      "_dub": 5275,
      "concept_chemical_companies": 5276,
      "concept_company_canada": 5277,
      "concept_company_services": 5278,
      "concept_company_general": 5279,
      "concept_profession_con": 5280,
      "concept_profession_artists": 5281,
      "phis": 5282,
      "phone": 5283,
      "feder": 5284,
      "cial_": 5285,
      "elecom": 5286,
      "concept_website_n": 5287,
      "concept_website_int": 5288,
      "concept_website_li": 5289,
      "concept_insect_thr": 5290,
      "concept_insect_grasshop": 5291,
      "concept_animal_po": 5292,
      "concept_animal_child": 5293,
      "ults": 5294,
      "leton": 5295,
      "british": 5296,
      "concept_stateorprovince_training": 5297,
      "concept_sportsteam_d": 5298,
      "concept_sportsteam_florida": 5299,
      "igher": 5300,
      "zabeth": 5301,
      "concept_chemical_ac": 5302,
      "concept_governmentorganization_res": 5303,
      "concept_musicalbum_c": 5304,
      "concept_musicalbum_re": 5305,
      "concept_musicalbum_press": 5306,
      "_list": 5307,
      "concept_county_p": 5308,
      "_yellow": 5309,
      "evan": 5310,
      "eflies": 5311,
      "concept_university_k": 5312,
      "concept_scientificterm_s": 5313,
      "concept_visualizablething_n": 5314,
      "concept_visualizablething_d": 5315,
      "concept_nerv": 5316,
      "concept_televisionstation_wd": 5317,
      "concept_televisionstation_ws": 5318,
      "_carnegi": 5319,
      "concept_river_w": 5320,
      "concept_coach_n": 5321,
      "_seals": 5322,
      "concept_geometricshape_p": 5323,
      "rupt": 5324,
      "ructure": 5325,
      "concept_city_bang": 5326,
      "ahar": 5327,
      "_ven": 5328,
      "_variance": 5329,
      "_representatives": 5330,
      "concept_jobposition_pres": 5331,
      "concept_ceo_d": 5332,
      "_stage": 5333,
      "concept_bank_air": 5334,
      "concept_musicsong_two": 5335,
      "concept_newspaper_new_hampshire": 5336,
      "concept_newspaper_alabama": 5337,
      "concept_male_son": 5338,
      "ova": 5339,
      "concept_mammal_puppies": 5340,
      "concept_charactertrait_state": 5341,
      "concept_charactertrait_survey": 5342,
      "concept_governmentorganization_federal": 5343,
      "_suprem": 5344,
      "iness_": 5345,
      "concept_emotion_f": 5346,
      "concept_musicgenre_metal": 5347,
      "_photo": 5348,
      "ichita": 5349,
      "concept_bank_first_class": 5350,
      "_three_": 5351,
      "_thomas": 5352,
      "concept_transportation_two": 5353,
      "concept_visualizablescene_d": 5354,
      "e_washington": 5355,
      "concept_visualizablething_appointment": 5356,
      "ellfish": 5357,
      "concept_city_king": 5358,
      "inner": 5359,
      "concept_sportsgame_tournament": 5360,
      "concept_musicalbum_order": 5361,
      "_officials": 5362,
      "_book": 5363,
      "ri_lan": 5364,
      "eyes": 5365,
      "_party": 5366,
      "concept_profession_scientists": 5367,
      "ceremon": 5368,
      "aleigh": 5369,
      "anna": 5370,
      "announ": 5371,
      "concept_hobby_studio": 5372,
      "concept_river_american": 5373,
      "concept_date_n1964": 5374,
      "agazine": 5375,
      "concept_profession_nurse_": 5376,
      "_postal": 5377,
      "concept_country_republic_of_austr": 5378,
      "ottawa": 5379,
      "administrators": 5380,
      "concept_scientificterm_matrix": 5381,
      "concept_product_car": 5382,
      "amesystem": 5383,
      "concept_city_st__": 5384,
      "concept_arachnid_scorpions": 5385,
      "concept_country_norway": 5386,
      "e_court": 5387,
      "_morris": 5388,
      "ghanistan": 5389,
      "_theater": 5390,
      "_arena": 5391,
      "elizabeth": 5392,
      "concept_videogamesystem": 5393,
      "concept_insect_mosquitos": 5394,
      "concept_year_n1862": 5395,
      "_philadelphia": 5396,
      "_wildcats": 5397,
      "concept_year_n1948": 5398,
      "concept_fish_pelag": 5399,
      "concept_profession_psychiatrists": 5400,
      "questions": 5401,
      "concept_politicianus_rud": 5402,
      "_british": 5403,
      "concept_insect_gnats": 5404,
      "concept_geometricshape_course": 5405,
      "untington": 5406,
      "_wednes": 5407,
      "concept_city_phoenix": 5408,
      "concept_country_netherlands": 5409,
      "concept_county_manhattan": 5410,
      "_commercial": 5411,
      "onald_reagan": 5412,
      "concept_chemical_nitrogen_oxides": 5413,
      "concept_chemical_greenhouse_gases": 5414,
      "concept_female_mary": 5415,
      "_cardinals": 5416,
      "concept_chemical_atoms": 5417,
      "concept_city_title": 5418,
      "_speech": 5419,
      "adobe": 5420,
      "_deriv": 5421,
      "stroke": 5422,
      "dublin": 5423,
      "concept_city_internet": 5424,
      "concept_company_flickr": 5425,
      "concept_country_party": 5426,
      "erusalem": 5427,
      "_tuesday": 5428,
      "concept_profession_accountants": 5429,
      "ultry": 5430,
      "oviet_union": 5431,
      "concept_election_": 5432,
      "concept_website_introduction": 5433,
      "concept_website_license": 5434,
      "concept_insect_thrips": 5435,
      "concept_musicsong_two_weeks": 5436,
      "_supreme_court": 5437,
      "ri_lanka": 5438,
      "concept_country_republic_of_austria": 5439,
      "_am": 5440,
      "_organization": 5441,
      "_station": 5442,
      "_ash": 5443,
      "_personnel": 5444,
      "ball": 5445,
      "fayette": 5446,
      "hart": 5447,
      "hurst": 5448,
      "ii": 5449,
      "ja": 5450,
      "ken": 5451,
      "kom": 5452,
      "m_coleman": 5453,
      "no": 5454,
      "oz": 5455,
      "oph": 5456,
      "petroleum": 5457,
      "ret": 5458,
      "rice": 5459,
      "ser": 5460,
      "service": 5461,
      "two": 5462,
      "u_s": 5463,
      "vil": 5464,
      "wa": 5465,
      "xon": 5466,
      "yst": 5467,
      "concept_petroleum": 5468,
      "aton": 5469,
      "alk": 5470,
      "itiat": 5471,
      "roaches": 5472,
      "an_m": 5473,
      "ancial_": 5474,
      "orang": 5475,
      "inal_": 5476,
      "_nations": 5477,
      "_nyc": 5478,
      "enin": 5479,
      "oma": 5480,
      "lock": 5481,
      "child": 5482,
      "change": 5483,
      "amm": 5484,
      "concept_city_ontario": 5485,
      "concept_city_rome": 5486,
      "version": 5487,
      "concept_meat": 5488,
      "ewis": 5489,
      "elena": 5490,
      "ads": 5491,
      "ingcompan": 5492,
      "rey_": 5493,
      "reek": 5494,
      "reast": 5495,
      "refin": 5496,
      "ilter": 5497,
      "ians": 5498,
      "_mom": 5499,
      "_sol": 5500,
      "concept_stateorprovince_h": 5501,
      "_pati": 5502,
      "_punk": 5503,
      "_n17": 5504,
      "_broad": 5505,
      "section": 5506,
      "uala": 5507,
      "iverpool": 5508,
      "_grey": 5509,
      "concept_company_air": 5510,
      "oti": 5511,
      "_hand": 5512,
      "concept_insect_small": 5513,
      "concept_insect_sc": 5514,
      "concept_insect_cock": 5515,
      "_final": 5516,
      "ed_b": 5517,
      "concept_politicianus_f": 5518,
      "concept_country_mo": 5519,
      "concept_country_russia": 5520,
      "dings": 5521,
      "lins": 5522,
      "concept_stateorprovince_al": 5523,
      "concept_academicfield_information": 5524,
      "enderson": 5525,
      "concept_building_west": 5526,
      "concept_chemical_for": 5527,
      "concept_chemical_liqu": 5528,
      "concept_artery_left": 5529,
      "_live_": 5530,
      "_london": 5531,
      "concept_county_j": 5532,
      "eval": 5533,
      "concept_university_m": 5534,
      "_inaug": 5535,
      "_initiat": 5536,
      "concept_scientificterm_pro": 5537,
      "concept_scientificterm_optimization": 5538,
      "concept_televisionstation_ww": 5539,
      "illage": 5540,
      "concept_agriculturalproduct_varieties": 5541,
      "akers": 5542,
      "concept_coach_new_york": 5543,
      "_new_york_times": 5544,
      "common": 5545,
      "concept_island_pro": 5546,
      "_airways": 5547,
      "concept_programminglanguage_stroke": 5548,
      "concept_athlete_play": 5549,
      "concept_musicsong_res": 5550,
      "concept_city_map": 5551,
      "concept_wine_mer": 5552,
      "_occup": 5553,
      "concept_bird_ducks": 5554,
      "uge": 5555,
      "manag": 5556,
      "concept_personcanada_": 5557,
      "concept_city_palm": 5558,
      "concept_retailstore_microsoft": 5559,
      "concept_physicalaction_study": 5560,
      "argent": 5561,
      "concept_museum_ste": 5562,
      "days": 5563,
      "concept_invertebrate_sl": 5564,
      "boy": 5565,
      "_column": 5566,
      "lients": 5567,
      "concept_politicsblog_whit": 5568,
      "concept_automobilemaker_h": 5569,
      "beans": 5570,
      "concept_city_dan": 5571,
      "concept_city_design": 5572,
      "concept_city_denver": 5573,
      "concept_reptile_t": 5574,
      "e_world": 5575,
      "ellington": 5576,
      "concept_stadiumoreventvenue_m": 5577,
      "innea": 5578,
      "istry": 5579,
      "concept_sportsteam_arizona": 5580,
      "unities": 5581,
      "concept_televisionshow_region": 5582,
      "concept_profession_midwives": 5583,
      "concept_musicalbum_line": 5584,
      "concept_musicalbum_story": 5585,
      "concept_nongovorganization_general_assembly": 5586,
      "_brunswick": 5587,
      "ampus": 5588,
      "concept_politicianus_presidential": 5589,
      "concept_insect_midges": 5590,
      "concept_beach_ver": 5591,
      "concept_plant_": 5592,
      "concept_building_america": 5593,
      "aves": 5594,
      "louisville": 5595,
      "concept_terroristorganization_inc": 5596,
      "gery": 5597,
      "concept_mammal_raccoons": 5598,
      "concept_airport_north": 5599,
      "concept_city_char": 5600,
      "concept_date_n1962": 5601,
      "ignation": 5602,
      "ustin": 5603,
      "concept_country_cuba": 5604,
      "concept_country_croatia": 5605,
      "concept_musicartist_arr": 5606,
      "concept_ceo_ste": 5607,
      "concept_chemical_solution": 5608,
      "concept_vegetable_c": 5609,
      "concept_crimeorcharge_bank": 5610,
      "concept_dayofweek_monday": 5611,
      "aily_news": 5612,
      "ike_": 5613,
      "concept_politicianus_romney": 5614,
      "concept_city_st_": 5615,
      "major": 5616,
      "legisl": 5617,
      "concept_website_million": 5618,
      "concept_ceo_james": 5619,
      "concept_musicalbum_four": 5620,
      "concept_musicalbum_family": 5621,
      "_norm_coleman": 5622,
      "_front": 5623,
      "concept_company_fda": 5624,
      "officers": 5625,
      "_surgery": 5626,
      "concept_videogame_n": 5627,
      "concept_clothing_white": 5628,
      "y_city": 5629,
      "_jose": 5630,
      "concept_musicartist_television": 5631,
      "concept_county_san_diego": 5632,
      "_society": 5633,
      "_vice_president": 5634,
      "_walter": 5635,
      "employment": 5636,
      "_franken": 5637,
      "concept_mammal_cougars": 5638,
      "ampaign": 5639,
      "cerebr": 5640,
      "_charles": 5641,
      "concept_dateliteral_n1950": 5642,
      "concept_country_turkey": 5643,
      "activity": 5644,
      "concept_restaurant_m": 5645,
      "_black_widow": 5646,
      "_interview": 5647,
      "_electric": 5648,
      "concept_country_korea": 5649,
      "_legisl": 5650,
      "concept_chemical_fumes": 5651,
      "_team": 5652,
      "concept_academicfield_pakistan": 5653,
      "_semin": 5654,
      "concept_charactertrait_church": 5655,
      "_mirage": 5656,
      "e_minister": 5657,
      "concept_academicfield_computer_science": 5658,
      "concept_militaryconflict": 5659,
      "concept_physiologicalcondition": 5660,
      "concept_biotechcompany_white": 5661,
      "_education": 5662,
      "_approx": 5663,
      "concept_city_vienna": 5664,
      "concept_bodypart_tissue001": 5665,
      "concept_mammal_big_cats": 5666,
      "adrenal": 5667,
      "_thursday": 5668,
      "sta_rica": 5669,
      "concept_insect_grasshoppers": 5670,
      "concept_animal_children": 5671,
      "concept_nerve_m": 5672,
      "ruptcy": 5673,
      "concept_jobposition_presidency": 5674,
      "ceremony": 5675,
      "concept_company_flickr001": 5676,
      "concept_petroleumrefin": 5677,
      "concept_insect_cockroaches": 5678,
      "concept_scientificterm_optimization_problems": 5679,
      "concept_athlete_playoff": 5680,
      "concept_musicsong_resignation": 5681,
      "concept_museum_steve": 5682,
      "concept_invertebrate_slugs": 5683,
      "concept_politicsblog_white_house": 5684,
      "concept_beach_vermont": 5685,
      "concept_terroristorganization_incident": 5686,
      "concept_musicartist_arrival": 5687,
      "concept_crimeorcharge_bankruptcy": 5688,
      "concept_petroleumrefiningcompan": 5689,
      "catur": 5690,
      "cri": 5691,
      "council": 5692,
      "fowl": 5693,
      "jays": 5694,
      "list": 5695,
      "mar": 5696,
      "mitters": 5697,
      "olo": 5698,
      "q_tv": 5699,
      "rig": 5700,
      "radio": 5701,
      "rence": 5702,
      "ss": 5703,
      "ting": 5704,
      "ties": 5705,
      "uz": 5706,
      "uan": 5707,
      "yan": 5708,
      "concept_lymph": 5709,
      "atter": 5710,
      "alla": 5711,
      "alls": 5712,
      "iter": 5713,
      "itiz": 5714,
      "anah": 5715,
      "oron": 5716,
      "orce": 5717,
      "oral": 5718,
      "icles": 5719,
      "_ni": 5720,
      "_ny": 5721,
      "ense": 5722,
      "enya": 5723,
      "e_de": 5724,
      "e_town": 5725,
      "e_john": 5726,
      "emer": 5727,
      "entert": 5728,
      "concept_date_nov": 5729,
      "concept_date_wife": 5730,
      "che": 5731,
      "championship": 5732,
      "ampton": 5733,
      "concept_bacter": 5734,
      "ity_water": 5735,
      "uscle_": 5736,
      "suc": 5737,
      "suit": 5738,
      "concept_city_am": 5739,
      "concept_city_parent": 5740,
      "vers": 5741,
      "elle": 5742,
      "elli": 5743,
      "unn": 5744,
      "unks": 5745,
      "asc": 5746,
      "ases": 5747,
      "ase_": 5748,
      "concept_dateliteral_n18": 5749,
      "omputer": 5750,
      "adm": 5751,
      "adison": 5752,
      "odia": 5753,
      "providence": 5754,
      "_sod": 5755,
      "_saf": 5756,
      "_sauvignon": 5757,
      "_pen": 5758,
      "_pur": 5759,
      "_pass": 5760,
      "_pict": 5761,
      "concept_mammal_carib": 5762,
      "acob": 5763,
      "_wol": 5764,
      "_wir": 5765,
      "_daugh": 5766,
      "_town": 5767,
      "concept_chemical_fl": 5768,
      "concept_chemical_wast": 5769,
      "earn": 5770,
      "concept_book_m": 5771,
      "concept_book_w": 5772,
      "concept_person_a": 5773,
      "concept_person_le": 5774,
      "umpur": 5775,
      "concept_company_sun": 5776,
      "concept_company_ibm": 5777,
      "athens": 5778,
      "ability": 5779,
      "irc": 5780,
      "bord": 5781,
      "_jos": 5782,
      "concept_website_bo": 5783,
      "concept_website_show": 5784,
      "concept_website_support": 5785,
      "concept_insect_spider": 5786,
      "_fro": 5787,
      "concept_politicianus_sarah_palin": 5788,
      "concept_country_p": 5789,
      "concept_country_phil": 5790,
      "_korea": 5791,
      "concept_sportsteam_north": 5792,
      "concept_televisionstation_we": 5793,
      "ios": 5794,
      "concept_musicalbum_se": 5795,
      "concept_musicalbum_head": 5796,
      "concept_musicalbum_review": 5797,
      "concept_musicalbum_holland": 5798,
      "_waters": 5799,
      "tsville": 5800,
      "_lumpur": 5801,
      "concept_county_atlanta": 5802,
      "_award": 5803,
      "concept_beverage_vari": 5804,
      "concept_politicsissue_n": 5805,
      "ardonn": 5806,
      "_intro": 5807,
      "concept_scientificterm_d": 5808,
      "concept_televisionstation_wf": 5809,
      "ivan": 5810,
      "concept_coach_m": 5811,
      "oods": 5812,
      "_ventricle": 5813,
      "concept_island_interview": 5814,
      "oppers": 5815,
      "concept_televisionstation_ktv": 5816,
      "concept_ceo_john": 5817,
      "concept_bank_parcel": 5818,
      "concept_politicsissue_reg": 5819,
      "concept_programminglanguage_m": 5820,
      "concept_arthropod_recluse": 5821,
      "concept_newspaper_the_": 5822,
      "concept_city_mur": 5823,
      "concept_city_mid": 5824,
      "concept_male_m": 5825,
      "ov_": 5826,
      "_comb": 5827,
      "concept_city_wh": 5828,
      "concept_mammal_por": 5829,
      "ack_obama": 5830,
      "_role": 5831,
      "concept_biotechcompany_cisco": 5832,
      "concept_city_tampa": 5833,
      "concept_city_toronto": 5834,
      "venport": 5835,
      "_business_": 5836,
      "concept_blog_manager": 5837,
      "rivers": 5838,
      "oses": 5839,
      "berts": 5840,
      "concept_city_pittsburgh": 5841,
      "concept_vehicle_research": 5842,
      "concept_emotion_series": 5843,
      "concept_musicgenre_pop": 5844,
      "al_e": 5845,
      "concept_mammal_bob": 5846,
      "concept_eventoutcome_state": 5847,
      "concept_automobilemaker_t": 5848,
      "concept_automobilemaker_gm": 5849,
      "_cons": 5850,
      "georg": 5851,
      "concept_vertebrate_sk": 5852,
      "_exist": 5853,
      "appli": 5854,
      "concept_sportsgame_championship": 5855,
      "_barr": 5856,
      "ohio_river": 5857,
      "concept_politicianus_president_bill_clinton": 5858,
      "_director": 5859,
      "concept_celebrity_law": 5860,
      "_eigen": 5861,
      "_trans": 5862,
      "concept_profession_school": 5863,
      "concept_criminal_": 5864,
      "_household": 5865,
      "concept_mountainr": 5866,
      "orporation": 5867,
      "_compla": 5868,
      "concept_musicsong_oklahoma": 5869,
      "concept_tradeunion_article": 5870,
      "onda": 5871,
      "concept_river_ohio_river": 5872,
      "_schedu": 5873,
      "concept_profession_family_": 5874,
      "_acc": 5875,
      "ground": 5876,
      "concept_governmentorganization_governments": 5877,
      "abbas": 5878,
      "european_": 5879,
      "lotte": 5880,
      "garia": 5881,
      "_inc_": 5882,
      "concept_musicalbum_fame": 5883,
      "concept_musicalbum_foundation": 5884,
      "quirement": 5885,
      "concept_politicianus_senator_barack_obama": 5886,
      "_oxide": 5887,
      "concept_company_telegraph": 5888,
      "_falcons": 5889,
      "concept_year_n1956": 5890,
      "_prime_minister": 5891,
      "concept_male_jacob": 5892,
      "_financial_": 5893,
      "bany": 5894,
      "concept_visualartmovement_britain": 5895,
      "oyota": 5896,
      "concept_beverage_milk": 5897,
      "concept_animal_large_p": 5898,
      "concept_city_decatur": 5899,
      "_recluse_sp": 5900,
      "cereals": 5901,
      "concept_insect_grubs": 5902,
      "concept_visualizableobject_workshop": 5903,
      "concept_city_prince": 5904,
      "concept_olympics_": 5905,
      "amazon_com": 5906,
      "_playoff": 5907,
      "integr": 5908,
      "_jackets": 5909,
      "concept_musicgenre_prog": 5910,
      "_investig": 5911,
      "concept_wine_chardonn": 5912,
      "_muscle": 5913,
      "concept_city_frank": 5914,
      "_independence": 5915,
      "records": 5916,
      "concept_website_performance": 5917,
      "anzania": 5918,
      "concept_mammal_reptiles": 5919,
      "therapists": 5920,
      "_situation": 5921,
      "_george_h_w__bush": 5922,
      "rodham_clinton": 5923,
      "hibition": 5924,
      "concept_academicfield_electrical": 5925,
      "_learning": 5926,
      "all_street_journal": 5927,
      "olvents": 5928,
      "concept_male_history": 5929,
      "cussion": 5930,
      "concept_room_level": 5931,
      "concept_automobilemaker_chrysler": 5932,
      "eurotransmitters": 5933,
      "_security_council": 5934,
      "concept_bank_first_class_mail": 5935,
      "_wednesday": 5936,
      "uala_lumpur": 5937,
      "concept_island_proposal": 5938,
      "concept_wine_merlot": 5939,
      "concept_airport_north_america": 5940,
      "concept_videogame_nights": 5941,
      "_legislature": 5942,
      "cription": 5943,
      "concept_lymphn": 5944,
      "entertain": 5945,
      "concept_bacteria": 5946,
      "concept_mammal_caribou": 5947,
      "_wirel": 5948,
      "concept_insect_spider_mites": 5949,
      "concept_country_philippines": 5950,
      "concept_bank_parcel_post": 5951,
      "concept_city_tampa_bay": 5952,
      "concept_vertebrate_skunks": 5953,
      "concept_celebrity_lawsuit": 5954,
      "_schedule": 5955,
      "concept_company_telegraph001": 5956,
      "_ve": 5957,
      "_american": 5958,
      "_old": 5959,
      "_chemicals": 5960,
      "apartment": 5961,
      "hu": 5962,
      "hy": 5963,
      "han": 5964,
      "ji": 5965,
      "jarat": 5966,
      "kn": 5967,
      "kok": 5968,
      "lewood": 5969,
      "ltd": 5970,
      "pine": 5971,
      "page": 5972,
      "pb_tv": 5973,
      "rition": 5974,
      "sa": 5975,
      "s_tv": 5976,
      "worth": 5977,
      "wheat": 5978,
      "yen": 5979,
      "onse": 5980,
      "concept_place": 5981,
      "ative": 5982,
      "ate_matter": 5983,
      "atent": 5984,
      "erville": 5985,
      "rots": 5986,
      "roll": 5987,
      "anines": 5988,
      "orse": 5989,
      "orence": 5990,
      "orange": 5991,
      "_nu": 5992,
      "enz": 5993,
      "energy": 5994,
      "arta": 5995,
      "ofwor": 5996,
      "ampr": 5997,
      "us_": 5998,
      "concept_city_central": 5999,
      "second": 6000,
      "_cla": 6001,
      "_california": 6002,
      "_cov": 6003,
      "asis": 6004,
      "utrition": 6005,
      "isis": 6006,
      "reation": 6007,
      "ilistic": 6008,
      "uras": 6009,
      "urric": 6010,
      "_mes": 6011,
      "_mur": 6012,
      "_sam": 6013,
      "_sox": 6014,
      "concept_profession_co": 6015,
      "_pa": 6016,
      "_place": 6017,
      "_ball": 6018,
      "_bern": 6019,
      "concept_mammal_kids": 6020,
      "acation": 6021,
      "_dog": 6022,
      "fide": 6023,
      "figh": 6024,
      "_tur": 6025,
      "_telecom": 6026,
      "concept_book_terms": 6027,
      "ump": 6028,
      "_gland": 6029,
      "_gib": 6030,
      "_great": 6031,
      "concept_company_video": 6032,
      "concept_profession_artis": 6033,
      "abia": 6034,
      "_husk": 6035,
      "ated_animals": 6036,
      "eley": 6037,
      "_james": 6038,
      "_jones": 6039,
      "_jagu": 6040,
      "concept_website_jobs": 6041,
      "concept_website_amazon": 6042,
      "exxon": 6043,
      "concept_animal_sea": 6044,
      "_ful": 6045,
      "edge": 6046,
      "concept_country_us": 6047,
      "concept_country_af": 6048,
      "concept_country_ind": 6049,
      "concept_country_u_s_": 6050,
      "branch": 6051,
      "shir": 6052,
      "concept_stateorprovince_afternoon": 6053,
      "concept_sportsteam_texas": 6054,
      "concept_bodypart_v": 6055,
      "_rate": 6056,
      "_rice": 6057,
      "_rays": 6058,
      "_raccoons": 6059,
      "vegetable_": 6060,
      "iop": 6061,
      "import": 6062,
      "concept_building_h": 6063,
      "concept_building_bill": 6064,
      "concept_artery_sk": 6065,
      "concept_governmentorganization_m": 6066,
      "concept_governmentorganization_management": 6067,
      "concept_musicalbum_child": 6068,
      "concept_musicalbum_document": 6069,
      "concept_county_t": 6070,
      "concept_beverage_b": 6071,
      "concept_beverage_l": 6072,
      "concept_year_n192": 6073,
      "concept_geopoliticallocation_m": 6074,
      "concept_geopoliticallocation_surgery": 6075,
      "concept_personmexico_": 6076,
      "guid": 6077,
      "concept_river_mississippi": 6078,
      "affic": 6079,
      "oung": 6080,
      "ohol": 6081,
      "_secret": 6082,
      "ally": 6083,
      "concept_city_bell": 6084,
      "concept_televisionstation_ks": 6085,
      "concept_televisionstation_ku": 6086,
      "_airlines": 6087,
      "concept_arthropod_raccoons": 6088,
      "concept_city_mor": 6089,
      "_print": 6090,
      "concept_male_y": 6091,
      "ovo": 6092,
      "auke": 6093,
      "scow": 6094,
      "_roberts": 6095,
      "_pop": 6096,
      "_polic": 6097,
      "concept_book_forum": 6098,
      "concept_bird_eagles": 6099,
      "concept_academicfield_appli": 6100,
      "concept_personus_operation": 6101,
      "concept_retailstore_ibm": 6102,
      "_shel": 6103,
      "cco": 6104,
      "arge": 6105,
      "concept_musicgenre_class": 6106,
      "concept_musicgenre_punk": 6107,
      "boeing": 6108,
      "concept_bodypart_organs": 6109,
      "bean": 6110,
      "concept_food_c": 6111,
      "concept_city_down": 6112,
      "udson": 6113,
      "_carotid": 6114,
      "concept_city_kenn": 6115,
      "concept_stadiumoreventvenue_c": 6116,
      "_grant": 6117,
      "concept_profession_mental": 6118,
      "appeal": 6119,
      "concept_stateorprovince_new_hampshire": 6120,
      "stone": 6121,
      "concept_musicalbum_station": 6122,
      "concept_mammal_cat": 6123,
      "concept_mammal_canines": 6124,
      "_brand": 6125,
      "ample": 6126,
      "concept_physicalaction_development": 6127,
      "concept_crustacean_": 6128,
      "ary_elections": 6129,
      "_partner": 6130,
      "concept_city_glen": 6131,
      "concept_artery_vessel": 6132,
      "ferences": 6133,
      "concept_musician_vice_president": 6134,
      "college": 6135,
      "concept_dateliteral_n1947": 6136,
      "concept_emotion_officer": 6137,
      "concept_emotion_appeal": 6138,
      "concept_chemical_nitrous": 6139,
      "concept_mldataset__": 6140,
      "_gujarat": 6141,
      "_and_variance": 6142,
      "concept_nerve_spinal_cord": 6143,
      "_specialist": 6144,
      "concept_mammal_small_dogs": 6145,
      "ixt": 6146,
      "uk_": 6147,
      "ukon": 6148,
      "concept_politicianus_john_edwards": 6149,
      "concept_website_kenya": 6150,
      "concept_planet_f": 6151,
      "concept_politicianus_governor": 6152,
      "concept_politicianus_gov_": 6153,
      "concept_mammal_hares": 6154,
      "denmark": 6155,
      "concept_dayofweek_sunday": 6156,
      "y_members": 6157,
      "concept_mammal_lion": 6158,
      "concept_shoppingmall_columbia": 6159,
      "concept_city_status": 6160,
      "central_nervous_system": 6161,
      "_linux": 6162,
      "concept_personafrica_": 6163,
      "concept_mammal_sheep_": 6164,
      "concept_profession_health_care_professionals": 6165,
      "ediatricians": 6166,
      "_managers": 6167,
      "_lakes": 6168,
      "concept_wine_cabernet_sauvignon": 6169,
      "concept_agent_start": 6170,
      "concept_profession_professional": 6171,
      "concept_county_baltimore": 6172,
      "_condition": 6173,
      "izz": 6174,
      "_ravens": 6175,
      "concept_politicianus_democratic": 6176,
      "concept_year_n1865": 6177,
      "concept_university_national": 6178,
      "ambodia": 6179,
      "concept_person_sri_lanka": 6180,
      "_return": 6181,
      "concept_profession_diet": 6182,
      "concept_politicsissue_creation": 6183,
      "onesia": 6184,
      "implement": 6185,
      "concept_chemical_organic_compounds": 6186,
      "concept_dateliteral_n1953": 6187,
      "babilistic": 6188,
      "concept_city_capital": 6189,
      "concept_politicsbill_compla": 6190,
      "concept_chemical_diesel": 6191,
      "rews": 6192,
      "concept_fish_tuna": 6193,
      "_wedding": 6194,
      "infr": 6195,
      "concept_river_yellow": 6196,
      "_association": 6197,
      "concept_city_jacksonville": 6198,
      "concept_aquarium_uk_": 6199,
      "concept_city_exhibition": 6200,
      "concept_arthropod_mant": 6201,
      "concept_chemical_particulate_matter": 6202,
      "concept_city_moscow": 6203,
      "concept_mlmetric_exist": 6204,
      "_nominee_john": 6205,
      "_martin": 6206,
      "_mobile": 6207,
      "concept_mammal_mountain_lions": 6208,
      "concept_buildingfeature_home": 6209,
      "urtles": 6210,
      "concept_country_belgium": 6211,
      "concept_sportsgame_more_": 6212,
      "concept_scientificterm_comput": 6213,
      "_barbara": 6214,
      "_waste": 6215,
      "concept_mammal_exotic_animals": 6216,
      "evils": 6217,
      "certification": 6218,
      "abinet": 6219,
      "concept_scientificterm_conditional_distributions": 6220,
      "concept_scientificterm_expectation_and_variance": 6221,
      "zimbabwe": 6222,
      "_company": 6223,
      "sydney": 6224,
      "concept_company_general_motors": 6225,
      "concept_animal_poultry": 6226,
      "concept_scientificterm_probabilistic": 6227,
      "argentina": 6228,
      "_approximation": 6229,
      "concept_petroleumrefiningcompany_": 6230,
      "concept_beverage_varietals": 6231,
      "concept_animal_large_predators": 6232,
      "concept_olympics_implement": 6233,
      "concept_wine_chardonnay": 6234,
      "entertainment": 6235,
      "_wireless": 6236,
      "concept_placeofwor": 6237,
      "concept_profession_artisans": 6238,
      "concept_country_afghanistan": 6239,
      "concept_country_indonesia": 6240,
      "concept_artery_skin": 6241,
      "concept_river_mississippi_river": 6242,
      "concept_profession_mental_health": 6243,
      "concept_politicsbill_complaint": 6244,
      "concept_mlmetric_existence": 6245,
      "_nominee_john_mccain": 6246,
      "concept_olympics_implementation": 6247,
      "concept_placeofworship": 6248,
      "12": 6249,
      "7_2": 6250,
      "_log": 6251,
      "_app": 6252,
      "_election": 6253,
      "apo": 6254,
      "aces": 6255,
      "bow": 6256,
      "good": 6257,
      "gary": 6258,
      "ij": 6259,
      "izon": 6260,
      "kins": 6261,
      "kui": 6262,
      "loride": 6263,
      "o_fu": 6264,
      "p_tv": 6265,
      "ral": 6266,
      "rine": 6267,
      "uit": 6268,
      "wan": 6269,
      "ypt": 6270,
      "on_": 6271,
      "onor": 6272,
      "one_n": 6273,
      "alists": 6274,
      "ateway": 6275,
      "itory": 6276,
      "erid": 6277,
      "rora": 6278,
      "ink": 6279,
      "inson": 6280,
      "dates": 6281,
      "_not": 6282,
      "enia": 6283,
      "environment": 6284,
      "ese": 6285,
      "esis": 6286,
      "y_d": 6287,
      "y_fish": 6288,
      "y_tv": 6289,
      "e_re": 6290,
      "email": 6291,
      "concept_date_m": 6292,
      "concept_date_daugh": 6293,
      "omb": 6294,
      "oman": 6295,
      "omac": 6296,
      "chile": 6297,
      "ical_therapists": 6298,
      "points": 6299,
      "concept_city_lo": 6300,
      "concept_city_lan": 6301,
      "concept_city_gu": 6302,
      "concept_city_law": 6303,
      "concept_city_sun": 6304,
      "concept_city_geneva": 6305,
      "ete": 6306,
      "ewlett": 6307,
      "eletal": 6308,
      "_cow": 6309,
      "_crim": 6310,
      "_circ": 6311,
      "adgers": 6312,
      "uts": 6313,
      "reets": 6314,
      "iant": 6315,
      "_member": 6316,
      "_material": 6317,
      "concept_stateorprovince_british": 6318,
      "_pat": 6319,
      "_bow": 6320,
      "_brook": 6321,
      "concept_mammal_household": 6322,
      "acy_": 6323,
      "spir": 6324,
      "_dav": 6325,
      "_daily": 6326,
      "_tal": 6327,
      "concept_person_al": 6328,
      "concept_personsouth": 6329,
      "concept_company_ro": 6330,
      "concept_profession_program": 6331,
      "ulations": 6332,
      "pheral": 6333,
      "athan": 6334,
      "_hotel": 6335,
      "ompetition": 6336,
      "duced": 6337,
      "concept_website_east": 6338,
      "concept_website_accident": 6339,
      "concept_website_light": 6340,
      "concept_website_announ": 6341,
      "concept_insect_caterp": 6342,
      "exam": 6343,
      "concept_animal_deer": 6344,
      "concept_animal_soci": 6345,
      "_f_": 6346,
      "laboratory_": 6347,
      "concept_politicianus_intro": 6348,
      "concept_country_b": 6349,
      "concept_country_son": 6350,
      "concept_country_eg": 6351,
      "concept_country_denmark": 6352,
      "concept_country_zimbabwe": 6353,
      "concept_country_chile": 6354,
      "bra": 6355,
      "_kong": 6356,
      "concept_bodypart_m": 6357,
      "_rights": 6358,
      "concept_academicfield_phys": 6359,
      "ima": 6360,
      "endale": 6361,
      "concept_chemical_v": 6362,
      "concept_artery_circ": 6363,
      "concept_musicalbum_point": 6364,
      "concept_musicalbum_stage": 6365,
      "_lice": 6366,
      "concept_county_c": 6367,
      "concept_county_au": 6368,
      "_aud": 6369,
      "_aff": 6370,
      "concept_beverage_gr": 6371,
      "concept_beverage_tea": 6372,
      "concept_beverage_mun": 6373,
      "graduate": 6374,
      "concept_university_h": 6375,
      "echan": 6376,
      "concept_visualizablething_site": 6377,
      "concept_geopoliticallocation_south": 6378,
      "concept_geopoliticallocation_show": 6379,
      "illars": 6380,
      "concept_river_pot": 6381,
      "ivacy_": 6382,
      "_dec": 6383,
      "_decomposition": 6384,
      "akh": 6385,
      "akarta": 6386,
      "ounding": 6387,
      "concept_geometricshape_right": 6388,
      "concept_city_bir": 6389,
      "mingham": 6390,
      "concept_fish_": 6391,
      "concept_televisionstation_kr": 6392,
      "concept_politicsissue_human": 6393,
      "concept_politicsissue_truste": 6394,
      "concept_politicsissue_graduate": 6395,
      "concept_programminglanguage_issues": 6396,
      "concept_athlete_pet": 6397,
      "concept_musicsong_g": 6398,
      "concept_musicsong_plan": 6399,
      "concept_city_man": 6400,
      "concept_room_guide": 6401,
      "_princip": 6402,
      "concept_radiostation_c": 6403,
      "concept_male_ze": 6404,
      "concept_male_sun": 6405,
      "anges": 6406,
      "scott": 6407,
      "_rob": 6408,
      "_roger": 6409,
      "_spiders": 6410,
      "concept_city_cal": 6411,
      "concept_book_amsterdam": 6412,
      "concept_book_one_n": 6413,
      "concept_city_tai": 6414,
      "concept_academicfield_econom": 6415,
      "concept_academicfield_association": 6416,
      "concept_academicfield_certification": 6417,
      "argo": 6418,
      "concept_museum_u_s_": 6419,
      "concept_museum_new_york_times": 6420,
      "concept_emotion_college": 6421,
      "concept_emotion_data": 6422,
      "_presidential": 6423,
      "al_insects": 6424,
      "_johnson": 6425,
      "_colts": 6426,
      "_the_new_york": 6427,
      "concept_transportation_ground": 6428,
      "concept_transportation_final": 6429,
      "_co_": 6430,
      "concept_visualizablescene_apartment": 6431,
      "juice": 6432,
      "concept_geopoliticalorganization_custom": 6433,
      "_concer": 6434,
      "concept_reptile_cat": 6435,
      "concept_stadiumoreventvenue_b": 6436,
      "innows": 6437,
      "armful": 6438,
      "concept_hallwayitem_gas": 6439,
      "concept_televisionshow_saturday": 6440,
      "_express": 6441,
      "umble": 6442,
      "concept_profession_manag": 6443,
      "erra": 6444,
      "_indiana": 6445,
      "concept_nongovorganization_plants": 6446,
      "concept_physicalaction_paper": 6447,
      "concept_city_long": 6448,
      "concept_plant_vote": 6449,
      "_parties": 6450,
      "atory": 6451,
      "_parrots": 6452,
      "concept_jobposition_areas": 6453,
      "concept_person_ed": 6454,
      "concept_website_windows": 6455,
      "concept_animal_vertebrates": 6456,
      "concept_animal_house_": 6457,
      "concept_animal_hawks": 6458,
      "_franc": 6459,
      "concept_perceptionaction_next": 6460,
      "concept_hotel_white": 6461,
      "ong_kong": 6462,
      "leader": 6463,
      "concept_year_n189": 6464,
      "concept_company_campus": 6465,
      "concept_musicartist_abbas": 6466,
      "concept_planet_mur": 6467,
      "_planning": 6468,
      "concept_city_jakarta": 6469,
      "concept_chemical_sili": 6470,
      "concept_chemical_solvents": 6471,
      "concept_profession_facult": 6472,
      "concept_chemical_sulfur_dioxide": 6473,
      "_troops": 6474,
      "concept_dayofweek_friday": 6475,
      "concept_dayofweek_thursday": 6476,
      "concept_scientificterm_multivariate": 6477,
      "_scot": 6478,
      "concept_politicianus_former": 6479,
      "concept_profession_physical_therapists": 6480,
      "ronicle": 6481,
      "concept_profession_health_professionals": 6482,
      "concept_winery_york": 6483,
      "uscles": 6484,
      "concept_ceo_jim": 6485,
      "concept_ceo_jeff": 6486,
      "david": 6487,
      "concept_monarch_proper": 6488,
      "concept_bridge_world": 6489,
      "concept_amphibian_fro": 6490,
      "concept_mediatyp": 6491,
      "concept_profession_medical_professionals": 6492,
      "concept_musicartist_take": 6493,
      "_financial": 6494,
      "concept_mlalgorithm_speech": 6495,
      "concept_city_elk": 6496,
      "peripheral": 6497,
      "concept_city_deal": 6498,
      "concept_animal_fowl": 6499,
      "_functions": 6500,
      "itorium": 6501,
      "concept_country_south_korea": 6502,
      "concept_chemical_ozone": 6503,
      "_harbor": 6504,
      "concept_city_berlin": 6505,
      "concept_cognitiveactions_studies": 6506,
      "concept_politicalparty_parliamentary_elections": 6507,
      "_germany": 6508,
      "concept_bodypart_liver": 6509,
      "concept_city_grand": 6510,
      "concept_personus_earn": 6511,
      "_marketing": 6512,
      "concept_newspaper_idaho": 6513,
      "concept_geopoliticallocation_southern": 6514,
      "_game_fish": 6515,
      "_territory": 6516,
      "concept_website_pages": 6517,
      "concept_chemical_particulates": 6518,
      "concept_city_orlando": 6519,
      "_juice": 6520,
      "concept_sportsgame_first_week": 6521,
      "_assistants": 6522,
      "concept_musicfestival_annual_meeting": 6523,
      "icipal_water": 6524,
      "lexington": 6525,
      "concept_bank_fedex": 6526,
      "_summer": 6527,
      "charges": 6528,
      "concept_coach_cincinnati": 6529,
      "concept_mammal_kittens": 6530,
      "olivia": 6531,
      "_chairman": 6532,
      "concept_profession_designers": 6533,
      "concept_physicalaction_assembly": 6534,
      "concept_visualartform_semin": 6535,
      "_packard": 6536,
      "igher_education": 6537,
      "concept_musicalbum_reality": 6538,
      "concept_emotion_founding": 6539,
      "concept_profession_nurse_practitioners": 6540,
      "concept_product_car_acc": 6541,
      "concept_fish_pelagics": 6542,
      "_live_search": 6543,
      "concept_city_parents": 6544,
      "european_union": 6545,
      "concept_city_princeton": 6546,
      "_investigation": 6547,
      "concept_lymphnode_": 6548,
      "concept_profession_coaches": 6549,
      "_huskies": 6550,
      "vegetable_oil": 6551,
      "concept_academicfield_applied": 6552,
      "concept_musicgenre_classic": 6553,
      "concept_food_crop": 6554,
      "o_fukui": 6555,
      "concept_date_daughter": 6556,
      "concept_stateorprovince_british_columbia": 6557,
      "concept_mammal_household_pets": 6558,
      "concept_personsouthamerica": 6559,
      "concept_website_announcement": 6560,
      "concept_insect_caterpillars": 6561,
      "concept_animal_deer001": 6562,
      "concept_animal_social_insects": 6563,
      "concept_politicianus_introduced": 6564,
      "concept_country_egypt": 6565,
      "concept_county_austin": 6566,
      "concept_beverage_municipal_water": 6567,
      "concept_river_potomac": 6568,
      "concept_politicsissue_trustees": 6569,
      "concept_male_zeus": 6570,
      "concept_book_one_night": 6571,
      "concept_city_taiwan": 6572,
      "concept_transportation_final_report": 6573,
      "concept_geopoliticalorganization_customers": 6574,
      "concept_profession_managers": 6575,
      "concept_website_windows_live_search": 6576,
      "concept_animal_house_pets": 6577,
      "concept_planet_murder": 6578,
      "concept_chemical_silicon": 6579,
      "concept_profession_faculty_members": 6580,
      "concept_monarch_property": 6581,
      "concept_amphibian_frogs": 6582,
      "concept_musicartist_takeo_fukui": 6583,
      "concept_personus_earnest": 6584,
      "concept_visualartform_seminar": 6585,
      "concept_product_car_accident": 6586,
      "_ag": 6587,
      "_son": 6588,
      "_product": 6589,
      "_ef": 6590,
      "_atrium": 6591,
      "_universal": 6592,
      "_romney": 6593,
      "_little_": 6594,
      "aip": 6595,
      "bt": 6596,
      "bro": 6597,
      "bar": 6598,
      "bia": 6599,
      "beach": 6600,
      "brook": 6601,
      "c001": 6602,
      "ffi": 6603,
      "face": 6604,
      "gal": 6605,
      "hoppers": 6606,
      "ize": 6607,
      "keley": 6608,
      "lc": 6609,
      "morning": 6610,
      "o_": 6611,
      "oul": 6612,
      "ove": 6613,
      "o_beach": 6614,
      "rad": 6615,
      "ries": 6616,
      "ssums": 6617,
      "tn": 6618,
      "tz": 6619,
      "treatment": 6620,
      "vard": 6621,
      "v_tv": 6622,
      "wanda": 6623,
      "online": 6624,
      "online_": 6625,
      "cet": 6626,
      "cean": 6627,
      "ptors": 6628,
      "alf": 6629,
      "ora": 6630,
      "orb": 6631,
      "ini": 6632,
      "invertebrates": 6633,
      "instit": 6634,
      "_natur": 6635,
      "arabia": 6636,
      "esville": 6637,
      "e_gr": 6638,
      "emistry": 6639,
      "agm": 6640,
      "arters": 6641,
      "concept_date_n18": 6642,
      "local_water": 6643,
      "christ": 6644,
      "amas": 6645,
      "aming": 6646,
      "concept_city_z": 6647,
      "concept_city_state": 6648,
      "concept_city_ottawa": 6649,
      "veral": 6650,
      "concept_model": 6651,
      "agents": 6652,
      "isters": 6653,
      "istics": 6654,
      "une_": 6655,
      "as_vegas": 6656,
      "adam": 6657,
      "aders": 6658,
      "uters": 6659,
      "uther": 6660,
      "isa": 6661,
      "reens": 6662,
      "uration": 6663,
      "_mont": 6664,
      "_multivariate_gaussians": 6665,
      "_santa": 6666,
      "_southern": 6667,
      "_saud": 6668,
      "_soviet_union": 6669,
      "lab": 6670,
      "concept_profession_partners": 6671,
      "_pca": 6672,
      "vijay_": 6673,
      "_by_": 6674,
      "partners": 6675,
      "_wines": 6676,
      "_wright": 6677,
      "_d_": 6678,
      "_teachers": 6679,
      "_twitter": 6680,
      "concept_book_b": 6681,
      "iday": 6682,
      "idea": 6683,
      "approval": 6684,
      "_gall": 6685,
      "concept_company_la": 6686,
      "concept_company_sy": 6687,
      "concept_company_infr": 6688,
      "concept_profession_tr": 6689,
      "concept_profession_reg": 6690,
      "phrine": 6691,
      "aths": 6692,
      "athemat": 6693,
      "_hop": 6694,
      "_home": 6695,
      "_horn": 6696,
      "elekom": 6697,
      "_jury": 6698,
      "_junction": 6699,
      "concept_website_shop": 6700,
      "concept_website_partners": 6701,
      "concept_insect_fly": 6702,
      "exand": 6703,
      "concept_animal_wild": 6704,
      "concept_animal_vol": 6705,
      "_four": 6706,
      "concept_politicianus_barack": 6707,
      "concept_country_left": 6708,
      "concept_country_arabia": 6709,
      "owens": 6710,
      "concept_sportsteam_c": 6711,
      "concept_sportsteam_br": 6712,
      "concept_sportsteam_northern_": 6713,
      "concept_bodypart_h": 6714,
      "_radio": 6715,
      "overnors": 6716,
      "concept_governmentorganization_drug_administration": 6717,
      "concept_governmentorganization_pay": 6718,
      "concept_governmentorganization_chairman": 6719,
      "concept_governmentorganization_investigation": 6720,
      "concept_county_w": 6721,
      "concept_county_athens": 6722,
      "ipants": 6723,
      "concept_beverage_co": 6724,
      "concept_beverage_local_water": 6725,
      "grap": 6726,
      "positions": 6727,
      "concept_university_alabama": 6728,
      "concept_buildingfeature_reg": 6729,
      "concept_scientificterm_p": 6730,
      "concept_scientificterm_con": 6731,
      "concept_visualizablething_b": 6732,
      "ine_h": 6733,
      "_carp": 6734,
      "romania": 6735,
      "herap": 6736,
      "concept_agriculturalproduct_d": 6737,
      "concept_river_ch": 6738,
      "concept_insect_lacewings": 6739,
      "_cham": 6740,
      "_chris": 6741,
      "programme": 6742,
      "concept_company_pix": 6743,
      "alleng": 6744,
      "concept_geometricshape_sector": 6745,
      "concept_city_bur": 6746,
      "concept_city_bloom": 6747,
      "concept_fish_m": 6748,
      "concept_fish_wh": 6749,
      "concept_fish_sw": 6750,
      "concept_fish_game_fish": 6751,
      "concept_politician_fun": 6752,
      "_vict": 6753,
      "_record": 6754,
      "concept_island_test": 6755,
      "concept_televisionstation_kv": 6756,
      "concept_televisionstation_kx": 6757,
      "_stat": 6758,
      "concept_politicsissue_field": 6759,
      "concept_politicsissue_energy": 6760,
      "concept_arthropod_ro": 6761,
      "concept_arthropod_lice": 6762,
      "concept_city_silver": 6763,
      "concept_city_mel": 6764,
      "concept_city_members": 6765,
      "concept_male_c": 6766,
      "canal": 6767,
      "auburn": 6768,
      "ordfish": 6769,
      "travel": 6770,
      "concept_musicartist_delaware": 6771,
      "_possums": 6772,
      "concept_book_con": 6773,
      "concept_book_one_day": 6774,
      "concept_charactertrait_initiat": 6775,
      "concept_charactertrait_role": 6776,
      "_present": 6777,
      "concept_governmentorganization_u_s_": 6778,
      "concept_politicaloffice_legislature": 6779,
      "concept_blog_twitter": 6780,
      "ugal": 6781,
      "mann": 6782,
      "concept_academicfield_consult": 6783,
      "concept_academicfield_control": 6784,
      "concept_academicfield_version": 6785,
      "_george_": 6786,
      "_georgetown": 6787,
      "deutsch": 6788,
      "concept_landscapefeatures_sites": 6789,
      "concept_vehicle_reg": 6790,
      "concept_vehicle_three": 6791,
      "concept_physicalaction_states": 6792,
      "concept_physicalaction_formation": 6793,
      "concept_physicalaction_store": 6794,
      "concept_physicalaction_charges": 6795,
      "concept_physicalaction_programme": 6796,
      "concept_musicgenre": 6797,
      "concept_museum_w": 6798,
      "concept_emotion_site": 6799,
      "dayton": 6800,
      "_phase": 6801,
      "boys": 6802,
      "_cold_water": 6803,
      "concept_mammal_bo": 6804,
      "concept_braintissue_m": 6805,
      "concept_mammal_dolphins": 6806,
      "ranton": 6807,
      "_coup": 6808,
      "concept_insect_black": 6809,
      "attention": 6810,
      "concept_geopoliticalorganization_d": 6811,
      "concept_food_s": 6812,
      "concept_reptile_invertebrates": 6813,
      "e_warner": 6814,
      "concept_female_s": 6815,
      "e_mon": 6816,
      "_technologies": 6817,
      "_grizz": 6818,
      "concept_profession_management": 6819,
      "concept_sportsgame_post": 6820,
      "_boston": 6821,
      "_algorithm": 6822,
      "ethiop": 6823,
      "eye": 6824,
      "astructure": 6825,
      "ial_deriv": 6826,
      "concept_agriculturalproduct_cereals": 6827,
      "league": 6828,
      "_partial_deriv": 6829,
      "concept_city_gil": 6830,
      "adoption": 6831,
      "concept_profession_sales": 6832,
      "_parliament": 6833,
      "concept_jobposition_executive_": 6834,
      "e_biden": 6835,
      "indianapolis": 6836,
      "_project": 6837,
      "able_water": 6838,
      "concept_animal_federal": 6839,
      "concept_animal_hyen": 6840,
      "concept_emotion_approval": 6841,
      "concept_mldataset_n": 6842,
      "concept_year_n188": 6843,
      "concept_profession_clients": 6844,
      "homes": 6845,
      "_fort": 6846,
      "concept_ceo_ed": 6847,
      "concept_ceo_online_": 6848,
      "_nerves": 6849,
      "concept_monument_supreme_court": 6850,
      "concept_monument_troops": 6851,
      "concept_vegetable_rice": 6852,
      "concept_dayofweek_tuesday": 6853,
      "concept_sociopolitical_": 6854,
      "concept_sociopolitical_justice": 6855,
      "concept_profession_invest": 6856,
      "ungus": 6857,
      "ungary": 6858,
      "concept_agriculturalproduct_cattle": 6859,
      "concept_disease_b": 6860,
      "concept_bathroomitem_": 6861,
      "concept_website_move": 6862,
      "concept_city_albany": 6863,
      "concept_sportsleague_western": 6864,
      "istered": 6865,
      "ynn": 6866,
      "last_week": 6867,
      "concept_website_bill": 6868,
      "concept_website_bangl": 6869,
      "_participants": 6870,
      "_counselors": 6871,
      "_nova": 6872,
      "concept_mammal_domesticated_animals": 6873,
      "concept_agent_linux": 6874,
      "y_carter": 6875,
      "_raiders": 6876,
      "_raptors": 6877,
      "concept_year_n1952": 6878,
      "concept_musicartist_town": 6879,
      "concept_color_attack": 6880,
      "professors": 6881,
      "roadcast": 6882,
      "_candidate_john_mccain": 6883,
      "values": 6884,
      "_miles": 6885,
      "concept_year_n1916": 6886,
      "lymouth": 6887,
      "concept_politicsissue_competition": 6888,
      "concept_protein_medicine": 6889,
      "concept_mammal_gir": 6890,
      "_authority": 6891,
      "banks": 6892,
      "_wilmington": 6893,
      "_communication": 6894,
      "_27_2": 6895,
      "concept_skyscraper_asia": 6896,
      "sumers": 6897,
      "e_sampr": 6898,
      "_woods": 6899,
      "_noir": 6900,
      "eavy_metal": 6901,
      "concept_parlourg": 6902,
      "igeria": 6903,
      "concept_country_nigeria": 6904,
      "application_form": 6905,
      "intest": 6906,
      "_manhattan": 6907,
      "concept_musicgenre_progress": 6908,
      "concept_county_manchester": 6909,
      "_panthers": 6910,
      "concept_person_lord_jesus": 6911,
      "concept_website_peru": 6912,
      "immy_carter": 6913,
      "concept_date_n1951": 6914,
      "concept_date_n1958": 6915,
      "e_telekom": 6916,
      "_palm_beach": 6917,
      "concept_company_apple002": 6918,
      "_industry": 6919,
      "concept_city_beij": 6920,
      "concept_sportsgame_first_playoff": 6921,
      "concept_governmentorganization_cabinet": 6922,
      "_broncos": 6923,
      "concept_city_neighbor": 6924,
      "stallation": 6925,
      "_catfish": 6926,
      "_flowers": 6927,
      "commendations": 6928,
      "concept_insect_leafhoppers": 6929,
      "concept_wine_white_wine": 6930,
      "racuse": 6931,
      "concept_country_rwanda": 6932,
      "concept_clothing_positions": 6933,
      "concept_bodypart_injury": 6934,
      "concept_food_fats": 6935,
      "_premiere": 6936,
      "concept_geometricshape_peak": 6937,
      "concept_charactertrait_statement": 6938,
      "_cardinals_27_2": 6939,
      "concept_stateorprovince_hawaii": 6940,
      "otiations": 6941,
      "inneapolis": 6942,
      "legislation": 6943,
      "cerebral": 6944,
      "success": 6945,
      "concept_dateliteral_n1812": 6946,
      "concept_website_boards": 6947,
      "concept_mammal_bobcats": 6948,
      "concept_automobilemaker_toyota": 6949,
      "onda_motor": 6950,
      "_secretary": 6951,
      "concept_politicianus_gov__sarah_palin": 6952,
      "concept_city_birmingham": 6953,
      "concept_athlete_pete_sampr": 6954,
      "concept_perceptionaction_next_meeting": 6955,
      "_saudita": 6956,
      "concept_company_infrastructure": 6957,
      "concept_animal_voles001": 6958,
      "concept_country_left_parties": 6959,
      "concept_country_arabia_saudita": 6960,
      "concept_buildingfeature_regulations": 6961,
      "concept_company_pixar": 6962,
      "concept_fish_swordfish": 6963,
      "concept_politician_funding": 6964,
      "concept_charactertrait_initiative": 6965,
      "concept_academicfield_consultation": 6966,
      "deutsche_telekom": 6967,
      "concept_sportsgame_postseason": 6968,
      "ethiopia": 6969,
      "_partial_derivatives": 6970,
      "concept_animal_federal_government": 6971,
      "concept_animal_hyenas": 6972,
      "concept_ceo_online_application_form": 6973,
      "concept_sportsleague_western_conference": 6974,
      "concept_website_bangladesh": 6975,
      "concept_city_beijing": 6976,
      "concept_city_neighborhood": 6977,
      "_cardinals_27_23": 6978,
      "concept_athlete_pete_sampras": 6979,
      "_year": 6980,
      "_illinois": 6981,
      "_lay": 6982,
      "_professor": 6983,
      "_rome": 6984,
      "_one_day": 6985,
      "apt": 6986,
      "ais": 6987,
      "cro": 6988,
      "eim": 6989,
      "flower": 6990,
      "hogs": 6991,
      "iff": 6992,
      "ierra": 6993,
      "llo": 6994,
      "mers": 6995,
      "rel": 6996,
      "sletter": 6997,
      "uert": 6998,
      "vd": 6999,
      "wick": 7000,
      "ware": 7001,
      "yle": 7002,
      "zech": 7003,
      "concert": 7004,
      "atab": 7005,
      "alition": 7006,
      "itic": 7007,
      "itians": 7008,
      "era": 7009,
      "eros": 7010,
      "roid": 7011,
      "ancy": 7012,
      "anced": 7013,
      "orals": 7014,
      "_net": 7015,
      "start": 7016,
      "stream": 7017,
      "arms": 7018,
      "enem": 7019,
      "esburg": 7020,
      "malde": 7021,
      "e_r": 7022,
      "aguna": 7023,
      "ent_africa": 7024,
      "amond": 7025,
      "forest": 7026,
      "usks": 7027,
      "concept_city_par": 7028,
      "concept_city_eu": 7029,
      "concept_city_sum": 7030,
      "concept_city_centre": 7031,
      "concept_city_libr": 7032,
      "verizon": 7033,
      "etta": 7034,
      "ews": 7035,
      "_cli": 7036,
      "_curr": 7037,
      "unis": 7038,
      "sony": 7039,
      "rea": 7040,
      "ila": 7041,
      "ilton": 7042,
      "ody_": 7043,
      "_mey": 7044,
      "_medical": 7045,
      "_she": 7046,
      "_soft": 7047,
      "_silver": 7048,
      "lains": 7049,
      "concept_stateorprovince_d": 7050,
      "concept_profession_care_": 7051,
      "concept_profession_writ": 7052,
      "_pas": 7053,
      "_pea": 7054,
      "_base": 7055,
      "_baltimore_": 7056,
      "okia": 7057,
      "_women": 7058,
      "_winter": 7059,
      "_dod": 7060,
      "fibers": 7061,
      "_ton": 7062,
      "_tour": 7063,
      "concept_chemical_t": 7064,
      "earw": 7065,
      "earance": 7066,
      "concept_book_v": 7067,
      "concept_book_oil": 7068,
      "lectur": 7069,
      "concept_person_car": 7070,
      "concept_person_bill": 7071,
      "concept_person_republican": 7072,
      "concept_person_peter": 7073,
      "concept_person_prime_minister": 7074,
      "ivers": 7075,
      "_governors": 7076,
      "concept_year_n17": 7077,
      "concept_company_re": 7078,
      "concept_company_ford": 7079,
      "concept_company_ebay": 7080,
      "concept_company_financial": 7081,
      "concept_profession_education": 7082,
      "concept_profession_execut": 7083,
      "concept_profession_administrators": 7084,
      "concept_profession_radio": 7085,
      "_jon": 7086,
      "_jets": 7087,
      "concept_website_re": 7088,
      "concept_website_cent": 7089,
      "concept_website_associ": 7090,
      "concept_website_projects": 7091,
      "concept_website_adobe": 7092,
      "concept_website_homes": 7093,
      "concept_animal_ch": 7094,
      "_fall": 7095,
      "_foot": 7096,
      "_foundation": 7097,
      "edo": 7098,
      "concept_politicianus_kennedy": 7099,
      "concept_country_d": 7100,
      "_ke": 7101,
      "shall": 7102,
      "three_": 7103,
      "ayes": 7104,
      "ayfish": 7105,
      "aymond": 7106,
      "lake": 7107,
      "_rul": 7108,
      "concept_academicfield_c": 7109,
      "concept_academicfield_distribution": 7110,
      "pods": 7111,
      "syrah": 7112,
      "concept_building_times": 7113,
      "andel": 7114,
      "concept_chemical_z": 7115,
      "concept_chemical_oil": 7116,
      "concept_chemical_links": 7117,
      "concept_governmentorganization_rule": 7118,
      "concept_governmentorganization_representatives": 7119,
      "concept_governmentorganization_situation": 7120,
      "concept_musicalbum_wedding": 7121,
      "_lungs": 7122,
      "concept_county_fl": 7123,
      "concept_county_records": 7124,
      "iped": 7125,
      "ipmun": 7126,
      "ipedia": 7127,
      "concept_beverage_ch": 7128,
      "concept_beverage_fran": 7129,
      "bs_sampling": 7130,
      "grass": 7131,
      "concept_university_c": 7132,
      "concept_university_s": 7133,
      "ource": 7134,
      "concept_scientificterm_di": 7135,
      "concept_visualizablething_m": 7136,
      "concept_visualizablething_wast": 7137,
      "concept_weapon_north": 7138,
      "concept_weapon_standard": 7139,
      "og001": 7140,
      "pret": 7141,
      "cene": 7142,
      "illi": 7143,
      "illy": 7144,
      "illips": 7145,
      "concept_river_k": 7146,
      "ive_b": 7147,
      "ive_water": 7148,
      "alliance": 7149,
      "concept_fish_catfish": 7150,
      "ood_and": 7151,
      "concept_island_society": 7152,
      "concept_date_n190": 7153,
      "concept_jobposition_specialist": 7154,
      "concept_ceo_m": 7155,
[...]
