{
  "version": "1.0",
  "truncation": null,
  "padding": null,
  "added_tokens": [
    {
      "id": 0,
      "content": "[UNK]",
      "single_word": false,
      "lstrip": false,
      "rstrip": false,
      "normalized": false,
      "special": true
    },
    {
      "id": 1,
      "content": "[CLS]",
      "single_word": false,
      "lstrip": false,
      "rstrip": false,
      "normalized": false,
      "special": true
    },
    {
      "id": 2,
      "content": "[SEP]",
      "single_word": false,
      "lstrip": false,
      "rstrip": false,
      "normalized": false,
      "special": true
    },
    {
      "id": 3,
      "content": "[PAD]",
      "single_word": false,
      "lstrip": false,
      "rstrip": false,
      "normalized": false,
      "special": true
    },
    {
      "id": 4,
      "content": "[MASK]",
      "single_word": false,
      "lstrip": false,
      "rstrip": false,
      "normalized": false,
      "special": true
    },
    {
      "id": 27486,
      "content": " ",
      "single_word": false,
      "lstrip": false,
      "rstrip": false,
      "normalized": true,
      "special": false
    }
  ],
  "normalizer": null,
  "pre_tokenizer": {
    "type": "WhitespaceSplit"
  },
  "post_processor": null,
  "decoder": null,
  "model": {
    "type": "BPE",
    "dropout": null,
    "unk_token": "[UNK]",
    "continuing_subword_prefix": null,
    "end_of_word_suffix": null,
    "fuse_unk": false,
    "byte_fallback": false,
    "ignore_merges": false,
    "vocab": {
      "[UNK]": 0,
      "[CLS]": 1,
      "[SEP]": 2,
      "[PAD]": 3,
      "[MASK]": 4,
      ".": 5,
      "/": 6,
      "0": 7,
      "1": 8,
      "2": 9,
      "3": 10,
      "4": 11,
      "5": 12,
      "6": 13,
      "7": 14,
      "8": 15,
      "9": 16,
      "_": 17,
      "a": 18,
      "b": 19,
      "c": 20,
      "d": 21,
      "e": 22,
      "f": 23,
      "g": 24,
      "h": 25,
      "i": 26,
      "j": 27,
      "k": 28,
      "l": 29,
      "m": 30,
      "n": 31,
      "o": 32,
      "p": 33,
      "q": 34,
      "r": 35,
      "s": 36,
      "t": 37,
      "u": 38,
      "v": 39,
      "w": 40,
      "x": 41,
      "y": 42,
      "z": 43,
      "m/": 44,
      "/m/": 45,
      "/m/0": 46,
      "ar": 47,
      "on": 48,
      "/a": 49,
      "ard": 50,
      "ward": 51,
      "/award": 52,
      "at": 53,
      "ion": 54,
      "in": 55,
      "fi": 56,
      "fil": 57,
      "/award_": 58,
      "or": 59,
      "ation": 60,
      "er": 61,
      "re": 62,
      "om": 63,
      "nom": 64,
      "nomin": 65,
      "le": 66,
      "/p": 67,
      "/fil": 68,
      "/award/award_": 69,
      "s.": 70,
      "/m/01": 71,
      "e_": 72,
      "ed": 73,
      "st": 74,
      "/film/": 75,
      "/m/02": 76,
      "ation/": 77,
      "ic": 78,
      "en": 79,
      "/award/award_nomin": 80,
      "ro": 81,
      "/film/fil": 82,
      "as": 83,
      "it": 84,
      "an": 85,
      "op": 86,
      "m_": 87,
      "al": 88,
      "s_": 89,
      "/m": 90,
      "ee": 91,
      "cation/": 92,
      "/s": 93,
      "/pe": 94,
      "ople": 95,
      "/people": 96,
      "/m/03": 97,
      "/award_nomin": 98,
      "rele": 99,
      "ase_": 100,
      "release_": 101,
      "ate": 102,
      "for": 103,
      "us": 104,
      "ent": 105,
      "/film/film/": 106,
      "edu": 107,
      "/t": 108,
      "ers": 109,
      "s./award/award_nomin": 110,
      "ort": 111,
      "win": 112,
      "winn": 113,
      "port": 114,
      "reg": 115,
      "lo": 116,
      "/m/04": 117,
      "ra": 118,
      "al_": 119,
      "/people/p": 120,
      "ce": 121,
      "/m/05": 122,
      "erson": 123,
      "usic": 124,
      "winner": 125,
      "/sport": 126,
      "ut": 127,
      "/music": 128,
      "ations./award/award_nomin": 129,
      "/award_nominations./award/award_nomin": 130,
      "/people/person": 131,
      "ed_": 132,
      "release_d": 133,
      "/award/award_nominee": 134,
      "/award/award_nominee/award_nominations./award/award_nomin": 135,
      "region": 136,
      "education/": 137,
      "ist": 138,
      "mp": 139,
      "/g": 140,
      "_c": 141,
      "/c": 142,
      "hon": 143,
      "ri": 144,
      "ol": 145,
      "_p": 146,
      "es": 147,
      "/m/09": 148,
      "honor": 149,
      "/film/film_": 150,
      "man": 151,
      "erfor": 152,
      "erforman": 153,
      "/award/award_nominee/award_nominations./award/award_nomination": 154,
      "ea": 155,
      "/award/award_honor": 156,
      "/film": 157,
      "ymp": 158,
      "/m/06": 159,
      "y/": 160,
      "/m/07": 161,
      "olymp": 162,
      "olympic": 163,
      "cation": 164,
      "ated_": 165,
      "/lo": 166,
      "ment": 167,
      "ag": 168,
      "gor": 169,
      "ategor": 170,
      "/olympic": 171,
      "mon": 172,
      "role": 173,
      "/education/": 174,
      "ip": 175,
      "un": 176,
      "/award/award_c": 177,
      "/film_": 178,
      "th": 179,
      "ution": 180,
      "/b": 181,
      "of": 182,
      "ess": 183,
      "ce_": 184,
      "art": 185,
      "e_s.": 186,
      "ct": 187,
      "ategory/": 188,
      "la": 189,
      "enre": 190,
      "ition": 191,
      "/sports": 192,
      "mb": 193,
      "/award_winner": 194,
      "/award/award_honor/award_winner": 195,
      "/m/0g": 196,
      "/award/award_category/": 197,
      "rew": 198,
      "erformance": 199,
      "/people/person/p": 200,
      "rib": 201,
      "/awards_": 202,
      "ing": 203,
      "age": 204,
      "tea": 205,
      "iv": 206,
      "/m/0d": 207,
      "ud": 208,
      "os": 209,
      "osition": 210,
      "hip": 211,
      "ster": 212,
      "roster": 213,
      "/location/": 214,
      "nominated_": 215,
      "ation/nominated_": 216,
      "ation/nominated_for": 217,
      "ession": 218,
      "regional_": 219,
      "/sports/sport": 220,
      "ate_s.": 221,
      "ate/film_": 222,
      "/film/film/release_d": 223,
      "release_date/film_": 224,
      "/film/film_regional_": 225,
      "ate_s./film/film_regional_": 226,
      "/film/film/release_date_s./film/film_regional_": 227,
      "/film/film/release_date_s./film/film_regional_release_date/film_": 228,
      "of_": 229,
      "/sports/sports_": 230,
      "inst": 231,
      "/bas": 232,
      "ani": 233,
      "won": 234,
      "won.": 235,
      "/m/0c": 236,
      "/base": 237,
      "/award_nominee": 238,
      "/award/award_nominee/award_nominations./award/award_nomination/award_nominee": 239,
      "/m/0b": 240,
      "/m/08": 241,
      "_g": 242,
      "el": 243,
      "oo": 244,
      "stud": 245,
      "release_region": 246,
      "/tv": 247,
      "/film/film/release_date_s./film/film_regional_release_date/film_release_region": 248,
      "/awards_won.": 249,
      "gani": 250,
      "organi": 251,
      "organiz": 252,
      "du": 253,
      "ont": 254,
      "de": 255,
      "/f": 256,
      "/tra": 257,
      "fession": 258,
      "rofession": 259,
      "_w": 260,
      "or/film": 261,
      "/music/g": 262,
      "ur": 263,
      "all": 264,
      "/award/award_nominee/award_nominations./award/award_nomination/award": 265,
      "tb": 266,
      "ck": 267,
      "ern": 268,
      "_m": 269,
      "education": 270,
      "educational_": 271,
      "ed.": 272,
      "oun": 273,
      "/olympics": 274,
      "emb": 275,
      "gra": 276,
      "/m/0f": 277,
      "/people/person/profession": 278,
      "ov": 279,
      "ernment": 280,
      "overnment": 281,
      "crew": 282,
      "/n": 283,
      "/education/educational_": 284,
      "ount": 285,
      "act": 286,
      "/government": 287,
      "/art": 288,
      "/artist": 289,
      "/foo": 290,
      "itution": 291,
      "institution": 292,
      "ry": 293,
      "fl": 294,
      "d_": 295,
      "ren": 296,
      "/olympics/olympic": 297,
      "ig": 298,
      "tball": 299,
      "urren": 300,
      "/track": 301,
      "/com": 302,
      "/film/p": 303,
      "/awards_won./award/award_honor/award_winner": 304,
      "up": 305,
      "/film/act": 306,
      "./film/p": 307,
      "./film/performance": 308,
      "/sports/sports_tea": 309,
      "or/film./film/performance": 310,
      "/film/actor/film./film/performance": 311,
      "istrib": 312,
      "ity": 313,
      "nominee": 314,
      "s./award/award_nomination/nominated_for": 315,
      "/award/award_category/nominee": 316,
      "/award/award_category/nominees./award/award_nomination/nominated_for": 317,
      "/film/actor/film./film/performance/film": 318,
      "student": 319,
      "ma": 320,
      "/education/education/": 321,
      "c7": 322,
      "rel": 323,
      "ship": 324,
      "t_": 325,
      "/d": 326,
      "ers.": 327,
      "bp": 328,
      "organization/": 329,
      "ountry": 330,
      "erformance_": 331,
      "ure": 332,
      "genre": 333,
      "w0": 334,
      "/ad": 335,
      "roup": 336,
      "/location/lo": 337,
      "/m/02h": 338,
      "winners.": 339,
      "/award/award_category/winners.": 340,
      "cer": 341,
      "distrib": 342,
      "/education/educational_institution": 343,
      "/role": 344,
      "/performance_": 345,
      "/performance_role": 346,
      "tball_": 347,
      "end": 348,
      "/m/016": 349,
      "_performance": 350,
      "/m/0j": 351,
      "y_": 352,
      "ere": 353,
      "/w": 354,
      "_performances.": 355,
      "distribut": 356,
      "by": 357,
      "ribution": 358,
      "ontribution": 359,
      "liv": 360,
      "/football_": 361,
      "mony": 362,
      "eremony": 363,
      "ul": 364,
      "ebp": 365,
      "/common": 366,
      "/webp": 367,
      "/webpage": 368,
      "let": 369,
      "_contribution": 370,
      "/music/performance_role": 371,
      "/location": 372,
      "/film/film/genre": 373,
      "/m/09c7": 374,
      "/m/09c7w0": 375,
      "_t": 376,
      "_memb": 377,
      "ork": 378,
      "il": 379,
      "/award/award_winner": 380,
      "/award/award_winner/awards_won./award/award_honor/award_winner": 381,
      "/so": 382,
      "/sports/sports_team_": 383,
      "ership": 384,
      "eas": 385,
      "_position": 386,
      "lace_": 387,
      "/in": 388,
      "ins": 389,
      "/m/01v": 390,
      "/m/0h": 391,
      "pp": 392,
      "/pop": 393,
      "stra": 394,
      "/base/pop": 395,
      "/base/popstra": 396,
      "/music/genre": 397,
      "/track_contribution": 398,
      "/sports/sports_team_roster": 399,
      "res": 400,
      "yp": 401,
      "/m/0k": 402,
      "ch": 403,
      "ant": 404,
      "or_": 405,
      "regul": 406,
      "regular": 407,
      "uen": 408,
      "fluen": 409,
      "/influen": 410,
      "gre": 411,
      "degre": 412,
      "degree": 413,
      "ccer": 414,
      "/soccer": 415,
      "ive_": 416,
      "jo": 417,
      "/location/location/": 418,
      "er_c": 419,
      "/organization/": 420,
      "/m/015": 421,
      "ationship": 422,
      "relationship": 423,
      "/artists": 424,
      "/music/genre/artists": 425,
      "students_": 426,
      "rodu": 427,
      "/position": 428,
      "./film/film_": 429,
      "/award/award_winn": 430,
      "ing_w": 431,
      "/award/award_winning_w": 432,
      "/award/award_winning_work": 433,
      "/m/0l": 434,
      "ment_": 435,
      "country": 436,
      "team/": 437,
      "oth": 438,
      "/film/film/oth": 439,
      "rew./film/film_": 440,
      "_gig": 441,
      "crew_gig": 442,
      "er_crew./film/film_": 443,
      "/film/film/other_crew./film/film_": 444,
      "/film/film/other_crew./film/film_crew_gig": 445,
      "roster.": 446,
      "/olympics/olympic_": 447,
      "/soccer/football_": 448,
      "icip": 449,
      "articip": 450,
      "br": 451,
      "/tv/tv": 452,
      "_com": 453,
      "/e": 454,
      "ue": 455,
      "cy": 456,
      "/curren": 457,
      "_role": 458,
      "ative_": 459,
      "rogra": 460,
      "/award/award_nominee/award_nominations./award/award_nomination/nominated_for": 461,
      "/adjo": 462,
      "/students_": 463,
      "s./education/education/": 464,
      "ates./education/education/": 465,
      "duates./education/education/": 466,
      "/music/group": 467,
      "graduates./education/education/": 468,
      "/education/educational_institution/students_": 469,
      "/music/group_memb": 470,
      "/education/educational_institution/students_graduates./education/education/": 471,
      "/film_crew": 472,
      "/film/film/other_crew./film/film_crew_gig/film_crew": 473,
      "/film/film/other_crew./film/film_crew_gig/film_crew_role": 474,
      "ath": 475,
      "j5": 476,
      "et": 477,
      "/meas": 478,
      "unit": 479,
      "urement_": 480,
      "/measurement_": 481,
      "/measurement_unit": 482,
      "/mar": 483,
      "/tea": 484,
      "/team": 485,
      "im": 486,
      "/dated_": 487,
      "/measurement_unit/dated_": 488,
      "/award/award_category/winners./award/award_honor/award_winner": 489,
      "is": 490,
      "gu": 491,
      "lan": 492,
      "langu": 493,
      "qf": 494,
      "ains": 495,
      "ontains": 496,
      "/music/track_contribution": 497,
      "/music/track_contribution/role": 498,
      "lace": 499,
      "/m/05z": 500,
      "h_": 501,
      "lebr": 502,
      "celebr": 503,
      "/m/01w": 504,
      "ary": 505,
      "itary": 506,
      "/mil": 507,
      "/military": 508,
      "contains": 509,
      "/location/location/contains": 510,
      "/music/": 511,
      "pres": 512,
      "present": 513,
      "film_": 514,
      "/regular": 515,
      "/m/026": 516,
      "/med": 517,
      "/m/07s": 518,
      "/tv/tv_p": 519,
      "/celebr": 520,
      "sport": 521,
      "ey_": 522,
      "is_": 523,
      "this_": 524,
      "/music/group_membership": 525,
      "po": 526,
      "/people/mar": 527,
      "/people/marri": 528,
      "/m/017": 529,
      "organization": 530,
      "/m/02q": 531,
      "/m/09n": 532,
      "val": 533,
      "money_": 534,
      "value": 535,
      "money_value": 536,
      "/sch": 537,
      "curren": 538,
      "t_roster.": 539,
      "team/curren": 540,
      "team/current_roster.": 541,
      "ft": 542,
      "produ": 543,
      "/m/018": 544,
      "ality": 545,
      "/m/0p": 546,
      "/currency": 547,
      "/measurement_unit/dated_money_value": 548,
      "/measurement_unit/dated_money_value/currency": 549,
      "ationality": 550,
      "/people/person/n": 551,
      "/people/person/nationality": 552,
      "ad": 553,
      "ing_": 554,
      "tj": 555,
      "/m/02_": 556,
      "ith_": 557,
      "_with_": 558,
      "rh": 559,
      "fiel": 560,
      "of_stud": 561,
      "d_of_stud": 562,
      "maj": 563,
      "field_of_stud": 564,
      "lete": 565,
      "/people/marriage": 566,
      "/sports/sports_team_roster/team": 567,
      "/government/government": 568,
      "./measurement_unit/dated_money_value/currency": 569,
      "40": 570,
      "_f": 571,
      "ity/": 572,
      "itle": 573,
      "/m/027": 574,
      "language": 575,
      "/m/09nqf": 576,
      "_with_this_": 577,
      "/spo": 578,
      "/spous": 579,
      "ategory": 580,
      "ed_by": 581,
      "e_of_": 582,
      "istr": 583,
      "union": 584,
      "/top": 585,
      "/people_with_this_": 586,
      "ru": 587,
      "instru": 588,
      "instrument": 589,
      "/soccer/football_team/current_roster.": 590,
      "/m/04z": 591,
      "/m/01p": 592,
      "/people/person/g": 593,
      "ender": 594,
      "/people/person/gender": 595,
      "ced_by": 596,
      "lay": 597,
      "/award/award_ceremony": 598,
      "/awards_present": 599,
      "/award/award_ceremony/awards_present": 600,
      "/award/award_ceremony/awards_presented.": 601,
      "laces_": 602,
      "/m/02l": 603,
      "af": 604,
      "./education/education/": 605,
      "1q": 606,
      "j5d": 607,
      "./common": 608,
      "ic/webpage": 609,
      "/category": 610,
      "mbj5d": 611,
      "/m/08mbj5d": 612,
      "/common/top": 613,
      "/webpage/category": 614,
      "./common/webpage/category": 615,
      "ic/webpage./common/webpage/category": 616,
      "/common/topic/webpage./common/webpage/category": 617,
      "/memb": 618,
      "/adjoin": 619,
      "_performances./music/group_membership": 620,
      "/music/performance_role/regular": 621,
      "/music/performance_role/regular_performances./music/group_membership": 622,
      "/people/person/spous": 623,
      "e_s./people/marriage": 624,
      "/people/person/spouse_s./people/marriage": 625,
      "k9": 626,
      "ed/location": 627,
      "/people/place_": 628,
      "/people/person/places_": 629,
      "ed./people/place_": 630,
      "lived/location": 631,
      "lived./people/place_": 632,
      "/people/person/places_lived./people/place_": 633,
      "/people/person/places_lived./people/place_lived/location": 634,
      "/m/01g": 635,
      "/le": 636,
      "hel": 637,
      "held": 638,
      "/m/0m": 639,
      "/m/019": 640,
      "sd": 641,
      "or_field_of_stud": 642,
      "major_field_of_stud": 643,
      "major_field_of_study": 644,
      "lc": 645,
      "/particip": 646,
      "/m/02r": 647,
      "usin": 648,
      "/busin": 649,
      "b8": 650,
      "/awards_won./award/award_honor": 651,
      "/award/award_winning_work/awards_won./award/award_honor": 652,
      "/ath": 653,
      "letes.": 654,
      "roster_position": 655,
      "roster_position/position": 656,
      "raft": 657,
      "/m/034": 658,
      "/m/02j": 659,
      "xt": 660,
      "/m/02v": 661,
      "riend": 662,
      "/track_performances.": 663,
      "/music/performance_role/track_performances.": 664,
      "/music/performance_role/track_performances./music/track_contribution/role": 665,
      "iation/": 666,
      "filiation/": 667,
      "e_af": 668,
      "lete_af": 669,
      "/olympics/olympic_ath": 670,
      "/athletes.": 671,
      "lete_affiliation/": 672,
      "/olympics/olympic_athlete_affiliation/": 673,
      "/athletes./olympics/olympic_athlete_affiliation/": 674,
      "vel": 675,
      "/m/013": 676,
      "/tv/tv_progra": 677,
      "_med": 678,
      "bat": 679,
      "batant": 680,
      "lace_of_": 681,
      "/m/0n": 682,
      "position": 683,
      "/play": 684,
      "/sports/sports_position": 685,
      "/players.": 686,
      "/sports/sports_position/players.": 687,
      "_genre": 688,
      "/m/014": 689,
      "/education/educational_degree": 690,
      "degree./education/education/": 691,
      "/people_with_this_degree./education/education/": 692,
      "/education/educational_degree/people_with_this_degree./education/education/": 693,
      "_held": 694,
      "_position_held": 695,
      "/government/government_position_held": 696,
      "9r": 697,
      "/m/02x": 698,
      "/m/04ztj": 699,
      "/m/01j": 700,
      "rec": 701,
      "/base/popstra/celebr": 702,
      "/participant": 703,
      "/typ": 704,
      "/type_of_": 705,
      "9j": 706,
      "ppz": 707,
      "/m/05zppz": 708,
      "/people/person/spouse_s./people/marriage/type_of_": 709,
      "/people/person/spouse_s./people/marriage/type_of_union": 710,
      "/sports/sports_position/players./sports/sports_team_roster/team": 711,
      "/nut": 712,
      "/food": 713,
      "/award/award_winning_work/awards_won./award/award_honor/award": 714,
      "/tv/tv_program/": 715,
      "igion": 716,
      "religion": 717,
      "stat": 718,
      "/net": 719,
      "/music/rec": 720,
      "/music/recor": 721,
      "14": 722,
      "/m/01c": 723,
      "aran": 724,
      "/ceremony": 725,
      "/award/award_honor/ceremony": 726,
      "/award/award_category/winners./award/award_honor/ceremony": 727,
      "sb": 728,
      "draft": 729,
      "ick": 730,
      "sc": 731,
      "riendship": 732,
      "/m/01k": 733,
      "gis": 734,
      "lative_": 735,
      "session": 736,
      "/legis": 737,
      "lative_session": 738,
      "/legislative_session": 739,
      "/m/025": 740,
      "/award/award_ceremony/awards_presented./award/award_honor/award_winner": 741,
      "/m/02n": 742,
      "/m/01l": 743,
      "1w": 744,
      "1y": 745,
      "/m/03r": 746,
      "/m/0gq": 747,
      "/m/02p": 748,
      "/m/02h40": 749,
      "/education/educational_institution/students_graduates./education/education/student": 750,
      "/m/02h40lc": 751,
      "/education/educational_institution/students_graduates./education/education/major_field_of_study": 752,
      "_of": 753,
      "ers./government/government_position_held": 754,
      "ema": 755,
      "/schema": 756,
      "min": 757,
      "istrative_": 758,
      "ministrative_": 759,
      "/film/film_film_": 760,
      "distributor_": 761,
      "/film/film_film_distributor_": 762,
      "/film/film_film_distributor_relationship": 763,
      "/base/popstra/celebrity/": 764,
      "/travel": 765,
      "/m/02f": 766,
      "/film/film/produ": 767,
      "/film/film/language": 768,
      "9c": 769,
      "ating": 770,
      "ical_": 771,
      "/sports/sports_team_roster/position": 772,
      "/business": 773,
      "_pick": 774,
      "draft_pick": 775,
      "qu": 776,
      "/m/02k": 777,
      "/award/award_winning_work/awards_won./award/award_honor/award_winner": 778,
      "/olympics/olympic_sport": 779,
      "/olympics/olympic_sport/athletes./olympics/olympic_athlete_affiliation/": 780,
      "gr": 781,
      "/m/012": 782,
      "ype": 783,
      "lab": 784,
      "/sports/sports_team/": 785,
      "lace_of_b": 786,
      "ating_c": 787,
      "/m/01n": 788,
      "app": 789,
      "appe": 790,
      "v_": 791,
      "2h": 792,
      "a_com": 793,
      "ix": 794,
      "ia_com": 795,
      "/title": 796,
      "mon/net": 797,
      "flix": 798,
      "/media_com": 799,
      "_genre/title": 800,
      "mon/netflix": 801,
      "/media_common/netflix": 802,
      "_genre/titles": 803,
      "/media_common/netflix_genre/titles": 804,
      "/m/01f": 805,
      "_of_": 806,
      "/music/artist": 807,
      "/administrative_": 808,
      "nic": 809,
      "/people/e": 810,
      "thnic": 811,
      "/people/ethnic": 812,
      "/m/02b": 813,
      "/m/02z": 814,
      "qh": 815,
      "ld": 816,
      "/m/01h": 817,
      "/organization": 818,
      "/m/02hrh": 819,
      "rth": 820,
      "4k": 821,
      "/religion": 822,
      "/education/educational_degree/people_with_this_degree./education/education/institution": 823,
      "zb8": 824,
      "irth": 825,
      "/people/person/place_of_b": 826,
      "/people/person/place_of_birth": 827,
      "_d": 828,
      "/m/0d0": 829,
      "/m/02hrh1q": 830,
      "sx": 831,
      "ec": 832,
      "/m/01q": 833,
      "el/artist": 834,
      "d_lab": 835,
      "/music/record_lab": 836,
      "/music/record_label/artist": 837,
      "sn": 838,
      "/m/03q": 839,
      "/music/performance_role/regular_performances./music/group_membership/role": 840,
      "h6": 841,
      "/m/01m": 842,
      "/film/film/country": 843,
      "86": 844,
      "/influence": 845,
      "s_distribut": 846,
      "/film/film_distribut": 847,
      "or/films_distribut": 848,
      "ed./film/film_film_distributor_relationship": 849,
      "/film/film_distributor/films_distribut": 850,
      "ed./film/film_film_distributor_relationship/film": 851,
      "/film/film_distributor/films_distributed./film/film_film_distributor_relationship/film": 852,
      "/m/02g": 853,
      "/people/ethnicity": 854,
      "ran": 855,
      "/m/01r": 856,
      "/m/02w": 857,
      "/olympics/olympic_sport/athletes./olympics/olympic_athlete_affiliation/country": 858,
      "3t": 859,
      "bl": 860,
      "/m/01x": 861,
      "l0": 862,
      "/m/03g": 863,
      "/m/01d": 864,
      "/m/05p": 865,
      "bj": 866,
      "/m/030": 867,
      "/m/028": 868,
      "/military/military": 869,
      "rogram": 870,
      "/m/047": 871,
      "no": 872,
      "ce_no": 873,
      "/influence_no": 874,
      "/influence/influence_no": 875,
      "/influence/influence_node": 876,
      "/people/ethnicity/people": 877,
      "/organization/organization": 878,
      "/m/01z": 879,
      "arance": 880,
      "appearance": 881,
      "am": 882,
      "stim": 883,
      "stimated_": 884,
      "leag": 885,
      "/sports/sports_leag": 886,
      "_particip": 887,
      "/olympics/olympic_particip": 888,
      "ating_country": 889,
      "/olympics/olympic_participating_country": 890,
      "96": 891,
      "vw": 892,
      "4w": 893,
      "bx": 894,
      "_ca": 895,
      "rient": 896,
      "/nutrient": 897,
      "/music/instrument": 898,
      "ict": 899,
      "dn": 900,
      "/influenced_by": 901,
      "/influence/influence_node/influenced_by": 902,
      "um": 903,
      "/location/location": 904,
      "95": 905,
      "ing_relationship": 906,
      "/m/024": 907,
      "/soccer/football_roster_position/position": 908,
      "/soccer/football_team/current_roster./soccer/football_roster_position/position": 909,
      "/soccer/football_team/current_roster./sports/sports_team_roster/position": 910,
      "/film/film/e": 911,
      "/members./government/government_position_held": 912,
      "np": 913,
      "stag": 914,
      "/base/schema": 915,
      "staging": 916,
      "/base/schemastaging": 917,
      "0_": 918,
      "/sports/p": 919,
      "offi": 920,
      "ue_": 921,
      "/sports/sports_league_": 922,
      "8l": 923,
      "/instrument": 924,
      "alist": 925,
      "/music/instrument/instrument": 926,
      "alists": 927,
      "/music/instrument/instrumentalists": 928,
      "/m/07ssc": 929,
      "ction": 930,
      "/m/01y": 931,
      "/m/01s": 932,
      "t6": 933,
      "nt": 934,
      "x1": 935,
      "hg": 936,
      "/organization/organization/": 937,
      "./base/popstra": 938,
      "wr": 939,
      "/m/03h": 940,
      "/m/05q": 941,
      "/medal": 942,
      "_s": 943,
      "_s.": 944,
      "/location/adjoin": 945,
      "/adjoins": 946,
      "/adjoin_s.": 947,
      "/location/location/adjoin_s.": 948,
      "ing_relationship/adjoins": 949,
      "/location/adjoining_relationship/adjoins": 950,
      "/location/location/adjoin_s./location/adjoining_relationship/adjoins": 951,
      "zc": 952,
      "5h": 953,
      "/ca": 954,
      "/government/legislative_session": 955,
      "/government/legislative_session/members./government/government_position_held": 956,
      "v8": 957,
      "t9": 958,
      "b7": 959,
      "h8": 960,
      "istical_": 961,
      "/location/stat": 962,
      "istical_region": 963,
      "/location/statistical_region": 964,
      "60": 965,
      "52": 966,
      "area": 967,
      "ivis": 968,
      "ress": 969,
      "ivision": 970,
      "/m/03f": 971,
      "bd": 972,
      "ium": 973,
      "ution_med": 974,
      "ution_medium": 975,
      "/m/06m": 976,
      "ly": 977,
      "ool": 978,
      "/school": 979,
      "jw": 980,
      "/m/03_": 981,
      "mer": 982,
      "/amer": 983,
      "ican": 984,
      "/american": 985,
      "rf": 986,
      "ow": 987,
      "_combatant": 988,
      "/military/military_combatant": 989,
      "er/memb": 990,
      "2v": 991,
      "ors": 992,
      "s./music/track_contribution/role": 993,
      "/track_contributions./music/track_contribution/role": 994,
      "/music/artist/track_contributions./music/track_contribution/role": 995,
      "r5": 996,
      "cl": 997,
      "6k": 998,
      "_type": 999,
      "office": 1000,
      "_b": 1001,
      "/m/035": 1002,
      "9k": 1003,
      "/m/01t": 1004,
      "4v": 1005,
      "/m/05b": 1006,
      "jg": 1007,
      "v3": 1008,
      "md": 1009,
      "nl": 1010,
      "/organization/organization_memb": 1011,
      "dqu": 1012,
      "dress": 1013,
      "eg": 1014,
      "hea": 1015,
      "arters.": 1016,
      "/location/ma": 1017,
      "iling_": 1018,
      "address": 1019,
      "/organization/organization/hea": 1020,
      "dquarters.": 1021,
      "/location/mailing_": 1022,
      "/organization/organization/headquarters.": 1023,
      "/location/mailing_address": 1024,
      "/organization/organization/headquarters./location/mailing_address": 1025,
      "4q": 1026,
      "_gam": 1027,
      "_games": 1028,
      "/m/040": 1029,
      "/us": 1030,
      "/user": 1031,
      "20": 1032,
      "ootball": 1033,
      "_football": 1034,
      "/american_football": 1035,
      "/american_football/football_": 1036,
      "s./sports/sports_league_": 1037,
      "wx": 1038,
      "10": 1039,
      "/m/023": 1040,
      "hy": 1041,
      "vq": 1042,
      "/bi": 1043,
      "/m/02_j": 1044,
      "ership/organization": 1045,
      "/group": 1046,
      "olors": 1047,
      "hud": 1048,
      "/location/hud": 1049,
      "/ran": 1050,
      "/m/02sd": 1051,
      "k9v": 1052,
      "t5": 1053,
      "/friendship": 1054,
      "3d": 1055,
      "/de": 1056,
      "vf": 1057,
      "dw": 1058,
      "nu": 1059,
      "mber": 1060,
      "number": 1061,
      "/m/02sdk9v": 1062,
      "yk": 1063,
      "/m/04g": 1064,
      "/m/02nzb8": 1065,
      "bb": 1066,
      "t2": 1067,
      "zk": 1068,
      "jj": 1069,
      "cg": 1070,
      "9j_": 1071,
      "/combatant": 1072,
      "/m/0q": 1073,
      "/m/02y": 1074,
      "/m/02_j1w": 1075,
      "release_distrib": 1076,
      "/film/film/release_date_s./film/film_regional_release_date/film_release_distrib": 1077,
      "/film/film/release_date_s./film/film_regional_release_date/film_release_distribution_medium": 1078,
      "38": 1079,
      "rq": 1080,
      "s9": 1081,
      "sq": 1082,
      "pani": 1083,
      "_compani": 1084,
      "/film/film/production": 1085,
      "_companies": 1086,
      "/film/film/production_companies": 1087,
      "death": 1088,
      "7c": 1089,
      "j2": 1090,
      "/m/0y": 1091,
      "al_honor": 1092,
      "/olympics/olympic_med": 1093,
      "/medals_": 1094,
      "/olympics/olympic_medal_honor": 1095,
      "s./sports/sports_league_draft_pick": 1096,
      "0m": 1097,
      "/m/029j_": 1098,
      "c4": 1099,
      "x4": 1100,
      "/m/03c": 1101,
      "r1": 1102,
      "roducer": 1103,
      "/m/041": 1104,
      "/phon": 1105,
      "/phone_": 1106,
      "7x": 1107,
      "/m/03m": 1108,
      "9rl0": 1109,
      "3y": 1110,
      "8p": 1111,
      "/m/07s9rl0": 1112,
      "k0": 1113,
      "vs": 1114,
      "db": 1115,
      "qb": 1116,
      "/honor": 1117,
      "ed_for": 1118,
      "/honored_for": 1119,
      "vl": 1120,
      "orld": 1121,
      "73": 1122,
      "bn": 1123,
      "sw": 1124,
      "cr": 1125,
      "tim": 1126,
      "/sports/sports_team/roster.": 1127,
      "/m/0x": 1128,
      "42": 1129,
      "/m/09q": 1130,
      "location": 1131,
      "/music/performance_role/regular_performances./music/group_membership/group": 1132,
      "fn": 1133,
      "5w": 1134,
      "53": 1135,
      "_6": 1136,
      "loy": 1137,
      "mploy": 1138,
      "won./olympics/olympic_medal_honor": 1139,
      "/employ": 1140,
      "/olympics/olympic_participating_country/medals_": 1141,
      "/olympics/olympic_participating_country/medals_won./olympics/olympic_medal_honor": 1142,
      "/m/0l14": 1143,
      "kj": 1144,
      "pk": 1145,
      "rx": 1146,
      "ated": 1147,
      "z1": 1148,
      "lp": 1149,
      "friendship": 1150,
      "/base/popstra/celebrity/friendship": 1151,
      "./base/popstra/friendship": 1152,
      "/base/popstra/celebrity/friendship./base/popstra/friendship": 1153,
      "/base/popstra/celebrity/friendship./base/popstra/friendship/participant": 1154,
      "/m/0dgr": 1155,
      "z8": 1156,
      "/act": 1157,
      "/actor": 1158,
      "/m/0dxt": 1159,
      "cb": 1160,
      "zr": 1161,
      "sports_": 1162,
      "ball": 1163,
      "/baseball": 1164,
      "pj": 1165,
      "v5": 1166,
      "/program": 1167,
      "_cast": 1168,
      "/tv/tv_producer": 1169,
      "pit": 1170,
      "ss": 1171,
      "/m/043": 1172,
      "11": 1173,
      "fr": 1174,
      "mj": 1175,
      "gp": 1176,
      "tw": 1177,
      "/m/064": 1178,
      "/m/0dgrmp": 1179,
      "va": 1180,
      "zd": 1181,
      "pl": 1182,
      "4j": 1183,
      "/m/021": 1184,
      "ws": 1185,
      "x7": 1186,
      "_de": 1187,
      "stin": 1188,
      "/travel/travel": 1189,
      "_destin": 1190,
      "/travel/travel_destin": 1191,
      "fe": 1192,
      "92": 1193,
      "ax": 1194,
      "onom": 1195,
      "axonom": 1196,
      "m4": 1197,
      "bud": 1198,
      "get": 1199,
      "stimated_bud": 1200,
      "/film/film/estimated_bud": 1201,
      "get./measurement_unit/dated_money_value/currency": 1202,
      "/film/film/estimated_budget./measurement_unit/dated_money_value/currency": 1203,
      "arent": 1204,
      "sk": 1205,
      "work": 1206,
      "enure": 1207,
      "ect": 1208,
      "su": 1209,
      "bject": 1210,
      "subject": 1211,
      "9f": 1212,
      "iti": 1213,
      "/m/02d": 1214,
      "7q": 1215,
      "gq": 1216,
      "fj": 1217,
      "kd": 1218,
      "/m/0gr": 1219,
      "dat": 1220,
      "x_": 1221,
      "ed./base/popstra": 1222,
      "/dated": 1223,
      "/base/popstra/celebrity/dat": 1224,
      "ed./base/popstra/dated": 1225,
      "/base/popstra/celebrity/dated./base/popstra/dated": 1226,
      "/base/popstra/celebrity/dated./base/popstra/dated/participant": 1227,
      "56": 1228,
      "zw": 1229,
      "./tv": 1230,
      "_tv_": 1231,
      "regular_cast": 1232,
      "/regular_tv_": 1233,
      "/tv/tv_program/regular_cast": 1234,
      "appearance/actor": 1235,
      "./tv/regular_tv_": 1236,
      "/tv/tv_program/regular_cast./tv/regular_tv_": 1237,
      "/tv/tv_program/regular_cast./tv/regular_tv_appearance/actor": 1238,
      "fa": 1239,
      "3h": 1240,
      "_e": 1241,
      "division": 1242,
      "xtra": 1243,
      "_extra": 1244,
      "zon": 1245,
      "e_zon": 1246,
      "/location/location/tim": 1247,
      "e_zones": 1248,
      "/location/location/time_zones": 1249,
      "v4": 1250,
      "_by": 1251,
      "/m/01b": 1252,
      "9z": 1253,
      "/m/06n": 1254,
      "9q": 1255,
      "_v": 1256,
      "/m/031": 1257,
      "/film/film/produced_by": 1258,
      "/m/04n": 1259,
      "34": 1260,
      "s6": 1261,
      "25": 1262,
      "zp": 1263,
      "ju": 1264,
      "n5": 1265,
      "ounty": 1266,
      "_fact": 1267,
      "al_sports_": 1268,
      "rofessional_sports_": 1269,
      "team/draft_pick": 1270,
      "/sports/professional_sports_": 1271,
      "team/draft_picks./sports/sports_league_draft_pick": 1272,
      "/sports/professional_sports_team/draft_picks./sports/sports_league_draft_pick": 1273,
      "lj": 1274,
      "3w": 1275,
      "location/": 1276,
      "/m/04r": 1277,
      "vy": 1278,
      "/m/03x": 1279,
      "cq": 1280,
      "/olympics/olympic_games": 1281,
      "5x": 1282,
      "_n": 1283,
      "gy": 1284,
      "vc": 1285,
      "kh": 1286,
      "/people/person/religion": 1287,
      "sy": 1288,
      "tr": 1289,
      "/m/04j": 1290,
      "_tenure": 1291,
      "9n": 1292,
      "vent": 1293,
      "z2": 1294,
      "r6": 1295,
      "ff": 1296,
      "/m/03n": 1297,
      "represent": 1298,
      "ict_": 1299,
      "/distr": 1300,
      "/government/legislative_session/members./government/government_position_held/distr": 1301,
      "represented": 1302,
      "ict_represented": 1303,
      "/government/legislative_session/members./government/government_position_held/district_represented": 1304,
      "_7": 1305,
      "imate": 1306,
      "1x": 1307,
      "dom": 1308,
      "/m/020": 1309,
      "ages": 1310,
      "languages": 1311,
      "3v": 1312,
      "/m/02s": 1313,
      "/m/03l": 1314,
      "4y": 1315,
      "vacation": 1316,
      "3p": 1317,
      "1d": 1318,
      "ca": 1319,
      "4m": 1320,
      "6p": 1321,
      "onfl": 1322,
      "s./military/military_combatant": 1323,
      "_confl": 1324,
      "_group": 1325,
      "/combatants": 1326,
      "/olympics/olympic_participating_country/medals_won./olympics/olympic_medal_honor/olympics": 1327,
      "s./military/military_combatant_group": 1328,
      "_conflict": 1329,
      "s./military/military_combatant_group/combatants": 1330,
      "_l": 1331,
      "9h": 1332,
      "/m/011y": 1333,
      "/m/0342h": 1334,
      "27": 1335,
      "dp": 1336,
      "rn": 1337,
      "8n": 1338,
      "g9": 1339,
      "286": 1340,
      "person": 1341,
      "qy": 1342,
      "2w": 1343,
      "26": 1344,
      "zy": 1345,
      "/sports/sports_team/roster./american_football/football_": 1346,
      "qp": 1347,
      "t7": 1348,
      "/m/02_286": 1349,
      "z6": 1350,
      "/m/060": 1351,
      "./business": 1352,
      "fh": 1353,
      "pan": 1354,
      "ment_tenure": 1355,
      "/compan": 1356,
      "/employment_tenure": 1357,
      "./business/employment_tenure": 1358,
      "/company": 1359,
      "./business/employment_tenure/company": 1360,
      "/m/04w": 1361,
      "kf": 1362,
      "81": 1363,
      "/legislative_sessions": 1364,
      "do": 1365,
      "35": 1366,
      "gl": 1367,
      "olympics": 1368,
      "9l": 1369,
      "los": 1370,
      "71": 1371,
      "oper": 1372,
      "/m/0gy": 1373,
      "41": 1374,
      "xw": 1375,
      "int": 1376,
      "music": 1377,
      "/film/film/music": 1378,
      "ms": 1379,
      "/city": 1380,
      "c_": 1381,
      "dd": 1382,
      "ature": 1383,
      "/film/film/fe": 1384,
      "d_film_": 1385,
      "locations": 1386,
      "atured_film_": 1387,
      "/film/film/featured_film_": 1388,
      "/film/film/featured_film_locations": 1389,
      "4g": 1390,
      "/tv/tv_program/genre": 1391,
      "rition": 1392,
      "s./food": 1393,
      "/m/011": 1394,
      "/nutrition": 1395,
      "/food/food": 1396,
      "/nutrients./food": 1397,
      "_fact/nutrient": 1398,
      "/nutrition_fact/nutrient": 1399,
      "/food/food/nutrients./food": 1400,
      "/food/food/nutrients./food/nutrition_fact/nutrient": 1401,
      "c6": 1402,
      "t8": 1403,
      "vj": 1404,
      "3j": 1405,
      "gm": 1406,
      "3r": 1407,
      "q0": 1408,
      "kx": 1409,
      "zl": 1410,
      "zm": 1411,
      "_relationship": 1412,
      "sh": 1413,
      "s0": 1414,
      "72": 1415,
      "ine": 1416,
      "/m/01d_": 1417,
      "/award/award_honor/honored_for": 1418,
      "/award/award_ceremony/awards_presented./award/award_honor/honored_for": 1419,
      "s5": 1420,
      "/m/06f": 1421,
      "/m/04x": 1422,
      "zf": 1423,
      "/administrative_area": 1424,
      "ities": 1425,
      "3q": 1426,
      "ood": 1427,
      "y2": 1428,
      "jc": 1429,
      "l5": 1430,
      "_y": 1431,
      "/administrative_division": 1432,
      "ersity/": 1433,
      "/education/un": 1434,
      "iversity/": 1435,
      "/education/university/": 1436,
      "sl": 1437,
      "9x": 1438,
      "j_": 1439,
      "sp": 1440,
      "/m/048": 1441,
      "/m/05f": 1442,
      "bw": 1443,
      "mpus": 1444,
      "/m/05k": 1445,
      "writ": 1446,
      "tg": 1447,
      "_x": 1448,
      "/m/03y": 1449,
      "/m/0f8l": 1450,
      "/m/0f8l9c": 1451,
      "49": 1452,
      "nh": 1453,
      "3m": 1454,
      "v0": 1455,
      "4r": 1456,
      "m0": 1457,
      "hist": 1458,
      "histor": 1459,
      "bm": 1460,
      "/m/01d_h8": 1461,
      "21": 1462,
      "4f": 1463,
      "rw": 1464,
      "vh": 1465,
      "rd": 1466,
      "22": 1467,
      "pm": 1468,
      "/m/03k": 1469,
      "8r": 1470,
      "n8": 1471,
      "/m/0dxtg": 1472,
      "g7": 1473,
      "./music/group_membership": 1474,
      "68": 1475,
      "ership./music/group_membership": 1476,
      "/music/group_member/memb": 1477,
      "/music/group_member/membership./music/group_membership": 1478,
      "1c": 1479,
      "b5": 1480,
      "/ju": 1481,
      "ion_of_": 1482,
      "risd": 1483,
      "iction_of_": 1484,
      "/jurisd": 1485,
      "iction_of_office": 1486,
      "/jurisdiction_of_office": 1487,
      "rc": 1488,
      "/m/03w": 1489,
      "di": 1490,
      "2x": 1491,
      "ountri": 1492,
      "lh": 1493,
      "30": 1494,
      "qv": 1495,
      "/m/06q": 1496,
      "ro_": 1497,
      "1p": 1498,
      "/m/06c": 1499,
      "90": 1500,
      "/pol": 1501,
      "/polit": 1502,
      "to": 1503,
      "/m/0d060": 1504,
      "/m/0d060g": 1505,
      "gh": 1506,
      "z7": 1507,
      "gx": 1508,
      "zq": 1509,
      "/colors": 1510,
      "/education/educational_institution/colors": 1511,
      "j6": 1512,
      "mc": 1513,
      "/film/film/film_": 1514,
      "/m/0345h": 1515,
      "/m/05r5": 1516,
      "wc": 1517,
      "mp2": 1518,
      "s_oper": 1519,
      "ess_oper": 1520,
      "/business_oper": 1521,
      "/business/business_oper": 1522,
      "1h": 1523,
      "_title": 1524,
      "wg": 1525,
      "67": 1526,
      "ased_": 1527,
      "/people/de": 1528,
      "ceased_": 1529,
      "person/p": 1530,
      "/people/deceased_": 1531,
      "/people/deceased_person/p": 1532,
      "t3": 1533,
      "gd": 1534,
      "vb": 1535,
      "/m/0jb": 1536,
      "vn": 1537,
      "g8": 1538,
      "/m/0ch6": 1539,
      "/m/0ch6mp2": 1540,
      "bs_": 1541,
      "2l": 1542,
      "dy": 1543,
      "seg": 1544,
      "taxonom": 1545,
      "w8": 1546,
      "m/taxonom": 1547,
      "entry": 1548,
      "/tseg": 1549,
      "aran/ran": 1550,
      "/m/02zsn": 1551,
      "/user/tseg": 1552,
      "dom/taxonom": 1553,
      "aran/random/taxonom": 1554,
      "/user/tsegaran/random/taxonom": 1555,
      "/user/tsegaran/random/taxonomy_": 1556,
      "/m/07f": 1557,
      "/languages": 1558,
      "5q": 1559,
      "/people/person/languages": 1560,
      "/m/046": 1561,
      "./organization/organization_memb": 1562,
      "er_of": 1563,
      "er/member_of": 1564,
      "/organization/organization_member/member_of": 1565,
      "./organization/organization_membership/organization": 1566,
      "/organization/organization_member/member_of./organization/organization_membership/organization": 1567,
      "zzb8": 1568,
      "/m/09zzb8": 1569,
      "/celebrities": 1570,
      "6g": 1571,
      "/m/0jbk9": 1572,
      "_8": 1573,
      "3l": 1574,
      "_for": 1575,
      "_area": 1576,
      "gage": 1577,
      "mort": 1578,
      "v9": 1579,
      "er/so": 1580,
      "s./measurement_unit/dated_": 1581,
      "urce": 1582,
      "ure_area": 1583,
      "/estimated_": 1584,
      "_of_mort": 1585,
      "eclos": 1586,
      "eger/so": 1587,
      "/location/hud_for": 1588,
      "number_of_mort": 1589,
      "integer/so": 1590,
      "gages./measurement_unit/dated_": 1591,
      "ure_area/estimated_": 1592,
      "eclosure_area/estimated_": 1593,
      "/location/hud_foreclosure_area/estimated_": 1594,
      "number_of_mortgages./measurement_unit/dated_": 1595,
      "integer/source": 1596,
      "/location/hud_foreclosure_area/estimated_number_of_mortgages./measurement_unit/dated_": 1597,
      "/location/hud_foreclosure_area/estimated_number_of_mortgages./measurement_unit/dated_integer/source": 1598,
      "uition": 1599,
      "uition./measurement_unit/dated_money_value/currency": 1600,
      "type": 1601,
      "_cl": 1602,
      "0x": 1603,
      "kn": 1604,
      "3c": 1605,
      "tow": 1606,
      "/organization/organization/headquarters./location/mailing_address/city": 1607,
      "town": 1608,
      "/organization/organization/headquarters./location/mailing_address/citytown": 1609,
      "4l": 1610,
      "78": 1611,
      "areas": 1612,
      "/aareas": 1613,
      "/base/aareas": 1614,
      "/schema/administrative_area": 1615,
      "/base/aareas/schema/administrative_area": 1616,
      "ioness": 1617,
      "/base/bi": 1618,
      "blioness": 1619,
      "vw2": 1620,
      "/bibs_": 1621,
      "/base/biblioness": 1622,
      "/bibs_location/": 1623,
      "/base/biblioness/bibs_location/": 1624,
      "2t": 1625,
      "2y": 1626,
      "vk": 1627,
      "reed": 1628,
      "2k": 1629,
      "category/": 1630,
      "ders./government/government_position_held": 1631,
      "hol": 1632,
      "lw": 1633,
      "fice_": 1634,
      "/government/government_of": 1635,
      "officehol": 1636,
      "category/officehol": 1637,
      "ders./government/government_position_held/jurisdiction_of_office": 1638,
      "fice_category/officehol": 1639,
      "/government/government_office_category/officehol": 1640,
      "/government/government_office_category/officeholders./government/government_position_held/jurisdiction_of_office": 1641,
      "y5": 1642,
      "/m/0k6": 1643,
      "/person": 1644,
      "qw": 1645,
      "orig": 1646,
      "origin": 1647,
      "1f": 1648,
      "bh": 1649,
      "/m/05r5c": 1650,
      "3x": 1651,
      "endow": 1652,
      "fz": 1653,
      "jd": 1654,
      "1m": 1655,
      "mx": 1656,
      "_cup": 1657,
      "/current": 1658,
      "quad": 1659,
      "_squad": 1660,
      "orld_cup": 1661,
      "orld_cup_squad": 1662,
      "/m/05c": 1663,
      "led": 1664,
      "anood": 1665,
      "/canood": 1666,
      "/canoodled": 1667,
      "m8": 1668,
      "/m/01_": 1669,
      "98": 1670,
      "jy": 1671,
      "/people/ca": 1672,
      "use_of_": 1673,
      "death/people": 1674,
      "/people/cause_of_": 1675,
      "/people/cause_of_death/people": 1676,
      "vd": 1677,
      "vr": 1678,
      "/m/03bx": 1679,
      "pital_": 1680,
      "vp": 1681,
      "rect": 1682,
      "/film/di": 1683,
      "rector/film": 1684,
      "/film/director/film": 1685,
      "gz": 1686,
      "ky": 1687,
      "/m/0kb": 1688,
      "/m/030qb": 1689,
      "/m/030qb3t": 1690,
      "mr": 1691,
      "lead": 1692,
      "role/le": 1693,
      "ers./organization/": 1694,
      "/education/educational_institution/school": 1695,
      "/organization/role/le": 1696,
      "aders./organization/": 1697,
      "leadership/organization": 1698,
      "/education/educational_institution/school_type": 1699,
      "/organization/role/leaders./organization/": 1700,
      "/organization/role/leaders./organization/leadership/organization": 1701,
      "w7": 1702,
      "yl": 1703,
      "tc": 1704,
      "month": 1705,
      "j8": 1706,
      "/event": 1707,
      "_county": 1708,
      "_place": 1709,
      "/location/hud_county": 1710,
      "/location/hud_county_place": 1711,
      "m5": 1712,
      "/sports/pro_": 1713,
      "46": 1714,
      "/m/032": 1715,
      "/m/0chg": 1716,
      "9t": 1717,
      "/jo": 1718,
      "b_title": 1719,
      "title": 1720,
      "/people_with_this_title": 1721,
      "/m/02jx1": 1722,
      "/business/jo": 1723,
      "b_title/people_with_this_title": 1724,
      "/business/job_title/people_with_this_title": 1725,
      "/business/job_title/people_with_this_title./business/employment_tenure/company": 1726,
      "5v": 1727,
      "/m/06b": 1728,
      "1n": 1729,
      "/m/02r96": 1730,
      "/m/02r96rf": 1731,
      "/m/0r": 1732,
      "/m/050": 1733,
      "kg": 1734,
      "mz": 1735,
      "9g": 1736,
      "/vacation": 1737,
      "eed": 1738,
      "ked_": 1739,
      "list": 1740,
      "na": 1741,
      "/award/ran": 1742,
      "ess/n": 1743,
      "/base/mar": 1744,
      "urna": 1745,
      "madn": 1746,
      "chmadn": 1747,
      "caa": 1748,
      "ess/ncaa": 1749,
      "/base/marchmadn": 1750,
      "/base/marchmadness/ncaa": 1751,
      "/parent": 1752,
      "/music/genre/parent": 1753,
      "/music/genre/parent_genre": 1754,
      "v1": 1755,
      "gj": 1756,
      "/m/07c": 1757,
      "_in": 1758,
      "hw": 1759,
      "/sports/professional_sports_team/draft_picks./sports/sports_league_draft_pick/school": 1760,
      "7y": 1761,
      "/m/0dq": 1762,
      "/m/03rjj": 1763,
      "erm/": 1764,
      "_term/": 1765,
      "/government/legislative_session/members./government/government_position_held/legislative_sessions": 1766,
      "/tv/tv_producer_term/": 1767,
      "./base/schemastaging": 1768,
      "ox": 1769,
      "rz": 1770,
      "san": 1771,
      "/organization_extra": 1772,
      "/base/schemastaging/organization_extra": 1773,
      "number./base/schemastaging": 1774,
      "/phone_san": 1775,
      "/phone_number./base/schemastaging": 1776,
      "dbox": 1777,
      "/base/schemastaging/organization_extra/phone_number./base/schemastaging": 1778,
      "/phone_sandbox": 1779,
      "/base/schemastaging/organization_extra/phone_number./base/schemastaging/phone_sandbox": 1780,
      "ng": 1781,
      "sf": 1782,
      "_ceremony": 1783,
      "/location_of": 1784,
      "/location_of_ceremony": 1785,
      "lace_of_death": 1786,
      "/travel/travel_destination/": 1787,
      "/people/deceased_person/place_of_death": 1788,
      "colors": 1789,
      "/sports/sports_team/colors": 1790,
      "sm": 1791,
      "vz": 1792,
      "/location/administrative_division": 1793,
      "dx": 1794,
      "/m/058": 1795,
      "es_": 1796,
      "37": 1797,
      "fp": 1798,
      "ten": 1799,
      "wl": 1800,
      "/film/film/writ": 1801,
      "ten_by": 1802,
      "/film/film/written_by": 1803,
      "/business/business_operation/": 1804,
      "/athletes./olympics/olympic_athlete_affiliation/olympics": 1805,
      "/olympics/olympic_participating_country/athletes./olympics/olympic_athlete_affiliation/olympics": 1806,
      "5k": 1807,
      "qn": 1808,
      "ain": 1809,
      "t_dom": 1810,
      "ult_dom": 1811,
      "/user/": 1812,
      "/defa": 1813,
      "ult_domain": 1814,
      "/default_domain": 1815,
      "6f": 1816,
      "vx": 1817,
      "/m/09vw2": 1818,
      "/m/09vw2b7": 1819,
      "mq": 1820,
      "/m/0chghy": 1821,
      "/m/099": 1822,
      "/music/group_member/membership./music/group_membership/role": 1823,
      "9_": 1824,
      "b6": 1825,
      "/m/05p5": 1826,
      "xec": 1827,
      "utive_": 1828,
      "produced_by": 1829,
      "/film/film/exec": 1830,
      "utive_produced_by": 1831,
      "/film/film/executive_produced_by": 1832,
      "hf": 1833,
      "/stat": 1834,
      "pro": 1835,
      "vin": 1836,
      "e_pro": 1837,
      "ce_region": 1838,
      "/organization/organization/headquarters./location/mailing_address/stat": 1839,
      "vince_region": 1840,
      "e_province_region": 1841,
      "/organization/organization/headquarters./location/mailing_address/state_province_region": 1842,
      "/m/02jk": 1843,
      "tp": 1844,
      "cx": 1845,
      "58": 1846,
      "ke": 1847,
      "mat": 1848,
      "/m/0f4": 1849,
      "d5": 1850,
      "/m/04f": 1851,
      "p0": 1852,
      "ice_": 1853,
      "dk": 1854,
      "ty": 1855,
      "/military_conflict": 1856,
      "/military/military_combatant/military_conflict": 1857,
      "/military/military_combatant/military_conflicts./military/military_combatant_group/combatants": 1858,
      "bq": 1859,
      "ian": 1860,
      "ician": 1861,
      "/government/polit": 1862,
      "1l": 1863,
      "tx": 1864,
      "47": 1865,
      "m1": 1866,
      "/m/018vs": 1867,
      "/baseball_": 1868,
      "/baseball/baseball_": 1869,
      "88": 1870,
      "/m/060c4": 1871,
      "mg": 1872,
      "t0": 1873,
      "/h": 1874,
      "/m/0514": 1875,
      "8p4": 1876,
      "/m/05148p4": 1877,
      "/m/0ct": 1878,
      "j0": 1879,
      "v7": 1880,
      "wj": 1881,
      "/m/0bx": 1882,
      "1k": 1883,
      "16": 1884,
      "/m/0cc": 1885,
      "/m/09jw": 1886,
      "/m/02jknp": 1887,
      "zs": 1888,
      "/award/award_nominated_": 1889,
      "/award_nominations./award/award_nomination/nominated_for": 1890,
      "work/award_nominations./award/award_nomination/nominated_for": 1891,
      "/award/award_nominated_work/award_nominations./award/award_nomination/nominated_for": 1892,
      "dz": 1893,
      "/m/054k": 1894,
      "team": 1895,
      "rt": 1896,
      "/m/059j": 1897,
      "/m/05l": 1898,
      "ding": 1899,
      "vv": 1900,
      "_contribution/performance_role": 1901,
      "/music/recording": 1902,
      "/m/05p553": 1903,
      "/music/recording_contribution/performance_role": 1904,
      "kq": 1905,
      "d3": 1906,
      "/m/05r": 1907,
      "/location/statistical_region/g": 1908,
      "/m/03_3d": 1909,
      "31": 1910,
      "_5": 1911,
      "79": 1912,
      "ht": 1913,
      "50": 1914,
      "3f": 1915,
      "61": 1916,
      "roster_position/position_s": 1917,
      "ical_roster_position/position_s": 1918,
      "historical_roster_position/position_s": 1919,
      "yn": 1920,
      "32": 1921,
      "cent": 1922,
      "jx": 1923,
      "z9": 1924,
      "ercent": 1925,
      "s./location/": 1926,
      "_percent": 1927,
      "/film/film_subject": 1928,
      "/films": 1929,
      "age/religion": 1930,
      "religion_percent": 1931,
      "/religions./location/": 1932,
      "/location/statistical_region/religions./location/": 1933,
      "/film/film_subject/films": 1934,
      "religion_percentage/religion": 1935,
      "/location/statistical_region/religions./location/religion_percentage/religion": 1936,
      "2b": 1937,
      "s8": 1938,
      "eason": 1939,
      "70": 1940,
      "rp": 1941,
      "world": 1942,
      "_to": 1943,
      "dc": 1944,
      "tq": 1945,
      "fsb": 1946,
      "hp": 1947,
      "/m/01jfsb": 1948,
      "/m/0dw": 1949,
      "/tv/tv_n": 1950,
      "etwork": 1951,
      "/tv/tv_network": 1952,
      "hn": 1953,
      "zt": 1954,
      "/m/0gk": 1955,
      "m6": 1956,
      "6y": 1957,
      "s./sports/sports_team_roster/team": 1958,
      "athlete": 1959,
      "/teams./sports/sports_team_roster/team": 1960,
      "/sports/pro_athlete": 1961,
      "/m/09jwl": 1962,
      "/sports/pro_athlete/teams./sports/sports_team_roster/team": 1963,
      "/m/0sx": 1964,
      "3s": 1965,
      "f5": 1966,
      "12": 1967,
      "2g": 1968,
      "s1": 1969,
      "my": 1970,
      "team/current_roster./sports/sports_team_roster/position": 1971,
      "kp": 1972,
      "/location/country": 1973,
      "9b": 1974,
      "9w": 1975,
      "0y": 1976,
      "3b": 1977,
      "gf": 1978,
      "/m/04p": 1979,
      "jzk": 1980,
      "/m/03gjzk": 1981,
      "3k": 1982,
      "ced.": 1983,
      "s_produ": 1984,
      "/programs_produ": 1985,
      "/tv/tv_producer/programs_produ": 1986,
      "ced./tv/tv_producer_term/": 1987,
      "/tv/tv_producer/programs_produced./tv/tv_producer_term/": 1988,
      "/m/082": 1989,
      "3n": 1990,
      "4b": 1991,
      "/m/078": 1992,
      "7j": 1993,
      "oring": 1994,
      "y/students_": 1995,
      "/m/07b": 1996,
      "/education/field_of_stud": 1997,
      "majoring": 1998,
      "/olympics/olympic_games/sports": 1999,
      "y/students_majoring": 2000,
      "/education/field_of_study/students_majoring": 2001,
      "/education/field_of_study/students_majoring./education/education/": 2002,
      "/m/059j2": 2003,
      "hm": 2004,
      "ho": 2005,
      "level": 2006,
      "/m/0bm": 2007,
      "_division": 2008,
      "level_division": 2009,
      "f2": 2010,
      "z0": 2011,
      "jq": 2012,
      "/m/07y": 2013,
      "s4": 2014,
      "tk": 2015,
      "4n": 2016,
      "s3": 2017,
      "/m/09sb": 2018,
      "/m/09sb52": 2019,
      "9p": 2020,
      "memb": 2021,
      "/m/080": 2022,
      "member": 2023,
      "/m/039": 2024,
      "7p": 2025,
      "cp": 2026,
      "esig": 2027,
      "esign": 2028,
      "vice_": 2029,
      "ervice_": 2030,
      "/service_": 2031,
      "/base/schemastaging/organization_extra/phone_number./base/schemastaging/phone_sandbox/service_": 2032,
      "/m/0l14md": 2033,
      "6d": 2034,
      "zg": 2035,
      "/m/0gq9h": 2036,
      "jr": 2037,
      "./travel/travel_destin": 2038,
      "_month": 2039,
      "onth": 2040,
      "ation_month": 2041,
      "/month": 2042,
      "/m/0bq": 2043,
      "/m/03rk0": 2044,
      "ly_cl": 2045,
      "climate": 2046,
      "imate/month": 2047,
      "/travel/travel_destination/climate": 2048,
      "./travel/travel_destination_month": 2049,
      "ly_climate/month": 2050,
      "/travel/travel_destination/climate./travel/travel_destination_month": 2051,
      "/travel/travel_destination/climate./travel/travel_destination_monthly_climate/month": 2052,
      "/m/0c8": 2053,
      "/m/065": 2054,
      "/m/02hc": 2055,
      "6t": 2056,
      "mm": 2057,
      "wq": 2058,
      "/m/0gl": 2059,
      "/m/0by": 2060,
      "yg": 2061,
      "/m/022": 2062,
      "mlp": 2063,
      "ex": 2064,
      "_gx": 2065,
      "2n": 2066,
      "5p": 2067,
      "b_": 2068,
      "cn": 2069,
      "vqn": 2070,
      "7n": 2071,
      "15": 2072,
      "/m/07h": 2073,
      "g5": 2074,
      "/base/biblioness/bibs_location/country": 2075,
      "3z": 2076,
      "94": 2077,
      "/m/0cqh": 2078,
      "6c": 2079,
      "jf": 2080,
      "/sports/sports_team/roster./american_football/football_historical_roster_position/position_s": 2081,
      "tf": 2082,
      "7g": 2083,
      "ersonal_": 2084,
      "/m/014mlp": 2085,
      "1z": 2086,
      "ken": 2087,
      "spo": 2088,
      "spoken": 2089,
      "/m/06mkj": 2090,
      "parent": 2091,
      "/season": 2092,
      "/administrative_parent": 2093,
      "/base/aareas/schema/administrative_area/administrative_parent": 2094,
      "/education/educational_degree/people_with_this_degree./education/education/major_field_of_study": 2095,
      "count": 2096,
      "ry/": 2097,
      "/location/count": 2098,
      "/location/country/": 2099,
      "kd1": 2100,
      "17": 2101,
      "6x": 2102,
      "hq": 2103,
      "/m/0bdw": 2104,
      "s9p": 2105,
      "/m/0gj": 2106,
      "/m/0bl": 2107,
      "/sports/sports_team/roster./american_football/football_roster_position/position": 2108,
      "ketball_": 2109,
      "/origin": 2110,
      "/m/07l": 2111,
      "/music/artist/origin": 2112,
      "/x": 2113,
      "90_": 2114,
      "cup": 2115,
      "haf": 2116,
      "out": 2117,
      "ric": 2118,
      "sout": 2119,
      "fifa": 2120,
      "/m/0dz": 2121,
      "/base/x": 2122,
      "_world_cup_squad": 2123,
      "2010": 2124,
      "/current_world_cup_squad": 2125,
      "worldcup": 2126,
      "hafric": 2127,
      "southafric": 2128,
      "fifaworldcup": 2129,
      "/base/x2010": 2130,
      "southafrica": 2131,
      "fifaworldcupsouthafrica": 2132,
      "/base/x2010fifaworldcupsouthafrica": 2133,
      "vg": 2134,
      "/m/0d0vqn": 2135,
      "/m/03j": 2136,
      "/m/05h": 2137,
      "/m/04jpl": 2138,
      "d9": 2139,
      "bk": 2140,
      "qq": 2141,
      "in_": 2142,
      "/m/05g": 2143,
      "/olympic_games": 2144,
      "jg/default_domain": 2145,
      "/user/jg/default_domain": 2146,
      "/olympic_games/sports": 2147,
      "/user/jg/default_domain/olympic_games/sports": 2148,
      "18": 2149,
      "/m/04q": 2150,
      "indu": 2151,
      "hx": 2152,
      "/m/02hnl": 2153,
      "/film/film/c": 2154,
      "/country": 2155,
      "mt": 2156,
      "nf": 2157,
      "rr": 2158,
      "/m/06r": 2159,
      "/m/01vw": 2160,
      "dp_": 2161,
      "/location/statistical_region/gdp_": 2162,
      "k5": 2163,
      "z4": 2164,
      "h./measurement_unit/dated_money_value/currency": 2165,
      "orth./measurement_unit/dated_money_value/currency": 2166,
      "_worth./measurement_unit/dated_money_value/currency": 2167,
      "/net_worth./measurement_unit/dated_money_value/currency": 2168,
      "/base/schemastaging/person": 2169,
      "_extra/net_worth./measurement_unit/dated_money_value/currency": 2170,
      "/base/schemastaging/person_extra/net_worth./measurement_unit/dated_money_value/currency": 2171,
      "dt": 2172,
      "/m/01vx": 2173,
      "bg": 2174,
      "/m/04y": 2175,
      "/m/0bw": 2176,
      "/m/06w": 2177,
      "/m/0dl": 2178,
      "/m/0ck": 2179,
      "dl": 2180,
      "jt": 2181,
      "m_stat": 2182,
      "team_stat": 2183,
      "/american_football/football_team/current_roster./sports/sports_team_roster/position": 2184,
      "c8": 2185,
      "/m/045": 2186,
      "_program": 2187,
      "/tv_program": 2188,
      "bz": 2189,
      "hc": 2190,
      "/m/02vzc": 2191,
      "/m/086k": 2192,
      "/m/086k8": 2193,
      "ial_": 2194,
      "/m/044": 2195,
      "/m/0l6": 2196,
      "/m/0gs9p": 2197,
      "e/event": 2198,
      "/place": 2199,
      "/tim": 2200,
      "/m/05qh": 2201,
      "/locations": 2202,
      "/m/013y": 2203,
      "/location/hud_county_place/place": 2204,
      "/time/event": 2205,
      "js": 2206,
      "/m/0fb": 2207,
      "/m/0p_": 2208,
      "/m/02hcv8": 2209,
      "dubb": 2210,
      "dubbing": 2211,
      "rk": 2212,
      "/education/educational_institution/ca": 2213,
      "mpuses": 2214,
      "/education/educational_institution/campuses": 2215,
      "jz": 2216,
      "/m/02kd": 2217,
      "mf": 2218,
      "j7": 2219,
      "/m/0fp": 2220,
      "zv": 2221,
      "s_in_": 2222,
      "/m/0cq": 2223,
      "./sports/sports_team_roster/team": 2224,
      "/educational_": 2225,
      "er/curren": 2226,
      "_play": 2227,
      "/football": 2228,
      "t_team": 2229,
      "/education/educational_institution_ca": 2230,
      "/soccer/football": 2231,
      "v5l": 2232,
      "mpus/educational_": 2233,
      "er/current_team": 2234,
      "_player/current_team": 2235,
      "/education/educational_institution_campus/educational_": 2236,
      "/soccer/football_player/current_team": 2237,
      "/education/educational_institution_campus/educational_institution": 2238,
      "/soccer/football_player/current_team./sports/sports_team_roster/team": 2239,
      "85": 2240,
      "fw": 2241,
      "jm": 2242,
      "/m/07g": 2243,
      "00": 2244,
      "3g": 2245,
      "/m/02l7c": 2246,
      "/m/02l7c8": 2247,
      "54": 2248,
      "/m/0gqy2": 2249,
      "df": 2250,
      "ww": 2251,
      "3_": 2252,
      "48": 2253,
      "jn": 2254,
      "by7": 2255,
      "/m/04m": 2256,
      "/m/0cbd": 2257,
      "/m/0_": 2258,
      "ond_": 2259,
      "/sec": 2260,
      "/location/country/sec": 2261,
      "level_divisions": 2262,
      "ond_level_divisions": 2263,
      "/location/country/second_level_divisions": 2264,
      "/m/02vx4": 2265,
      "/m/0l14qv": 2266,
      "y6": 2267,
      "/m/0cbd2": 2268,
      "icine": 2269,
      "/medicine": 2270,
      "/m/019f": 2271,
      "/participating_c": 2272,
      "/olympics/olympic_games/participating_c": 2273,
      "ountries": 2274,
      "/olympics/olympic_games/participating_countries": 2275,
      "/m/03d": 2276,
      "/m/09p": 2277,
      "/m/02kdv5l": 2278,
      "24": 2279,
      "state": 2280,
      "xq": 2281,
      "/m/01hm": 2282,
      "/m/0f4x7": 2283,
      "./people/marriage": 2284,
      "/union": 2285,
      "e_union": 2286,
      "s_of_": 2287,
      "age_union": 2288,
      "/draft": 2289,
      "this_type": 2290,
      "/people/marriage_union": 2291,
      "_type/union": 2292,
      "/sports/professional_sports_team/draft_picks./sports/sports_league_draft_pick/draft": 2293,
      "./people/marriage/location_of_ceremony": 2294,
      "s_of_this_type": 2295,
      "/people/marriage_union_type/union": 2296,
      "s_of_this_type./people/marriage/location_of_ceremony": 2297,
      "/people/marriage_union_type/unions_of_this_type./people/marriage/location_of_ceremony": 2298,
      "/m/03k9": 2299,
      "0p": 2300,
      "ogra": 2301,
      "/m/0170": 2302,
      "ograp": 2303,
      "xp": 2304,
      "/m/03h6": 2305,
      "vlr": 2306,
      "/sports/sports_team/sport": 2307,
      "62": 2308,
      "ors.": 2309,
      "/film/film/distribut": 2310,
      "ors./film/film_film_distributor_relationship": 2311,
      "/film/film/distributors./film/film_film_distributor_relationship": 2312,
      "ln": 2313,
      "/m/03k9fj": 2314,
      "./government/government_position_held": 2315,
      "/m/029": 2316,
      "s_held": 2317,
      "/government_position": 2318,
      "ician/government_position": 2319,
      "/government/politician/government_position": 2320,
      "/m/05qhw": 2321,
      "s_held./government/government_position_held": 2322,
      "/government/politician/government_positions_held./government/government_position_held": 2323,
      "/m/07x": 2324,
      "/language": 2325,
      "/m/059r": 2326,
      "/m/0ds": 2327,
      "/m/016z": 2328,
      "/m/0fq": 2329,
      "9s": 2330,
      "c5": 2331,
      "/m/01n7q": 2332,
      "/m/0k6nt": 2333,
      "bcg": 2334,
      "vt": 2335,
      "/countri": 2336,
      "/m/06by7": 2337,
      "/countries_": 2338,
      "r9": 2339,
      "07": 2340,
      "r_": 2341,
      "xn": 2342,
      "/m/0jgd": 2343,
      "77": 2344,
      "rq6": 2345,
      "0c": 2346,
      "9y": 2347,
      "/m/042": 2348,
      "/m/06bn": 2349,
      "tv": 2350,
      "/m/02g_6": 2351,
      "f_": 2352,
      "enue": 2353,
      "/m/0154j": 2354,
      "q4": 2355,
      "st_performances.": 2356,
      "/gue": 2357,
      "/m/0b90_": 2358,
      "/music/performance_role/gue": 2359,
      "st_performances./music/recording_contribution/performance_role": 2360,
      "/m/0b90_r": 2361,
      "/music/performance_role/guest_performances./music/recording_contribution/performance_role": 2362,
      "/m/04xvlr": 2363,
      "/m/02pp": 2364,
      "/m/01vvy": 2365,
      "/m/088": 2366,
      "/award/award_winning_work/awards_won./award/award_honor/honored_for": 2367,
      "/m/05m": 2368,
      "/m/0gr4k": 2369,
      "./user/tsegaran/random/taxonomy_": 2370,
      "/entry": 2371,
      "td": 2372,
      "/taxonom": 2373,
      "/m/0bt": 2374,
      "/m/03gj2": 2375,
      "subject/entry": 2376,
      "/m/04n6k": 2377,
      "entry/taxonom": 2378,
      "/user/tsegaran/random/taxonomy_subject/entry": 2379,
      "./user/tsegaran/random/taxonomy_entry/taxonom": 2380,
      "/user/tsegaran/random/taxonomy_subject/entry./user/tsegaran/random/taxonomy_entry/taxonom": 2381,
      "/user/tsegaran/random/taxonomy_subject/entry./user/tsegaran/random/taxonomy_entry/taxonomy": 2382,
      "gc": 2383,
      "/m/015fr": 2384,
      "cf": 2385,
      "4x": 2386,
      "/military/military_conflict": 2387,
      "/combatants./military/military_combatant_group/combatants": 2388,
      "/military/military_conflict/combatants./military/military_combatant_group/combatants": 2389,
      "/m/03z": 2390,
      "7m": 2391,
      "dh": 2392,
      "jl": 2393,
      "s./celebrities": 2394,
      "/celebrities/celebr": 2395,
      "0d": 2396,
      "gw": 2397,
      "k1": 2398,
      "2p": 2399,
      "/m/0dxtw": 2400,
      "bf": 2401,
      "est": 2402,
      "ic_t": 2403,
      "domest": 2404,
      "/education/university/domest": 2405,
      "ic_tuition./measurement_unit/dated_money_value/currency": 2406,
      "/education/university/domestic_tuition./measurement_unit/dated_money_value/currency": 2407,
      "c1": 2408,
      "tuition./measurement_unit/dated_money_value/currency": 2409,
      "al_tuition./measurement_unit/dated_money_value/currency": 2410,
      "/m/0l8": 2411,
      "/m/059rby": 2412,
      "tm": 2413,
      "/m/0g2": 2414,
      "/m/03h64": 2415,
      "design": 2416,
      "l3": 2417,
      "/m/038": 2418,
      "wxp": 2419,
      "/m/0c8wxp": 2420,
      "bt": 2421,
      "/m/0nbcg": 2422,
      "/m/05r4w": 2423,
      "/m/05qd_": 2424,
      "z5": 2425,
      "/m/02c": 2426,
      "appearances.": 2427,
      "/m/062": 2428,
      "/m/040n": 2429,
      "appear": 2430,
      "/m/06bnz": 2431,
      "7d": 2432,
      "og": 2433,
      "s2": 2434,
      "/petb": 2435,
      "/m/0cr": 2436,
      "/base/petb": 2437,
      "/dog": 2438,
      "/m/03rt9": 2439,
      "_breed": 2440,
      "reeds": 2441,
      "/base/petbreeds": 2442,
      "n_": 2443,
      "/m/06y": 2444,
      "/m/035qy": 2445,
      "/m/0gs": 2446,
      "/m/05b4w": 2447,
      "3jv": 2448,
      "/m/01hmnh": 2449,
      "h2": 2450,
      "/m/0f2": 2451,
      "ild": 2452,
      "/m/019f4v": 2453,
      "yw": 2454,
      "ed_organization/": 2455,
      "/m/09f": 2456,
      "ment./measurement_unit/dated_money_value/currency": 2457,
      "/organization/endow": 2458,
      "endowment./measurement_unit/dated_money_value/currency": 2459,
      "ed_organization/endowment./measurement_unit/dated_money_value/currency": 2460,
      "/organization/endowed_organization/endowment./measurement_unit/dated_money_value/currency": 2461,
      "06": 2462,
      "/ren": 2463,
      "2./measurement_unit/dated_money_value/currency": 2464,
      "w_b": 2465,
      "0_2./measurement_unit/dated_money_value/currency": 2466,
      "/location/statistical_region/ren": 2467,
      "t50_2./measurement_unit/dated_money_value/currency": 2468,
      "/m/0ctw_b": 2469,
      "/location/statistical_region/rent50_2./measurement_unit/dated_money_value/currency": 2470,
      "rm": 2471,
      "0n": 2472,
      "_regular": 2473,
      "nc_": 2474,
      "er_relationship": 2475,
      "b2": 2476,
      "ity/canoodled": 2477,
      "/m/019v": 2478,
      "/base/popstra/celebrity/canoodled": 2479,
      "./base/popstra/canoodled": 2480,
      "/base/popstra/celebrity/canoodled./base/popstra/canoodled": 2481,
      "/base/popstra/celebrity/canoodled./base/popstra/canoodled/participant": 2482,
      "4rq6": 2483,
      "8h": 2484,
      "x8": 2485,
      "/m/04k": 2486,
      "/m/02h4rq6": 2487,
      "0bm": 2488,
      "sxr": 2489,
      "/m/03bx0bm": 2490,
      "/m/0gqwc": 2491,
      "/m/04l": 2492,
      "/m/0gq_v": 2493,
      "/m/040njc": 2494,
      "/m/042v": 2495,
      "/crew": 2496,
      "ound": 2497,
      "/film/film/other_crew./film/film_crew_gig/crew": 2498,
      "/film/film/other_crew./film/film_crew_gig/crewmember": 2499,
      "/m/01ck": 2500,
      "zz": 2501,
      "/m/070": 2502,
      "/m/0h0": 2503,
      "36": 2504,
      "/m/0dg": 2505,
      "/m/0cj": 2506,
      "8z": 2507,
      "/m/083jv": 2508,
      "97": 2509,
      "/cont": 2510,
      "8x": 2511,
      "jb": 2512,
      "ory_": 2513,
      "story_": 2514,
      "/film/film/story_": 2515,
      "/m/01g6": 2516,
      "/film/film/story_by": 2517,
      "/m/026t6": 2518,
      "/spouse": 2519,
      "/people/person/spouse_s./people/marriage/spouse": 2520,
      "/m/0gqyl": 2521,
      "/m/07k": 2522,
      "tl": 2523,
      "v6": 2524,
      "/m/019v9k": 2525,
      "/m/0ckd1": 2526,
      "/m/04h": 2527,
      "4h": 2528,
      "7r": 2529,
      "b0": 2530,
      "jp": 2531,
      "performance_": 2532,
      "/m/016t": 2533,
      "performance_type": 2534,
      "ibl": 2535,
      "/sibl": 2536,
      "/time/event/locations": 2537,
      "1r": 2538,
      "gs": 2539,
      "rv": 2540,
      "wy": 2541,
      "/m/04v": 2542,
      "/location/statistical_region/gdp_nomin": 2543,
      "/list": 2544,
      "8q": 2545,
      "em/": 2546,
      "e/vacation": 2547,
      "king": 2548,
      "seed": 2549,
      "s./award/ran": 2550,
      "s./base/marchmadness/ncaa": 2551,
      "ice/vacation": 2552,
      "asketball_": 2553,
      "item/": 2554,
      "/seed": 2555,
      "_cho": 2556,
      "ment/seed": 2557,
      "/m/0gv": 2558,
      "/location/vacation": 2559,
      "ers./base/popstra": 2560,
      "/base/popstra/location/vacation": 2561,
      "ment_seed": 2562,
      "ranked_": 2563,
      "_basketball_": 2564,
      "/m/064_8": 2565,
      "tourna": 2566,
      "/vacation_cho": 2567,
      "ked_item/": 2568,
      "lists./award/ran": 2569,
      "/award/ranked_item/": 2570,
      "urnament_seed": 2571,
      "/base/marchmadness/ncaa_basketball_": 2572,
      "_tournament_seed": 2573,
      "s_in_ranked_": 2574,
      "appears_in_ranked_": 2575,
      "king/list": 2576,
      "s./base/marchmadness/ncaa_tournament_seed": 2577,
      "ice/vacationer": 2578,
      "ment/seeds./base/marchmadness/ncaa_tournament_seed": 2579,
      "ers./base/popstra/vacation_cho": 2580,
      "/base/popstra/location/vacationers./base/popstra/vacation_cho": 2581,
      "/m/064_8sq": 2582,
      "tournament/seeds./base/marchmadness/ncaa_tournament_seed": 2583,
      "lists./award/ranking/list": 2584,
      "/award/ranked_item/appears_in_ranked_": 2585,
      "/base/marchmadness/ncaa_basketball_tournament/seeds./base/marchmadness/ncaa_tournament_seed": 2586,
      "/base/popstra/location/vacationers./base/popstra/vacation_choice/vacationer": 2587,
      "/award/ranked_item/appears_in_ranked_lists./award/ranking/list": 2588,
      "/base/marchmadness/ncaa_basketball_tournament/seeds./base/marchmadness/ncaa_tournament_seed/team": 2589,
      "75": 2590,
      "k6": 2591,
      "program": 2592,
      "wh": 2593,
      "/m/017s": 2594,
      "/tv/tv_producer/programs_produced./tv/tv_producer_term/program": 2595,
      "j9c": 2596,
      "/m/01vj9c": 2597,
      "r51": 2598,
      "zx": 2599,
      "/m/01c7": 2600,
      "/m/03p": 2601,
      "66": 2602,
      "8f": 2603,
      "format": 2604,
      "/m/056": 2605,
      "/film/film/film_format": 2606,
      "/m/017s11": 2607,
      "kr": 2608,
      "teams": 2609,
      "/sports/sports_team_location/": 2610,
      "/sports/sports_team_location/teams": 2611,
      "/m/0gt": 2612,
      "wp": 2613,
      "/m/016tw": 2614,
      "/m/0np": 2615,
      "/m/016tw3": 2616,
      "/m/03qjg": 2617,
      "/m/042v_gx": 2618,
      "/m/01vd": 2619,
      "/base/schemastaging/organization_extra/phone_number./base/schemastaging/phone_sandbox/service_location": 2620,
      "9m": 2621,
      "cer_type": 2622,
      "producer_type": 2623,
      "/m/0dd": 2624,
      "/m/01znc_": 2625,
      "/m/013y1f": 2626,
      "/m/04c": 2627,
      "/m/0c4": 2628,
      "/m/05d": 2629,
      "/m/05v": 2630,
      "/m/071": 2631,
      "/m/0np9r": 2632,
      "7t": 2633,
      "p8": 2634,
      "yh": 2635,
      "stry": 2636,
      "ported_": 2637,
      "/m/0gr51": 2638,
      "/m/0jm": 2639,
      "/m/02sgy": 2640,
      "/business/business_operation/indu": 2641,
      "/m/01vx2h": 2642,
      "ported_to": 2643,
      "/business/business_operation/industry": 2644,
      "xb": 2645,
      "/m/0b_6": 2646,
      "celebrity": 2647,
      "/m/041rx": 2648,
      "93": 2649,
      "/m/03h_": 2650,
      "/m/049": 2651,
      "zh": 2652,
      "/m/064t9": 2653,
      "/m/09l": 2654,
      "/m/016tt2": 2655,
      "/olympics/olympic_sport/athletes./olympics/olympic_athlete_affiliation/olympics": 2656,
      "sr": 2657,
      "/m/0gr0m": 2658,
      "6l": 2659,
      "cd": 2660,
      "/m/0d6": 2661,
      "/m/086": 2662,
      "/m/01pvk": 2663,
      "/m/01pvkk": 2664,
      "/m/09g": 2665,
      "/location/administrative_division/country": 2666,
      "sv": 2667,
      "27z": 2668,
      "/m/0ck27z": 2669,
      "2_": 2670,
      "/m/02qy": 2671,
      "/m/01g63y": 2672,
      "sj": 2673,
      "/m/02m": 2674,
      "/m/01vsy": 2675,
      "/m/016k": 2676,
      "cw": 2677,
      "/m/04rzd": 2678,
      "l8": 2679,
      "xh": 2680,
      "/m/0h7x": 2681,
      "part": 2682,
      "xd": 2683,
      "/m/018g": 2684,
      "fam": 2685,
      "/award/h": 2686,
      "ctee": 2687,
      "ductee": 2688,
      "all_of_": 2689,
      "/inductee": 2690,
      "/award/hall_of_": 2691,
      "/award/hall_of_fam": 2692,
      "/m/05pc": 2693,
      "_language": 2694,
      "uman": 2695,
      "yc": 2696,
      "/m/0p9": 2697,
      "/human": 2698,
      "spoken_in": 2699,
      "/language/human": 2700,
      "/countries_spoken_in": 2701,
      "_language/countries_spoken_in": 2702,
      "/language/human_language/countries_spoken_in": 2703,
      "/m/036": 2704,
      "/m/09d": 2705,
      "hj": 2706,
      "/m/063": 2707,
      "kv": 2708,
      "l6": 2709,
      "/m/04t": 2710,
      "/m/04dn": 2711,
      "5z": 2712,
      "/m/0mb": 2713,
      "wn": 2714,
      "/m/026n": 2715,
      "inemat": 2716,
      "/m/0k611": 2717,
      "/film/film/cinemat": 2718,
      "ography": 2719,
      "/film/film/cinematography": 2720,
      "0f": 2721,
      "/m/06mzp": 2722,
      "45": 2723,
      "f1": 2724,
      "k3": 2725,
      "/m/0dz3r": 2726,
      "government": 2727,
      "m_of_": 2728,
      "form_of_": 2729,
      "t2t": 2730,
      "/location/country/form_of_": 2731,
      "/location/country/form_of_government": 2732,
      "8y": 2733,
      "1t": 2734,
      "5f": 2735,
      "ts": 2736,
      "/m/0kyk": 2737,
      "/m/01w5": 2738,
      "/m/0d05w": 2739,
      "/m/01z4y": 2740,
      "/m/0d05w3": 2741,
      "09n": 2742,
      "g2": 2743,
      "l_": 2744,
      "/m/087": 2745,
      "/m/04dn09n": 2746,
      "4c": 2747,
      "1v": 2748,
      "hd": 2749,
      "and_": 2750,
      "/m/01vs": 2751,
      "ransport": 2752,
      "hb": 2753,
      "/m/0l8z1": 2754,
      "0k": 2755,
      "cal_tuition./measurement_unit/dated_money_value/currency": 2756,
      "y./business/employment_tenure/company": 2757,
      "/m/02t_": 2758,
      "entity": 2759,
      "local_tuition./measurement_unit/dated_money_value/currency": 2760,
      "/m/05n": 2761,
      "/people/person/employ": 2762,
      "/m/07m": 2763,
      "ment_histor": 2764,
      "/education/university/local_tuition./measurement_unit/dated_money_value/currency": 2765,
      "/education/field_of_study/students_majoring./education/education/major_field_of_study": 2766,
      "/people/person/employment_histor": 2767,
      "/people/person/employment_history./business/employment_tenure/company": 2768,
      "7l": 2769,
      "/m/0g5": 2770,
      "6z": 2771,
      "_du": 2772,
      "ration": 2773,
      "s./tv/tv_network": 2774,
      "/programs./tv/tv_network": 2775,
      "/tv/tv_network/programs./tv/tv_network": 2776,
      "_duration": 2777,
      "/tv/tv_network/programs./tv/tv_network_duration": 2778,
      "/tv/tv_network/programs./tv/tv_network_duration/program": 2779,
      "/m/0kbws": 2780,
      "g6": 2781,
      "/m/0bp": 2782,
      "t_3": 2783,
      "g0": 2784,
      "/m/03sp": 2785,
      "/m/07p": 2786,
      "/m/0p9sw": 2787,
      "/m/03spz": 2788,
      "2r": 2789,
      "/m/06qd3": 2790,
      "02": 2791,
      "/m/0bz": 2792,
      "/m/0lsxr": 2793,
      "/m/027dt": 2794,
      "1g": 2795,
      "nx": 2796,
      "/m/0n5": 2797,
      "/m/02y_": 2798,
      "/m/083": 2799,
      "appearance/person": 2800,
      "com": 2801,
      "qk": 2802,
      "/m/06sk": 2803,
      "/m/0gg": 2804,
      "/m/06sks6": 2805,
      "4_": 2806,
      "/m/0dv": 2807,
      "/m/0jq": 2808,
      "/m/016z4k": 2809,
      "/m/018gz8": 2810,
      "/film_distrib": 2811,
      "/film/film/distributors./film/film_film_distributor_relationship/film_distrib": 2812,
      "/film/film/distributors./film/film_film_distributor_relationship/film_distribution_medium": 2813,
      "33": 2814,
      "apit": 2815,
      "er_capit": 2816,
      "er_capita": 2817,
      "_q": 2818,
      "wv": 2819,
      "/int": 2820,
      "/m/01mjq": 2821,
      "_j": 2822,
      "/dis": 2823,
      "ease": 2824,
      "_d4": 2825,
      "/medicine/dis": 2826,
      "/medicine/disease": 2827,
      "/m/05w": 2828,
      "kt": 2829,
      "/pick": 2830,
      "ernation": 2831,
      "draft/pick": 2832,
      "/sports/sports_league_draft/pick": 2833,
      "s./sports/sports_league_draft_pick/school": 2834,
      "/m/01vdm0": 2835,
      "/sports/sports_league_draft/picks./sports/sports_league_draft_pick/school": 2836,
      "4p": 2837,
      "rs": 2838,
      "/m/06j": 2839,
      "/m/01c72t": 2840,
      "w4": 2841,
      "/m/02lq": 2842,
      "4z": 2843,
      "/m/04s": 2844,
      "/m/09k": 2845,
      "/m/0kv": 2846,
      "dm": 2847,
      "13": 2848,
      "s./measurement_unit/dated_money_value/currency": 2849,
      "_personal_": 2850,
      "/m/09w": 2851,
      "_regular_personal_": 2852,
      "2q": 2853,
      "zcr": 2854,
      "pec": 2855,
      "/spec": 2856,
      "j9": 2857,
      "vm": 2858,
      "/m/05jx": 2859,
      "19": 2860,
      "/m/044m": 2861,
      "/m/016y": 2862,
      "kk": 2863,
      "29": 2864,
      "/m/02vk": 2865,
      "zr4": 2866,
      "non": 2867,
      "fit_": 2868,
      "rofit_": 2869,
      "regist": 2870,
      "_profit_": 2871,
      "/organization/non": 2872,
      "/education/field_of_study/students_majoring./education/education/student": 2873,
      "register": 2874,
      "/organization/non_profit_": 2875,
      "8t": 2876,
      "/m/0m_": 2877,
      "/m/06pj": 2878,
      "/m/0ch": 2879,
      "xm": 2880,
      "/m/06t2t": 2881,
      "/m/07j": 2882,
      "country_of_": 2883,
      "/m/018j2": 2884,
      "/education/educational_degree/people_with_this_degree./education/education/student": 2885,
      "/m/02x4w": 2886,
      "/tv/tv_program/country_of_": 2887,
      "/m/0gs96": 2888,
      "/tv/tv_program/country_of_origin": 2889,
      "7f": 2890,
      "xy": 2891,
      "/m/03_w": 2892,
      "/m/05v8": 2893,
      "/m/05v8c": 2894,
      "/m/04kx": 2895,
      "/adju": 2896,
      "/m/03hk": 2897,
      "/olympics/olympic_participating_country/medals_won./olympics/olympic_medal_honor/medal": 2898,
      "/m/04kxsb": 2899,
      "/adjust": 2900,
      "x9": 2901,
      "/m/033": 2902,
      "35l": 2903,
      "gt": 2904,
      "mv": 2905,
      "z_": 2906,
      "/m/01j5": 2907,
      "/entity": 2908,
      "tu": 2909,
      "ved": 2910,
      "vol": 2911,
      "levent": 2912,
      "ralevent": 2913,
      "/m/059": 2914,
      "/cul": 2915,
      "/base/cul": 2916,
      "/m/081": 2917,
      "/event/entity": 2918,
      "_invol": 2919,
      "/m/054krc": 2920,
      "turalevent": 2921,
      "/base/culturalevent": 2922,
      "/event/entity_invol": 2923,
      "/base/culturalevent/event/entity_invol": 2924,
      "/base/culturalevent/event/entity_involved": 2925,
      "/m/072": 2926,
      "/m/07_": 2927,
      "xgp": 2928,
      "/m/0bk": 2929,
      "/m/02_xgp": 2930,
      "/m/02jx": 2931,
      "/m/0x67": 2932,
      "/base/biblioness/bibs_location/state": 2933,
      "/m/02_xgp2": 2934,
      "b1": 2935,
      "lf": 2936,
      "se": 2937,
      "/county": 2938,
      "/m/099c": 2939,
      "/location/hud_county_place/county": 2940,
      "0j": 2941,
      "b4": 2942,
      "xl": 2943,
      "/m/016t_3": 2944,
      "/m/015p": 2945,
      "/m/01cw": 2946,
      "ities_": 2947,
      "/m/0h7": 2948,
      "cz": 2949,
      "/m/0s": 2950,
      "/m/0gn": 2951,
      "ks": 2952,
      "ql": 2953,
      "/m/01wb": 2954,
      "cs": 2955,
      "pf": 2956,
      "/m/01by": 2957,
      "/m/02cg": 2958,
      "/people/person/spouse_s./people/marriage/location_of_ceremony": 2959,
      "/tv/tv_program/languages": 2960,
      "/m/01by1l": 2961,
      "ak": 2962,
      "reak": 2963,
      "reakup": 2964,
      "39": 2965,
      "ys": 2966,
      "/m/0cf": 2967,
      "/m/06n90": 2968,
      "./base/x2010fifaworldcupsouthafrica": 2969,
      "0w": 2970,
      "kb": 2971,
      "ub": 2972,
      "/world_cup_squad": 2973,
      "/m/018w": 2974,
      "_club": 2975,
      "/current_club": 2976,
      "/current_world_cup_squad./base/x2010fifaworldcupsouthafrica": 2977,
      "/current_world_cup_squad/current_club": 2978,
      "/base/x2010fifaworldcupsouthafrica/world_cup_squad": 2979,
      "/m/05jxkf": 2980,
      "/current_world_cup_squad./base/x2010fifaworldcupsouthafrica/current_world_cup_squad/current_club": 2981,
      "/base/x2010fifaworldcupsouthafrica/world_cup_squad/current_world_cup_squad./base/x2010fifaworldcupsouthafrica/current_world_cup_squad/current_club": 2982,
      "5t": 2983,
      "v4h": 2984,
      "87": 2985,
      "/m/09y": 2986,
      "/m/01nv4h": 2987,
      "1b": 2988,
      "6qh": 2989,
      "7k": 2990,
      "m2": 2991,
      "n0": 2992,
      "/m/0bf": 2993,
      "fb": 2994,
      "imp": 2995,
      "/m/06p": 2996,
      "/m/07y_": 2997,
      "/m/0dc": 2998,
      "/m/0h1": 2999,
      "5g": 3000,
      "jh": 3001,
      "/m/03v": 3002,
      "/m/015qh": 3003,
      "h9": 3004,
      "stiv": 3005,
      "als": 3006,
      "/m/03bw": 3007,
      "festiv": 3008,
      "/film/film/film_festiv": 3009,
      "/film/film/film_festivals": 3010,
      "m4q": 3011,
      "/capit": 3012,
      "/capital": 3013,
      "./location/administrative_division": 3014,
      "7s": 3015,
      "qd": 3016,
      "r0": 3017,
      "wit": 3018,
      "of./location/administrative_division": 3019,
      "/location/ca": 3020,
      "of_ad": 3021,
      "relationship/administrative_division": 3022,
      "/m/01wd": 3023,
      "ministrative_division": 3024,
      "_capital_": 3025,
      "/capital_": 3026,
      "/m/0l14j_": 3027,
      "pital_of_ad": 3028,
      "with": 3029,
      "of./location/administrative_division_capital_": 3030,
      "/location/capital_of_ad": 3031,
      "ministrative_division/capital_": 3032,
      "of./location/administrative_division_capital_relationship/administrative_division": 3033,
      "/location/capital_of_administrative_division/capital_": 3034,
      "/location/capital_of_administrative_division/capital_of./location/administrative_division_capital_relationship/administrative_division": 3035,
      "/m/06t8": 3036,
      "/m/02krf": 3037,
      "/m/02krf9": 3038,
      "3hr": 3039,
      "/m/03np": 3040,
      "/m/03g3w": 3041,
      "/m/06nm1": 3042,
      "/m/065y": 3043,
      "7_": 3044,
      "/m/03t": 3045,
      "/film/personal_": 3046,
      "/film/personal_film_": 3047,
      "found": 3048,
      "qg": 3049,
      "/m/06l": 3050,
      "/m/060_": 3051,
      "/m/02pqp": 3052,
      "/m/0cr3d": 3053,
      "founded": 3054,
      "/m/02pqp12": 3055,
      "/m/016w": 3056,
      "xtg": 3057,
      "/m/06ncr": 3058,
      "p5": 3059,
      "s/season": 3060,
      "s./baseball/baseball_": 3061,
      "/m/0dn": 3062,
      "team/team_stat": 3063,
      "/baseball/baseball_team/team_stat": 3064,
      "team_stats/season": 3065,
      "s./baseball/baseball_team_stats/season": 3066,
      "/baseball/baseball_team/team_stats./baseball/baseball_team_stats/season": 3067,
      "b9": 3068,
      "g4": 3069,
      "rit": 3070,
      "er/tv_program": 3071,
      "s./tv/tv_progra": 3072,
      "m_writ": 3073,
      "_writ": 3074,
      "/tv/tv_writ": 3075,
      "/m/02k8": 3076,
      "er_relationship/tv_program": 3077,
      "er/tv_programs./tv/tv_progra": 3078,
      "m_writer_relationship/tv_program": 3079,
      "/tv/tv_writer/tv_programs./tv/tv_progra": 3080,
      "/tv/tv_writer/tv_programs./tv/tv_program_writer_relationship/tv_program": 3081,
      "5l": 3082,
      "7h": 3083,
      "lz": 3084,
      "/m/07y_7": 3085,
      "/m/02n4k": 3086,
      "/m/0dq_5": 3087,
      "/m/027dtxw": 3088,
      "/m/02n4kr": 3089,
      "1rw": 3090,
      "/m/0bd": 3091,
      "ck7": 3092,
      "82": 3093,
      "but": 3094,
      "regional_de": 3095,
      "/film/film/release_date_s./film/film_regional_release_date/film_regional_de": 3096,
      "/m/0hzl": 3097,
      "/m/01ww": 3098,
      "_venue": 3099,
      "but_venue": 3100,
      "/film/film/release_date_s./film/film_regional_release_date/film_regional_debut_venue": 3101,
      "/m/0hzlz": 3102,
      "/m/0v": 3103,
      "/m/073h": 3104,
      "/m/0gd": 3105,
      "/film/dubbing": 3106,
      "_performances./film/dubbing": 3107,
      "/m/019p": 3108,
      "dubbing_performances./film/dubbing": 3109,
      "dubbing_performances./film/dubbing_performance": 3110,
      "cm": 3111,
      "w6": 3112,
      "x2": 3113,
      "/m/03rj0": 3114,
      "nm": 3115,
      "/m/04bd": 3116,
      "/m/0jmj": 3117,
      "0h": 3118,
      "4d": 3119,
      "/m/053": 3120,
      "/m/02qvy": 3121,
      "/m/02qvyrt": 3122,
      "fs": 3123,
      "l2": 3124,
      "r3": 3125,
      "/m/0c0": 3126,
      "/m/0266": 3127,
      "/m/0g8": 3128,
      "n9": 3129,
      "/m/0sw": 3130,
      "/m/043t": 3131,
      "rq5": 3132,
      "/m/06f32": 3133,
      "2m": 3134,
      "/m/057x": 3135,
      "/m/094q": 3136,
      "/m/024r": 3137,
      "/m/094qd5": 3138,
      "09z": 3139,
      "/m/01_d4": 3140,
      "/m/067": 3141,
      "/m/070m": 3142,
      "/m/0568": 3143,
      "/m/0cqhk0": 3144,
      "/m/09v": 3145,
      "/m/011k": 3146,
      "/m/06pj8": 3147,
      "d6": 3148,
      "/m/0f4v": 3149,
      "h4": 3150,
      "/m/0bh8": 3151,
      "/tv/tv_producer/programs_produced./tv/tv_producer_term/producer_type": 3152,
      "jv": 3153,
      "/m/03c7": 3154,
      "/m/01f8": 3155,
      "q1": 3156,
      "/m/07n": 3157,
      "/m/01vrn": 3158,
      "/m/01g5v": 3159,
      "/m/0bynt": 3160,
      "p7": 3161,
      "/m/0t": 3162,
      "42k": 3163,
      "/m/05842k": 3164,
      "/government/politician/government_positions_held./government/government_position_held/legislative_sessions": 3165,
      "rl": 3166,
      "/m/06z6": 3167,
      "/m/07w": 3168,
      "/m/0bj": 3169,
      "/m/0mkg": 3170,
      "/m/014zcr": 3171,
      "/m/08n": 3172,
      "/music/group_member/membership./music/group_membership/group": 3173,
      "/m/02g_6x": 3174,
      "/m/03bwzr4": 3175,
      "h0": 3176,
      "km": 3177,
      "/m/07cb": 3178,
      "/m/01r3hr": 3179,
      "/m/06c1y": 3180,
      "6b": 3181,
      "bv": 3182,
      "/m/0rh": 3183,
      "/m/02t": 3184,
      "/m/030_": 3185,
      "/m/06b1q": 3186,
      "/m/034q": 3187,
      "ical_part": 3188,
      "/m/02d4": 3189,
      "/politician": 3190,
      "/government/political_part": 3191,
      "hock": 3192,
      "fd": 3193,
      "ll": 3194,
      "/m/05s": 3195,
      "/m/05y": 3196,
      "/m/04b": 3197,
      "6h": 3198,
      "qm": 3199,
      "/m/07bd": 3200,
      "/m/0gx": 3201,
      "/friend": 3202,
      "/m/0h6": 3203,
      "_friend": 3204,
      "ity/celebrity": 3205,
      "/m/02j62": 3206,
      "/friendship/friend": 3207,
      "t36": 3208,
      "/m/02ppm4q": 3209,
      "s./celebrities/friendship/friend": 3210,
      "/celebrities/celebrity/celebrity": 3211,
      "/m/07bdd_": 3212,
      "_friends./celebrities/friendship/friend": 3213,
      "/celebrities/celebrity/celebrity_friends./celebrities/friendship/friend": 3214,
      "2z": 3215,
      "/m/05fj": 3216,
      "/m/075": 3217,
      "/m/02l4": 3218,
      "cial_": 3219,
      "xs": 3220,
      "/m/06g": 3221,
      "/m/0b7": 3222,
      "/m/084": 3223,
      "/m/02x4": 3224,
      "official_": 3225,
      "/location/country/official_": 3226,
      "/location/country/official_language": 3227,
      "/m/06k": 3228,
      "/m/0bkj": 3229,
      "/m/016cl": 3230,
      "/m/01c9": 3231,
      "/m/0bkj86": 3232,
      "/m/016clz": 3233,
      "hi": 3234,
      "/phi": 3235,
      "/film/film/person": 3236,
      "al_appearances.": 3237,
      "losop": 3238,
      "gm7": 3239,
      "/m/07c52": 3240,
      "/film/personal_film_appearance/person": 3241,
      "/philosop": 3242,
      "/film/film/personal_appearances.": 3243,
      "/film/film/personal_appearances./film/personal_film_appearance/person": 3244,
      "qr": 3245,
      "/m/02lf": 3246,
      "c3": 3247,
      "/base/schemastaging/organization_extra/phone_number./base/schemastaging/phone_sandbox/service_language": 3248,
      "93l": 3249,
      "/m/077": 3250,
      "/m/0gc": 3251,
      "/m/02g_6j": 3252,
      "zn": 3253,
      "s_spoken": 3254,
      "/m/0151w": 3255,
      "ity/language": 3256,
      "sd7": 3257,
      "/m/02x73": 3258,
      "/people/ethnicity/language": 3259,
      "/m/0qm": 3260,
      "/m/0151w_": 3261,
      "/m/02x73k6": 3262,
      "/people/ethnicity/languages_spoken": 3263,
      "./music/recording_contribution/performance_role": 3264,
      "xr": 3265,
      "/contribution": 3266,
      "/m/0c3": 3267,
      "/music/artist/contribution": 3268,
      "/music/artist/contribution./music/recording_contribution/performance_role": 3269,
      "cip": 3270,
      "dis": 3271,
      "line": 3272,
      "s_or_": 3273,
      "/m/07br": 3274,
      "/award/award_category/dis": 3275,
      "/m/04gzd": 3276,
      "subjects": 3277,
      "cipline": 3278,
      "s_or_subjects": 3279,
      "/m/07brj": 3280,
      "/award/award_category/discipline": 3281,
      "/award/award_category/disciplines_or_subjects": 3282,
      "__": 3283,
      "d1": 3284,
      "/m/0gqz2": 3285,
      "/m/015_": 3286,
      "4w7": 3287,
      "n59": 3288,
      "gyv": 3289,
      "/m/05pcn59": 3290,
      "43": 3291,
      "7sb": 3292,
      "/m/06s": 3293,
      "/m/0169": 3294,
      "/m/05k7sb": 3295,
      "/r": 3296,
      "p1": 3297,
      "ual_": 3298,
      "omant": 3299,
      "ic_relationship": 3300,
      "/sex": 3301,
      "/m/0c6qh": 3302,
      "ity/sex": 3303,
      "relationships./celebrities": 3304,
      "/celebrity": 3305,
      "/celebrities/celebrity/sex": 3306,
      "/romant": 3307,
      "ual_relationships./celebrities": 3308,
      "ic_relationship/celebrity": 3309,
      "/celebrities/celebrity/sexual_relationships./celebrities": 3310,
      "/romantic_relationship/celebrity": 3311,
      "/celebrities/celebrity/sexual_relationships./celebrities/romantic_relationship/celebrity": 3312,
      "d4": 3313,
      "xj": 3314,
      "s./base/petbreeds": 3315,
      "_city": 3316,
      "/m/061": 3317,
      "/m/0jy": 3318,
      "/m/015c": 3319,
      "/m/02qp": 3320,
      "_with_do": 3321,
      "/top_breed": 3322,
      "/m/0xh": 3323,
      "/city_with_do": 3324,
      "_relationship/dog": 3325,
      "/dog_city": 3326,
      "/base/petbreeds/city_with_do": 3327,
      "gs/top_breed": 3328,
      "s./base/petbreeds/dog_city": 3329,
      "_relationship/dog_breed": 3330,
      "/base/petbreeds/city_with_dogs/top_breed": 3331,
      "s./base/petbreeds/dog_city_relationship/dog_breed": 3332,
      "/base/petbreeds/city_with_dogs/top_breeds./base/petbreeds/dog_city_relationship/dog_breed": 3333,
      "qwt": 3334,
      "9sd7": 3335,
      "x0": 3336,
      "al./measurement_unit/dated_money_value/currency": 3337,
      "/m/02w9sd7": 3338,
      "/location/statistical_region/gdp_nominal./measurement_unit/dated_money_value/currency": 3339,
      "/m/039c": 3340,
      "/m/0g1rw": 3341,
      "/m/0c1": 3342,
      "/m/01wg": 3343,
      "/m/02pq": 3344,
      "/m/02f7": 3345,
      "/m/02bq": 3346,
      "./organization/organization": 3347,
      "gk": 3348,
      "hild": 3349,
      "qt": 3350,
      "xf": 3351,
      "z3": 3352,
      "/m/02mj": 3353,
      "/child": 3354,
      "child": 3355,
      "/m/01wy6": 3356,
      "/organization/organization/child": 3357,
      "_relationship/child": 3358,
      "./organization/organization_relationship/child": 3359,
      "/organization/organization/child./organization/organization_relationship/child": 3360,
      "fx": 3361,
      "m34": 3362,
      "/m/079": 3363,
      "/m/02fqwt": 3364,
      "/m/033t": 3365,
      "/m/0cw": 3366,
      "/m/0k2": 3367,
      "/m/01bg": 3368,
      "6v": 3369,
      "ava": 3370,
      "c0": 3371,
      "cal": 3372,
      "food": 3373,
      "ilab": 3374,
      "/produ": 3375,
      "al_month": 3376,
      "/m/05tb": 3377,
      "/local": 3378,
      "ce_ava": 3379,
      "/m/0dt": 3380,
      "/base/local": 3381,
      "/m/01p1v": 3382,
      "/m/02j71": 3383,
      "v_r": 3384,
      "/m/02g_7": 3385,
      "/m/0317": 3386,
      "/seasonal_month": 3387,
      "/m/03hkv_r": 3388,
      "/m/060__y": 3389,
      "/produce_ava": 3390,
      "/m/05tbn": 3391,
      "/base/localfood": 3392,
      "/m/02g_7z": 3393,
      "/produce_availab": 3394,
      "80": 3395,
      "q2": 3396,
      "/m/02ct": 3397,
      "/m/055": 3398,
      "/m/07r1": 3399,
      "/tv/tv_regular_personal_": 3400,
      "appearances./tv/tv_regular_personal_": 3401,
      "k8": 3402,
      "/m/07z1": 3403,
      "/m/06t8v": 3404,
      "/m/02b1": 3405,
      "/m/0rh6k": 3406,
      "/m/03_gx": 3407,
      "/m/0l15": 3408,
      "6px": 3409,
      "/m/07f1x": 3410,
      "/m/01bgqh": 3411,
      "fpk": 3412,
      "p6": 3413,
      "/m/09x": 3414,
      "/m/0275": 3415,
      "t6j": 3416,
      "/m/05bt6j": 3417,
      "/m/04306": 3418,
      "/m/04nfpk": 3419,
      "/m/04306rv": 3420,
      "qj": 3421,
      "/m/01jr": 3422,
      "ntr": 3423,
      "/m/02qyntr": 3424,
      "/m/06z6r": 3425,
      "8c": 3426,
      "kz": 3427,
      "w1": 3428,
      "/m/0227": 3429,
      "/m/03ry": 3430,
      "/m/04_": 3431,
      "/m/0bxtg": 3432,
      "t_h": 3433,
      "/m/0pq": 3434,
      "/m/01pb": 3435,
      "/m/01pc": 3436,
      "/m/01j7": 3437,
      "/m/03hl6": 3438,
      "/m/01b6": 3439,
      "/m/03hl6lc": 3440,
      "dv3": 3441,
      "dyk": 3442,
      "y4": 3443,
      "/m/0fv": 3444,
      "/m/01pj7": 3445,
      "jd9": 3446,
      "2s": 3447,
      "ost": 3448,
      "tv0": 3449,
      "venue": 3450,
      "revenue": 3451,
      "e_design": 3452,
      "/m/077q": 3453,
      "/m/0h95": 3454,
      "/m/028tv0": 3455,
      "ume_design": 3456,
      "/business/business_operation/revenue": 3457,
      "/film/film/cost": 3458,
      "ume_design_by": 3459,
      "/business/business_operation/revenue./measurement_unit/dated_money_value/currency": 3460,
      "/film/film/costume_design_by": 3461,
      "65p": 3462,
      "_state": 3463,
      "ktr": 3464,
      "qtr": 3465,
      "al_organization/": 3466,
      "man/default_domain": 3467,
      "/m/066": 3468,
      "/m/0cjy": 3469,
      "/m/0cp0": 3470,
      "/m/0k0": 3471,
      "ueman/default_domain": 3472,
      "/m/02p65p": 3473,
      "/m/06fvc": 3474,
      "/user/ktr": 3475,
      "member_state": 3476,
      "/internation": 3477,
      "al_organization/member_state": 3478,
      "/m/0cjyzs": 3479,
      "ueman/default_domain/internation": 3480,
      "/user/ktrueman/default_domain/internation": 3481,
      "al_organization/member_states": 3482,
      "/user/ktrueman/default_domain/international_organization/member_states": 3483,
      "44": 3484,
      "_k": 3485,
      "l_l": 3486,
      "/m/03ck": 3487,
      "/m/04lj": 3488,
      "/m/016s": 3489,
      "/m/016wzw": 3490,
      "/m/07cbcy": 3491,
      "/m/04ljl_l": 3492,
      "x6": 3493,
      "/m/0hn": 3494,
      "/m/017fp": 3495,
      "/m/023w": 3496,
      "/m/0219": 3497,
      "8g": 3498,
      "ny": 3499,
      "/m/06_": 3500,
      "4qm": 3501,
      "0l": 3502,
      "5c": 3503,
      "nfr": 3504,
      "/m/06j6": 3505,
      "/m/08p": 3506,
      "/m/0m2": 3507,
      "/m/02n9n": 3508,
      "/m/01l8": 3509,
      "/m/03gvt": 3510,
      "/m/02ynfr": 3511,
      "dk_": 3512,
      "/m/06j6l": 3513,
      "/m/02n9nmz": 3514,
      "51": 3515,
      "t1": 3516,
      "/m/07t2": 3517,
      "/m/0d1": 3518,
      "/m/0fx": 3519,
      "9c1": 3520,
      "/m/0kbvb": 3521,
      "/m/024t": 3522,
      "n3z": 3523,
      "pre": 3524,
      "q6": 3525,
      "/film/film/pre": 3526,
      "/m/02qk": 3527,
      "/m/01ls2": 3528,
      "quel": 3529,
      "/film/film/prequel": 3530,
      "vct": 3531,
      "yv": 3532,
      "/m/021y": 3533,
      "/m/0fj": 3534,
      "/m/026p": 3535,
      "/m/02ll": 3536,
      "/m/03f0": 3537,
      "ayn": 3538,
      "dr": 3539,
      "dayn": 3540,
      "e/s": 3541,
      "atur": 3542,
      "/satur": 3543,
      "/m/04t36": 3544,
      "/m/0d8": 3545,
      "/base/satur": 3546,
      "ight": 3547,
      "/m/0jdk_": 3548,
      "live/s": 3549,
      "/m/0gr42": 3550,
      "daynight": 3551,
      "/base/saturdaynight": 3552,
      "live/snl": 3553,
      "/base/saturdaynightlive/snl": 3554,
      "/m/01sb": 3555,
      "/m/0hcr": 3556,
      "/m/0154qm": 3557,
      "/m/026l": 3558,
      "/m/017jd9": 3559,
      "/m/054ks3": 3560,
      "kw": 3561,
      "nb": 3562,
      "/m/0988": 3563,
      "/m/05zr6": 3564,
      "/m/02lcq": 3565,
      "/m/0bwfn": 3566,
      "/m/05zr6wv": 3567,
      "/m/02lcqs": 3568,
      "/m/010": 3569,
      "/m/03b": 3570,
      "/m/03_d": 3571,
      "/m/0265v": 3572,
      "/m/01dw": 3573,
      "n6": 3574,
      "nq": 3575,
      "/m/0g5q": 3576,
      "/film/actor/film./film/performance/spec": 3577,
      "/m/05b4l": 3578,
      "/m/03m6": 3579,
      "ial_performance_type": 3580,
      "/m/0xhtw": 3581,
      "/film/actor/film./film/performance/special_performance_type": 3582,
      "/m/05b4l5x": 3583,
      "n3": 3584,
      "st_": 3585,
      "s_c": 3586,
      "./location/": 3587,
      "s/e": 3588,
      "xported_to": 3589,
      "/places_": 3590,
      "s_and_": 3591,
      "ports/e": 3592,
      "ports_and_": 3593,
      "/m/09_": 3594,
      "/m/09sd": 3595,
      "/m/07q": 3596,
      "/m/07t6": 3597,
      "/m/0fh": 3598,
      "imports_and_": 3599,
      "/m/01gb5": 3600,
      "/location/statistical_region/places_": 3601,
      "exported_to": 3602,
      "exports/e": 3603,
      "./location/imports_and_": 3604,
      "/m/09sdmz": 3605,
      "/m/07t65": 3606,
      "/m/01gb54": 3607,
      "/location/statistical_region/places_exported_to": 3608,
      "exports/exported_to": 3609,
      "./location/imports_and_exports/exported_to": 3610,
      "/location/statistical_region/places_exported_to./location/imports_and_exports/exported_to": 3611,
      "/m/01rh": 3612,
      "/m/0n1h": 3613,
      "t90": 3614,
      "/organization/organization/headquarters./location/mailing_address/country": 3615,
      "cgy": 3616,
      "cut": 3617,
      "e./film/film_": 3618,
      "run": 3619,
      "edit": 3620,
      "/film/film/run": 3621,
      "/film/film/edit": 3622,
      "/film_release_region": 3623,
      "/m/01kw": 3624,
      "/m/01fx": 3625,
      "t91": 3626,
      "38g": 3627,
      "time./film/film_": 3628,
      "cut/film_release_region": 3629,
      "/film/film/runtime./film/film_": 3630,
      "/film/film/edited_by": 3631,
      "/film/film/runtime./film/film_cut/film_release_region": 3632,
      "e./measurement_unit/dated_money_value/currency": 3633,
      "w2": 3634,
      "ating_": 3635,
      "incom": 3636,
      "s_v8": 3637,
      "/m/07tg": 3638,
      "/m/01vs_v8": 3639,
      "/m/019sc": 3640,
      "operating_": 3641,
      "/business/business_operation/operating_": 3642,
      "income./measurement_unit/dated_money_value/currency": 3643,
      "/business/business_operation/operating_income./measurement_unit/dated_money_value/currency": 3644,
      "nk": 3645,
      "y0": 3646,
      "/m/05zm34": 3647,
      "/m/018yg": 3648,
      "/m/02x1": 3649,
      "/m/05p09z": 3650,
      "/m/047g8": 3651,
      "/m/0dwt5": 3652,
      "/m/018ygt": 3653,
      "/m/05p09zm": 3654,
      "/m/047g8h": 3655,
      "ns": 3656,
      "symp": 3657,
      "tom": 3658,
      "m/symp": 3659,
      "/symp": 3660,
      "/m/097": 3661,
      "b8_": 3662,
      "52z": 3663,
      "tom/symp": 3664,
      "/m/07fb8_": 3665,
      "/m/0bdwqv": 3666,
      "/medicine/symp": 3667,
      "/m/023wyl": 3668,
      "tom_of": 3669,
      "tom/symptom_of": 3670,
      "/medicine/symptom/symptom_of": 3671,
      "zb": 3672,
      "/m/07d": 3673,
      "pjn": 3674,
      "bqj": 3675,
      "/m/0c4z8": 3676,
      "/m/0dvmd": 3677,
      "/m/019pm_": 3678,
      "/m/07t21": 3679,
      "gv": 3680,
      "mw": 3681,
      "/m/01t_": 3682,
      "/m/02rdyk": 3683,
      "/m/01s7": 3684,
      "/m/02vk52z": 3685,
      "/m/02rdyk7": 3686,
      "/ri": 3687,
      "per_capita": 3688,
      "/m/037": 3689,
      "al_per_capita": 3690,
      "/m/0g7": 3691,
      "/m/02wk": 3692,
      "sk_fact": 3693,
      "/location/statistical_region/gdp_nominal_per_capita": 3694,
      "/medicine/disease/ri": 3695,
      "/m/065y4w7": 3696,
      "sk_factors": 3697,
      "/location/statistical_region/gdp_nominal_per_capita./measurement_unit/dated_money_value/currency": 3698,
      "/medicine/disease/risk_factors": 3699,
      "998": 3700,
      "cc": 3701,
      "/m/09b": 3702,
      "/m/0jf": 3703,
      "/m/017l": 3704,
      "/m/01cgz": 3705,
      "/m/02z0d": 3706,
      "/m/01z7": 3707,
      "/m/01s0p": 3708,
      "/sports/sports_team/roster./baseball/baseball_": 3709,
      "/m/039v1": 3710,
      "/m/03h_f": 3711,
      "/m/02z0dfh": 3712,
      "/m/01s0ps": 3713,
      "/sports/sports_team/roster./baseball/baseball_roster_position/position": 3714,
      "mk": 3715,
      "/m/0140": 3716,
      "/m/03v0": 3717,
      "/m/08q": 3718,
      "/m/03qn": 3719,
      "/m/047yc": 3720,
      "/m/01pb34": 3721,
      "9wc": 3722,
      "e/inductee": 3723,
      "particip": 3724,
      "s./award/hall_of_fam": 3725,
      "e_indu": 3726,
      "ation/team": 3727,
      "tbt": 3728,
      "/m/01v1d": 3729,
      "/m/0hzc": 3730,
      "/m/0l6px": 3731,
      "ue/team": 3732,
      "/sports/sports_league/team": 3733,
      "ction/inductee": 3734,
      "s./sports/sports_league_particip": 3735,
      "/administrative_area_type": 3736,
      "/base/aareas/schema/administrative_area/administrative_area_type": 3737,
      "/m/0fbtbt": 3738,
      "/award/hall_of_fame/inductee": 3739,
      "s./award/hall_of_fame_indu": 3740,
      "/m/01v1d8": 3741,
      "/m/0hzc9wc": 3742,
      "/sports/sports_league/teams./sports/sports_league_particip": 3743,
      "/award/hall_of_fame/inductees./award/hall_of_fame_indu": 3744,
      "/sports/sports_league/teams./sports/sports_league_participation/team": 3745,
      "/award/hall_of_fame/inductees./award/hall_of_fame_induction/inductee": 3746,
      "sr1": 3747,
      "/m/0bs": 3748,
      "/m/01rr": 3749,
      "/m/01_9c1": 3750,
      "846": 3751,
      "_z": 3752,
      "yq": 3753,
      "y_c": 3754,
      "/m/0qf": 3755,
      "/m/03cl": 3756,
      "/m/05sb": 3757,
      "/m/0f6": 3758,
      "/m/0ks": 3759,
      "tr1": 3760,
      "/m/06w7": 3761,
      "/m/0bdx": 3762,
      "/m/02fsn": 3763,
      "7z": 3764,
      "_0": 3765,
      "/m/01ch": 3766,
      "/m/03v1": 3767,
      "/m/09r9": 3768,
      "/m/0bzk": 3769,
      "yp19": 3770,
      "/m/02qgq": 3771,
      "/m/02qyp19": 3772,
      "/m/03f1z": 3773,
      "/m/0dwtp": 3774,
      "/m/062z7": 3775,
      "/m/02qgqt": 3776,
      "/m/0130": 3777,
      "/m/07r1h": 3778,
      "nz": 3779,
      "sg": 3780,
      "/m/052": 3781,
      "/m/02qw": 3782,
      "/m/0147": 3783,
      "/m/025m": 3784,
      "/m/0bxl5": 3785,
      "us_c": 3786,
      "/m/0372": 3787,
      "/count": 3788,
      "/m/095z": 3789,
      "/location/us_c": 3790,
      "/baske": 3791,
      "/basketball_": 3792,
      "tball/basketball_": 3793,
      "y_se": 3794,
      "/m/017gl": 3795,
      "/m/01mkq": 3796,
      "/sports/sports_team/roster./baske": 3797,
      "ounty/count": 3798,
      "4m9q": 3799,
      "/m/05f4m9q": 3800,
      "/location/us_county/count": 3801,
      "tball/basketball_roster_position/position": 3802,
      "y_seat": 3803,
      "/m/017gl1": 3804,
      "/sports/sports_team/roster./basketball/basketball_roster_position/position": 3805,
      "/location/us_county/county_seat": 3806,
      "/m/0gkd1": 3807,
      "1yf": 3808,
      "/m/047lj": 3809,
      "/m/0407y": 3810,
      "/m/0cj16": 3811,
      "/m/099c8n": 3812,
      "/m/0pqc5": 3813,
      "./travel": 3814,
      "4s": 3815,
      "de_of_": 3816,
      "et_h": 3817,
      "how": 3818,
      "mo": 3819,
      "transport": 3820,
      "/ass": 3821,
      "ation/ass": 3822,
      "ation/mo": 3823,
      "/transport": 3824,
      "_get_h": 3825,
      "ere./travel": 3826,
      "/m/015f": 3827,
      "ets./measurement_unit/dated_money_value/currency": 3828,
      "production": 3829,
      "_design": 3830,
      "2v0": 3831,
      "/m/05b16": 3832,
      "20h": 3833,
      "/film/film/film_production": 3834,
      "/business/business_operation/ass": 3835,
      "/travel/travel_destination/how": 3836,
      "_to_get_h": 3837,
      "de_of_transport": 3838,
      "ation/mode_of_transport": 3839,
      "/transportation/mode_of_transport": 3840,
      "ere./travel/transportation/mode_of_transport": 3841,
      "_design_by": 3842,
      "/m/05b1610": 3843,
      "/film/film/film_production_design_by": 3844,
      "/business/business_operation/assets./measurement_unit/dated_money_value/currency": 3845,
      "/travel/travel_destination/how_to_get_h": 3846,
      "ere./travel/transportation/mode_of_transportation": 3847,
      "/travel/travel_destination/how_to_get_here./travel/transportation/mode_of_transportation": 3848,
      "1_": 3849,
      "5_": 3850,
      "q9": 3851,
      "/m/0395": 3852,
      "/categor": 3853,
      "/award/award_category": 3854,
      "y_of": 3855,
      "/m/02k54": 3856,
      "/m/05qtj": 3857,
      "/m/04rjg": 3858,
      "4nb": 3859,
      "/m/03npn": 3860,
      "/m/033tf_": 3861,
      "/m/01l849": 3862,
      "/m/0395lw": 3863,
      "/category_of": 3864,
      "/award/award_category/category_of": 3865,
      "/m/015h": 3866,
      "/m/01795": 3867,
      "/m/02r22": 3868,
      "/m/01c6": 3869,
      "/m/025j": 3870,
      "3ts": 3871,
      "9kh": 3872,
      "/m/05b3ts": 3873,
      "r6t": 3874,
      "s89": 3875,
      "/m/057xs89": 3876,
      "/m/02r22gf": 3877,
      "q5": 3878,
      "_category": 3879,
      "/m/0cj2": 3880,
      "act_category": 3881,
      "/m/0jd": 3882,
      "/m/0jhn": 3883,
      "/m/026g": 3884,
      "/m/027c": 3885,
      "/m/0m7y": 3886,
      "npd": 3887,
      "/base/schemastaging/organization_extra/phone_number./base/schemastaging/phone_sandbox/cont": 3888,
      "/m/02y_rq5": 3889,
      "/m/02qpbqj": 3890,
      "/m/03_d0": 3891,
      "/m/0jhn7": 3892,
      "/base/schemastaging/organization_extra/phone_number./base/schemastaging/phone_sandbox/contact_category": 3893,
      "/region": 3894,
      "mn": 3895,
      "wmm": 3896,
      "v_s": 3897,
      "/m/01xq": 3898,
      "/m/01xqw": 3899,
      "t670": 3900,
      "/m/09qwmm": 3901,
      "/m/09qv_s": 3902,
      "/m/03ksy": 3903,
      "/m/07b_l": 3904,
      "/m/0glt670": 3905,
      "/film/film/distributors./film/film_film_distributor_relationship/region": 3906,
      "/m/07xzm": 3907,
      "/m/05fjf": 3908,
      "/m/03mp": 3909,
      "/m/03z1": 3910,
      "/m/04d": 3911,
      "/m/09pm": 3912,
      "/m/09g7": 3913,
      "/m/07tw": 3914,
      "/m/02lg": 3915,
      "/m/02bjr": 3916,
      "w7s": 3917,
      "wlb": 3918,
      "/m/09pmkv": 3919,
      "/m/02bjrlw": 3920,
      "nw": 3921,
      "/m/02cl": 3922,
      "/m/0495": 3923,
      "/m/0dr_": 3924,
      "j50": 3925,
      "/m/026r": 3926,
      "/m/0124": 3927,
      "5b": 3928,
      "5s": 3929,
      "jv5": 3930,
      "p_c": 3931,
      "y1": 3932,
      "/m/05db": 3933,
      "/m/05ztr": 3934,
      "/m/02x2": 3935,
      "/m/02yvct": 3936,
      "/m/03cf": 3937,
      "/m/06q8": 3938,
      "/m/0l15bq": 3939,
      "/m/05dbf": 3940,
      "/m/05ztrmj": 3941,
      "64": 3942,
      "bc": 3943,
      "wt": 3944,
      "/m/03tc": 3945,
      "/m/0ft": 3946,
      "/m/016d": 3947,
      "/m/0kpl": 3948,
      "/m/02kx": 3949,
      "_dy": 3950,
      "0mw": 3951,
      "s1_": 3952,
      "/m/082gq": 3953,
      "/m/0g2dz": 3954,
      "/m/03c7tr1": 3955,
      "/m/0169dl": 3956,
      "/m/04t2": 3957,
      "/m/06cgy": 3958,
      "/m/0fhp": 3959,
      "/m/015w": 3960,
      "/m/0146p": 3961,
      "/m/02f72": 3962,
      "gl9": 3963,
      "vd4": 3964,
      "/m/0bfvd4": 3965,
      "/m/015_1q": 3966,
      "/m/03ryn": 3967,
      "/m/077qn": 3968,
      "/m/04t2l2": 3969,
      "/m/0146pg": 3970,
      "55": 3971,
      "5r": 3972,
      "/m/02cb": 3973,
      "/m/095": 3974,
      "/m/06h": 3975,
      "/m/06npd": 3976,
      "/m/0151": 3977,
      "/m/02qwg": 3978,
      "/m/025sc": 3979,
      "/m/01l2": 3980,
      "mdt": 3981,
      "fnb": 3982,
      "/m/0d6lp": 3983,
      "/m/06v": 3984,
      "/m/01kp": 3985,
      "/m/0h0wc": 3986,
      "/m/07z1m": 3987,
      "/m/02ry": 3988,
      "/m/03j2": 3989,
      "/m/0d1p": 3990,
      "/m/0fk": 3991,
      "/m/01vw8": 3992,
      "/m/09n48": 3993,
      "/m/025t": 3994,
      "/m/02f73": 3995,
      "/m/05p1d": 3996,
      "/m/06w7v": 3997,
      "/m/0d1pc": 3998,
      "/m/05p1dby": 3999,
      "840": 4000,
      "/m/0y_": 4001,
      "/m/02tr": 4002,
      "/m/0gk4g": 4003,
      "/m/02tr7d": 4004,
      "8m": 4005,
      "kdn": 4006,
      "/m/01w0": 4007,
      "/peers": 4008,
      "/peers.": 4009,
      "/peer_relationship": 4010,
      "/m/0320": 4011,
      "/m/08h": 4012,
      "/m/017gm7": 4013,
      "/m/01pgz": 4014,
      "/m/01fw": 4015,
      "/m/02bkdn": 4016,
      "/influence/peer_relationship": 4017,
      "/influence/influence_node/peers.": 4018,
      "f2j": 4019,
      "/m/0219x_": 4020,
      "/m/01pgzn_": 4021,
      "/influence/peer_relationship/peers": 4022,
      "/influence/influence_node/peers./influence/peer_relationship/peers": 4023,
      "/m/02gr": 4024,
      "/m/051w": 4025,
      "/m/09f2j": 4026,
      "/m/0f1": 4027,
      "/m/0fpj": 4028,
      "gr2": 4029,
      "pm6": 4030,
      "/m/0btpm6": 4031,
      "/m/01w5m": 4032,
      "pb": 4033,
      "uri": 4034,
      "/m/06x": 4035,
      "/m/016f": 4036,
      "lace_of_buri": 4037,
      "/m/01f6": 4038,
      "bbz": 4039,
      "zd3": 4040,
      "/m/05kkh": 4041,
      "/people/deceased_person/place_of_buri": 4042,
      "/m/03z19": 4043,
      "/people/deceased_person/place_of_burial": 4044,
      "23": 4045,
      "iet": 4046,
      "kl": 4047,
      "qc": 4048,
      "er_of_": 4049,
      "/pra": 4050,
      "icer_of_": 4051,
      "/m/054": 4052,
      "/m/05x": 4053,
      "/m/09td": 4054,
      "ctl": 4055,
      "cticer_of_": 4056,
      "/m/0gf": 4057,
      "/base/e": 4058,
      "/diet": 4059,
      "/m/0hvb": 4060,
      "et/diet": 4061,
      "/m/018ctl": 4062,
      "/m/0277": 4063,
      "ating/pra": 4064,
      "sww": 4065,
      "9lg": 4066,
      "diet/diet": 4067,
      "/m/09td7p": 4068,
      "cticer_of_diet/diet": 4069,
      "/base/eating/pra": 4070,
      "/m/0hvb2": 4071,
      "/base/eating/practicer_of_diet/diet": 4072,
      "play": 4073,
      "/pro_": 4074,
      "ed/ath": 4075,
      "/sports/sport/pro_": 4076,
      "tbz": 4077,
      "athletes.": 4078,
      "/m/07s6f": 4079,
      "/m/017_": 4080,
      "wrc": 4081,
      "sports_play": 4082,
      "/sports/pro_sports_play": 4083,
      "/m/099tbz": 4084,
      "z91": 4085,
      "/m/02x4w6g": 4086,
      "ed/athlete": 4087,
      "/sports/sport/pro_athletes.": 4088,
      "/m/07s6fsf": 4089,
      "/sports/pro_sports_played/athlete": 4090,
      "/sports/sport/pro_athletes./sports/pro_sports_played/athlete": 4091,
      "7hc": 4092,
      "yr": 4093,
      "/m/020_": 4094,
      "/m/07vf": 4095,
      "/m/0gx1": 4096,
      "/m/0j1yf": 4097,
      "h_q": 4098,
      "/m/034h": 4099,
      "bnj": 4100,
      "/m/0466p": 4101,
      "/m/04f52": 4102,
      "/m/071t0": 4103,
      "/m/09889g": 4104,
      "./organization/non_profit_": 4105,
      "c2": 4106,
      "sor": 4107,
      "atern": 4108,
      "orities": 4109,
      "ation/register": 4110,
      "ency": 4111,
      "registr": 4112,
      "ed_with": 4113,
      "agency": 4114,
      "organization/register": 4115,
      "/m/0jz": 4116,
      "ing_agency": 4117,
      "fratern": 4118,
      "c62": 4119,
      "/education/university/fratern": 4120,
      "and_sor": 4121,
      "/organization/non_profit_organization/register": 4122,
      "ities_and_sor": 4123,
      "/m/0jmj7": 4124,
      "/m/024rgt": 4125,
      "/m/0jfx1": 4126,
      "/m/03v0t": 4127,
      "./organization/non_profit_registr": 4128,
      "ation/registering_agency": 4129,
      "ed_with./organization/non_profit_registr": 4130,
      "/education/university/fraternities_and_sor": 4131,
      "/organization/non_profit_organization/registered_with./organization/non_profit_registr": 4132,
      "/education/university/fraternities_and_sororities": 4133,
      "/organization/non_profit_organization/registered_with./organization/non_profit_registration/registering_agency": 4134,
      "09": 4135,
      "0s": 4136,
      "/m/0z4": 4137,
      "/m/03t5": 4138,
      "/m/057": 4139,
      "/m/0lgx": 4140,
      "/m/01wj": 4141,
      "/m/01cx_": 4142,
      "/m/02w7g": 4143,
      "/m/03lty": 4144,
      "/m/07ylj": 4145,
      "/m/05gnf": 4146,
      "/m/0lgxj": 4147,
      "/m/02w7gg": 4148,
      "./measurement_unit": 4149,
      "yz": 4150,
      "real": 4151,
      "ed_money_value": 4152,
      "_curren": 4153,
      "/m/09r": 4154,
      "ment_curren": 4155,
      "/m/0dy": 4156,
      "/m/0fz": 4157,
      "pp7": 4158,
      "/m/026m": 4159,
      "/m/02l840": 4160,
      "/m/01gs": 4161,
      "/m/0n0": 4162,
      "/m/02825": 4163,
      "c6q": 4164,
      "/location/country/capital": 4165,
      "/location/statistical_region/gdp_real": 4166,
      "/adjusted_money_value": 4167,
      "/adjustment_curren": 4168,
      "./measurement_unit/adjusted_money_value": 4169,
      "/location/statistical_region/gdp_real./measurement_unit/adjusted_money_value": 4170,
      "/adjustment_currency": 4171,
      "/location/statistical_region/gdp_real./measurement_unit/adjusted_money_value/adjustment_currency": 4172,
      "bs": 4173,
      "/m/02mp": 4174,
      "/m/0lpjn": 4175,
      "/m/02fq": 4176,
      "/m/01t0": 4177,
      "/m/02lq67": 4178,
      "/m/018wdw": 4179,
      "/m/01vrncs": 4180,
      "/m/01t_vv": 4181,
      "b2h": 4182,
      "c9": 4183,
      "/m/03bn": 4184,
      "/m/053y": 4185,
      "/m/0g3": 4186,
      "/m/0jn": 4187,
      "/m/01vsn": 4188,
      "/m/0kf": 4189,
      "/m/02j9z": 4190,
      "/m/013b2h": 4191,
      "/m/0233": 4192,
      "3v6": 4193,
      "/m/081lh": 4194,
      "/m/0m7yy": 4195,
      "pg": 4196,
      "er/organization": 4197,
      "/m/02rh": 4198,
      "s_founded": 4199,
      "/m/068": 4200,
      "/m/07gq": 4201,
      "/m/01w7n": 4202,
      "_found": 4203,
      "/m/02x17": 4204,
      "/m/01ky": 4205,
      "/organization/organization_found": 4206,
      "t9b": 4207,
      "/m/0355": 4208,
      "21g": 4209,
      "er/organizations_founded": 4210,
      "/m/07gql": 4211,
      "/m/02x17s4": 4212,
      "/organization/organization_founder/organizations_founded": 4213,
      "5j": 4214,
      "/m/073": 4215,
      "/m/0c5": 4216,
      "/m/0fvf": 4217,
      "/m/0jw": 4218,
      "/m/02qjv": 4219,
      "/m/02xry": 4220,
      "/m/047c": 4221,
      "fhx": 4222,
      "0d2": 4223,
      "/m/0fvf9q": 4224,
      "/m/0421": 4225,
      "/m/07r": 4226,
      "/m/0flw": 4227,
      "/m/02hsq": 4228,
      "/m/01vh": 4229,
      "/m/030h": 4230,
      "/m/03_8r": 4231,
      "bb1": 4232,
      "/m/0bdwft": 4233,
      "/m/0466p0j": 4234,
      "/m/02hsq3m": 4235,
      "65": 4236,
      "iall": 4237,
      "/part": 4238,
      "/m/06dv3": 4239,
      "/m/0df": 4240,
      "/m/07s846": 4241,
      "/m/02ln": 4242,
      "/m/02fn5": 4243,
      "/location/location/part": 4244,
      "/m/01yf": 4245,
      "hy7": 4246,
      "/m/0xn": 4247,
      "1cm": 4248,
      "/m/02lq5w": 4249,
      "/m/02cg41": 4250,
      "/m/0dtfn": 4251,
      "y_contains": 4252,
      "ially_contains": 4253,
      "/m/07s846j": 4254,
      "/location/location/partially_contains": 4255,
      "_distrib": 4256,
      "breakup": 4257,
      "eograp": 4258,
      "gg": 4259,
      "hic": 4260,
      "/geograp": 4261,
      "/m/099j": 4262,
      "/breakup": 4263,
      "/m/0cn": 4264,
      "/m/0pz91": 4265,
      "/m/01k5": 4266,
      "/m/025mb": 4267,
      "/base/popstra/celebrity/breakup": 4268,
      "/m/03q5t": 4269,
      "/people/ethnicity/geograp": 4270,
      "/m/01x73": 4271,
      "/m/05pd9": 4272,
      "/m/024l": 4273,
      "./base/popstra/breakup": 4274,
      "/m/05qjt": 4275,
      "5hd": 4276,
      "/m/0215hd": 4277,
      "_distribution": 4278,
      "hic_distribution": 4279,
      "/m/099jhq": 4280,
      "/base/popstra/celebrity/breakup./base/popstra/breakup": 4281,
      "/people/ethnicity/geographic_distribution": 4282,
      "/m/05pd94v": 4283,
      "/base/popstra/celebrity/breakup./base/popstra/breakup/participant": 4284,
      "jk": 4285,
      "l34": 4286,
      "yx": 4287,
      "/m/01sn": 4288,
      "/m/04hw": 4289,
      "/m/09bl": 4290,
      "/m/0dzl": 4291,
      "/m/0f8": 4292,
      "/m/0jtg": 4293,
      "/m/0184": 4294,
      "/m/0ph": 4295,
      "/m/027r": 4296,
      "/m/01dn": 4297,
      "wrt": 4298,
      "/m/060bp": 4299,
      "/m/0gyh": 4300,
      "s5s": 4301,
      "/m/07xl34": 4302,
      "/m/08ns5s": 4303,
      "/m/09blyk": 4304,
      "/m/0jtg0": 4305,
      "9zc": 4306,
      "ml": 4307,
      "pq": 4308,
      "/m/07_l": 4309,
      "/m/085h": 4310,
      "/m/09n4nb": 4311,
      "149": 4312,
      "/m/01dy": 4313,
      "/m/05qx1": 4314,
      "/m/0x3": 4315,
      "3q1": 4316,
      "q43": 4317,
      "/m/02llzg": 4318,
      "/m/085h1": 4319,
      "83": 4320,
      "_imp": 4321,
      "d2": 4322,
      "ionist": 4323,
      "edy/": 4324,
      "/m/02cx": 4325,
      "ersonated": 4326,
      "/m/0gpj": 4327,
      "/m/0dcl": 4328,
      "/base/american": 4329,
      "/m/0hp": 4330,
      "/m/015rk": 4331,
      "/celebrities_": 4332,
      "1ql3": 4333,
      "/m/02k_": 4334,
      "sxp": 4335,
      "ressionist": 4336,
      "celebrity_imp": 4337,
      "comedy/": 4338,
      "impersonated": 4339,
      "/m/0661ql3": 4340,
      "/m/02cx90": 4341,
      "/m/0gpjbt": 4342,
      "/m/0dclg": 4343,
      "/base/americancomedy/": 4344,
      "/m/015rkw": 4345,
      "/celebrities_impersonated": 4346,
      "ressionist/celebrities_impersonated": 4347,
      "celebrity_impressionist/celebrities_impersonated": 4348,
      "/base/americancomedy/celebrity_impressionist/celebrities_impersonated": 4349,
      "cre": 4350,
      "i_p": 4351,
      "lar": 4352,
      "ni_p": 4353,
      "progra": 4354,
      "rj": 4355,
      "s41": 4356,
      "ator": 4357,
      "m_cre": 4358,
      "ollar": 4359,
      "_ppp": 4360,
      "/m/0735l": 4361,
      "/m/0d9": 4362,
      "/m/0dws": 4363,
      "/m/0f0": 4364,
      "/m/04zx": 4365,
      "/m/01gv": 4366,
      "/tv/tv_program/progra": 4367,
      "_dollar": 4368,
      "/m/01rs41": 4369,
      "/m/03mqtr": 4370,
      "/m/0gyx4": 4371,
      "/m/0gywn": 4372,
      "_in_ppp": 4373,
      "6f8": 4374,
      "/location/statistical_region/gni_p": 4375,
      "/m/022q": 4376,
      "er_capita_in_ppp": 4377,
      "m_creator": 4378,
      "/m/0dwsp": 4379,
      "/tv/tv_program/program_creator": 4380,
      "_dollars./measurement_unit/dated_money_value/currency": 4381,
      "/location/statistical_region/gni_per_capita_in_ppp": 4382,
      "/location/statistical_region/gni_per_capita_in_ppp_dollars./measurement_unit/dated_money_value/currency": 4383,
      "hv": 4384,
      "/m/01_x": 4385,
      "/m/0b1": 4386,
      "/m/0150": 4387,
      "/m/017g": 4388,
      "/m/02vxn": 4389,
      "/m/01nn": 4390,
      "/m/03cv": 4391,
      "/m/03xq0": 4392,
      "tpx": 4393,
      "/m/0bdw6t": 4394,
      "/m/0f4vbz": 4395,
      "/m/01kwld": 4396,
      "/m/03xq0f": 4397,
      "./tv/tv_producer_term/": 4398,
      "695": 4399,
      "8v": 4400,
      "hs": 4401,
      "tsx": 4402,
      "/m/02c6": 4403,
      "_producer": 4404,
      "/m/0g58": 4405,
      "qfh": 4406,
      "/m/0pk": 4407,
      "/m/0136": 4408,
      "9jp": 4409,
      "/tv/tv_program/tv": 4410,
      "/m/047q": 4411,
      "/m/01s695": 4412,
      "7xl": 4413,
      "/m/03m5k": 4414,
      "4r4": 4415,
      "/m/01795t": 4416,
      "/m/051wwp": 4417,
      "/m/0z4s": 4418,
      "./tv/tv_producer_term/producer_type": 4419,
      "_producer./tv/tv_producer_term/producer_type": 4420,
      "/tv/tv_program/tv_producer./tv/tv_producer_term/producer_type": 4421,
      "6z9": 4422,
      "/m/03rh": 4423,
      "/m/05sq": 4424,
      "/m/0cb": 4425,
      "/m/016z2": 4426,
      "/m/0h3m": 4427,
      "/m/02rjj": 4428,
      "/m/02r0c": 4429,
      "/m/0gy6z9": 4430,
      "/m/0l6m5": 4431,
      "/m/056878": 4432,
      "/m/03rhqg": 4433,
      "/m/016z2j": 4434,
      "/m/02rjjll": 4435,
      "/m/02r0csl": 4436,
      "ab": 4437,
      "con": 4438,
      "dj": 4439,
      "dition": 4440,
      "eople": 4441,
      "lv7": 4442,
      "n4": 4443,
      "ot": 4444,
      "le_p": 4445,
      "/m/01bx": 4446,
      "/not": 4447,
      "/m/017j6": 4448,
      "_with_this_con": 4449,
      "/m/02vn": 4450,
      "/m/03qlv7": 4451,
      "hg9": 4452,
      "38s": 4453,
      "/m/04rrd": 4454,
      "/m/020h": 4455,
      "/m/06cvj": 4456,
      "/m/046zh": 4457,
      "/m/01vw20h": 4458,
      "/medicine/disease/not": 4459,
      "/m/0h7h6": 4460,
      "/m/03f1zdw": 4461,
      "able_p": 4462,
      "eople_with_this_con": 4463,
      "/m/01bx35": 4464,
      "/medicine/disease/notable_p": 4465,
      "eople_with_this_condition": 4466,
      "/medicine/disease/notable_people_with_this_condition": 4467,
      "8_": 4468,
      "8k": 4469,
      "bk0": 4470,
      "/m/0fc": 4471,
      "/m/02qgyv": 4472,
      "/m/02778": 4473,
      "/m/01pcq": 4474,
      "/m/019bk0": 4475,
      "4kf": 4476,
      "/m/09yrh": 4477,
      "8s": 4478,
      "s./people": 4479,
      "/m/059x": 4480,
      "/people/person/sibl": 4481,
      "/m/0hv": 4482,
      "ing_s./people": 4483,
      "/m/01f7": 4484,
      "ing_relationship/sibl": 4485,
      "2v2": 4486,
      "/sibling_relationship/sibl": 4487,
      "/m/0bksh": 4488,
      "/m/05sb1": 4489,
      "/m/07_l6": 4490,
      "/people/person/sibling_s./people": 4491,
      "/sibling_relationship/sibling": 4492,
      "/people/person/sibling_s./people/sibling_relationship/sibling": 4493,
      "7tq": 4494,
      "9h6": 4495,
      "/m/05gl": 4496,
      "_ph": 4497,
      "/m/0c4y": 4498,
      "/m/016v": 4499,
      "/m/016zp": 4500,
      "/m/0159h6": 4501,
      "/m/05zvj": 4502,
      "/m/027pf": 4503,
      "/m/0mw": 4504,
      "/m/01lyv": 4505,
      "/m/01q_ph": 4506,
      "/m/03f2_": 4507,
      "wsg": 4508,
      "/m/0cc56": 4509,
      "/m/09fb5": 4510,
      "/m/05pcjw": 4511,
      "/m/015h31": 4512,
      "/m/01c6qp": 4513,
      "/m/01dnws": 4514,
      "/m/016zp5": 4515,
      "/m/05zvj3m": 4516,
      "/m/03f2_rc": 4517,
      "/fi": 4518,
      "01": 4519,
      "3fhx": 4520,
      "d0": 4521,
      "rst_": 4522,
      "vzf": 4523,
      "/m/02sn": 4524,
      "/film/film/dubbing_performances./film/dubbing_performance": 4525,
      "/m/05j": 4526,
      "/m/0556": 4527,
      "/m/0bg": 4528,
      "/m/0j6": 4529,
      "/m/017jv5": 4530,
      "/m/02x8n": 4531,
      "/m/01kb2": 4532,
      "/m/03r8": 4533,
      "2h8": 4534,
      "/m/02bf": 4535,
      "/m/02w3w": 4536,
      "/m/02dlh": 4537,
      "c6l": 4538,
      "g84": 4539,
      "/location/administrative_division/fi": 4540,
      "level_division_of": 4541,
      "/m/0h03fhx": 4542,
      "/m/01wbg84": 4543,
      "rst_level_division_of": 4544,
      "/film/film/dubbing_performances./film/dubbing_performance/actor": 4545,
      "/m/02x8n1n": 4546,
      "/m/01kb2j": 4547,
      "/m/02dlh2": 4548,
      "/location/administrative_division/first_level_division_of": 4549,
      "lm": 4550,
      "q7": 4551,
      "/m/051": 4552,
      "/m/0gd_": 4553,
      "/m/0gmc": 4554,
      "/m/0881": 4555,
      "/m/026mf": 4556,
      "/m/0pz7": 4557,
      "9jr": 4558,
      "/m/01hkh": 4559,
      "3t5x": 4560,
      "/m/047p7": 4561,
      "_b2": 4562,
      "3x5": 4563,
      "kps": 4564,
      "/m/0ds3t5x": 4565,
      "/m/0bp_b2": 4566,
      "/m/06pwq": 4567,
      "/m/0gmcwlb": 4568,
      "/m/08815": 4569,
      "/m/0pz7h": 4570,
      "/m/01hkhq": 4571,
      "/dubbing_performances./film/dubbing_performance": 4572,
      "b3": 4573,
      "nj": 4574,
      "wk": 4575,
      "yy": 4576,
      "or/dubbing_performances./film/dubbing_performance": 4577,
      "/m/059g": 4578,
      "/m/07z": 4579,
      "/film/actor/dubbing_performances./film/dubbing_performance": 4580,
      "/m/016h": 4581,
      "/m/07s3": 4582,
      "/m/017149": 4583,
      "/m/02lp1": 4584,
      "/m/01c8": 4585,
      "rwf": 4586,
      "/m/0bq2g": 4587,
      "/m/04sry": 4588,
      "/m/0x3b7": 4589,
      "/film/actor/dubbing_performances./film/dubbing_performance/language": 4590,
      "fc": 4591,
      "j4r": 4592,
      "vms": 4593,
      "w3": 4594,
      "wm": 4595,
      "/m/09c": 4596,
      "/m/027f": 4597,
      "/m/02k6": 4598,
      "/m/02gd": 4599,
      "zf_": 4600,
      "fy": 4601,
      "p4": 4602,
      "/m/05r6t": 4603,
      "/m/07_f": 4604,
      "ct6": 4605,
      "/m/0b_7": 4606,
      "/m/016tb": 4607,
      "/m/0h5": 4608,
      "/m/015t5": 4609,
      "/m/026c1": 4610,
      "/m/07sgf": 4611,
      "/m/03qbh": 4612,
      "5xm": 4613,
      "t8j": 4614,
      "/base/aareas/schema/administrative_area/capital": 4615,
      "/m/099t8j": 4616,
      "/m/07twz": 4617,
      "/m/015t56": 4618,
      "/m/03qbh5": 4619,
      "2c": 4620,
      "5g9": 4621,
      "xc": 4622,
      "/m/0z": 4623,
      "/m/0_b": 4624,
      "/m/01sx": 4625,
      "/m/029q": 4626,
      "ic_title": 4627,
      "/m/05qfh": 4628,
      "/basic_title": 4629,
      "/m/0cnl": 4630,
      "fl9": 4631,
      "/m/02lpp7": 4632,
      "/m/03rw": 4633,
      "/m/01mgw": 4634,
      "/m/03_9r": 4635,
      "_6p": 4636,
      "/m/039bp": 4637,
      "/government/politician/government_positions_held./government/government_position_held/basic_title": 4638,
      "/m/04zx3q1": 4639,
      "/m/03bd": 4640,
      "/m/059f": 4641,
      "/m/07c6l": 4642,
      "/m/0g9z": 4643,
      "/m/0g26": 4644,
      "/m/085": 4645,
      "/m/0f50": 4646,
      "/m/02q6": 4647,
      "/m/02qr": 4648,
      "/m/0m3": 4649,
      "/m/02x1d": 4650,
      "/m/01ksr1": 4651,
      "/m/01mq": 4652,
      "/m/028d": 4653,
      "kj_": 4654,
      "37m": 4655,
      "/m/02l4pj": 4656,
      "/m/0dr_4": 4657,
      "/m/03j24kf": 4658,
      "/m/0g26h": 4659,
      "/m/0f502": 4660,
      "/m/02x1dht": 4661,
      "/inst": 4662,
      "event": 4663,
      "ring_": 4664,
      "s/countries_": 4665,
      "/m/0ws": 4666,
      "inent": 4667,
      "ance_": 4668,
      "/m/03tw": 4669,
      "/m/048l": 4670,
      "of_rec": 4671,
      "/base/locations": 4672,
      "urring_": 4673,
      "/m/02773": 4674,
      "/m/02vxq": 4675,
      "/m/013kn": 4676,
      "/m/0n8": 4677,
      "cr8": 4678,
      "skw": 4679,
      "/m/05fkf": 4680,
      "/time/event/inst": 4681,
      "/m/0p_47": 4682,
      "/continent": 4683,
      "within": 4684,
      "/m/039cq4": 4685,
      "s/countries_within": 4686,
      "ance_of_rec": 4687,
      "/m/048lv": 4688,
      "/base/locations/continent": 4689,
      "urring_event": 4690,
      "/m/02vxq9m": 4691,
      "/m/013knm": 4692,
      "/time/event/instance_of_rec": 4693,
      "/base/locations/continents/countries_within": 4694,
      "/time/event/instance_of_recurring_event": 4695,
      "kc": 4696,
      "tt": 4697,
      "x3": 4698,
      "yn8": 4699,
      "/place_": 4700,
      "/m/03sh": 4701,
      "/m/04jw": 4702,
      "/m/06ch": 4703,
      "/m/0gh6": 4704,
      "/m/0d7": 4705,
      "/m/0jk": 4706,
      "/m/01wk": 4707,
      "/m/02vr": 4708,
      "/organization/organization/place_": 4709,
      "vqk": 4710,
      "x_3": 4711,
      "26b_": 4712,
      "/m/099ck7": 4713,
      "0yt": 4714,
      "/m/0ch26b_": 4715,
      "/organization/organization/place_founded": 4716,
      "3zq": 4717,
      "/m/04x4": 4718,
      "/m/0498": 4719,
      "/m/05vz": 4720,
      "/m/06w8": 4721,
      "/m/02ld": 4722,
      "/m/0m31": 4723,
      "/m/01k7": 4724,
      "/m/01mhw": 4725,
      "s6_": 4726,
      "257": 4727,
      "q0z": 4728,
      "/m/013yq": 4729,
      "/m/0498y": 4730,
      "/m/05vz3zq": 4731,
      "/m/0m313": 4732,
      "/m/01mhwk": 4733,
      "n7": 4734,
      "/m/0r6": 4735,
      "/m/03_g": 4736,
      "/m/09hn": 4737,
      "/m/0ff": 4738,
      "/m/0171": 4739,
      "/m/0133": 4740,
      "/m/0gqxm": 4741,
      "/m/01hp": 4742,
      "/m/01mh_q": 4743,
      "x18": 4744,
      "vl7": 4745,
      "m4t": 4746,
      "/m/03nqn": 4747,
      "g9y": 4748,
      "y5m": 4749,
      "/m/0l6mp": 4750,
      "/m/0170pk": 4751,
      "/m/0m_v0": 4752,
      "/m/02x4x18": 4753,
      "/m/025sc50": 4754,
      "/m/09hnb": 4755,
      "ksx": 4756,
      "/m/0ggh": 4757,
      "/m/0bs8": 4758,
      "/m/016gr2": 4759,
      "/m/0262": 4760,
      "/m/01c42": 4761,
      "/m/06mt91": 4762,
      "/m/023k": 4763,
      "/m/03bxz7": 4764,
      "/m/099cng": 4765,
      "/m/01c427": 4766,
      "award": 4767,
      "set": 4768,
      "er/film_": 4769,
      "s_design": 4770,
      "/m/03pm": 4771,
      "/m/03j6": 4772,
      "/film/film_se": 4773,
      "/m/0ddd": 4774,
      "/m/0b_dy": 4775,
      "/m/089g": 4776,
      "ed./olympics/olympic_medal_honor": 4777,
      "t_design": 4778,
      "/m/01f7j": 4779,
      "/medals_award": 4780,
      "/olympics/olympic_games/medals_award": 4781,
      "/m/011yqc": 4782,
      "j_k": 4783,
      "wgn": 4784,
      "/m/05hj_k": 4785,
      "2p7": 4786,
      "/m/07_jd": 4787,
      "/m/05glt": 4788,
      "/m/023kzp": 4789,
      "sets_design": 4790,
      "er/film_sets_design": 4791,
      "/film/film_set_design": 4792,
      "/m/089g0h": 4793,
      "ed./olympics/olympic_medal_honor/medal": 4794,
      "/olympics/olympic_games/medals_awarded./olympics/olympic_medal_honor/medal": 4795,
      "er/film_sets_designed": 4796,
      "/film/film_set_designer/film_sets_designed": 4797,
      "./government/political_part": 4798,
      "/ice_": 4799,
      "ey/": 4800,
      "tenure": 4801,
      "y/politician": 4802,
      "y./government/political_part": 4803,
      "/m/01fl": 4804,
      "/m/03v3": 4805,
      "/m/04v8": 4806,
      "/m/049n": 4807,
      "/m/05ld": 4808,
      "/m/07l5": 4809,
      "w0c": 4810,
      "y_tenure": 4811,
      "/m/01vsl": 4812,
      "ey_team/current_roster./sports/sports_team_roster/position": 4813,
      "this_part": 4814,
      "/m/018d": 4815,
      "nl9": 4816,
      "9tm": 4817,
      "/m/0cc5": 4818,
      "s_in_this_part": 4819,
      "/m/0bfvw2": 4820,
      "/government/political_party/politician": 4821,
      "hockey/": 4822,
      "hockey_team/current_roster./sports/sports_team_roster/position": 4823,
      "/m/0147dk": 4824,
      "/m/0jz9f": 4825,
      "/ice_hockey/": 4826,
      "y./government/political_party_tenure": 4827,
      "s_in_this_party./government/political_party_tenure": 4828,
      "/government/political_party/politicians_in_this_party./government/political_party_tenure": 4829,
      "/ice_hockey/hockey_team/current_roster./sports/sports_team_roster/position": 4830,
      "/government/political_party/politicians_in_this_party./government/political_party_tenure/politician": 4831,
      "6m": 4832,
      "st/cont": 4833,
      "road": 4834,
      "ent/artist": 4835,
      "/broad": 4836,
      "/m/0872": 4837,
      "/m/0fdy": 4838,
      "/m/026d": 4839,
      "/m/02g3": 4840,
      "/m/01z9": 4841,
      "/m/0237": 4842,
      "/m/0yl": 4843,
      "/m/04rrx": 4844,
      "cast/cont": 4845,
      "/m/04wvh": 4846,
      "724": 4847,
      "/m/0dvld": 4848,
      "/m/0794g": 4849,
      "/broadcast/cont": 4850,
      "/m/0872p_c": 4851,
      "/m/0fdys": 4852,
      "/m/04wvhz": 4853,
      "/broadcast/content/artist": 4854,
      "vqf": 4855,
      "znt": 4856,
      "/m/0d2b": 4857,
      "/m/0161c": 4858,
      "/m/01vvb": 4859,
      "/m/01wv": 4860,
      "/m/01qbl": 4861,
      "/m/030znt": 4862,
      "/m/047vn": 4863,
      "/m/021_": 4864,
      "rng": 4865,
      "351": 4866,
      "/m/011yp": 4867,
      "/m/06b_j": 4868,
      "/m/082fr": 4869,
      "/m/0fbvqf": 4870,
      "/m/0gn30": 4871,
      "/m/0c3351": 4872,
      "/m/0237fw": 4873,
      "/m/0d2b38": 4874,
      "/m/01vvb4m": 4875,
      "5m": 4876,
      "iz": 4877,
      "ial": 4878,
      "lld": 4879,
      "ation_of": 4880,
      "/m/049x": 4881,
      "/people/profession": 4882,
      "/m/096": 4883,
      "/m/0gp": 4884,
      "/m/0dl5": 4885,
      "/m/0bth": 4886,
      "/m/02hv4": 4887,
      "/m/0161": 4888,
      "/m/05zlld": 4889,
      "/sports/sports_position/players./sports/sports_team_roster/position": 4890,
      "/m/01j_": 4891,
      "/m/0253": 4892,
      "/m/01lp8": 4893,
      "grn": 4894,
      "v_3_": 4895,
      "/m/01xy5": 4896,
      "/m/03cd": 4897,
      "9lv": 4898,
      "/m/0fpv_3_": 4899,
      "/m/01vvycq": 4900,
      "/m/09fq": 4901,
      "/m/01vsgrn": 4902,
      "/special": 4903,
      "/m/01wd9lv": 4904,
      "/m/047vnkj": 4905,
      "ization_of": 4906,
      "/m/049xgc": 4907,
      "/people/profession/special": 4908,
      "/m/0dl5d": 4909,
      "/m/02hv44_": 4910,
      "/m/05zlld0": 4911,
      "/m/01xy5l_": 4912,
      "/people/profession/specialization_of": 4913,
      "5d": 4914,
      "wck": 4915,
      "/m/06z": 4916,
      "/m/02lfn": 4917,
      "/m/02g3v6": 4918,
      "/m/03f7": 4919,
      "dwq": 4920,
      "/m/0412": 4921,
      "/m/06f41": 4922,
      "/m/06q1r": 4923,
      "/m/0bwh6": 4924,
      "/m/09wj5": 4925,
      "/m/04bdxl": 4926,
      "/m/025m8l": 4927,
      "/m/02lfns": 4928,
      "_appearances./tv/tv_regular_personal_": 4929,
      "bck": 4930,
      "der": 4931,
      "her": 4932,
      "xan": 4933,
      "/m/0t_": 4934,
      "/ale": 4935,
      "sts": 4936,
      "ersonality": 4937,
      "/tv_regular": 4938,
      "erests": 4939,
      "/m/0kj": 4940,
      "/tv/tv_personality": 4941,
      "/m/017z": 4942,
      "/m/0mn": 4943,
      "/m/019n": 4944,
      "appearance/program": 4945,
      "/m/05qbck": 4946,
      "/user/ale": 4947,
      "hy/philosop": 4948,
      "m4yw": 4949,
      "/m/03lt8": 4950,
      "/m/06b0d2": 4951,
      "/m/0bpm4yw": 4952,
      "/interests": 4953,
      "/m/0g824": 4954,
      "/philosophy/philosop": 4955,
      "/m/01pcq3": 4956,
      "_appearances./tv/tv_regular_personal_appearance/program": 4957,
      "der/philosophy/philosop": 4958,
      "her/interests": 4959,
      "xander/philosophy/philosop": 4960,
      "/tv_regular_appearances./tv/tv_regular_personal_appearance/program": 4961,
      "/tv/tv_personality/tv_regular_appearances./tv/tv_regular_personal_appearance/program": 4962,
      "/m/05qbckf": 4963,
      "/user/alexander/philosophy/philosop": 4964,
      "/m/03lt8g": 4965,
      "/user/alexander/philosophy/philosopher/interests": 4966,
      "84": 4967,
      "89": 4968,
      "dqp": 4969,
      "j4": 4970,
      "tcg": 4971,
      "tm4": 4972,
      "yj": 4973,
      "/m/0214": 4974,
      "/m/069": 4975,
      "/m/0cv3": 4976,
      "/m/0jt": 4977,
      "/m/0k4f": 4978,
      "chw": 4979,
      "/m/0mdqp": 4980,
      "/m/025n": 4981,
      "m4g": 4982,
      "rn4": 4983,
      "1h5": 4984,
      "/m/083chw": 4985,
      "/m/0cv3w": 4986,
      "bo": 4987,
      "hr": 4988,
      "al_bo": 4989,
      "mp9": 4990,
      "/m/09tq": 4991,
      "/m/0cp": 4992,
      "/m/0f7hc": 4993,
      "/m/0kp": 4994,
      "/government/governmental_bo": 4995,
      "/m/027y": 4996,
      "/m/01f1": 4997,
      "/m/02bn": 4998,
      "/m/01x6": 4999,
      "/members./government/government_position_held/legislative_sessions": 5000,
      "v3q": 5001,
      "/m/023p": 5002,
      "/m/04gb7": 5003,
      "/m/0yz": 5004,
      "/m/09qvc": 5005,
      "565": 5006,
      "/m/0319l": 5007,
      "_7n": 5008,
      "dy/members./government/government_position_held/legislative_sessions": 5009,
      "/government/politician/government_positions_held./government/government_position_held/jurisdiction_of_office": 5010,
      "/m/0cfdd": 5011,
      "/m/09x3r": 5012,
      "/m/017_qw": 5013,
      "/m/0dzlbx": 5014,
      "/m/016vg8": 5015,
      "/m/027pfg": 5016,
      "/government/governmental_body/members./government/government_position_held/legislative_sessions": 5017,
      "/m/09qvc0": 5018,
      "08": 5019,
      "jhm": 5020,
      "/m/03s": 5021,
      "/m/07hw": 5022,
      "/m/07df": 5023,
      "/m/08hm": 5024,
      "/m/015pk": 5025,
      "/m/01p9": 5026,
      "/m/02x25": 5027,
      "/m/025m8": 5028,
      "9c0": 5029,
      "/m/0d0x8": 5030,
      "56b7": 5031,
      "/m/04xvh": 5032,
      "0xl": 5033,
      "/m/0cjsxp": 5034,
      "/m/09k56b7": 5035,
      "/m/01rh0w": 5036,
      "/m/08hsww": 5037,
      "/m/020_95": 5038,
      "/m/07hwkr": 5039,
      "/m/07dfk": 5040,
      "/m/08hmch": 5041,
      "/m/02x258x": 5042,
      "/m/025m8y": 5043,
      "/m/04xvh5": 5044,
      "8jw": 5045,
      "s2h8": 5046,
      "ts9": 5047,
      "/m/04sh": 5048,
      "/m/06t6": 5049,
      "/m/0bz6": 5050,
      "/m/0jzp": 5051,
      "/m/0hf": 5052,
      "/m/0155w": 5053,
      "/m/01531": 5054,
      "/m/018w8": 5055,
      "/m/01ps2h8": 5056,
      "/m/014g": 5057,
      "1wg": 5058,
      "/m/0127m": 5059,
      "/m/01rw": 5060,
      "4w8": 5061,
      "jwc": 5062,
      "skx": 5063,
      "vc5": 5064,
      "internation": 5065,
      "/education/university/internation": 5066,
      "ky3": 5067,
      "hpx": 5068,
      "/m/0gkts9": 5069,
      "/m/0828jw": 5070,
      "/m/0dgskx": 5071,
      "/m/0jqn5": 5072,
      "/m/02k84w": 5073,
      "/m/01z7_f": 5074,
      "/m/0jzphpx": 5075,
      "/m/0127m7": 5076,
      "/education/university/international_tuition./measurement_unit/dated_money_value/currency": 5077,
      "1sm": 5078,
      "gkf": 5079,
      "lt": 5080,
      "pv": 5081,
      "x5": 5082,
      "/m/011x": 5083,
      "/m/03sb": 5084,
      "/m/052h": 5085,
      "/m/09s": 5086,
      "/m/06x4": 5087,
      "/m/076": 5088,
      "/m/0dzf_": 5089,
      "/m/0b_": 5090,
      "/m/0fm": 5091,
      "/m/0f_n": 5092,
      "bp7": 5093,
      "byh": 5094,
      "/m/012x4": 5095,
      "/m/02g8": 5096,
      "/m/03gh4": 5097,
      "lyq": 5098,
      "x7f": 5099,
      "3p7": 5100,
      "1dz": 5101,
      "2lk": 5102,
      "9wd": 5103,
      "/m/07h34": 5104,
      "/m/01vw37m": 5105,
      "/m/07g1sm": 5106,
      "/m/0bt4r4": 5107,
      "/m/09b3v": 5108,
      "/m/0fkvn": 5109,
      "/m/02rh1dz": 5110,
      "/m/04hwbq": 5111,
      "/m/0f_nbyh": 5112,
      "/m/012x4t": 5113,
      "6s": 5114,
      "77x": 5115,
      "9_m": 5116,
      "wd": 5117,
      "/m/01pp": 5118,
      "/m/037m": 5119,
      "/m/05t": 5120,
      "/m/06wrt": 5121,
      "/m/0d68": 5122,
      "/m/0fg": 5123,
      "/m/015q": 5124,
      "/m/0260": 5125,
      "/m/0m0": 5126,
      "/m/03rt": 5127,
      "sn8": 5128,
      "v3c": 5129,
      "/m/09qv3c": 5130,
      "x7s": 5131,
      "927": 5132,
      "z28": 5133,
      "zm5h": 5134,
      "/m/03ym1": 5135,
      "n8b": 5136,
      "/m/0789_m": 5137,
      "/m/062zm5h": 5138,
      "/m/07m77x": 5139,
      "/m/02x4wr9": 5140,
      "/m/02k856": 5141,
      "/m/02x4sn8": 5142,
      "/m/0h95927": 5143,
      "/m/0fj9f": 5144,
      "/m/037mh8": 5145,
      "/m/0d68qy": 5146,
      "488": 5147,
      "6q": 5148,
      "hvp": 5149,
      "/m/054g": 5150,
      "/m/09gq": 5151,
      "/m/07bx": 5152,
      "/m/0gmd": 5153,
      "/m/0dh": 5154,
      "/m/0c7": 5155,
      "/m/08jg": 5156,
      "/m/0j1": 5157,
      "/m/01vrz": 5158,
      "ppk": 5159,
      "/m/0lbj": 5160,
      "/m/01lb": 5161,
      "/m/03r0": 5162,
      "l09": 5163,
      "/m/04g5k": 5164,
      "/m/02yl": 5165,
      "5wz": 5166,
      "8n7": 5167,
      "9lm": 5168,
      "/m/05f7": 5169,
      "0x5": 5170,
      "/m/0bmhvp": 5171,
      "/m/0ggb": 5172,
      "/m/01xqqp": 5173,
      "/m/020h2v": 5174,
      "/m/03v3xp": 5175,
      "/m/09gq0x5": 5176,
      "/m/08jgk1": 5177,
      "/m/01vrz41": 5178,
      "/m/0lbj1": 5179,
      "/m/0bmhvpr": 5180,
      "1t6": 5181,
      "_9": 5182,
      "h1": 5183,
      "n1": 5184,
      "qz": 5185,
      "y7": 5186,
      "/m/02bp": 5187,
      "/m/0g4": 5188,
      "/m/0gmg": 5189,
      "/m/0171cm": 5190,
      "/m/01g0": 5191,
      "/m/0343h": 5192,
      "/m/014d": 5193,
      "/m/02f6y": 5194,
      "/m/0127s": 5195,
      "/m/05pdh": 5196,
      "/m/03hr1": 5197,
      "4vl": 5198,
      "/m/09qrn4": 5199,
      "/m/020f": 5200,
      "/m/05c1t6": 5201,
      "/m/0l6ny": 5202,
      "wnv": 5203,
      "/m/05w3f": 5204,
      "/m/0k049": 5205,
      "/m/0150t6": 5206,
      "/m/0gmgwnv": 5207,
      "/m/0127s7": 5208,
      "/m/05pdh86": 5209,
      "/m/03hr1p": 5210,
      "/m/05c1t6z": 5211,
      "./base/localfood": 5212,
      "57": 5213,
      "t4": 5214,
      "le./base/localfood": 5215,
      "/m/01bn": 5216,
      "/m/03zq": 5217,
      "/m/03mdt": 5218,
      "/m/0486": 5219,
      "/m/040_": 5220,
      "_pd": 5221,
      "/m/092": 5222,
      "/m/0bs5": 5223,
      "/m/089f": 5224,
      "ity/seasonal_month": 5225,
      "/m/0168": 5226,
      "ility/seasonal_month": 5227,
      "/m/0h0yt": 5228,
      "/m/05ztj": 5229,
      "/m/0p_pd": 5230,
      "/m/019l": 5231,
      "/m/0gqng": 5232,
      "np0": 5233,
      "/m/04xrx": 5234,
      "5q3": 5235,
      "/m/0bdw1g": 5236,
      "/m/07024": 5237,
      "4c9": 5238,
      "/m/011k_j": 5239,
      "/m/02l4rh": 5240,
      "/seasonal_month/produce_availab": 5241,
      "/base/localfood/seasonal_month/produce_availab": 5242,
      "/produce_availability/seasonal_month": 5243,
      "/m/0g768": 5244,
      "/m/03bnv": 5245,
      "/m/0c4ys": 5246,
      "le./base/localfood/produce_availability/seasonal_month": 5247,
      "/m/03zqc1": 5248,
      "/m/0486tv": 5249,
      "/m/089fss": 5250,
      "/m/05ztjjw": 5251,
      "/base/localfood/seasonal_month/produce_available./base/localfood/produce_availability/seasonal_month": 5252,
      "/base/localfood/seasonal_month/produce_available./base/localfood/produce_availability/seasonal_months": 5253,
      "0g": 5254,
      "0r": 5255,
      "2f": 5256,
      "aworld": 5257,
      "hint": 5258,
      "lsn": 5259,
      "nd": 5260,
      "xg": 5261,
      "y34": 5262,
      "arden": 5263,
      "ataworld": 5264,
      "/film/sp": 5265,
      "it_to": 5266,
      "/spl": 5267,
      "/garden": 5268,
      "/m/09p0": 5269,
      "/film_performance_type": 5270,
      "/m/0gvs": 5271,
      "./film/performance/film": 5272,
      "/dataworld": 5273,
      "/m/01vksx": 5274,
      "film_performance_type": 5275,
      "ing_hint": 5276,
      "/m/01pq": 5277,
      "/m/0134": 5278,
      "ecial_": 5279,
      "52p6": 5280,
      "rf3": 5281,
      "/m/03cw4": 5282,
      "cbq": 5283,
      "/m/04n52p6": 5284,
      "/m/04rlf": 5285,
      "/m/03nn": 5286,
      "2wm": 5287,
      "/m/03w5xm": 5288,
      "tc5": 5289,
      "/m/0cqgl9": 5290,
      "/m/0bdx29": 5291,
      "/m/02snj9": 5292,
      "/film/special_": 5293,
      "/split_to": 5294,
      "/gardening_hint": 5295,
      "/film_performance_type./film/performance/film": 5296,
      "/dataworld/gardening_hint": 5297,
      "film_performance_type/film_performance_type./film/performance/film": 5298,
      "/m/03cw411": 5299,
      "/film/special_film_performance_type/film_performance_type./film/performance/film": 5300,
      "/dataworld/gardening_hint/split_to": 5301,
      "0r1": 5302,
      "0dc": 5303,
      "__7": 5304,
      "/m/0286": 5305,
      "/m/0l7": 5306,
      "/m/0l98": 5307,
      "/m/0263": 5308,
      "/m/01gr": 5309,
      "/m/02zd4": 5310,
      "/m/03q0r1": 5311,
      "/m/01r93l": 5312,
      "vwz": 5313,
      "bx3": 5314,
      "/m/09q5w": 5315,
      "zwt": 5316,
      "/m/06f0dc": 5317,
      "/m/07p__7": 5318,
      "7h7": 5319,
      "/m/070m6c": 5320,
      "/m/01dw4q": 5321,
      "/m/03m6t5": 5322,
      "/m/03v1s": 5323,
      "/m/02kxbx3": 5324,
      "/m/0xnvg": 5325,
      "/m/0l98s": 5326,
      "/m/02zd460": 5327,
      "/m/09q5w2": 5328,
      "gjwc": 5329,
      "mh": 5330,
      "v9q": 5331,
      "/m/0mp": 5332,
      "/m/033h": 5333,
      "/m/04vr": 5334,
      "/m/05kj_": 5335,
      "/m/0g_w": 5336,
      "/m/0g5p": 5337,
      "/m/0c0n": 5338,
      "/m/0btpx": 5339,
      "/m/02rdx": 5340,
      "b87": 5341,
      "/m/01cs": 5342,
      "scs": 5343,
      "/m/02fgp": 5344,
      "/m/01qscs": 5345,
      "snc": 5346,
      "/m/03qgjwc": 5347,
      "/m/02822": 5348,
      "/m/01yz": 5349,
      "hgv": 5350,
      "/m/03f5": 5351,
      "/m/01tf": 5352,
      "/m/011ywj": 5353,
      "/m/060j8": 5354,
      "/m/011zd3": 5355,
      "g7n": 5356,
      "/m/05lb87": 5357,
      "/m/0kszw": 5358,
      "/m/02fqrf": 5359,
      "/m/04vr_f": 5360,
      "/m/0c0nhgv": 5361,
      "/m/02rdxsh": 5362,
      "/m/060j8b": 5363,
      "0v": 5364,
      "/m/032w": 5365,
      "/m/01vrt": 5366,
      "/m/0l1": 5367,
      "/m/01cmp9": 5368,
      "/m/03hj5": 5369,
      "7ql": 5370,
      "g51": 5371,
      "/m/09l3p": 5372,
      "/m/08phg9": 5373,
      "/m/015f7": 5374,
      "/m/06q8hf": 5375,
      "/m/0kfv9": 5376,
      "/m/02fn5r": 5377,
      "/m/01hp22": 5378,
      "/m/0gghm": 5379,
      "/m/0214km": 5380,
      "/m/01vrt_c": 5381,
      "74": 5382,
      "glj": 5383,
      "lq": 5384,
      "ym": 5385,
      "/m/01t6": 5386,
      "/m/031y": 5387,
      "/m/04ly": 5388,
      "/m/049f": 5389,
      "/m/04hq": 5390,
      "/m/05c4": 5391,
      "/m/07w0": 5392,
      "/m/07k5": 5393,
      "/m/0cl": 5394,
      "/fam": 5395,
      "/m/016fnb": 5396,
      "ily": 5397,
      "/m/01v0": 5398,
      "/m/01718": 5399,
      "/m/027g": 5400,
      "/m/01p4vl": 5401,
      "/m/0m6": 5402,
      "/m/01crd": 5403,
      "/music/instrument/fam": 5404,
      "/m/09qj50": 5405,
      "/m/021bm": 5406,
      "/m/02dtg": 5407,
      "z2s": 5408,
      "9h3": 5409,
      "kfs": 5410,
      "hxv": 5411,
      "/m/0dlglj": 5412,
      "/m/0p__8": 5413,
      "/m/0170s4": 5414,
      "/m/02x1z2s": 5415,
      "/m/03h_fk5": 5416,
      "/m/02q690_": 5417,
      "/m/054g1r": 5418,
      "/m/07w0v": 5419,
      "/m/01crd5": 5420,
      "/music/instrument/family": 5421,
      "/m/021bmf": 5422,
      "04": 5423,
      "b30": 5424,
      "ire": 5425,
      "/m/01bj": 5426,
      "/m/02qf": 5427,
      "/m/05cl": 5428,
      "/m/0571": 5429,
      "/m/05y5": 5430,
      "/m/05xp": 5431,
      "/m/09cr8": 5432,
      "/m/0697": 5433,
      "art_d": 5434,
      "/m/0dwr": 5435,
      "/m/018p": 5436,
      "/m/027h": 5437,
      "/m/0m66": 5438,
      "/m/02v1m": 5439,
      "/m/02vyw": 5440,
      "/m/02x8m": 5441,
      "/m/03qbnj": 5442,
      "ction_by": 5443,
      "/m/03fn": 5444,
      "/m/040r": 5445,
      "/m/03k50": 5446,
      "/film/film/film_art_d": 5447,
      "vp3": 5448,
      "3n1": 5449,
      "/m/0dg3n1": 5450,
      "/m/04vmp": 5451,
      "/m/043tvp3": 5452,
      "/m/070mff": 5453,
      "/m/011k1h": 5454,
      "/m/01jrbb": 5455,
      "/m/026mfs": 5456,
      "irection_by": 5457,
      "/m/0dwr4": 5458,
      "/m/0m66w": 5459,
      "/m/02v1m7": 5460,
      "/film/film/film_art_direction_by": 5461,
      "lb": 5462,
      "lk": 5463,
      "m6k": 5464,
      "/m/0g9l": 5465,
      "/m/016yp": 5466,
      "/m/0163v": 5467,
      "/m/0jgx": 5468,
      "/m/0h1m": 5469,
      "/m/0kjg": 5470,
      "/m/01wgc": 5471,
      "/m/02_n3z": 5472,
      "/m/027b9": 5473,
      "/m/02nxh": 5474,
      "/m/01lj9": 5475,
      "/m/09qs0": 5476,
      "/m/01c99j": 5477,
      "/m/0gcs9": 5478,
      "/m/025jfl": 5479,
      "/m/0fhpv4": 5480,
      "/m/01vsl3_": 5481,
      "/m/0g9lm2": 5482,
      "/m/016ypb": 5483,
      "/m/0kjgl": 5484,
      "/m/01wgcvn": 5485,
      "/m/02nxhr": 5486,
      "/m/09qs08": 5487,
      "1st": 5488,
      "21d": 5489,
      "2z4": 5490,
      "_r": 5491,
      "mt6": 5492,
      "mt9b": 5493,
      "nc": 5494,
      "_ch": 5495,
      "/m/06j8": 5496,
      "/m/0gtx": 5497,
      "/m/0b6t": 5498,
      "/m/0f2w": 5499,
      "/m/0pv3": 5500,
      "/m/01c92": 5501,
      "/m/01kwsg": 5502,
      "/m/0d0kn": 5503,
      "/m/01s21d": 5504,
      "/m/03hmt9b": 5505,
      "/m/02yv6": 5506,
      "/m/011yxg": 5507,
      "/m/0dq6": 5508,
      "/m/06yxd": 5509,
      "/m/01vsy7t": 5510,
      "/m/0sz28": 5511,
      "/m/01wwvc5": 5512,
      "/m/0hn10": 5513,
      "/m/0b6tzs": 5514,
      "/m/0f2wj": 5515,
      "/m/0pv3x": 5516,
      "/m/01c92g": 5517,
      "/m/01s21dg": 5518,
      "/m/02yv6b": 5519,
      "_3": 5520,
      "_4": 5521,
      "gn": 5522,
      "/m/02dw": 5523,
      "/m/0425": 5524,
      "/m/0693l": 5525,
      "/m/0g2l": 5526,
      "/m/0gwj": 5527,
      "_ms": 5528,
      "c7p": 5529,
      "/m/0j0k": 5530,
      "/m/0hv8": 5531,
      "/m/0lx": 5532,
      "/m/0mx": 5533,
      "/m/0126": 5534,
      "/m/01n4w": 5535,
      "/m/01qb5": 5536,
      "95y": 5537,
      "yk8": 5538,
      "/m/02y8z": 5539,
      "/m/03xp8": 5540,
      "/m/0kbvv": 5541,
      "/m/054ky1": 5542,
      "/m/0h1nt": 5543,
      "/m/01vrnsk": 5544,
      "/m/015cjr": 5545,
      "/m/024tcq": 5546,
      "/m/027c95y": 5547,
      "/m/04f52jw": 5548,
      "/m/059f4": 5549,
      "/m/0161sp": 5550,
      "/m/0g2lq": 5551,
      "/m/03xp8d5": 5552,
      "p_v": 5553,
      "sz": 5554,
      "aract": 5555,
      "on_ch": 5556,
      "er_role": 5557,
      "er/season": 5558,
      "s./base/saturdaynightlive/snl": 5559,
      "st_memb": 5560,
      "stc3": 5561,
      "/m/02mx": 5562,
      "m_fh": 5563,
      "_cc": 5564,
      "/m/0d_": 5565,
      "/m/0drt": 5566,
      "/tv/n": 5567,
      "/tv_regular_personal_": 5568,
      "/m/0fn": 5569,
      "/m/0167": 5570,
      "/m/0jzc": 5571,
      "_member/season": 5572,
      "/m/01vn": 5573,
      "ch9": 5574,
      "/m/015gr": 5575,
      "/m/0l998": 5576,
      "/m/02q_cc": 5577,
      "/m/01gc7": 5578,
      "/m/025vw": 5579,
      "/m/02kxb": 5580,
      "/m/01qq": 5581,
      "/m/01mk6": 5582,
      "/m/02wg": 5583,
      "/m/024n3z": 5584,
      "_season": 5585,
      "/cast_memb": 5586,
      "/m/06ms6": 5587,
      "4q7": 5588,
      "vf4": 5589,
      "/m/09qvf4": 5590,
      "rxgm": 5591,
      "_cast_member/season": 5592,
      "/m/043zg": 5593,
      "_tenure/cast_memb": 5594,
      "/m/03nm_fh": 5595,
      "/m/02sp_v": 5596,
      "mxq": 5597,
      "/m/0f4_l": 5598,
      "/m/05hjn": 5599,
      "/m/0l6vl": 5600,
      "/m/02pprs": 5601,
      "/m/0gvstc3": 5602,
      "/m/053rxgm": 5603,
      "/m/0c0zq": 5604,
      "appearances./tv/tv_regular_personal_appearance/person": 5605,
      "/m/0227vl": 5606,
      "/m/01j7rd": 5607,
      "/m/026p4q7": 5608,
      "/base/saturdaynightlive/snl_cast_member/season": 5609,
      "/m/0h3mrc": 5610,
      "/m/0j1z8": 5611,
      "/m/04ly1": 5612,
      "/m/0gwjw0c": 5613,
      "aracter_role": 5614,
      "on_character_role": 5615,
      "s./base/saturdaynightlive/snl_season": 5616,
      "/tv/non_character_role": 5617,
      "/tv_regular_personal_appearances./tv/tv_regular_personal_appearance/person": 5618,
      "/m/015grj": 5619,
      "/m/02kxbwx": 5620,
      "_tenure/cast_members": 5621,
      "/m/05hjnw": 5622,
      "/base/saturdaynightlive/snl_cast_member/seasons./base/saturdaynightlive/snl_season": 5623,
      "/tv/non_character_role/tv_regular_personal_appearances./tv/tv_regular_personal_appearance/person": 5624,
      "/base/saturdaynightlive/snl_cast_member/seasons./base/saturdaynightlive/snl_season_tenure/cast_members": 5625,
      "2d": 5626,
      "7vq": 5627,
      "_vw": 5628,
      "hkz": 5629,
      "nv": 5630,
      "w9": 5631,
      "/m/01qh": 5632,
      "/m/03s5": 5633,
      "/m/05m_": 5634,
      "/m/09hd": 5635,
      "/m/016jn": 5636,
      "y_ky": 5637,
      "/m/0h5g": 5638,
      "/m/01wl": 5639,
      "/m/02x7vq": 5640,
      "/m/01jq": 5641,
      "/m/03c6": 5642,
      "z8m": 5643,
      "/m/03ln8b": 5644,
      "/m/07h565": 5645,
      "/m/0170qf": 5646,
      "/m/086sj": 5647,
      "/m/063y_ky": 5648,
      "/m/03cfjg": 5649,
      "/m/026dg51": 5650,
      "/m/025352": 5651,
      "/m/04hqz": 5652,
      "/m/027gs1_": 5653,
      "/m/016jny": 5654,
      "/m/0h5g_": 5655,
      "5qb": 5656,
      "yrh": 5657,
      "/m/02mq": 5658,
      "/m/0325": 5659,
      "/m/03j0": 5660,
      "/m/0g0": 5661,
      "/m/0c40": 5662,
      "/m/0c4f": 5663,
      "/m/0hr": 5664,
      "/m/015t7": 5665,
      "/sports/sports_position/players./american_football/football_": 5666,
      "/m/014z": 5667,
      "/m/01jp": 5668,
      "/m/02f5qb": 5669,
      "/m/01hv": 5670,
      "/m/05q5": 5671,
      "/m/03fyrh": 5672,
      "/m/0404j": 5673,
      "10g": 5674,
      "/m/03ndd": 5675,
      "xwd": 5676,
      "s0w": 5677,
      "g7l": 5678,
      "/m/0dq3c": 5679,
      "d57": 5680,
      "/m/0_jm": 5681,
      "/m/09p3": 5682,
      "/m/0g2c8": 5683,
      "/m/0bdjd": 5684,
      "/m/030_1m": 5685,
      "/m/03qnc6q": 5686,
      "/m/09r9dp": 5687,
      "/m/01dy7j": 5688,
      "/m/03rwz3": 5689,
      "/m/0jkvj": 5690,
      "/m/03nnm4t": 5691,
      "/m/0lx2l": 5692,
      "/m/0c4f4": 5693,
      "/m/015t7v": 5694,
      "/sports/sports_position/players./american_football/football_historical_roster_position/position_s": 5695,
      "/m/0404j37": 5696,
      "7rn": 5697,
      "8j": 5698,
      "h9k": 5699,
      "mhf": 5700,
      "/m/0_7": 5701,
      "/m/01bp": 5702,
      "/m/09v8": 5703,
      "/m/06l3": 5704,
      "/m/0dry": 5705,
      "/m/0dr3": 5706,
      "/m/0c_m": 5707,
      "/m/01vtj": 5708,
      "/m/0hq": 5709,
      "/m/01540": 5710,
      "/m/0lb": 5711,
      "/m/0pmhf": 5712,
      "/m/027m": 5713,
      "/m/025r": 5714,
      "/m/02prw": 5715,
      "/m/012wg": 5716,
      "t58": 5717,
      "38b": 5718,
      "/m/064lsn": 5719,
      "9f9": 5720,
      "/m/04w7rn": 5721,
      "9xj": 5722,
      "/m/0cqh46": 5723,
      "/m/0dc_ms": 5724,
      "/m/0vmt": 5725,
      "/m/0bj9k": 5726,
      "/m/07tgn": 5727,
      "/m/07_f2": 5728,
      "/m/0dryh9k": 5729,
      "/m/0dr3sl": 5730,
      "/m/01vtj38": 5731,
      "tz": 5732,
      "wwl": 5733,
      "/m/0vg": 5734,
      "/m/0210": 5735,
      "/m/02cq": 5736,
      "/m/06x7": 5737,
      "/m/0661": 5738,
      "/m/0bt7": 5739,
      "/m/0163": 5740,
      "/m/0166": 5741,
      "/m/05z96": 5742,
      "/m/07szy": 5743,
      "/m/02_7t": 5744,
      "/m/01gtc": 5745,
      "/m/019vh": 5746,
      "/m/01jw": 5747,
      "/m/01c9jp": 5748,
      "/m/01fp": 5749,
      "/m/02gvwz": 5750,
      "/m/01rg": 5751,
      "/m/0478_": 5752,
      "/m/024d": 5753,
      "/m/0ywrc": 5754,
      "z15s": 5755,
      "/m/0432": 5756,
      "m4p": 5757,
      "3m1": 5758,
      "/m/05cj4r": 5759,
      "/m/0gkz15s": 5760,
      "/m/0bmnm": 5761,
      "/m/06rgq": 5762,
      "/m/0vgkd": 5763,
      "/m/0661m4p": 5764,
      "/m/019vhk": 5765,
      "/m/0478__m": 5766,
      "r2x": 5767,
      "syp": 5768,
      "/m/07jj": 5769,
      "/m/07z5": 5770,
      "/m/0ggx": 5771,
      "/m/0dr": 5772,
      "/m/0cmc": 5773,
      "/m/01wmx": 5774,
      "/m/018m": 5775,
      "/m/019r": 5776,
      "/m/013q0": 5777,
      "vqs": 5778,
      "lpb6": 5779,
      "mcj": 5780,
      "g8v": 5781,
      "v9m": 5782,
      "/m/03bx2lk": 5783,
      "6ds": 5784,
      "/m/0ds35l": 5785,
      "4xc": 5786,
      "/m/04ls": 5787,
      "/m/0gvx_": 5788,
      "/m/015pxr": 5789,
      "/m/0svqs": 5790,
      "/m/016szr": 5791,
      "/m/06_kh": 5792,
      "/m/02cbhg": 5793,
      "/m/02grdc": 5794,
      "/m/054lpb6": 5795,
      "/m/017j69": 5796,
      "/m/0gd_b_": 5797,
      "/m/0cc5mcj": 5798,
      "/m/07jjt": 5799,
      "/m/0ggx5q": 5800,
      "/m/01wmxfs": 5801,
      "/m/0ds35l9": 5802,
      "0c7": 5803,
      "1s": 5804,
      "76": 5805,
      "sby": 5806,
      "/m/05tg": 5807,
      "/m/06zt": 5808,
      "/m/07cy": 5809,
      "/m/0c3p7": 5810,
      "/m/08w": 5811,
      "/m/081y": 5812,
      "/m/0fpk": 5813,
      "t_z": 5814,
      "/m/0146": 5815,
      "/m/01kv4": 5816,
      "/m/012t_z": 5817,
      "/m/02bh9": 5818,
      "/m/02zf": 5819,
      "/m/03q4": 5820,
      "/m/047s": 5821,
      "/m/01tnx": 5822,
      "v4g": 5823,
      "vyx": 5824,
      "/m/03xsby": 5825,
      "_ym": 5826,
      "5k5": 5827,
      "/m/0cq8": 5828,
      "/m/070w7s": 5829,
      "/m/0dgd_": 5830,
      "kk4": 5831,
      "/m/0gd0c7": 5832,
      "/m/024tkd": 5833,
      "/m/07tg4": 5834,
      "/m/01tfck": 5835,
      "/m/06ztvyx": 5836,
      "/m/07cyl": 5837,
      "/m/081yw": 5838,
      "/m/01kv4mb": 5839,
      "/m/01tnxc": 5840,
      "/m/0gd0c7x": 5841,
      "_sn": 5842,
      "/m/03x7": 5843,
      "/m/04b_": 5844,
      "/m/09j": 5845,
      "/m/0fr": 5846,
      "/m/0j_t": 5847,
      "/m/0k3": 5848,
      "/m/02l6h": 5849,
      "/m/01gt": 5850,
      "/m/013zd": 5851,
      "/m/01hx": 5852,
      "/m/03q4n": 5853,
      "/m/01d0": 5854,
      "/m/0yy": 5855,
      "cbg": 5856,
      "g98": 5857,
      "/m/048q": 5858,
      "/m/05kr_": 5859,
      "30f": 5860,
      "y57": 5861,
      "smy": 5862,
      "yn3": 5863,
      "/m/0c8tk": 5864,
      "85g": 5865,
      "/m/01cky2": 5866,
      "/m/04tgp": 5867,
      "/m/0755wz": 5868,
      "/m/077g7n": 5869,
      "/m/026g73": 5870,
      "/m/0flw86": 5871,
      "/m/02vntj": 5872,
      "/m/0lbbj": 5873,
      "/m/013zdg": 5874,
      "/m/03q4nz": 5875,
      "1jw": 5876,
      "1sq": 5877,
      "g3": 5878,
      "/m/02tk": 5879,
      "/m/03t2": 5880,
      "/m/04yk": 5881,
      "/m/051y": 5882,
      "/m/098": 5883,
      "/m/0bs0": 5884,
      "/m/0jc": 5885,
      "/m/0180mw": 5886,
      "/m/02_1": 5887,
      "/m/0mh": 5888,
      "/m/025s": 5889,
      "/m/01l1sq": 5890,
      "sxz": 5891,
      "/m/01qv": 5892,
      "/m/01qzy": 5893,
      "dn_": 5894,
      "/m/0241jw": 5895,
      "gp26": 5896,
      "khw": 5897,
      "/m/0bx0l": 5898,
      "9b0": 5899,
      "9p4": 5900,
      "/m/0fpgp26": 5901,
      "/m/05vsxz": 5902,
      "/m/0gnbw": 5903,
      "/m/02lfcm": 5904,
      "/m/061dn_": 5905,
      "/m/033hn8": 5906,
      "/m/01qzyz": 5907,
      "1dw": 5908,
      "981": 5909,
      "f0": 5910,
      "f_m": 5911,
      "/m/021q": 5912,
      "/m/03y_": 5913,
      "/m/04kj": 5914,
      "/m/05sx": 5915,
      "/m/0615": 5916,
      "/m/0jzw": 5917,
      "/m/0ld": 5918,
      "/m/02qkt": 5919,
      "/m/01438g": 5920,
      "/m/01dp": 5921,
      "/m/01shy7": 5922,
      "5hs": 5923,
      "5hw": 5924,
      "4vxd": 5925,
      "53m": 5926,
      "/m/05f4vxd": 5927,
      "/m/03y82": 5928,
      "pm3": 5929,
      "/m/07fpm3": 5930,
      "/m/06w2": 5931,
      "/m/03_wj_": 5932,
      "/m/026lgs": 5933,
      "/m/01309x": 5934,
      "/m/095zlp": 5935,
      "/m/02c638": 5936,
      "/m/0hfzr": 5937,
      "/m/06151l": 5938,
      "/m/03y82t6": 5939,
      "7hn": 5940,
      "f4": 5941,
      "/m/0521": 5942,
      "/m/09m6k": 5943,
      "/m/07gyv": 5944,
      "/m/0c00": 5945,
      "t_j": 5946,
      "y_5": 5947,
      "ch7": 5948,
      "/m/05zr": 5949,
      "/m/01w60": 5950,
      "/m/017f": 5951,
      "/m/0181dw": 5952,
      "sdpk": 5953,
      "/m/02r1c": 5954,
      "/m/0258": 5955,
      "/m/0gq_d": 5956,
      "/m/01fmy": 5957,
      "/m/01q0": 5958,
      "/m/03qsdpk": 5959,
      "/m/01d38g": 5960,
      "/m/05q8p": 5961,
      "/m/0qcr": 5962,
      "/m/02y0": 5963,
      "/m/0y3": 5964,
      "3y3": 5965,
      "vyf": 5966,
      "gy0": 5967,
      "4yg": 5968,
      "2wc": 5969,
      "3j9": 5970,
      "j_0n": 5971,
      "/m/03yj_0n": 5972,
      "/m/05002": 5973,
      "/m/0993r": 5974,
      "/m/0443y3": 5975,
      "/m/0bt3j9": 5976,
      "wh1": 5977,
      "/m/0vzm": 5978,
      "/m/05sy_5": 5979,
      "/m/02lf70": 5980,
      "/m/02x2gy0": 5981,
      "/m/02gdjb": 5982,
      "/m/03shp": 5983,
      "/m/03j6c": 5984,
      "/m/0bth54": 5985,
      "/m/02bn_p": 5986,
      "/m/052hl": 5987,
      "/m/02bp37": 5988,
      "/m/09m6kg": 5989,
      "/m/01w60_p": 5990,
      "/m/02r1c18": 5991,
      "/m/05q8pss": 5992,
      "/m/050023": 5993,
      "22w": 5994,
      "59": 5995,
      "99": 5996,
      "cj": 5997,
      "d7": 5998,
      "fmm": 5999,
      "/m/0w0": 6000,
      "/m/01_f": 6001,
      "/m/01bb": 6002,
      "/m/0330": 6003,
      "/m/03s0w": 6004,
      "/m/04x_3": 6005,
      "/m/059kh": 6006,
      "/m/0ggj": 6007,
      "/m/0dgq": 6008,
      "/m/0bx_": 6009,
      "/m/0fhxv": 6010,
      "/m/016kj": 6011,
      "/m/01wy5m": 6012,
      "/m/0184j": 6013,
      "lcx": 6014,
      "/m/014gf": 6015,
      "/m/02f71": 6016,
      "/m/02f77": 6017,
      "/m/01hww": 6018,
      "t51": 6019,
      "pkw": 6020,
      "/m/02sj": 6021,
      "3r3": 6022,
      "spq": 6023,
      "txr": 6024,
      "/m/05lb30": 6025,
      "/m/0dwvl": 6026,
      "/m/080h2": 6027,
      "jml": 6028,
      "0ns": 6029,
      "/m/01ckcd": 6030,
      "/m/07kc_": 6031,
      "/m/02mt51": 6032,
      "/m/0407yfx": 6033,
      "/m/047csmy": 6034,
      "/m/02lnbg": 6035,
      "/m/01mqc_": 6036,
      "/m/0w0d": 6037,
      "/m/0ggjt": 6038,
      "/m/016kjs": 6039,
      "/m/0184jc": 6040,
      "/m/014gf8": 6041,
      "/m/02f716": 6042,
      "/m/01hww_": 6043,
      "4z6": 6044,
      "bbl": 6045,
      "xx": 6046,
      "xz": 6047,
      "/m/033f": 6048,
      "/m/05ty": 6049,
      "/m/07gp": 6050,
      "/m/0gbw": 6051,
      "/m/0cwy": 6052,
      "/m/0j43": 6053,
      "/m/0lbd": 6054,
      "/m/01pl": 6055,
      "/m/02lk": 6056,
      "/m/01gst": 6057,
      "/m/01gq0": 6058,
      "/m/0197tq": 6059,
      "/m/0nd": 6060,
      "/m/0d04z6": 6061,
      "/m/01dv": 6062,
      "/m/024bbl": 6063,
      "/m/035gj": 6064,
      "/m/01tw": 6065,
      "/m/040v": 6066,
      "swk": 6067,
      "rny": 6068,
      "/m/050ks": 6069,
      "/m/04fzk": 6070,
      "m6l": 6071,
      "/m/0bl2g": 6072,
      "/m/0bwfw": 6073,
      "fwd": 6074,
      "/m/09w1n": 6075,
      "/m/03hkch7": 6076,
      "qlk": 6077,
      "/m/017l96": 6078,
      "/m/01l2fn": 6079,
      "/m/017z49": 6080,
      "/m/03t22m": 6081,
      "/m/01fmys": 6082,
      "/m/05ty4m": 6083,
      "/m/07gp9": 6084,
      "/m/0gbwp": 6085,
      "/m/0cwy47": 6086,
      "/m/0j43swk": 6087,
      "/m/0lbd9": 6088,
      "/m/01gq0b": 6089,
      "/m/035gjq": 6090,
      "/m/0bwfwpj": 6091,
      "hz": 6092,
      "lv": 6093,
      "ndd": 6094,
      "s2k": 6095,
      "tlh": 6096,
      "/m/03ft": 6097,
      "/m/04pk": 6098,
      "/m/042x": 6099,
      "/m/06_w": 6100,
      "/m/07j8": 6101,
      "d_2": 6102,
      "/m/0jsf": 6103,
      "/m/0ly": 6104,
      "/m/07s8r": 6105,
      "/m/07s8h": 6106,
      "/m/017z8": 6107,
      "/m/02__7n": 6108,
      "/m/027k": 6109,
      "/m/03rbj": 6110,
      "/m/01xndd": 6111,
      "8pf": 6112,
      "ffd": 6113,
      "/m/011yrp": 6114,
      "26r": 6115,
      "gln": 6116,
      "589": 6117,
      "/m/0499": 6118,
      "qk4": 6119,
      "/m/0g5qs2k": 6120,
      "/m/026r8q": 6121,
      "/m/0l1589": 6122,
      "/m/0cmc26r": 6123,
      "/m/04pk1f": 6124,
      "/m/06_wqk4": 6125,
      "/m/0jsf6": 6126,
      "/m/07s8r0": 6127,
      "/m/07s8hms": 6128,
      "/m/017z88": 6129,
      "/m/03rbj2": 6130,
      "8wg": 6131,
      "k7": 6132,
      "vb7": 6133,
      "wc7": 6134,
      "/m/0w": 6135,
      "/m/01k9": 6136,
      "/m/02ch": 6137,
      "/m/0296": 6138,
      "/m/0456": 6139,
      "mpp": 6140,
      "/m/06rq": 6141,
      "/m/06zn": 6142,
      "/m/06c62": 6143,
      "/m/07w8": 6144,
      "/m/0gvv": 6145,
      "/m/0gdh": 6146,
      "/m/0d2": 6147,
      "/m/0bzm": 6148,
      "/m/0hx4": 6149,
      "/m/015vq": 6150,
      "/m/018y": 6151,
      "/m/0pd": 6152,
      "/m/02lx": 6153,
      "/m/02v5": 6154,
      "14t": 6155,
      "sn5": 6156,
      "/m/02w4v": 6157,
      "/m/05p1t": 6158,
      "/m/024mpp": 6159,
      "3d4": 6160,
      "vfw": 6161,
      "/m/02114t": 6162,
      "924": 6163,
      "8nq2": 6164,
      "26ss": 6165,
      "/m/011_6p": 6166,
      "tgs": 6167,
      "ghz": 6168,
      "0x0": 6169,
      "/m/05c26ss": 6170,
      "vrl": 6171,
      "9ts": 6172,
      "ngsd": 6173,
      "/m/0gkvb7": 6174,
      "/m/0gj8nq2": 6175,
      "/m/0dlngsd": 6176,
      "/m/04mk": 6177,
      "/m/01ckrr": 6178,
      "/m/0g57": 6179,
      "/m/03tmr": 6180,
      "/m/067ghz": 6181,
      "/m/0bh8tgs": 6182,
      "/m/0407yj_": 6183,
      "/m/09g7vfw": 6184,
      "/m/02f73p": 6185,
      "yr4": 6186,
      "/m/0680x0": 6187,
      "/m/06j8wx": 6188,
      "/m/0gvvm6l": 6189,
      "/m/0hx4y": 6190,
      "/m/05p1tzf": 6191,
      "1zk": 6192,
      "23m": 6193,
      "4dy": 6194,
      "69": 6195,
      "j6k": 6196,
      "kj5": 6197,
      "st_d": 6198,
      "/m/05np": 6199,
      "/m/05dx": 6200,
      "/m/0gb": 6201,
      "/m/0g60": 6202,
      "/m/0bv": 6203,
      "/m/0f2v0": 6204,
      "/m/01v9l": 6205,
      "yp5": 6206,
      "/m/01w4dy": 6207,
      "/m/01846": 6208,
      "/m/04zkj5": 6209,
      "/m/01g23m": 6210,
      "/m/03g5": 6211,
      "ntp": 6212,
      "9kd": 6213,
      "/m/040b5": 6214,
      "/m/0q9kd": 6215,
      "7c2": 6216,
      "/m/0yx": 6217,
      "/m/03ccq": 6218,
      "/m/02dbp7": 6219,
      "/m/04w39": 6220,
      "gxx": 6221,
      "kyy": 6222,
      "rpd": 6223,
      "/m/07l4z": 6224,
      "/m/05h4": 6225,
      "/m/04ych": 6226,
      "/m/01vvydl": 6227,
      "/m/0dgst_d": 6228,
      "/m/03h_9lg": 6229,
      "/m/087vz": 6230,
      "/m/016yvw": 6231,
      "/m/030_3z": 6232,
      "/m/02x17c2": 6233,
      "/m/0140t7": 6234,
      "/m/01rr9f": 6235,
      "/m/0372kf": 6236,
      "/m/02f72_": 6237,
      "/m/0421v9q": 6238,
      "/m/0kjrx": 6239,
      "/m/0ldqf": 6240,
      "/m/0g60z": 6241,
      "/m/01v9l67": 6242,
      "/m/01846t": 6243,
      "/m/040b5k": 6244,
      "/m/03ccq3s": 6245,
      "/m/04w391": 6246,
      "2m4": 6247,
      "7tx": 6248,
      "c9r": 6249,
      "m9": 6250,
      "n3y": 6251,
      "pr": 6252,
      "p81": 6253,
      "/m/05nl": 6254,
      "/m/07yk": 6255,
      "/m/07vh": 6256,
      "/m/0blp": 6257,
      "/m/08zr": 6258,
      "/m/0j8": 6259,
      "/m/01vrx": 6260,
      "/m/0187": 6261,
      "/m/0p5": 6262,
      "rhmt": 6263,
      "/m/0137g": 6264,
      "/m/01c22": 6265,
      "/m/01qg": 6266,
      "/m/01qr": 6267,
      "/m/01x4": 6268,
      "/m/01sp81": 6269,
      "/m/03hj": 6270,
      "52t3": 6271,
      "/m/01tc9r": 6272,
      "/m/01trhmt": 6273,
      "/m/05bnp0": 6274,
      "dwhx": 6275,
      "t2w": 6276,
      "_x9": 6277,
      "670": 6278,
      "fzfj": 6279,
      "vdl": 6280,
      "b65": 6281,
      "/m/05lfwd": 6282,
      "/m/05lb65": 6283,
      "/m/04psyp": 6284,
      "/m/08052t3": 6285,
      "/m/080dwhx": 6286,
      "/m/02hczc": 6287,
      "/m/04q7r": 6288,
      "/m/0382m4": 6289,
      "/m/01cwhp": 6290,
      "/m/0h7pj": 6291,
      "/m/0275n3y": 6292,
      "/m/01vsnff": 6293,
      "/m/01w7nww": 6294,
      "/m/017gxw": 6295,
      "/m/014g22": 6296,
      "/m/08zrbl": 6297,
      "/m/0137g1": 6298,
      "/m/01c22t": 6299,
      "2ft": 6300,
      "673": 6301,
      "l7": 6302,
      "pn": 6303,
      "q3": 6304,
      "s95": 6305,
      "/m/02ck7": 6306,
      "/m/04b2": 6307,
      "/m/05kfs": 6308,
      "/m/06t7": 6309,
      "thr": 6310,
      "/m/081p": 6311,
      "/m/0156q": 6312,
      "/m/0m2l": 6313,
      "/m/01cly": 6314,
      "/m/01lmj": 6315,
      "/m/0d02k": 6316,
      "/m/02wgln": 6317,
      "/m/0239kh": 6318,
      "/m/03cxs": 6319,
      "wsz": 6320,
      "/m/02s2ft": 6321,
      "bw2": 6322,
      "/m/05kms": 6323,
      "/m/03wh8": 6324,
      "j61": 6325,
      "/m/06btq": 6326,
      "/m/0sxrz": 6327,
      "/m/07bch9": 6328,
      "/m/0gsg7": 6329,
      "/m/072bb1": 6330,
      "/m/02d44q": 6331,
      "/m/02bqm0": 6332,
      "/m/031778": 6333,
      "/m/09g7thr": 6334,
      "/m/0gx1673": 6335,
      "/m/015pkc": 6336,
      "/m/02ck7w": 6337,
      "/m/04b2qn": 6338,
      "/m/06t74h": 6339,
      "/m/081pw": 6340,
      "/m/01lmj3q": 6341,
      "/m/0d02km": 6342,
      "/m/03cxsvl": 6343,
      "6j": 6344,
      "fq": 6345,
      "g2b": 6346,
      "hl": 6347,
      "wtd": 6348,
      "/m/052p7": 6349,
      "/m/06jn": 6350,
      "/m/0721": 6351,
      "/m/0ggq": 6352,
      "/m/0g56": 6353,
      "/m/0d9jr": 6354,
      "/m/0c6g": 6355,
      "w0j": 6356,
      "/m/0h1x": 6357,
      "/m/015qq": 6358,
      "/m/015gw": 6359,
      "/m/026_d": 6360,
      "/m/01p7y": 6361,
      "/m/01gg5": 6362,
      "/m/02vq": 6363,
      "/m/014v": 6364,
      "/m/01l9p": 6365,
      "/m/028kn": 6366,
      "/m/01s0": 6367,
      "t9t": 6368,
      "9k8": 6369,
      "/m/0q5hw": 6370,
      "/m/03mkk4": 6371,
      "/m/0645k5": 6372,
      "/m/0gr07": 6373,
      "zwl": 6374,
      "/m/020ffd": 6375,
      "shh": 6376,
      "5qcw": 6377,
      "58_": 6378,
      "tfm": 6379,
      "/m/0fb1q": 6380,
      "/m/0p_2r": 6381,
      "/m/071vr": 6382,
      "nxx": 6383,
      "/m/0gg5qcw": 6384,
      "/m/05683p": 6385,
      "/m/0bh8yn3": 6386,
      "/m/04ykg": 6387,
      "/m/0y3_8": 6388,
      "/m/0ggq0m": 6389,
      "/m/0g56t9t": 6390,
      "/m/0h1x5f": 6391,
      "/m/015gw6": 6392,
      "/m/01p7yb": 6393,
      "/m/01gg59": 6394,
      "/m/028knk": 6395,
      "h75": 6396,
      "l9": 6397,
      "pcx": 6398,
      "/m/01cy": 6399,
      "/m/0292": 6400,
      "/m/06hg": 6401,
      "/m/06y57": 6402,
      "/m/07hg": 6403,
      "/m/0cg": 6404,
      "/m/0f4y": 6405,
      "/m/016n": 6406,
      "/m/016sp": 6407,
      "/m/0jm_": 6408,
      "/m/0krd": 6409,
      "/m/015c4": 6410,
      "/m/0lf": 6411,
      "/m/01w3v": 6412,
      "/m/017y": 6413,
      "rhz": 6414,
      "1q9": 6415,
      "/m/02k21g": 6416,
      "/m/02wh75": 6417,
      "/m/024qq": 6418,
      "/m/01y8": 6419,
      "/m/01yh": 6420,
      "/m/035yn8": 6421,
      "/m/04g61": 6422,
      "5w9": 6423,
      "z8_": 6424,
      "z8b": 6425,
      "zr0": 6426,
      "fj_": 6427,
      "vcd": 6428,
      "4fd": 6429,
      "1cn": 6430,
      "2xy": 6431,
      "1pr": 6432,
      "/m/05r5w": 6433,
      "gdv": 6434,
      "vdc": 6435,
      "6y6": 6436,
      "/m/065jl": 6437,
      "/m/0294fd": 6438,
      "/m/02jxmr": 6439,
      "/m/0swbd": 6440,
      "/m/01yfm8": 6441,
      "/m/02k_kn": 6442,
      "/m/0g5838s": 6443,
      "/m/03nqnk3": 6444,
      "/m/01lb14": 6445,
      "/m/05c46y6": 6446,
      "/m/06l3bl": 6447,
      "/m/016sp_": 6448,
      "/m/0krdk": 6449,
      "/m/015c4g": 6450,
      "/m/024qqx": 6451,
      "/m/065jlv": 6452,
      "0gc": 6453,
      "1tc5": 6454,
      "2mq": 6455,
      "bv3": 6456,
      "l1q": 6457,
      "/m/033c": 6458,
      "/m/04lh": 6459,
      "/m/09gd": 6460,
      "/m/06s6": 6461,
      "/m/07t90": 6462,
      "/m/0c53": 6463,
      "/m/087p": 6464,
      "/m/0fd": 6465,
      "j54": 6466,
      "/m/05zl0": 6467,
      "/m/02qvdc": 6468,
      "/m/02q1tc5": 6469,
      "/m/0272": 6470,
      "/m/02rzd": 6471,
      "/m/01jzy": 6472,
      "/m/025v3": 6473,
      "/m/02f6x": 6474,
      "/m/02wb6": 6475,
      "8lq": 6476,
      "/m/01sl1q": 6477,
      "mdw": 6478,
      "t53w": 6479,
      "/m/043js": 6480,
      "/m/0209h": 6481,
      "/m/020bv3": 6482,
      "/m/06cx9": 6483,
      "/m/0dq9p": 6484,
      "/m/0824r": 6485,
      "ygk": 6486,
      "/m/0blg2": 6487,
      "/m/0gvt53w": 6488,
      "/m/056w": 6489,
      "/m/02f72n": 6490,
      "/m/030h95": 6491,
      "/m/01_x6v": 6492,
      "/m/01c8w0": 6493,
      "/m/03bdv": 6494,
      "/m/028dcg": 6495,
      "/m/0ddd0gc": 6496,
      "/m/01f7j9": 6497,
      "/m/06t61y": 6498,
      "/m/01x4sb": 6499,
      "/m/087pfc": 6500,
      "/m/02rzdcp": 6501,
      "/m/025v3k": 6502,
      "/m/02f6xy": 6503,
      "/m/0209hj": 6504,
      "6dy": 6505,
      "mn8": 6506,
      "nbn": 6507,
      "tcb": 6508,
      "/m/02cy": 6509,
      "/m/05mc": 6510,
      "/m/094": 6511,
      "/m/09v3": 6512,
      "/m/094j": 6513,
      "/m/07rd": 6514,
      "/m/0gff": 6515,
      "/m/0dx8": 6516,
      "_g6": 6517,
      "/m/0fy6": 6518,
      "/m/016kh": 6519,
      "_t2": 6520,
      "/m/01vv": 6521,
      "/m/0h3y": 6522,
      "/m/01588": 6523,
      "/m/018gr": 6524,
      "/m/02l6dy": 6525,
      "/m/014j": 6526,
      "/m/02f2": 6527,
      "/m/01dtcb": 6528,
      "vw8n": 6529,
      "9585": 6530,
      "/m/01y66": 6531,
      "/m/01svw8n": 6532,
      "k02": 6533,
      "/m/021bk": 6534,
      "/m/04wp": 6535,
      "zqz": 6536,
      "1ns": 6537,
      "/m/050z2": 6538,
      "/m/03z9585": 6539,
      "/m/038hg": 6540,
      "/m/086qd": 6541,
      "/m/016ywr": 6542,
      "/m/07jbh": 6543,
      "/m/02d4ct": 6544,
      "/m/02bqmq": 6545,
      "/m/02mpyh": 6546,
      "/m/02k6rq": 6547,
      "/m/03twd6": 6548,
      "/m/01fpfn": 6549,
      "/m/0fpkhkz": 6550,
      "/m/02cyfz": 6551,
      "/m/094jv": 6552,
      "/m/07rd7": 6553,
      "/m/0gffmn8": 6554,
      "/m/016khd": 6555,
      "/m/015882": 6556,
      "/m/018grr": 6557,
      "/m/01y665": 6558,
      "238": 6559,
      "8tm": 6560,
      "s7": 6561,
      "zj": 6562,
      "z_ym": 6563,
      "/m/02fl": 6564,
      "/m/051q": 6565,
      "/m/092v": 6566,
      "/m/07wr": 6567,
      "/m/07jq": 6568,
      "/m/0g4v": 6569,
      "/m/0dt8": 6570,
      "/m/0cc7": 6571,
      "/m/0cz_ym": 6572,
      "/m/0j_c": 6573,
      "/m/0hg": 6574,
      "/m/02qz": 6575,
      "/m/0py": 6576,
      "/m/01pf": 6577,
      "k98": 6578,
      "/m/025b5": 6579,
      "/m/012d": 6580,
      "/m/01hc": 6581,
      "/m/01r42": 6582,
      "4qr": 6583,
      "rqd": 6584,
      "mj8": 6585,
      "_vp": 6586,
      "25y": 6587,
      "/m/011yhm": 6588,
      "/m/05fnl9": 6589,
      "hf3v": 6590,
      "/m/0cc97": 6591,
      "/m/0dw4g": 6592,
      "/m/078m": 6593,
      "hmk": 6594,
      "/m/0bq8tm": 6595,
      "/m/0fphf3v": 6596,
      "/m/07x4qr": 6597,
      "/m/0f2rq": 6598,
      "/m/0kv238": 6599,
      "/m/09y20": 6600,
      "/m/0j6b5": 6601,
      "/m/027f2w": 6602,
      "/m/0325pb": 6603,
      "/m/02f2dn": 6604,
      "/m/092vkg": 6605,
      "/m/07wrz": 6606,
      "/m/0g4vmj8": 6607,
      "/m/0dt8xq": 6608,
      "/m/0cc7hmk": 6609,
      "/m/025b5y": 6610,
      "/m/01r42_g": 6611,
      "/m/0cc97st": 6612,
      "/m/0bq8tmw": 6613,
      "2sy": 6614,
      "28z": 6615,
      "8gr": 6616,
      "b4g": 6617,
      "pqk": 6618,
      "/m/03nt": 6619,
      "/m/0335": 6620,
      "/m/049q": 6621,
      "/m/0c9c0": 6622,
      "/m/0cx7f": 6623,
      "/m/0bbf": 6624,
      "/m/089j": 6625,
      "/m/08jy": 6626,
      "/m/0fqy": 6627,
      "/m/02h3d": 6628,
      "/m/0jrq": 6629,
      "byr": 6630,
      "/m/01vwl": 6631,
      "/m/0kft": 6632,
      "/m/0k26": 6633,
      "/m/05z7c": 6634,
      "/m/026dc": 6635,
      "/m/02q42": 6636,
      "/m/018n": 6637,
      "/m/02j9lm": 6638,
      "/m/02xbyr": 6639,
      "/m/02kxw": 6640,
      "/m/02bj6k": 6641,
      "/m/02z1n": 6642,
      "/m/01yg9y": 6643,
      "/m/03_6y": 6644,
      "/m/0q9s": 6645,
      "921": 6646,
      "/m/0315q3": 6647,
      "cqw": 6648,
      "/m/04jpg": 6649,
      "vjr": 6650,
      "/m/06fcqw": 6651,
      "sl1x": 6652,
      "ghl": 6653,
      "1mh": 6654,
      "5vm": 6655,
      "/m/0ctb4g": 6656,
      "/m/07bs0": 6657,
      "/m/0cqhb3": 6658,
      "/m/03zz8b": 6659,
      "/m/02ctzb": 6660,
      "/m/0265v21": 6661,
      "mw9": 6662,
      "/m/01chpn": 6663,
      "/m/01w02sy": 6664,
      "/m/0dfw0": 6665,
      "/m/03_gd": 6666,
      "/m/018db8": 6667,
      "/m/0m63c": 6668,
      "/m/05y5kf": 6669,
      "/m/0bt7ws": 6670,
      "/m/0ndsl1x": 6671,
      "/m/07w8fz": 6672,
      "/m/015vq_": 6673,
      "/m/0bbf1f": 6674,
      "/m/089j8p": 6675,
      "/m/08jyyk": 6676,
      "/m/02h3d1": 6677,
      "/m/01vwllw": 6678,
      "/m/0k269": 6679,
      "/m/026dcvf": 6680,
      "/m/02q42j_": 6681,
      "/m/02kxwk": 6682,
      "/m/02z1nbg": 6683,
      "/m/0q9sg": 6684,
      "/m/04jpg2p": 6685,
      "m7": 6686,
      "pt": 6687,
      "/m/049g": 6688,
      "/m/07gh": 6689,
      "/m/0cv": 6690,
      "/m/0b13": 6691,
      "/m/0f4k": 6692,
      "c74": 6693,
      "/m/01w1": 6694,
      "/m/01wq": 6695,
      "/m/01w9w": 6696,
      "/m/07srw": 6697,
      "/m/018x3": 6698,
      "/m/0myk8": 6699,
      "/m/019x": 6700,
      "/m/02rk": 6701,
      "/m/013n": 6702,
      "/m/025v": 6703,
      "/m/02ny": 6704,
      "/m/01l47": 6705,
      "/m/01nr": 6706,
      "/m/02bkg": 6707,
      "/m/01y6": 6708,
      "/m/01yc": 6709,
      "b7q": 6710,
      "/m/03f1": 6711,
      "bdb": 6712,
      "vqq": 6713,
      "/m/03mg": 6714,
      "/m/03mgx": 6715,
      "/m/04njml": 6716,
      "gm3": 6717,
      "/m/03k7": 6718,
      "/m/050l8": 6719,
      "1k8": 6720,
      "31_": 6721,
      "cfv": 6722,
      "/m/0ddt_": 6723,
      "/m/024rbz": 6724,
      "/m/01rr_d": 6725,
      "/m/03clrng": 6726,
      "/m/01chc7": 6727,
      "/m/03mp9s": 6728,
      "/m/02cllz": 6729,
      "/m/01l29r": 6730,
      "/m/02f73b": 6731,
      "/m/034h1h": 6732,
      "/m/027r9t": 6733,
      "/m/047q2wc": 6734,
      "/m/05dxl5": 6735,
      "/m/06jnvs": 6736,
      "/m/0b13g7": 6737,
      "/m/01w9wwg": 6738,
      "/m/01l47f5": 6739,
      "/m/03mgx6z": 6740,
      "4t": 6741,
      "6nt": 6742,
      "9t7": 6743,
      "czm": 6744,
      "p9": 6745,
      "tx1": 6746,
      "v1x": 6747,
      "y9p": 6748,
      "/m/01tj": 6749,
      "/m/011w": 6750,
      "/m/03x1": 6751,
      "/m/033g": 6752,
      "/m/04v3q": 6753,
      "/m/05th": 6754,
      "/m/064v": 6755,
      "/m/06g2": 6756,
      "/m/0g9wd": 6757,
      "/m/0fs": 6758,
      "/m/0fw": 6759,
      "/m/0ftl": 6760,
      "/m/0jv": 6761,
      "y_2": 6762,
      "/m/0kn": 6763,
      "/m/0lv1x": 6764,
      "/m/02_ss": 6765,
      "/m/02vnp": 6766,
      "/m/01jfr": 6767,
      "/m/02nd": 6768,
      "1yj": 6769,
      "/m/03qmg": 6770,
      "/m/02w4b": 6771,
      "/m/047f": 6772,
      "/m/01zg98": 6773,
      "/m/01tsp": 6774,
      "c4s": 6775,
      "/m/03mh": 6776,
      "/m/02dd": 6777,
      "kdln": 6778,
      "/m/01bczm": 6779,
      "/m/03n_7": 6780,
      "/m/011yth": 6781,
      "26c": 6782,
      "/m/04wtx1": 6783,
      "9tn5": 6784,
      "1kt": 6785,
      "/m/0bq6nt": 6786,
      "/m/0gj9tn5": 6787,
      "/m/0blbx": 6788,
      "/m/045zr": 6789,
      "/m/09gkdln": 6790,
      "/m/016ks_": 6791,
      "/m/044mz_": 6792,
      "/m/01j5ts": 6793,
      "/m/018wng": 6794,
      "/m/01f85k": 6795,
      "/m/055c8": 6796,
      "/m/03tcnt": 6797,
      "/m/01sn3": 6798,
      "/m/07s3vqk": 6799,
      "/m/06chf": 6800,
      "/m/021_rm": 6801,
      "/m/0gvs1kt": 6802,
      "/m/05xpms": 6803,
      "/m/0330r": 6804,
      "/m/064vjs": 6805,
      "/m/06g2d1": 6806,
      "/m/0g9wdmc": 6807,
      "/m/02_ssl": 6808,
      "/m/03qmg1": 6809,
      "/m/01tspc6": 6810,
      "/m/03n_7k": 6811,
      "/m/0bq6ntw": 6812,
      "3m_": 6813,
      "39_": 6814,
      "fv": 6815,
      "kzs": 6816,
      "ls": 6817,
      "msd": 6818,
      "r9q": 6819,
      "w5": 6820,
      "z3n": 6821,
      "/m/0zc": 6822,
      "/m/03t9": 6823,
      "/m/0326": 6824,
      "/m/04gr": 6825,
      "/m/05mp": 6826,
      "/m/051h": 6827,
      "/m/096f8": 6828,
      "/m/06v9": 6829,
      "/m/06_x9": 6830,
      "/m/0b6": 6831,
      "/m/0b7l": 6832,
      "/m/0fnp": 6833,
      "d_j": 6834,
      "/m/0jjy": 6835,
      "/m/0j_sn": 6836,
      "/m/0h3x": 6837,
      "/m/0kvg": 6838,
      "/m/0pt": 6839,
      "/m/01gbn": 6840,
      "/m/0mg": 6841,
      "/m/0138": 6842,
      "/m/0n85g": 6843,
      "/m/014kq": 6844,
      "/m/02f1c": 6845,
      "/m/02fgm7": 6846,
      "/m/01fh": 6847,
      "/m/02gkzs": 6848,
      "/m/01d8": 6849,
      "/m/0284g": 6850,
      "/m/047msd": 6851,
      "8pn": 6852,
      "/m/0218": 6853,
      "/m/011yn5": 6854,
      "/m/011yd2": 6855,
      "728": 6856,
      "/m/03knl": 6857,
      "2xb": 6858,
      "/m/07f3x": 6859,
      "/m/0bx8pn": 6860,
      "ztt": 6861,
      "/m/0gkr9q": 6862,
      "/m/0gkz3n": 6863,
      "/m/0783m_": 6864,
      "/m/0cqh6z": 6865,
      "tds": 6866,
      "/m/07pd_j": 6867,
      "2zj": 6868,
      "/m/0fx0mw": 6869,
      "/m/02qw2xb": 6870,
      "/m/01kp66": 6871,
      "/m/0b1y_2": 6872,
      "/m/02bfmn": 6873,
      "/m/02vr7": 6874,
      "/m/06w839_": 6875,
      "/m/0_7w6": 6876,
      "/m/0187y5": 6877,
      "/m/0blbxk": 6878,
      "/m/05mph": 6879,
      "/m/06_x996": 6880,
      "/m/0fnpj": 6881,
      "/m/0jjy0": 6882,
      "/m/0j_sncb": 6883,
      "/m/0h3xztt": 6884,
      "/m/01gbn6": 6885,
      "/m/014kq6": 6886,
      "/m/047msdk": 6887,
      "/m/07f3xb": 6888,
      "/m/0gkz3nz": 6889,
      "5c5": 6890,
      "fx4": 6891,
      "fmq": 6892,
      "jpm": 6893,
      "k24": 6894,
      "pc": 6895,
      "wvb": 6896,
      "/m/01yp": 6897,
      "/m/01ft": 6898,
      "/m/02sc": 6899,
      "/m/02mt": 6900,
      "/m/05lj": 6901,
      "/m/05_5": 6902,
      "/m/07tf": 6903,
      "/m/07vyf": 6904,
      "/m/07tds": 6905,
      "/m/0g6": 6906,
      "/m/0hfj": 6907,
      "/m/0l5": 6908,
      "/m/01wz": 6909,
      "/m/01w4c9": 6910,
      "/m/026wl": 6911,
      "/m/017d": 6912,
      "/m/02qvl7": 6913,
      "/m/01gk": 6914,
      "/m/01gss": 6915,
      "/m/013w7": 6916,
      "/m/0nbj": 6917,
      "/m/014zf": 6918,
      "/m/02x3l": 6919,
      "/m/01kg": 6920,
      "/m/012q": 6921,
      "/m/01ffx4": 6922,
      "vfq": 6923,
      "/m/04g51": 6924,
      "0m6": 6925,
      "/m/09qvms": 6926,
      "/m/043g7l": 6927,
      "92w": 6928,
      "9zdn": 6929,
      "/m/031k24": 6930,
      "72k": 6931,
      "/m/048t": 6932,
      "/m/046b0": 6933,
      "0xs": 6934,
      "m8w": 6935,
      "mrk": 6936,
      "/m/0r0m6": 6937,
      "/m/0ccvx": 6938,
      "/m/04pyp5": 6939,
      "/m/078bz": 6940,
      "18h": 6941,
      "/m/044lyq": 6942,
      "/m/0_92w": 6943,
      "/m/0fq9zdn": 6944,
      "/m/05ml": 6945,
      "xbc": 6946,
      "/m/02cg7g": 6947,
      "/m/0227tr": 6948,
      "/m/03qnvdl": 6949,
      "/m/01wj18h": 6950,
      "/m/047p7fr": 6951,
      "/m/0gh65c5": 6952,
      "/m/016622": 6953,
      "/m/047svrl": 6954,
      "/m/0lyjf": 6955,
      "/m/0gdh5": 6956,
      "/m/019x62": 6957,
      "/m/01fh36": 6958,
      "/m/02scbv": 6959,
      "/m/02mt4k": 6960,
      "/m/05ljv7": 6961,
      "/m/07tf8": 6962,
      "/m/0hfjk": 6963,
      "/m/013w7j": 6964,
      "/m/0nbjq": 6965,
      "/m/014zfs": 6966,
      "/m/02x3lt7": 6967,
      "/m/046b0s": 6968,
      "0vz": 6969,
      "20_": 6970,
      "5_f": 6971,
      "7v": 6972,
      "zly": 6973,
      "/m/0vb": 6974,
      "/m/029k": 6975,
      "/m/03s9": 6976,
      "/m/0420": 6977,
      "/m/051k": 6978,
      "_pj": 6979,
      "/m/09g9": 6980,
      "/m/0gf2": 6981,
      "/m/0cwx": 6982,
      "/m/0c9k8": 6983,
      "/m/0bb5": 6984,
      "/m/08vr": 6985,
      "/m/0879": 6986,
      "bpq": 6987,
      "/m/0hz5": 6988,
      "/m/0k5g9": 6989,
      "/m/0lc": 6990,
      "/m/0175": 6991,
      "/m/0p8": 6992,
      "/m/0pd6": 6993,
      "1q6": 6994,
      "9js": 6995,
      "/m/0125x": 6996,
      "/m/02z4b": 6997,
      "sx8c": 6998,
      "/m/01z27": 6999,
      "969": 7000,
      "/m/01s9": 7001,
      "wxc": 7002,
      "vf2": 7003,
      "38t": 7004,
      "/m/0xzly": 7005,
      "567": 7006,
      "/m/04jkp": 7007,
      "/m/011yr9": 7008,
      "q0g": 7009,
      "/m/03yvf2": 7010,
      "m54": 7011,
      "m5c": 7012,
      "v1t": 7013,
      "/m/0cqhmg": 7014,
      "/m/01vw20_": 7015,
      "/m/0dl567": 7016,
      "/m/07g9f": 7017,
      "/m/04lgy": 7018,
      "/m/0gtsx8c": 7019,
      "/m/026n998": 7020,
      "/m/0275_pj": 7021,
      "/m/01b66d": 7022,
      "/m/0fc9js": 7023,
      "/m/09cm54": 7024,
      "/m/09fqtq": 7025,
      "/m/0m0jc": 7026,
      "/m/08wq0g": 7027,
      "/m/0bs0bh": 7028,
      "/m/0qcr0": 7029,
      "/m/0zcbl": 7030,
      "/m/0vbk": 7031,
      "/m/051kv": 7032,
      "/m/09g90vz": 7033,
      "/m/0gf28": 7034,
      "/m/0cwx_": 7035,
      "/m/0bb57s": 7036,
      "/m/08vr94": 7037,
      "/m/0879bpq": 7038,
      "/m/0hz55": 7039,
      "/m/0pd64": 7040,
      "/m/0125xq": 7041,
      "/m/02z4b_8": 7042,
      "/m/04jkpgv": 7043,
      "8d": 7044,
      "_3s": 7045,
      "r9z": 7046,
      "r4y": 7047,
      "sgf": 7048,
      "/m/02sb": 7049,
      "/m/04cr": 7050,
      "/m/090": 7051,
      "/m/09by": 7052,
      "/m/06wx": 7053,
      "/m/07xt": 7054,
      "/m/0gvr": 7055,
      "/m/0cms": 7056,
      "/m/08r": 7057,
      "/m/0f0k": 7058,
      "/m/016r9z": 7059,
      "/m/0j7": 7060,
      "/m/0js9": 7061,
      "/m/0ll3": 7062,
      "/m/02qvzf": 7063,
      "/m/02_2v2": 7064,
      "/m/01pk8": 7065,
      "/m/01gw": 7066,
      "lc4": 7067,
      "/m/034b": 7068,
      "/m/02jsgf": 7069,
      "/m/0n1": 7070,
      "9r0": 7071,
      "/m/02k4g": 7072,
      "/m/02bqn": 7073,
      "qhm": 7074,
      "3tq": 7075,
      "/m/028kb": 7076,
      "/m/028r4y": 7077,
      "vwn": 7078,
      "/m/03_ly": 7079,
      "/m/035tlh": 7080,
      "/m/05b6": 7081,
      "yk0": 7082,
      "/m/02yy": 7083,
      "ws1": 7084,
      "vyr": 7085,
      "/m/011_3s": 7086,
      "sll": 7087,
      "lh7": 7088,
      "zqj": 7089,
      "vn3": 7090,
      "mxj": 7091,
      "/m/099vwn": 7092,
      "/m/05v10": 7093,
      "/m/09d5h": 7094,
      "/m/08nvyr": 7095,
      "/m/077yk0": 7096,
      "/m/021yw7": 7097,
      "/m/0bdxs5": 7098,
      "/m/03v1jf": 7099,
      "/m/01243b": 7100,
      "/m/0151b0": 7101,
      "/m/04jwly": 7102,
      "/m/041288": 7103,
      "/m/0k4fz": 7104,
      "/m/04sh3": 7105,
      "/m/02ylg6": 7106,
      "/m/02vqsll": 7107,
      "/m/04lhc4": 7108,
      "/m/02sb1w": 7109,
      "/m/06wxw": 7110,
      "/m/07xtqq": 7111,
      "/m/0gvrws1": 7112,
      "/m/0cms7f": 7113,
      "/m/0f0kz": 7114,
      "/m/0js9s": 7115,
      "/m/02k4gv": 7116,
      "/m/02bqn1": 7117,
      "0ff": 7118,
      "fk": 7119,
      "mr5": 7120,
      "q8": 7121,
      "xv": 7122,
      "y3": 7123,
      "yqp": 7124,
      "/m/033q": 7125,
      "/m/049k": 7126,
      "/m/04sy": 7127,
      "/m/04l5": 7128,
      "/m/092b": 7129,
      "/m/06vk": 7130,
      "/m/07wl": 7131,
      "/m/07wj": 7132,
      "/m/0gt_": 7133,
      "/m/0gpp": 7134,
      "/m/0gx_": 7135,
      "/m/0g8r": 7136,
      "/m/0dwx": 7137,
      "/m/081mh": 7138,
      "/m/0fn5": 7139,
      "/m/0jhd": 7140,
      "/m/01vrl": 7141,
      "/m/0hskw": 7142,
      "/m/07s6p": 7143,
      "/m/01pd": 7144,
      "/m/01grp": 7145,
      "/m/02v0ff": 7146,
      "/m/02x20": 7147,
      "/m/02xx5": 7148,
      "/m/01kx_": 7149,
      "/m/01nz": 7150,
      "2hv": 7151,
      "/m/01qr1": 7152,
      "/m/03q5": 7153,
      "/m/047tsx": 7154,
      "x1l": 7155,
      "v8m": 7156,
      "201": 7157,
      "zkr": 7158,
      "gp6": 7159,
      "/m/0209xj": 7160,
      "/m/04wzr": 7161,
      "/m/04wgh": 7162,
      "/m/0gyfp": 7163,
      "3qj": 7164,
      "/m/05krk": 7165,
      "/m/03w1v": 7166,
      "30k": 7167,
      "1hw": 7168,
      "3cn": 7169,
      "2yr": 7170,
      "vk2": 7171,
      "3x5p": 7172,
      "/m/032j": 7173,
      "/m/07ymr5": 7174,
      "/m/01vwyqp": 7175,
      "/m/01vvyvk": 7176,
      "/m/07k2mq": 7177,
      "/m/09d28z": 7178,
      "hj4": 7179,
      "/m/0mbct": 7180,
      "/m/0gx_p": 7181,
      "/m/0h6r5": 7182,
      "/m/02wkmx": 7183,
      "/m/01z7s_": 7184,
      "/m/027c924": 7185,
      "/m/04954": 7186,
      "/m/03pmty": 7187,
      "/m/02fgpf": 7188,
      "/m/0dq630k": 7189,
      "/m/02wgk1": 7190,
      "/m/019rg5": 7191,
      "/m/02zfdp": 7192,
      "/m/092bf5": 7193,
      "/m/06vkl": 7194,
      "/m/0gx_st": 7195,
      "/m/0g8rj": 7196,
      "/m/0dwxr": 7197,
      "/m/0fn5bx": 7198,
      "/m/07s6prs": 7199,
      "/m/01kx_81": 7200,
      "/m/01qr1_": 7201,
      "/m/047tsx3": 7202,
      "/m/0gyfp9c": 7203,
      "/m/03w1v2": 7204,
      "2fs": 7205,
      "3zy": 7206,
      "5v8": 7207,
      "__v": 7208,
      "df5": 7209,
      "g2x": 7210,
      "vrq": 7211,
      "x7x": 7212,
      "/m/01_p": 7213,
      "/m/02s6": 7214,
      "/m/037q": 7215,
      "/m/04fh": 7216,
      "/m/04sm": 7217,
      "/m/05wq": 7218,
      "/m/09pl": 7219,
      "/m/0738": 7220,
      "th9": 7221,
      "/m/0b6c": 7222,
      "/m/016xh": 7223,
      "/m/0j8f": 7224,
      "qfz": 7225,
      "/m/01wcp": 7226,
      "/m/01w724": 7227,
      "/m/027p": 7228,
      "/m/01ptsx": 7229,
      "/m/02lj": 7230,
      "/m/02rn": 7231,
      "/m/02r8h": 7232,
      "/m/02vr3": 7233,
      "9r2": 7234,
      "/m/025h": 7235,
      "/m/01271": 7236,
      "/m/01rzqj": 7237,
      "/m/01xdf5": 7238,
      "/m/030hc": 7239,
      "/m/01ycbq": 7240,
      "t6k": 7241,
      "wrb": 7242,
      "/m/03h3v": 7243,
      "/m/035g": 7244,
      "/m/05b__v": 7245,
      "/m/040fb": 7246,
      "/m/040fv": 7247,
      "/m/023vrq": 7248,
      "ljd": 7249,
      "/m/03nsm": 7250,
      "/m/04w_7": 7251,
      "/m/048wrb": 7252,
      "/m/01_q": 7253,
      "/m/054knh": 7254,
      "/m/04pk9": 7255,
      "/m/0785v8": 7256,
      "tk_": 7257,
      "/m/038g2x": 7258,
      "yhv": 7259,
      "xdg": 7260,
      "/m/059_c": 7261,
      "/m/01ww2fs": 7262,
      "/m/04__f": 7263,
      "/m/03ckxdg": 7264,
      "/m/08pth9": 7265,
      "/m/0d8qb": 7266,
      "/m/01rhl": 7267,
      "/m/0140g4": 7268,
      "/m/06vbd": 7269,
      "/m/0g9zljd": 7270,
      "/m/011ypx": 7271,
      "/m/03rtmz": 7272,
      "/m/040_9": 7273,
      "/m/01_p6t": 7274,
      "/m/04smkr": 7275,
      "/m/05wqr1": 7276,
      "/m/0b6css": 7277,
      "/m/016xh5": 7278,
      "/m/0j8f09z": 7279,
      "/m/01wcp_g": 7280,
      "/m/02r8hh_": 7281,
      "/m/02vr3gz": 7282,
      "/m/01271h": 7283,
      "/m/030hcs": 7284,
      "/m/03h3vtz": 7285,
      "/m/05b__vr": 7286,
      "/m/03nsm5x": 7287,
      "17c": 7288,
      "7bj": 7289,
      "986": 7290,
      "k7c": 7291,
      "r9j": 7292,
      "szl": 7293,
      "x61": 7294,
      "z7q": 7295,
      "zz7": 7296,
      "/m/01tb": 7297,
      "/m/01_n": 7298,
      "/m/022y": 7299,
      "/m/033w": 7300,
      "/m/03kx": 7301,
      "/m/041y": 7302,
      "/m/0410": 7303,
      "/m/049_": 7304,
      "/m/09th": 7305,
      "/m/09sr": 7306,
      "/m/0653m": 7307,
      "/m/07t_": 7308,
      "/m/07kj": 7309,
      "mbl": 7310,
      "/m/0bjr": 7311,
      "/m/0b44": 7312,
      "/m/081k8": 7313,
      "/m/0h53": 7314,
      "/m/0h1c": 7315,
      "/m/0kr": 7316,
      "/m/0lkm": 7317,
      "/m/026mj": 7318,
      "/m/07sbb": 7319,
      "/m/02qs": 7320,
      "/m/0pc62": 7321,
      "/m/027986": 7322,
      "/m/0mc": 7323,
      "lc_": 7324,
      "/m/034x61": 7325,
      "/m/02jr": 7326,
      "/m/02j3d4": 7327,
      "xtl": 7328,
      "/m/012g": 7329,
      "/m/012vd": 7330,
      "/m/02bg5": 7331,
      "/m/01hw": 7332,
      "/m/05p92": 7333,
      "/m/028_y": 7334,
      "/m/06mmb": 7335,
      "nl7": 7336,
      "jjy": 7337,
      "/m/0q9zc": 7338,
      "/m/041c4": 7339,
      "sw9": 7340,
      "11z": 7341,
      "/m/02dr9j": 7342,
      "_vz": 7343,
      "/m/03l2n": 7344,
      "/m/011yg9": 7345,
      "/m/0gy7bj": 7346,
      "/m/011zf": 7347,
      "/m/05k17c": 7348,
      "bm8q": 7349,
      "m8b": 7350,
      "/m/05lf_": 7351,
      "/m/05r7t": 7352,
      "/m/0sx8l": 7353,
      "/m/06rvn": 7354,
      "/m/06wbm8q": 7355,
      "jsg": 7356,
      "/m/0ds11z": 7357,
      "/m/0f2tj": 7358,
      "/m/04cbbz": 7359,
      "/m/086nl7": 7360,
      "/m/087wc7": 7361,
      "_q8": 7362,
      "/m/044mvs": 7363,
      "/m/03_wtr": 7364,
      "/m/072x7s": 7365,
      "/m/01wgxtl": 7366,
      "/m/02mjmr": 7367,
      "/m/016srn": 7368,
      "/m/0fhzwl": 7369,
      "/m/016tb7": 7370,
      "/m/0_b9f": 7371,
      "/m/0cnl1c": 7372,
      "/m/040rmy": 7373,
      "/m/0w7c": 7374,
      "/m/01tbp": 7375,
      "/m/01_njt": 7376,
      "/m/022yb4": 7377,
      "/m/033w9g": 7378,
      "/m/041y2": 7379,
      "/m/049_zz": 7380,
      "/m/09sr0": 7381,
      "/m/07kjk7c": 7382,
      "/m/0bjrnt": 7383,
      "/m/0b44shh": 7384,
      "/m/0h1cdwq": 7385,
      "/m/07sbbz2": 7386,
      "/m/027986c": 7387,
      "/m/012vd6": 7388,
      "/m/02bg55": 7389,
      "/m/05p92jn": 7390,
      "/m/028_yv": 7391,
      "/m/0gy7bj4": 7392,
      "/m/011zf2": 7393,
      "/m/087wc7n": 7394,
      "17x": 7395,
      "_1d": 7396,
      "l_t2": 7397,
      "w_": 7398,
      "xsv": 7399,
      "/m/04cf": 7400,
      "/m/0640": 7401,
      "/m/07nx": 7402,
      "/m/0gs1_": 7403,
      "/m/0gwgn": 7404,
      "/m/0dsc": 7405,
      "/m/0ds3": 7406,
      "/m/0c2": 7407,
      "/m/0cmf": 7408,
      "/m/0bb": 7409,
      "/m/0b73": 7410,
      "/m/0b_5": 7411,
      "/m/0fth": 7412,
      "/m/0f5x": 7413,
      "/m/0168l": 7414,
      "/m/0hv4": 7415,
      "/m/0k_": 7416,
      "/m/0l12": 7417,
      "/m/01wy": 7418,
      "/m/01wxy": 7419,
      "/m/07swvb": 7420,
      "/m/01gf": 7421,
      "/m/0m5": 7422,
      "/m/0n6f8": 7423,
      "/m/014z8": 7424,
      "/m/01l3m": 7425,
      "/m/01l78": 7426,
      "1wkq": 7427,
      "/m/02ky34": 7428,
      "/m/0d05q": 7429,
      "/m/02g9p4": 7430,
      "/m/01d1st": 7431,
      "/m/0285c": 7432,
      "/m/01slc": 7433,
      "/m/03hxsv": 7434,
      "bb6": 7435,
      "0m0": 7436,
      "/m/06n7h7": 7437,
      "/m/04jspq": 7438,
      "/m/011yl_": 7439,
      "t7b": 7440,
      "jdr": 7441,
      "/m/05cw8": 7442,
      "3k7": 7443,
      "/m/0by17x": 7444,
      "/m/0by1wkq": 7445,
      "/m/07lt7b": 7446,
      "/m/05g3b": 7447,
      "/m/0dll_t2": 7448,
      "/m/0fq7d": 7449,
      "/m/0ddkf": 7450,
      "0f7": 7451,
      "/m/0swff": 7452,
      "/m/05fjy": 7453,
      "/m/031786": 7454,
      "/m/02cl1": 7455,
      "/m/030hbp": 7456,
      "/m/0cnl09": 7457,
      "/m/0gmd3k7": 7458,
      "/m/02f6ym": 7459,
      "/m/0210hf": 7460,
      "/m/01pl14": 7461,
      "/m/01pk8v": 7462,
      "/m/0gwgn1k": 7463,
      "/m/0dscrwf": 7464,
      "/m/0ds33": 7465,
      "/m/0cmf0m0": 7466,
      "/m/0b73_1d": 7467,
      "/m/0b_5d": 7468,
      "/m/0f5xn": 7469,
      "/m/0168ls": 7470,
      "/m/0hv4t": 7471,
      "/m/0l12d": 7472,
      "/m/01wxyx1": 7473,
      "/m/014z8v": 7474,
      "/m/01l3mk3": 7475,
      "/m/01l78d": 7476,
      "/m/02ky346": 7477,
      "/m/0d05q4": 7478,
      "/m/0by17xn": 7479,
      "/m/0fq7dv_": 7480,
      "1lp": 7481,
      "1sg": 7482,
      "36c": 7483,
      "8wk": 7484,
      "_r5": 7485,
      "fvc": 7486,
      "n81": 7487,
      "p3": 7488,
      "szf": 7489,
      "/m/072k": 7490,
      "/m/0dbp": 7491,
      "/m/0d6d": 7492,
      "_mj": 7493,
      "/m/0fn8": 7494,
      "/m/016t0": 7495,
      "/m/016_mj": 7496,
      "j5x": 7497,
      "/m/01wp8": 7498,
      "/m/026dx": 7499,
      "/m/018n6": 7500,
      "/m/0278x": 7501,
      "/m/02lyr4": 7502,
      "/m/019cr": 7503,
      "/m/0192l": 7504,
      "/m/02vj": 7505,
      "/m/01k_r5": 7506,
      "/m/02nwxc": 7507,
      "/m/01qd": 7508,
      "/m/01mw1": 7509,
      "/m/01rn": 7510,
      "/m/02wszf": 7511,
      "8lb": 7512,
      "/m/01swck": 7513,
      "/m/06mfvc": 7514,
      "/m/035zr0": 7515,
      "/m/040db": 7516,
      "/m/0401sg": 7517,
      "ykc": 7518,
      "42t": 7519,
      "/m/064nh": 7520,
      "/m/02d42t": 7521,
      "/m/03xf_m": 7522,
      "qp3": 7523,
      "9l_": 7524,
      "/m/011j5x": 7525,
      "zl1": 7526,
      "3ls": 7527,
      "/m/0blq0z": 7528,
      "/m/04mn81": 7529,
      "/m/0cj36c": 7530,
      "/m/01vsy95": 7531,
      "/m/01vsykc": 7532,
      "_q_": 7533,
      "/m/044mrh": 7534,
      "/m/0jyb4": 7535,
      "/m/0cp0t91": 7536,
      "/m/03cl8lb": 7537,
      "/m/016fjj": 7538,
      "/m/01vsn38": 7539,
      "/m/01f7dd": 7540,
      "/m/059g4": 7541,
      "/m/07sgfvl": 7542,
      "/m/01713c": 7543,
      "/m/01g03q": 7544,
      "/m/01bns_": 7545,
      "/m/01vn35l": 7546,
      "/m/01_f_5": 7547,
      "/m/05h43ls": 7548,
      "/m/0blpg": 7549,
      "/m/0m2l9": 7550,
      "/m/051hrr": 7551,
      "/m/072kp": 7552,
      "/m/0d6d2": 7553,
      "/m/0fn8jc": 7554,
      "/m/01wp8w7": 7555,
      "/m/018n6m": 7556,
      "/m/0278x6s": 7557,
      "/m/01k_r5b": 7558,
      "/m/064nh4k": 7559,
      "2r9": 7560,
      "4p0": 7561,
      "6n9": 7562,
      "827": 7563,
      "c1y": 7564,
      "dg": 7565,
      "h3": 7566,
      "kzcr": 7567,
      "m3s": 7568,
      "rtc": 7569,
      "ttb": 7570,
      "t1k": 7571,
      "/m/0r5": 7572,
      "/m/0tr": 7573,
      "/m/01b8": 7574,
      "/m/02_p": 7575,
      "/m/02cp": 7576,
      "/m/03ld": 7577,
      "/m/04sx": 7578,
      "/m/050x": 7579,
      "/m/05sf": 7580,
      "_cy": 7581,
      "_pn": 7582,
      "/m/09b6": 7583,
      "/m/0642": 7584,
      "/m/06z8": 7585,
      "/m/06rpd": 7586,
      "/m/076p": 7587,
      "/m/0dth": 7588,
      "/m/0drn": 7589,
      "/m/0bc7": 7590,
      "/m/0bc1y": 7591,
      "/m/01vzx": 7592,
      "/m/01vttb": 7593,
      "/m/0lk8": 7594,
      "/m/01wb8": 7595,
      "/m/0178": 7596,
      "/m/02_5h": 7597,
      "/m/027cx": 7598,
      "/m/0193": 7599,
      "/m/02rv_": 7600,
      "/m/0345": 7601,
      "/m/02js6_": 7602,
      "/m/02vy5": 7603,
      "/m/0137n": 7604,
      "/m/01j_cy": 7605,
      "/m/025y": 7606,
      "/m/01l_pn": 7607,
      "/m/02fj": 7608,
      "/m/012x": 7609,
      "/m/01nm3s": 7610,
      "/m/02b6n9": 7611,
      "qh5_": 7612,
      "/m/01hr1": 7613,
[...]
