{
  "version": "1.0",
  "truncation": null,
  "padding": null,
  "added_tokens": [
    {
      "id": 0,
      "content": "[UNK]",
      "single_word": false,
      "lstrip": false,
      "rstrip": false,
      "normalized": false,
      "special": true
    },
    {
      "id": 1,
      "content": "[CLS]",
      "single_word": false,
      "lstrip": false,
      "rstrip": false,
      "normalized": false,
      "special": true
    },
    {
      "id": 2,
      "content": "[SEP]",
      "single_word": false,
      "lstrip": false,
      "rstrip": false,
      "normalized": false,
      "special": true
    },
    {
      "id": 3,
      "content": "[PAD]",
      "single_word": false,
      "lstrip": false,
      "rstrip": false,
      "normalized": false,
      "special": true
    },
    {
      "id": 4,
      "content": "[MASK]",
      "single_word": false,
      "lstrip": false,
      "rstrip": false,
      "normalized": false,
      "special": true
    },
    {
      "id": 27610,
      "content": " ",
      "single_word": false,
      "lstrip": false,
      "rstrip": false,
      "normalized": true,
      "special": false
    }
  ],
  "normalizer": null,
  "pre_tokenizer": {
    "type": "WhitespaceSplit"
  },
  "post_processor": {
    "type": "TemplateProcessing",
    "single": [
      {
        "Sequence": {
          "id": "A",
          "type_id": 0
        }
      }
    ],
    "pair": [
      {
        "Sequence": {
          "id": "A",
          "type_id": 0
        }
      },
      {
        "Sequence": {
          "id": "B",
          "type_id": 1
        }
      }
    ],
    "special_tokens": {}
  },
  "decoder": null,
  "model": {
    "type": "BPE",
    "dropout": null,
    "unk_token": "[UNK]",
    "continuing_subword_prefix": null,
    "end_of_word_suffix": null,
    "fuse_unk": false,
    "byte_fallback": false,
    "ignore_merges": false,
    "vocab": {
      "[UNK]": 0,
      "[CLS]": 1,
      "[SEP]": 2,
      "[PAD]": 3,
      "[MASK]": 4,
      ".": 5,
      "/": 6,
      "0": 7,
      "1": 8,
      "2": 9,
      "3": 10,
      "4": 11,
      "5": 12,
      "6": 13,
      "7": 14,
      "8": 15,
      "9": 16,
      "_": 17,
      "a": 18,
      "b": 19,
      "c": 20,
      "d": 21,
      "e": 22,
      "f": 23,
      "g": 24,
      "h": 25,
      "i": 26,
      "j": 27,
      "k": 28,
      "l": 29,
      "m": 30,
      "n": 31,
      "o": 32,
      "p": 33,
      "q": 34,
      "r": 35,
      "s": 36,
      "t": 37,
      "u": 38,
      "v": 39,
      "w": 40,
      "x": 41,
      "y": 42,
      "z": 43,
      "m/": 44,
      "/m/": 45,
      "/m/0": 46,
      "ar": 47,
      "on": 48,
      "/a": 49,
      "ard": 50,
      "ward": 51,
      "/award": 52,
      "at": 53,
      "ion": 54,
      "in": 55,
      "fi": 56,
      "fil": 57,
      "/award_": 58,
      "or": 59,
      "ation": 60,
      "er": 61,
      "re": 62,
      "om": 63,
      "nom": 64,
      "nomin": 65,
      "le": 66,
      "/p": 67,
      "/fil": 68,
      "/award/award_": 69,
      "s.": 70,
      "/m/01": 71,
      "e_": 72,
      "ed": 73,
      "st": 74,
      "/m/02": 75,
      "/film/": 76,
      "ation/": 77,
      "ic": 78,
      "en": 79,
      "/award/award_nomin": 80,
      "ro": 81,
      "/film/fil": 82,
      "as": 83,
      "it": 84,
      "an": 85,
      "op": 86,
      "m_": 87,
      "al": 88,
      "s_": 89,
      "/m": 90,
      "ee": 91,
      "cation/": 92,
      "/s": 93,
      "/pe": 94,
      "ople": 95,
      "/people": 96,
      "/m/03": 97,
      "/award_nomin": 98,
      "ase_": 99,
      "rele": 100,
      "release_": 101,
      "ate": 102,
      "for": 103,
      "us": 104,
      "ent": 105,
      "/film/film/": 106,
      "/t": 107,
      "edu": 108,
      "ers": 109,
      "s./award/award_nomin": 110,
      "ort": 111,
      "win": 112,
      "winn": 113,
      "port": 114,
      "reg": 115,
      "/m/04": 116,
      "lo": 117,
      "ra": 118,
      "/people/p": 119,
      "al_": 120,
      "ce": 121,
      "/m/05": 122,
      "erson": 123,
      "usic": 124,
      "winner": 125,
      "/sport": 126,
      "/award_nomination": 127,
      "ut": 128,
      "/music": 129,
      "/award_nominations./award/award_nomin": 130,
      "/people/person": 131,
      "ed_": 132,
      "release_d": 133,
      "/award/award_nominee": 134,
      "/award/award_nominee/award_nominations./award/award_nomin": 135,
      "region": 136,
      "education/": 137,
      "ist": 138,
      "mp": 139,
      "/g": 140,
      "_c": 141,
      "/c": 142,
      "hon": 143,
      "ri": 144,
      "_p": 145,
      "ol": 146,
      "/m/09": 147,
      "es": 148,
      "honor": 149,
      "/film/film_": 150,
      "man": 151,
      "erfor": 152,
      "erforman": 153,
      "/award/award_nominee/award_nominations./award/award_nomination": 154,
      "ea": 155,
      "/award/award_honor": 156,
      "/m/06": 157,
      "ymp": 158,
      "/m/07": 159,
      "/lo": 160,
      "/film": 161,
      "cation": 162,
      "olymp": 163,
      "ated_": 164,
      "olympic": 165,
      "ory": 166,
      "ment": 167,
      "gory": 168,
      "ategory": 169,
      "ag": 170,
      "mon": 171,
      "role": 172,
      "/olympic": 173,
      "ip": 174,
      "un": 175,
      "/education/": 176,
      "/film_": 177,
      "th": 178,
      "/award/award_c": 179,
      "ution": 180,
      "of": 181,
      "/b": 182,
      "ess": 183,
      "ce_": 184,
      "art": 185,
      "ct": 186,
      "e_s.": 187,
      "la": 188,
      "enre": 189,
      "ition": 190,
      "mb": 191,
      "/sports": 192,
      "/m/0g": 193,
      "/award_winner": 194,
      "/award/award_honor/award_winner": 195,
      "ategory/": 196,
      "rew": 197,
      "erformance": 198,
      "/people/person/p": 199,
      "rib": 200,
      "/awards_": 201,
      "ing": 202,
      "age": 203,
      "/award/award_category/": 204,
      "tea": 205,
      "iv": 206,
      "/m/0d": 207,
      "ud": 208,
      "os": 209,
      "osition": 210,
      "hip": 211,
      "ster": 212,
      "roster": 213,
      "/location/": 214,
      "nominated_": 215,
      "nominated_for": 216,
      "ession": 217,
      "regional_": 218,
      "of_": 219,
      "ate_s.": 220,
      "ate/film_": 221,
      "/film/film/release_d": 222,
      "release_date/film_": 223,
      "/film/film_regional_": 224,
      "ate_s./film/film_regional_": 225,
      "/film/film/release_date_s./film/film_regional_": 226,
      "/film/film/release_date_s./film/film_regional_release_date/film_": 227,
      "/sports/sport": 228,
      "inst": 229,
      "ation/nominated_for": 230,
      "/sports/sports_": 231,
      "/bas": 232,
      "ani": 233,
      "won": 234,
      "/m/0c": 235,
      "won.": 236,
      "/base": 237,
      "/f": 238,
      "/award_nominee": 239,
      "/award/award_nominee/award_nominations./award/award_nomination/award_nominee": 240,
      "/m/0b": 241,
      "/m/08": 242,
      "_g": 243,
      "el": 244,
      "oo": 245,
      "stud": 246,
      "ity": 247,
      "release_region": 248,
      "/tv": 249,
      "/film/film/release_date_s./film/film_regional_release_date/film_release_region": 250,
      "/awards_won.": 251,
      "gani": 252,
      "organi": 253,
      "organiz": 254,
      "du": 255,
      "ont": 256,
      "de": 257,
      "/tra": 258,
      "fession": 259,
      "rofession": 260,
      "_w": 261,
      "/music/g": 262,
      "ur": 263,
      "all": 264,
      "/award/award_nominee/award_nominations./award/award_nomination/award": 265,
      "ctor": 266,
      "tb": 267,
      "ck": 268,
      "ern": 269,
      "_m": 270,
      "education": 271,
      "educational_": 272,
      "ed.": 273,
      "oun": 274,
      "emb": 275,
      "gra": 276,
      "/m/0f": 277,
      "/olympics": 278,
      "/people/person/profession": 279,
      "ov": 280,
      "ernment": 281,
      "overnment": 282,
      "crew": 283,
      "ry": 284,
      "/n": 285,
      "ount": 286,
      "/education/educational_": 287,
      "/government": 288,
      "/art": 289,
      "/artist": 290,
      "/foo": 291,
      "itution": 292,
      "institution": 293,
      "d_": 294,
      "fl": 295,
      "ren": 296,
      "/d": 297,
      "/olympics/olympic": 298,
      "ig": 299,
      "tball": 300,
      "urren": 301,
      "/track": 302,
      "/com": 303,
      "actor": 304,
      "/awards_won./award/award_honor/award_winner": 305,
      "up": 306,
      "/film/actor": 307,
      "performance": 308,
      "/sports/sports_tea": 309,
      "istrib": 310,
      "nominee": 311,
      "student": 312,
      "/education/education/": 313,
      "ma": 314,
      "c7": 315,
      "rel": 316,
      "ountry": 317,
      "ship": 318,
      "./film/": 319,
      "./film/performance": 320,
      "t_": 321,
      "/film./film/performance": 322,
      "/film/actor/film./film/performance": 323,
      "ers.": 324,
      "bp": 325,
      "s./award/award_nomination/nominated_for": 326,
      "/award/award_category/nominee": 327,
      "/award/award_category/nominees./award/award_nomination/nominated_for": 328,
      "/film/actor/film./film/performance/film": 329,
      "organization/": 330,
      "/in": 331,
      "erformance_": 332,
      "ure": 333,
      "genre": 334,
      "w0": 335,
      "/ad": 336,
      "roup": 337,
      "/m/02h": 338,
      "winners.": 339,
      "/award/award_category/winners.": 340,
      "cer": 341,
      "distrib": 342,
      "/education/educational_institution": 343,
      "/role": 344,
      "/performance_": 345,
      "/performance_role": 346,
      "/location/lo": 347,
      "tball_": 348,
      "end": 349,
      "/m/016": 350,
      "_performance": 351,
      "/m/0j": 352,
      "ere": 353,
      "by": 354,
      "/w": 355,
      "_performances.": 356,
      "distribut": 357,
      "ribution": 358,
      "ontribution": 359,
      "_t": 360,
      "liv": 361,
      "mony": 362,
      "eremony": 363,
      "ul": 364,
      "/football_": 365,
      "ebp": 366,
      "/common": 367,
      "/webp": 368,
      "/webpage": 369,
      "let": 370,
      "_contribution": 371,
      "/music/performance_role": 372,
      "/film/film/genre": 373,
      "/m/09c7": 374,
      "/m/09c7w0": 375,
      "/location": 376,
      "_memb": 377,
      "ork": 378,
      "il": 379,
      "/award/award_winner": 380,
      "/award/award_winner/awards_won./award/award_honor/award_winner": 381,
      "y_": 382,
      "/so": 383,
      "/sports/sports_team_": 384,
      "ership": 385,
      "_position": 386,
      "eas": 387,
      "lace_": 388,
      "ins": 389,
      "/m/01v": 390,
      "/m/0h": 391,
      "pp": 392,
      "/pop": 393,
      "stra": 394,
      "/base/pop": 395,
      "/base/popstra": 396,
      "/music/genre": 397,
      "/track_contribution": 398,
      "/sports/sports_team_roster": 399,
      "res": 400,
      "yp": 401,
      "/m/0k": 402,
      "ant": 403,
      "or_": 404,
      "ch": 405,
      "regul": 406,
      "regular": 407,
      "country": 408,
      "uen": 409,
      "fluen": 410,
      "/influen": 411,
      "ccer": 412,
      "gre": 413,
      "degre": 414,
      "/soccer": 415,
      "ive_": 416,
      "jo": 417,
      "degree": 418,
      "er_c": 419,
      "/m/015": 420,
      "ationship": 421,
      "relationship": 422,
      "/organization/": 423,
      "/artists": 424,
      "/music/genre/artists": 425,
      "/student": 426,
      "/students_": 427,
      "rodu": 428,
      "/location/location/": 429,
      "/position": 430,
      "./film/film_": 431,
      "/award/award_winn": 432,
      "ing_w": 433,
      "/award/award_winning_w": 434,
      "/award/award_winning_work": 435,
      "/m/0l": 436,
      "ment_": 437,
      "oth": 438,
      "/film/film/oth": 439,
      "rew./film/film_": 440,
      "_gig": 441,
      "crew_gig": 442,
      "er_crew./film/film_": 443,
      "/film/film/other_crew./film/film_": 444,
      "/film/film/other_crew./film/film_crew_gig": 445,
      "roster.": 446,
      "/olympics/olympic_": 447,
      "/soccer/football_": 448,
      "team/": 449,
      "ue": 450,
      "icip": 451,
      "articip": 452,
      "br": 453,
      "/tv/tv": 454,
      "/e": 455,
      "_com": 456,
      "cy": 457,
      "/curren": 458,
      "_role": 459,
      "ative_": 460,
      "rogra": 461,
      "/award/award_nominee/award_nominations./award/award_nomination/nominated_for": 462,
      "/adjo": 463,
      "s./education/education/": 464,
      "ates./education/education/": 465,
      "duates./education/education/": 466,
      "/music/group": 467,
      "graduates./education/education/": 468,
      "/education/educational_institution/students_": 469,
      "/music/group_memb": 470,
      "/education/educational_institution/students_graduates./education/education/": 471,
      "/film_crew": 472,
      "/film/film/other_crew./film/film_crew_gig/film_crew": 473,
      "/film/film/other_crew./film/film_crew_gig/film_crew_role": 474,
      "ath": 475,
      "j5": 476,
      "et": 477,
      "/meas": 478,
      "unit": 479,
      "urement_": 480,
      "/measurement_": 481,
      "/measurement_unit": 482,
      "/mar": 483,
      "onta": 484,
      "/tea": 485,
      "/team": 486,
      "im": 487,
      "/dated_": 488,
      "/measurement_unit/dated_": 489,
      "/award/award_category/winners./award/award_honor/award_winner": 490,
      "is": 491,
      "gu": 492,
      "lan": 493,
      "langu": 494,
      "qf": 495,
      "ontains": 496,
      "h_": 497,
      "/music/track_contribution": 498,
      "/music/track_contribution/role": 499,
      "lace": 500,
      "/m/05z": 501,
      "/ce": 502,
      "lebr": 503,
      "/celebr": 504,
      "/m/01w": 505,
      "ary": 506,
      "itary": 507,
      "/mil": 508,
      "/military": 509,
      "contains": 510,
      "/location/location/contains": 511,
      "/music/": 512,
      "pres": 513,
      "present": 514,
      "film_": 515,
      "/regular": 516,
      "/m/026": 517,
      "/m/07s": 518,
      "/med": 519,
      "sport": 520,
      "/tv/tv_p": 521,
      "is_": 522,
      "this_": 523,
      "ey_": 524,
      "/music/group_membership": 525,
      "po": 526,
      "organization": 527,
      "/m/017": 528,
      "/people/mar": 529,
      "/people/marri": 530,
      "/m/02q": 531,
      "/m/09n": 532,
      "val": 533,
      "money_": 534,
      "value": 535,
      "money_value": 536,
      "curren": 537,
      "current_": 538,
      "team/current_": 539,
      "team/current_roster.": 540,
      "/m/018": 541,
      "_a": 542,
      "ality": 543,
      "/m/0p": 544,
      "ft": 545,
      "/sch": 546,
      "produ": 547,
      "/currency": 548,
      "/measurement_unit/dated_money_value": 549,
      "/measurement_unit/dated_money_value/currency": 550,
      "ationality": 551,
      "/people/person/n": 552,
      "/people/person/nationality": 553,
      "tj": 554,
      "ith_": 555,
      "_with_": 556,
      "/m/02_": 557,
      "rh": 558,
      "eld_": 559,
      "field_": 560,
      "of_stud": 561,
      "field_of_stud": 562,
      "field_of_study": 563,
      "lete": 564,
      "maj": 565,
      "/sports/sports_team_roster/team": 566,
      "/people/marriage": 567,
      "_f": 568,
      "40": 569,
      "./measurement_unit/dated_money_value/currency": 570,
      "itle": 571,
      "/government/government": 572,
      "/m/027": 573,
      "language": 574,
      "/m/09nqf": 575,
      "_with_this_": 576,
      "ed_by": 577,
      "pous": 578,
      "/celebrity": 579,
      "e_of_": 580,
      "/spous": 581,
      "istr": 582,
      "union": 583,
      "/top": 584,
      "ru": 585,
      "instru": 586,
      "instrument": 587,
      "/m/04z": 588,
      "/soccer/football_team/current_roster.": 589,
      "/m/01p": 590,
      "/category": 591,
      "/people_with_this_": 592,
      "/people/person/g": 593,
      "ender": 594,
      "/people/person/gender": 595,
      "ced_by": 596,
      "lay": 597,
      "/award/award_ceremony": 598,
      "/awards_present": 599,
      "/award/award_ceremony/awards_present": 600,
      "/award/award_ceremony/awards_presented.": 601,
      "laces_": 602,
      "/m/02l": 603,
      "af": 604,
      "1q": 605,
      "j5d": 606,
      "./common": 607,
      "ic/webpage": 608,
      "mbj5d": 609,
      "/m/08mbj5d": 610,
      "/common/top": 611,
      "/webpage/category": 612,
      "./common/webpage/category": 613,
      "ic/webpage./common/webpage/category": 614,
      "/common/topic/webpage./common/webpage/category": 615,
      "./education/education/": 616,
      "/memb": 617,
      "/adjoin": 618,
      "_performances./music/group_membership": 619,
      "/music/performance_role/regular": 620,
      "/music/performance_role/regular_performances./music/group_membership": 621,
      "k9": 622,
      "ed/location": 623,
      "/people/place_": 624,
      "/people/person/places_": 625,
      "ed./people/place_": 626,
      "lived/location": 627,
      "lived./people/place_": 628,
      "/people/person/places_lived./people/place_": 629,
      "/people/person/places_lived./people/place_lived/location": 630,
      "/m/01g": 631,
      "/people/person/spous": 632,
      "e_s./people/marriage": 633,
      "/people/person/spouse_s./people/marriage": 634,
      "/le": 635,
      "hel": 636,
      "/m/0m": 637,
      "held": 638,
      "/m/019": 639,
      "sd": 640,
      "or_field_of_study": 641,
      "lc": 642,
      "major_field_of_study": 643,
      "/particip": 644,
      "/m/02r": 645,
      "usin": 646,
      "/busin": 647,
      "b8": 648,
      "/awards_won./award/award_honor": 649,
      "/award/award_winning_work/awards_won./award/award_honor": 650,
      "roster_position": 651,
      "/ath": 652,
      "letes.": 653,
      "roster_position/position": 654,
      "/m/034": 655,
      "/m/02j": 656,
      "xt": 657,
      "/m/02v": 658,
      "riend": 659,
      "/track_performances.": 660,
      "/music/performance_role/track_performances.": 661,
      "/music/performance_role/track_performances./music/track_contribution/role": 662,
      "raft": 663,
      "iation/": 664,
      "filiation/": 665,
      "e_af": 666,
      "lete_af": 667,
      "/olympics/olympic_ath": 668,
      "/athletes.": 669,
      "lete_affiliation/": 670,
      "/olympics/olympic_athlete_affiliation/": 671,
      "/athletes./olympics/olympic_athlete_affiliation/": 672,
      "vel": 673,
      "/m/013": 674,
      "/tv/tv_progra": 675,
      "bat": 676,
      "batant": 677,
      "lace_of_": 678,
      "/m/0n": 679,
      "position": 680,
      "/play": 681,
      "/sports/sports_position": 682,
      "/players.": 683,
      "/sports/sports_position/players.": 684,
      "_genre": 685,
      "_med": 686,
      "/m/014": 687,
      "_held": 688,
      "_position_held": 689,
      "/government/government_position_held": 690,
      "9r": 691,
      "/m/02x": 692,
      "/m/04ztj": 693,
      "/education/educational_degree": 694,
      "degree./education/education/": 695,
      "/people_with_this_degree./education/education/": 696,
      "/education/educational_degree/people_with_this_degree./education/education/": 697,
      "/friend": 698,
      "/m/01j": 699,
      "rec": 700,
      "/base/popstra/celebrity": 701,
      "/participant": 702,
      "/typ": 703,
      "/type_of_": 704,
      "9j": 705,
      "ppz": 706,
      "/m/05zppz": 707,
      "/people/person/spouse_s./people/marriage/type_of_": 708,
      "/people/person/spouse_s./people/marriage/type_of_union": 709,
      "/sports/sports_position/players./sports/sports_team_roster/team": 710,
      "/nut": 711,
      "/food": 712,
      "/award/award_winning_work/awards_won./award/award_honor/award": 713,
      "/tv/tv_program/": 714,
      "igion": 715,
      "religion": 716,
      "stat": 717,
      "/net": 718,
      "/music/rec": 719,
      "/music/recor": 720,
      "14": 721,
      "_relationship": 722,
      "/m/01c": 723,
      "/ceremony": 724,
      "/award/award_honor/ceremony": 725,
      "/award/award_category/winners./award/award_honor/ceremony": 726,
      "aran": 727,
      "sc": 728,
      "/friendship": 729,
      "/m/01k": 730,
      "sb": 731,
      "gis": 732,
      "lative_": 733,
      "session": 734,
      "/legis": 735,
      "lative_session": 736,
      "/legislative_session": 737,
      "dd": 738,
      "_of": 739,
      "/m/025": 740,
      "/award/award_ceremony/awards_presented./award/award_honor/award_winner": 741,
      "/m/02n": 742,
      "draft": 743,
      "ick": 744,
      "/m/01l": 745,
      "ating": 746,
      "1w": 747,
      "1y": 748,
      "/m/03r": 749,
      "/m/0gq": 750,
      "/m/02p": 751,
      "/m/02h40": 752,
      "/education/educational_institution/students_graduates./education/education/student": 753,
      "/m/02h40lc": 754,
      "/education/educational_institution/students_graduates./education/education/major_field_of_study": 755,
      "ers./government/government_position_held": 756,
      "min": 757,
      "istrative_": 758,
      "ministrative_": 759,
      "ema": 760,
      "/schema": 761,
      "/film/film_film_": 762,
      "distributor": 763,
      "distributor_": 764,
      "/film/film_film_distributor_": 765,
      "/film/film_film_distributor_relationship": 766,
      "/travel": 767,
      "/m/02f": 768,
      "_of_": 769,
      "/film/film/language": 770,
      "9c": 771,
      "ical_": 772,
      "ad": 773,
      "/business": 774,
      "/sports/sports_team_roster/position": 775,
      "qu": 776,
      "/m/02k": 777,
      "/film/film/produ": 778,
      "/award/award_winning_work/awards_won./award/award_honor/award_winner": 779,
      "/olympics/olympic_sport": 780,
      "/olympics/olympic_sport/athletes./olympics/olympic_athlete_affiliation/": 781,
      "gr": 782,
      "/m/012": 783,
      "_pick": 784,
      "draft_pick": 785,
      "/dat": 786,
      "ype": 787,
      "lab": 788,
      "/sports/sports_team/": 789,
      "/award/": 790,
      "lace_of_b": 791,
      "/m/01n": 792,
      "ating_c": 793,
      "ppe": 794,
      "2h": 795,
      "_d": 796,
      "a_com": 797,
      "ix": 798,
      "ia_com": 799,
      "/title": 800,
      "mon/net": 801,
      "flix": 802,
      "/media_com": 803,
      "_genre/title": 804,
      "mon/netflix": 805,
      "/media_common/netflix": 806,
      "_genre/titles": 807,
      "/media_common/netflix_genre/titles": 808,
      "/m/01f": 809,
      "/music/artist": 810,
      "/administrative_": 811,
      "nic": 812,
      "/people/e": 813,
      "thnic": 814,
      "/people/ethnic": 815,
      "/people/ethnicity": 816,
      "/m/02b": 817,
      "/m/02z": 818,
      "qh": 819,
      "/m/01h": 820,
      "/organization": 821,
      "/m/02hrh": 822,
      "ld": 823,
      "rth": 824,
      "4k": 825,
      "/religion": 826,
      "/education/educational_degree/people_with_this_degree./education/education/institution": 827,
      "zb8": 828,
      "irth": 829,
      "/people/person/place_of_b": 830,
      "/people/person/place_of_birth": 831,
      "/m/0d0": 832,
      "/m/02hrh1q": 833,
      "sx": 834,
      "ec": 835,
      "/m/01q": 836,
      "el/artist": 837,
      "d_lab": 838,
      "/music/record_lab": 839,
      "/music/record_label/artist": 840,
      "sn": 841,
      "/m/03q": 842,
      "/music/performance_role/regular_performances./music/group_membership/role": 843,
      "h6": 844,
      "/m/01m": 845,
      "/film/film/country": 846,
      "86": 847,
      "/influence": 848,
      "s_distribut": 849,
      "/film/film_distributor": 850,
      "/films_distribut": 851,
      "ed./film/film_film_distributor_relationship": 852,
      "/film/film_distributor/films_distribut": 853,
      "ed./film/film_film_distributor_relationship/film": 854,
      "/film/film_distributor/films_distributed./film/film_film_distributor_relationship/film": 855,
      "/m/02g": 856,
      "ran": 857,
      "/m/01r": 858,
      "/m/02w": 859,
      "/olympics/olympic_sport/athletes./olympics/olympic_athlete_affiliation/country": 860,
      "3t": 861,
      "bl": 862,
      "/m/01x": 863,
      "l0": 864,
      "/m/03g": 865,
      "/m/05p": 866,
      "bj": 867,
      "/m/030": 868,
      "/m/028": 869,
      "/military/military": 870,
      "/m/01d": 871,
      "rogram": 872,
      "/m/047": 873,
      "no": 874,
      "ce_no": 875,
      "/influence_no": 876,
      "/influence/influence_no": 877,
      "/influence/influence_node": 878,
      "/people/ethnicity/people": 879,
      "/m/01z": 880,
      "/organization/organization": 881,
      "arance": 882,
      "ppearance": 883,
      "am": 884,
      "stim": 885,
      "stimated_": 886,
      "leag": 887,
      "_particip": 888,
      "/olympics/olympic_particip": 889,
      "ating_country": 890,
      "/olympics/olympic_participating_country": 891,
      "96": 892,
      "vw": 893,
      "4w": 894,
      "bx": 895,
      "_ca": 896,
      "rient": 897,
      "/nutrient": 898,
      "/sports/sports_leag": 899,
      "_s": 900,
      "/music/instrument": 901,
      "ict": 902,
      "dn": 903,
      "/influenced_by": 904,
      "/influence/influence_node/influenced_by": 905,
      "um": 906,
      "/location/location": 907,
      "95": 908,
      "_s.": 909,
      "ing_relationship": 910,
      "/m/024": 911,
      "/soccer/football_roster_position/position": 912,
      "/soccer/football_team/current_roster./soccer/football_roster_position/position": 913,
      "/film/film/e": 914,
      "np": 915,
      "/soccer/football_team/current_roster./sports/sports_team_roster/position": 916,
      "/m/01s": 917,
      "/members./government/government_position_held": 918,
      "0_": 919,
      "offi": 920,
      "8l": 921,
      "/instrument": 922,
      "alist": 923,
      "/music/instrument/instrument": 924,
      "alists": 925,
      "/music/instrument/instrumentalists": 926,
      "/m/07ssc": 927,
      "stag": 928,
      "/base/schema": 929,
      "staging": 930,
      "/base/schemastaging": 931,
      "ction": 932,
      "/m/01y": 933,
      "t6": 934,
      "nt": 935,
      "x1": 936,
      "hg": 937,
      "/organization/organization/": 938,
      "./base/popstra": 939,
      "wr": 940,
      "/m/03h": 941,
      "/m/05q": 942,
      "/medal": 943,
      "/government/legislative_session": 944,
      "/sports/p": 945,
      "/location/adjoin": 946,
      "/adjoins": 947,
      "/adjoin_s.": 948,
      "/location/location/adjoin_s.": 949,
      "ing_relationship/adjoins": 950,
      "/location/adjoining_relationship/adjoins": 951,
      "/location/location/adjoin_s./location/adjoining_relationship/adjoins": 952,
      "zc": 953,
      "5h": 954,
      "ue_": 955,
      "/ca": 956,
      "/sports/sports_league_": 957,
      "v8": 958,
      "t9": 959,
      "/government/legislative_session/members./government/government_position_held": 960,
      "b7": 961,
      "h8": 962,
      "istical_": 963,
      "statistical_": 964,
      "statistical_region": 965,
      "/location/statistical_region": 966,
      "60": 967,
      "52": 968,
      "area": 969,
      "ivis": 970,
      "ress": 971,
      "ivision": 972,
      "/m/03f": 973,
      "_b": 974,
      "bd": 975,
      "ium": 976,
      "ution_med": 977,
      "ution_medium": 978,
      "qv": 979,
      "/m/06m": 980,
      "ly": 981,
      "ool": 982,
      "jw": 983,
      "mer": 984,
      "/amer": 985,
      "ican": 986,
      "/american": 987,
      "rf": 988,
      "ow": 989,
      "_combatant": 990,
      "/military/military_combatant": 991,
      "er/memb": 992,
      "2v": 993,
      "s./music/track_contribution/role": 994,
      "/track_contributions./music/track_contribution/role": 995,
      "/music/artist/track_contributions./music/track_contribution/role": 996,
      "r5": 997,
      "cl": 998,
      "4v": 999,
      "6k": 1000,
      "_type": 1001,
      "/m/03_": 1002,
      "office": 1003,
      "/m/035": 1004,
      "9k": 1005,
      "/school": 1006,
      "/m/01t": 1007,
      "/m/05b": 1008,
      "jg": 1009,
      "nl": 1010,
      "/organization/organization_memb": 1011,
      "dqu": 1012,
      "eg": 1013,
      "hea": 1014,
      "arters.": 1015,
      "ing_a": 1016,
      "/location/ma": 1017,
      "iling_a": 1018,
      "ddress": 1019,
      "/organization/organization/hea": 1020,
      "dquarters.": 1021,
      "/location/mailing_a": 1022,
      "/organization/organization/headquarters.": 1023,
      "/location/mailing_address": 1024,
      "/organization/organization/headquarters./location/mailing_address": 1025,
      "_gam": 1026,
      "_games": 1027,
      "/m/040": 1028,
      "/us": 1029,
      "/user": 1030,
      "_foo": 1031,
      "20": 1032,
      "4q": 1033,
      "md": 1034,
      "tball/football_": 1035,
      "/american_foo": 1036,
      "/american_football/football_": 1037,
      "wx": 1038,
      "10": 1039,
      "/m/023": 1040,
      "hy": 1041,
      "/bi": 1042,
      "/m/02_j": 1043,
      "3d": 1044,
      "ership/organization": 1045,
      "/group": 1046,
      "_by": 1047,
      "ors": 1048,
      "olors": 1049,
      "hud": 1050,
      "/location/hud": 1051,
      "vq": 1052,
      "/m/02sd": 1053,
      "k9v": 1054,
      "t5": 1055,
      "/de": 1056,
      "38": 1057,
      "s./sports/sports_league_": 1058,
      "dw": 1059,
      "nu": 1060,
      "mber": 1061,
      "number": 1062,
      "/m/02sdk9v": 1063,
      "yk": 1064,
      "/m/04g": 1065,
      "/m/02nzb8": 1066,
      "bb": 1067,
      "t2": 1068,
      "zk": 1069,
      "jj": 1070,
      "cg": 1071,
      "9j_": 1072,
      "/combatant": 1073,
      "/m/0q": 1074,
      "/m/02y": 1075,
      "/m/02_j1w": 1076,
      "release_distrib": 1077,
      "/film/film/release_date_s./film/film_regional_release_date/film_release_distrib": 1078,
      "/film/film/release_date_s./film/film_regional_release_date/film_release_distribution_medium": 1079,
      "rq": 1080,
      "s9": 1081,
      "location": 1082,
      "pani": 1083,
      "death": 1084,
      "7c": 1085,
      "_fil": 1086,
      "j2": 1087,
      "/m/0y": 1088,
      "/medals_": 1089,
      "v3": 1090,
      "vf": 1091,
      "0m": 1092,
      "sq": 1093,
      "/m/029j_": 1094,
      "c4": 1095,
      "x4": 1096,
      "/m/03c": 1097,
      "r1": 1098,
      "honored_": 1099,
      "roducer": 1100,
      "/m/041": 1101,
      "/phon": 1102,
      "/phone_": 1103,
      "/in_a": 1104,
      "/in_a_fil": 1105,
      "7x": 1106,
      "/m/03m": 1107,
      "9rl0": 1108,
      "3y": 1109,
      "al_honor": 1110,
      "/olympics/olympic_med": 1111,
      "/m/07s9rl0": 1112,
      "/olympics/olympic_medal_honor": 1113,
      "k0": 1114,
      "_compani": 1115,
      "/film/film/production": 1116,
      "_companies": 1117,
      "/film/film/production_companies": 1118,
      "bn": 1119,
      "qb": 1120,
      "sw": 1121,
      "/honored_": 1122,
      "/honored_for": 1123,
      "orld": 1124,
      "73": 1125,
      "s./sports/sports_league_draft_pick": 1126,
      "sports_": 1127,
      "cr": 1128,
      "_6": 1129,
      "/sports/sports_team/roster.": 1130,
      "/m/0x": 1131,
      "42": 1132,
      "8p": 1133,
      "s1": 1134,
      "/music/performance_role/regular_performances./music/group_membership/group": 1135,
      "fn": 1136,
      "5w": 1137,
      "53": 1138,
      "loy": 1139,
      "mploy": 1140,
      "/employ": 1141,
      "/olympics/olympic_participating_country/medals_": 1142,
      "/m/0l14": 1143,
      "kj": 1144,
      "lp": 1145,
      "rx": 1146,
      "db": 1147,
      "z1": 1148,
      "pk": 1149,
      "/base/popstra/celebrity/friendship": 1150,
      "/friendship/participant": 1151,
      "./base/popstra/friendship/participant": 1152,
      "/base/popstra/celebrity/friendship./base/popstra/friendship/participant": 1153,
      "/m/0dgr": 1154,
      "z8": 1155,
      "/actor": 1156,
      "_e": 1157,
      "person": 1158,
      "/m/0dxt": 1159,
      "cb": 1160,
      "vl": 1161,
      "_appearance": 1162,
      "zr": 1163,
      "ball": 1164,
      "/baseball": 1165,
      "pj": 1166,
      "/program": 1167,
      "_cast": 1168,
      "/tv/tv_producer": 1169,
      "5l": 1170,
      "pit": 1171,
      "ss": 1172,
      "/m/043": 1173,
      "won./olympics/olympic_medal_honor": 1174,
      "/olympics/olympic_participating_country/medals_won./olympics/olympic_medal_honor": 1175,
      "mj": 1176,
      "gp": 1177,
      "tw": 1178,
      "/m/064": 1179,
      "/m/021": 1180,
      "/m/0dgrmp": 1181,
      "jv": 1182,
      "va": 1183,
      "pl": 1184,
      "_tv": 1185,
      "x7": 1186,
      "_de": 1187,
      "stin": 1188,
      "/travel/travel": 1189,
      "_destin": 1190,
      "/travel/travel_destin": 1191,
      "zd": 1192,
      "fe": 1193,
      "92": 1194,
      "m4": 1195,
      "tim": 1196,
      "ax": 1197,
      "onom": 1198,
      "axonom": 1199,
      "bw": 1200,
      "bud": 1201,
      "get": 1202,
      "stimated_bud": 1203,
      "/film/film/estimated_bud": 1204,
      "get./measurement_unit/dated_money_value/currency": 1205,
      "/film/film/estimated_budget./measurement_unit/dated_money_value/currency": 1206,
      "arent": 1207,
      "sk": 1208,
      "work": 1209,
      "zw": 1210,
      "enure": 1211,
      "_tenure": 1212,
      "ect": 1213,
      "su": 1214,
      "vs": 1215,
      "bject": 1216,
      "subject": 1217,
      "9f": 1218,
      "iti": 1219,
      "7q": 1220,
      "gq": 1221,
      "5x": 1222,
      "fj": 1223,
      "kd": 1224,
      "/m/0gr": 1225,
      "ed/participant": 1226,
      "ed./base/popstra": 1227,
      "/base/popstra/celebrity/dat": 1228,
      "/dated/participant": 1229,
      "ed./base/popstra/dated/participant": 1230,
      "/base/popstra/celebrity/dated./base/popstra/dated/participant": 1231,
      "56": 1232,
      "./tv": 1233,
      "regular_cast": 1234,
      "/regular_tv": 1235,
      "/tv/tv_program/regular_cast": 1236,
      "_appearance/actor": 1237,
      "./tv/regular_tv": 1238,
      "/tv/tv_program/regular_cast./tv/regular_tv": 1239,
      "/tv/tv_program/regular_cast./tv/regular_tv_appearance/actor": 1240,
      "fa": 1241,
      "3h": 1242,
      "division": 1243,
      "xtra": 1244,
      "_extra": 1245,
      "/m/031": 1246,
      "zon": 1247,
      "e_zon": 1248,
      "e_zones": 1249,
      "v4": 1250,
      "_v": 1251,
      "/m/01b": 1252,
      "4j": 1253,
      "9z": 1254,
      "/m/06n": 1255,
      "/film/film/produced_by": 1256,
      "/m/04n": 1257,
      "41": 1258,
      "9q": 1259,
      "34": 1260,
      "s6": 1261,
      "25": 1262,
      "zp": 1263,
      "/m/02d": 1264,
      "ju": 1265,
      "ounty": 1266,
      "al_sports_": 1267,
      "rofessional_sports_": 1268,
      "sp": 1269,
      "3w": 1270,
      "/m/03x": 1271,
      "/m/04r": 1272,
      "location/": 1273,
      "_n": 1274,
      "fr": 1275,
      "vy": 1276,
      "cq": 1277,
      "61": 1278,
      "gy": 1279,
      "n5": 1280,
      "x_": 1281,
      "kh": 1282,
      "/people/person/religion": 1283,
      "sy": 1284,
      "tr": 1285,
      "9n": 1286,
      "vent": 1287,
      "gl": 1288,
      "/olympics/olympic_games": 1289,
      "z2": 1290,
      "_7": 1291,
      "/location/country": 1292,
      "/m/04j": 1293,
      "ff": 1294,
      "/m/03n": 1295,
      "represent": 1296,
      "ict_": 1297,
      "/distr": 1298,
      "/government/legislative_session/members./government/government_position_held/distr": 1299,
      "represented": 1300,
      "ict_represented": 1301,
      "/government/legislative_session/members./government/government_position_held/district_represented": 1302,
      "r6": 1303,
      "3v": 1304,
      "imate": 1305,
      "kv": 1306,
      "/m/011": 1307,
      "/m/020": 1308,
      "_in": 1309,
      "qy": 1310,
      "ages": 1311,
      "team/draft_pick": 1312,
      "languages": 1313,
      "/sports/professional_sports_": 1314,
      "team/draft_picks./sports/sports_league_draft_pick": 1315,
      "/sports/professional_sports_team/draft_picks./sports/sports_league_draft_pick": 1316,
      "/m/03l": 1317,
      "act": 1318,
      "4y": 1319,
      "ms": 1320,
      "/location/location/tim": 1321,
      "/location/location/time_zones": 1322,
      "rank": 1323,
      "vacation": 1324,
      "3p": 1325,
      "_l": 1326,
      "ca": 1327,
      "4m": 1328,
      "6p": 1329,
      "onfl": 1330,
      "s./military/military_combatant": 1331,
      "_confl": 1332,
      "_group": 1333,
      "/combatants": 1334,
      "s./military/military_combatant_group": 1335,
      "_conflict": 1336,
      "s./military/military_combatant_group/combatants": 1337,
      "9h": 1338,
      "/m/011y": 1339,
      "/m/0342h": 1340,
      "27": 1341,
      "/m/04w": 1342,
      "rn": 1343,
      "8n": 1344,
      "g9": 1345,
      "286": 1346,
      "81": 1347,
      "dp": 1348,
      "21": 1349,
      "2w": 1350,
      "26": 1351,
      "zy": 1352,
      "/sports/sports_team/roster./american_football/football_": 1353,
      "qp": 1354,
      "t7": 1355,
      "/m/02_286": 1356,
      "c_": 1357,
      "z6": 1358,
      "/m/060": 1359,
      "./business": 1360,
      "fh": 1361,
      "pan": 1362,
      "ment_tenure": 1363,
      "/compan": 1364,
      "/employment_tenure": 1365,
      "./business/employment_tenure": 1366,
      "/company": 1367,
      "./business/employment_tenure/company": 1368,
      "kf": 1369,
      "71": 1370,
      "do": 1371,
      "olympics": 1372,
      "rw": 1373,
      "9l": 1374,
      "los": 1375,
      "/legislative_sessions": 1376,
      "/olympics/olympic_participating_country/medals_won./olympics/olympic_medal_honor/olympics": 1377,
      "oper": 1378,
      "/m/0gy": 1379,
      "qw": 1380,
      "xw": 1381,
      "music": 1382,
      "/film/film/music": 1383,
      "locations": 1384,
      "s5": 1385,
      "/city": 1386,
      "ature": 1387,
      "/film/film/fe": 1388,
      "d_film_": 1389,
      "atured_film_": 1390,
      "/film/film/featured_film_": 1391,
      "/film/film/featured_film_locations": 1392,
      "4g": 1393,
      "/tv/tv_program/genre": 1394,
      "rition": 1395,
      "yl": 1396,
      "s./food": 1397,
      "_fact": 1398,
      "/nutrition": 1399,
      "/food/food": 1400,
      "/nutrients./food": 1401,
      "_fact/nutrient": 1402,
      "/nutrition_fact/nutrient": 1403,
      "/food/food/nutrients./food": 1404,
      "/food/food/nutrients./food/nutrition_fact/nutrient": 1405,
      "c6": 1406,
      "t8": 1407,
      "es_": 1408,
      "gm": 1409,
      "q0": 1410,
      "sh": 1411,
      "s0": 1412,
      "kx": 1413,
      "zl": 1414,
      "zm": 1415,
      "z3": 1416,
      "/m/01d_": 1417,
      "jc": 1418,
      "sl": 1419,
      "/m/033": 1420,
      "j_": 1421,
      "/award/award_honor/honored_for": 1422,
      "/award/award_ceremony/awards_presented./award/award_honor/honored_for": 1423,
      "/m/06f": 1424,
      "t3": 1425,
      "/m/04x": 1426,
      "zf": 1427,
      "/administrative_area": 1428,
      "ities": 1429,
      "1x": 1430,
      "ood": 1431,
      "y2": 1432,
      "_y": 1433,
      "/administrative_division": 1434,
      "ersity": 1435,
      "univ": 1436,
      "/education/univ": 1437,
      "/education/university": 1438,
      "72": 1439,
      "9x": 1440,
      "/m/048": 1441,
      "/m/05f": 1442,
      "mpus": 1443,
      "/m/05k": 1444,
      "writ": 1445,
      "tg": 1446,
      "_x": 1447,
      "vc": 1448,
      "l5": 1449,
      "/m/0f8l": 1450,
      "/m/0f8l9c": 1451,
      "49": 1452,
      "rc": 1453,
      "nh": 1454,
      "m0": 1455,
      "/m/02s": 1456,
      "4r": 1457,
      "hist": 1458,
      "bm": 1459,
      "/m/01d_h8": 1460,
      "4f": 1461,
      "rd": 1462,
      "1d": 1463,
      "int": 1464,
      "22": 1465,
      "pm": 1466,
      "/m/03k": 1467,
      "8r": 1468,
      "n8": 1469,
      "/m/0dxtg": 1470,
      "g7": 1471,
      "n3": 1472,
      "./music/group_membership": 1473,
      "68": 1474,
      "ership./music/group_membership": 1475,
      "/music/group_member/memb": 1476,
      "/music/group_member/membership./music/group_membership": 1477,
      "1c": 1478,
      "to": 1479,
      "/ju": 1480,
      "ion_of_": 1481,
      "/m/03y": 1482,
      "risd": 1483,
      "iction_of_": 1484,
      "/jurisd": 1485,
      "iction_of_office": 1486,
      "/jurisdiction_of_office": 1487,
      "hw": 1488,
      "v0": 1489,
      "/m/03w": 1490,
      "b5": 1491,
      "di": 1492,
      "2x": 1493,
      "ountri": 1494,
      "lw": 1495,
      "ro_": 1496,
      "/m/06c": 1497,
      "90": 1498,
      "/pol": 1499,
      "/polit": 1500,
      "/m/0d060": 1501,
      "/m/0d060g": 1502,
      "3m": 1503,
      "jd": 1504,
      "z7": 1505,
      "gx": 1506,
      "zq": 1507,
      "/colors": 1508,
      "/education/educational_institution/colors": 1509,
      "mc": 1510,
      "/film/film/film_": 1511,
      "/m/0345h": 1512,
      "/m/05r5": 1513,
      "wc": 1514,
      "mp2": 1515,
      "gh": 1516,
      "s_oper": 1517,
      "ess_oper": 1518,
      "/business_oper": 1519,
      "/business/business_oper": 1520,
      "_title": 1521,
      "vh": 1522,
      "_of_m": 1523,
      "5q": 1524,
      "67": 1525,
      "ased_": 1526,
      "/people/de": 1527,
      "ceased_": 1528,
      "person/p": 1529,
      "/people/deceased_": 1530,
      "/people/deceased_person/p": 1531,
      "jy": 1532,
      "gd": 1533,
      "vb": 1534,
      "/m/0jb": 1535,
      "g8": 1536,
      "/m/0ch6": 1537,
      "/m/0ch6mp2": 1538,
      "bs_": 1539,
      "/ran": 1540,
      "seg": 1541,
      "taxonom": 1542,
      "w8": 1543,
      "m/taxonom": 1544,
      "entry": 1545,
      "/tseg": 1546,
      "aran/ran": 1547,
      "/m/02zsn": 1548,
      "/user/tseg": 1549,
      "dom/taxonom": 1550,
      "aran/random/taxonom": 1551,
      "/user/tsegaran/random/taxonom": 1552,
      "/user/tsegaran/random/taxonomy_": 1553,
      "/m/07f": 1554,
      "_8": 1555,
      "vj": 1556,
      "/languages": 1557,
      "/people/person/languages": 1558,
      "lh": 1559,
      "/m/046": 1560,
      "./organization/organization_memb": 1561,
      "er_of": 1562,
      "er/member_of": 1563,
      "/organization/organization_member/member_of": 1564,
      "./organization/organization_membership/organization": 1565,
      "/organization/organization_member/member_of./organization/organization_membership/organization": 1566,
      "zzb8": 1567,
      "/m/09zzb8": 1568,
      "/celebrities": 1569,
      "6g": 1570,
      "/m/06q": 1571,
      "/m/0jbk9": 1572,
      "3q": 1573,
      "3l": 1574,
      "_for": 1575,
      "_area": 1576,
      "gage": 1577,
      "er/so": 1578,
      "s./measurement_unit/dated_": 1579,
      "ortgage": 1580,
      "urce": 1581,
      "ure_area": 1582,
      "/estimated_": 1583,
      "eclos": 1584,
      "eger/so": 1585,
      "/location/hud_for": 1586,
      "number_of_m": 1587,
      "integer/so": 1588,
      "s./measurement_unit/dated_integer/so": 1589,
      "ortgages./measurement_unit/dated_integer/so": 1590,
      "ure_area/estimated_": 1591,
      "eclosure_area/estimated_": 1592,
      "/location/hud_foreclosure_area/estimated_": 1593,
      "number_of_mortgages./measurement_unit/dated_integer/so": 1594,
      "/location/hud_foreclosure_area/estimated_number_of_mortgages./measurement_unit/dated_integer/so": 1595,
      "/location/hud_foreclosure_area/estimated_number_of_mortgages./measurement_unit/dated_integer/source": 1596,
      "s3": 1597,
      "uition": 1598,
      "uition./measurement_unit/dated_money_value/currency": 1599,
      "type": 1600,
      "_cl": 1601,
      "0x": 1602,
      "2l": 1603,
      "kn": 1604,
      "tow": 1605,
      "/organization/organization/headquarters./location/mailing_address/city": 1606,
      "town": 1607,
      "/organization/organization/headquarters./location/mailing_address/citytown": 1608,
      "areas": 1609,
      "/aareas": 1610,
      "/base/aareas": 1611,
      "/schema/administrative_area": 1612,
      "/base/aareas/schema/administrative_area": 1613,
      "t_d": 1614,
      "1p": 1615,
      "/person": 1616,
      "ioness": 1617,
      "/base/bi": 1618,
      "blioness": 1619,
      "vw2": 1620,
      "/bibs_": 1621,
      "/base/biblioness": 1622,
      "/bibs_location/": 1623,
      "/base/biblioness/bibs_location/": 1624,
      "2t": 1625,
      "2y": 1626,
      "4l": 1627,
      "reed": 1628,
      "wg": 1629,
      "category/": 1630,
      "ders./government/government_position_held": 1631,
      "hol": 1632,
      "fice_": 1633,
      "/government/government_of": 1634,
      "officehol": 1635,
      "category/officehol": 1636,
      "ders./government/government_position_held/jurisdiction_of_office": 1637,
      "fice_category/officehol": 1638,
      "/government/government_office_category/officehol": 1639,
      "/government/government_office_category/officeholders./government/government_position_held/jurisdiction_of_office": 1640,
      "78": 1641,
      "3c": 1642,
      "j6": 1643,
      "kg": 1644,
      "orig": 1645,
      "origin": 1646,
      "6d": 1647,
      "v9": 1648,
      "/m/05r5c": 1649,
      "7y": 1650,
      "endow": 1651,
      "mx": 1652,
      "sm": 1653,
      "5v": 1654,
      "_cup": 1655,
      "/current": 1656,
      "quad": 1657,
      "_squad": 1658,
      "orld_cup": 1659,
      "orld_cup_squad": 1660,
      "ine": 1661,
      "/m/05c": 1662,
      "led": 1663,
      "anood": 1664,
      "/canood": 1665,
      "/canoodled": 1666,
      "/m/01_": 1667,
      "51": 1668,
      "appearance": 1669,
      "98": 1670,
      "1f": 1671,
      "/people/ca": 1672,
      "use_of_": 1673,
      "death/people": 1674,
      "/people/cause_of_": 1675,
      "/people/cause_of_death/people": 1676,
      "v1": 1677,
      "vd": 1678,
      "mr": 1679,
      "/m/03bx": 1680,
      "pital_": 1681,
      "rector": 1682,
      "/film/di": 1683,
      "rector/film": 1684,
      "/film/director/film": 1685,
      "gz": 1686,
      "ky": 1687,
      "vk": 1688,
      "/m/030qb": 1689,
      "/m/030qb3t": 1690,
      "lead": 1691,
      "role/le": 1692,
      "ers./organization/": 1693,
      "/education/educational_institution/school": 1694,
      "/organization/role/le": 1695,
      "aders./organization/": 1696,
      "leadership/organization": 1697,
      "/education/educational_institution/school_type": 1698,
      "/organization/role/leaders./organization/": 1699,
      "/organization/role/leaders./organization/leadership/organization": 1700,
      "w7": 1701,
      "vp": 1702,
      "j8": 1703,
      "tc": 1704,
      "month": 1705,
      "1m": 1706,
      "/event": 1707,
      "ng": 1708,
      "_county": 1709,
      "_place": 1710,
      "/location/hud_county": 1711,
      "/location/hud_county_place": 1712,
      "sf": 1713,
      "lj": 1714,
      "/sports/pro_": 1715,
      "d3": 1716,
      "/m/032": 1717,
      "/m/0dw": 1718,
      "/m/0chg": 1719,
      "9t": 1720,
      "5b": 1721,
      "rz": 1722,
      "/jo": 1723,
      "b_title": 1724,
      "title": 1725,
      "/people_with_this_title": 1726,
      "/m/02jx1": 1727,
      "/business/jo": 1728,
      "b_title/people_with_this_title": 1729,
      "/business/job_title/people_with_this_title": 1730,
      "/business/job_title/people_with_this_title./business/employment_tenure/company": 1731,
      "/m/083": 1732,
      "/m/06b": 1733,
      "/m/02r96": 1734,
      "/m/02r96rf": 1735,
      "m8": 1736,
      "bh": 1737,
      "/m/0r": 1738,
      "./award/": 1739,
      "category": 1740,
      "s/award_": 1741,
      "nominated_for/award_nomination": 1742,
      "nominees/award_": 1743,
      "/award/nominees/award_": 1744,
      "./award/nominated_for/award_nomination": 1745,
      "category./award/nominated_for/award_nomination": 1746,
      "/award/nominees/award_category./award/nominated_for/award_nomination": 1747,
      "fz": 1748,
      "/m/050": 1749,
      "mz": 1750,
      "9g": 1751,
      "/vacation": 1752,
      "eed": 1753,
      "list": 1754,
      "na": 1755,
      "ess/n": 1756,
      "/base/mar": 1757,
      "urna": 1758,
      "madn": 1759,
      "chmadn": 1760,
      "/award/rank": 1761,
      "caa": 1762,
      "ess/ncaa": 1763,
      "/base/marchmadn": 1764,
      "/base/marchmadness/ncaa": 1765,
      "/parent": 1766,
      "/music/genre/parent": 1767,
      "/music/genre/parent_genre": 1768,
      "k1": 1769,
      "gj": 1770,
      "/m/07c": 1771,
      "6y": 1772,
      "cx": 1773,
      "/m/0dq": 1774,
      "/m/03rjj": 1775,
      "erm/": 1776,
      "_term/": 1777,
      "/tv/tv_producer_term/": 1778,
      "ox": 1779,
      "san": 1780,
      "/organization_extra": 1781,
      "/base/schemastaging/organization_extra": 1782,
      "/phone_number": 1783,
      "/phone_san": 1784,
      "dbox": 1785,
      "/base/schemastaging/organization_extra/phone_number": 1786,
      "/phone_sandbox": 1787,
      "m/performance": 1788,
      "/film/actor/in_a_fil": 1789,
      "/in_a_film": 1790,
      "m/performance/in_a_film": 1791,
      "/film/actor/in_a_film/performance/in_a_film": 1792,
      "nw": 1793,
      "_ceremony": 1794,
      "_of_ceremony": 1795,
      "lace_of_death": 1796,
      "/travel/travel_destination/": 1797,
      "/people/deceased_person/place_of_death": 1798,
      "colors": 1799,
      "/sports/sports_team/colors": 1800,
      "5k": 1801,
      "/location/administrative_division": 1802,
      "dx": 1803,
      "/m/058": 1804,
      "/government/legislative_session/members./government/government_position_held/legislative_sessions": 1805,
      "fp": 1806,
      "ten": 1807,
      "/film/film/writ": 1808,
      "ten_by": 1809,
      "/film/film/written_by": 1810,
      "/business/business_operation/": 1811,
      "/athletes./olympics/olympic_athlete_affiliation/olympics": 1812,
      "/olympics/olympic_participating_country/athletes./olympics/olympic_athlete_affiliation/olympics": 1813,
      "qn": 1814,
      "/m/05l": 1815,
      "ain": 1816,
      "wl": 1817,
      "omain": 1818,
      "ult_d": 1819,
      "/user/": 1820,
      "/defa": 1821,
      "ult_domain": 1822,
      "/default_domain": 1823,
      "6f": 1824,
      "vx": 1825,
      "/m/09vw2": 1826,
      "/m/09vw2b7": 1827,
      "9d": 1828,
      "mq": 1829,
      "/m/0chghy": 1830,
      "/music/group_member/membership./music/group_membership/role": 1831,
      "9_": 1832,
      "/m/05p5": 1833,
      "70": 1834,
      "rp": 1835,
      "xec": 1836,
      "utive_": 1837,
      "produced_by": 1838,
      "/film/film/exec": 1839,
      "utive_produced_by": 1840,
      "/film/film/executive_produced_by": 1841,
      "hf": 1842,
      "/stat": 1843,
      "pro": 1844,
      "vin": 1845,
      "e_pro": 1846,
      "ce_region": 1847,
      "/location_of_ceremony": 1848,
      "/organization/organization/headquarters./location/mailing_address/stat": 1849,
      "vince_region": 1850,
      "e_province_region": 1851,
      "/organization/organization/headquarters./location/mailing_address/state_province_region": 1852,
      "./base/schemastaging": 1853,
      "/m/02jk": 1854,
      "/base/schemastaging/organization_extra/phone_number./base/schemastaging": 1855,
      "/base/schemastaging/organization_extra/phone_number./base/schemastaging/phone_sandbox": 1856,
      "tp": 1857,
      "46": 1858,
      "ke": 1859,
      "mat": 1860,
      "/m/0f4": 1861,
      "2k": 1862,
      "/m/099": 1863,
      "/m/04f": 1864,
      "ty": 1865,
      "m1": 1866,
      "d5": 1867,
      "/m/09q": 1868,
      "m5": 1869,
      "/military_conflict": 1870,
      "/military/military_combatant/military_conflict": 1871,
      "/military/military_combatant/military_conflicts./military/military_combatant_group/combatants": 1872,
      "ian": 1873,
      "ician": 1874,
      "/government/polit": 1875,
      "tx": 1876,
      "16": 1877,
      "s8": 1878,
      "58": 1879,
      "jx": 1880,
      "/m/018vs": 1881,
      "vn": 1882,
      "1n": 1883,
      "j0": 1884,
      "/baseball_": 1885,
      "/baseball/baseball_": 1886,
      "88": 1887,
      "/m/060c4": 1888,
      "mg": 1889,
      "t0": 1890,
      "/m/0514": 1891,
      "8p4": 1892,
      "/m/05148p4": 1893,
      "/language": 1894,
      "30": 1895,
      "/m/0ct": 1896,
      "/sports/professional_sports_team/draft_picks./sports/sports_league_draft_pick/school": 1897,
      "/m/0bx": 1898,
      "cp": 1899,
      "jz": 1900,
      "_5": 1901,
      "/m/0cc": 1902,
      "/m/09jw": 1903,
      "ice_": 1904,
      "/m/02jknp": 1905,
      "rt": 1906,
      "vv": 1907,
      "zs": 1908,
      "/award/award_nominated_": 1909,
      "/award_nominations./award/award_nomination/nominated_for": 1910,
      "work/award_nominations./award/award_nomination/nominated_for": 1911,
      "/award/award_nominated_work/award_nominations./award/award_nomination/nominated_for": 1912,
      "9w": 1913,
      "/m/054k": 1914,
      "team": 1915,
      "jf": 1916,
      "/m/059j": 1917,
      "dy": 1918,
      "ding": 1919,
      "/music/recording": 1920,
      "/m/05p553": 1921,
      "/music/recording_contribution": 1922,
      "1h": 1923,
      "/music/recording_contribution/performance_role": 1924,
      "3x": 1925,
      "/m/05r": 1926,
      "/m/03_3d": 1927,
      "kt": 1928,
      "ht": 1929,
      "/location/statistical_region/g": 1930,
      "50": 1931,
      "9b": 1932,
      "my": 1933,
      "orical_": 1934,
      "roster_position/position_s": 1935,
      "historical_": 1936,
      "historical_roster_position/position_s": 1937,
      "32": 1938,
      "cent": 1939,
      "ercent": 1940,
      "s./location/": 1941,
      "_percent": 1942,
      "/film/film_subject": 1943,
      "/films": 1944,
      "age/religion": 1945,
      "religion_percent": 1946,
      "/religions./location/": 1947,
      "/location/statistical_region/religions./location/": 1948,
      "/film/film_subject/films": 1949,
      "religion_percentage/religion": 1950,
      "/location/statistical_region/religions./location/religion_percentage/religion": 1951,
      "2b": 1952,
      "47": 1953,
      "eason": 1954,
      "37": 1955,
      "world": 1956,
      "/m/04p": 1957,
      "_to": 1958,
      "tq": 1959,
      "fsb": 1960,
      "hp": 1961,
      "j7": 1962,
      "/m/01jfsb": 1963,
      "vr": 1964,
      "/tv/tv_n": 1965,
      "etwork": 1966,
      "/tv/tv_network": 1967,
      "0y": 1968,
      "dk": 1969,
      "m6": 1970,
      "s./sports/sports_team_roster/team": 1971,
      "athlete": 1972,
      "/teams./sports/sports_team_roster/team": 1973,
      "/sports/pro_athlete": 1974,
      "/m/09jwl": 1975,
      "/sports/pro_athlete/teams./sports/sports_team_roster/team": 1976,
      "/m/0sx": 1977,
      "zg": 1978,
      "2g": 1979,
      "9p": 1980,
      "z9": 1981,
      "team/current_roster./sports/sports_team_roster/position": 1982,
      "hn": 1983,
      "kp": 1984,
      "cn": 1985,
      "k6": 1986,
      "/m/04y": 1987,
      "jq": 1988,
      "jzk": 1989,
      "kq": 1990,
      "/m/03gjzk": 1991,
      "31": 1992,
      "5m": 1993,
      "5y": 1994,
      "v_": 1995,
      "ced.": 1996,
      "s_produ": 1997,
      "/programs_produ": 1998,
      "/tv/tv_producer/programs_produ": 1999,
      "ced./tv/tv_producer_term/": 2000,
      "/tv/tv_producer/programs_produced./tv/tv_producer_term/": 2001,
      "zt": 2002,
      "/m/082": 2003,
      "0d": 2004,
      "4b": 2005,
      "s2": 2006,
      "/m/078": 2007,
      "oring": 2008,
      "/m/07b": 2009,
      "/education/field_of_study": 2010,
      "/students_maj": 2011,
      "/olympics/olympic_games/sports": 2012,
      "oring./education/education/": 2013,
      "/education/field_of_study/students_maj": 2014,
      "/education/field_of_study/students_majoring./education/education/": 2015,
      "3b": 2016,
      "/m/059j2": 2017,
      "gf": 2018,
      "hm": 2019,
      "ho": 2020,
      "level": 2021,
      "_division": 2022,
      "level_division": 2023,
      "07": 2024,
      "f2": 2025,
      "ome": 2026,
      "s4": 2027,
      "/m/0bm": 2028,
      "v7": 2029,
      "17": 2030,
      "j9": 2031,
      "ation_": 2032,
      "4n": 2033,
      "team_": 2034,
      "12": 2035,
      "/m/09sb": 2036,
      "/m/09sb52": 2037,
      "jr": 2038,
      "memb": 2039,
      "member": 2040,
      "6t": 2041,
      "ln": 2042,
      "jt": 2043,
      "esig": 2044,
      "esign": 2045,
      "erv": 2046,
      "/serv": 2047,
      "/m/0l14md": 2048,
      "/m/0gq9h": 2049,
      "./travel/travel_destin": 2050,
      "onth": 2051,
      "/month": 2052,
      "/m/03rk0": 2053,
      "ly_cl": 2054,
      "climate": 2055,
      "imate/month": 2056,
      "monthly_cl": 2057,
      "/travel/travel_destination/climate": 2058,
      "ation_monthly_cl": 2059,
      "./travel/travel_destination_monthly_cl": 2060,
      "/travel/travel_destination/climate./travel/travel_destination_monthly_cl": 2061,
      "/travel/travel_destination/climate./travel/travel_destination_monthly_climate/month": 2062,
      "/m/0c8": 2063,
      "65": 2064,
      "/m/02hc": 2065,
      "/m/09p": 2066,
      "/m/0by": 2067,
      "9y": 2068,
      "mlp": 2069,
      "3r": 2070,
      "1z": 2071,
      "ex": 2072,
      "in_": 2073,
      "wj": 2074,
      "_gx": 2075,
      "3f": 2076,
      "b_": 2077,
      "vqn": 2078,
      "6c": 2079,
      "7p": 2080,
      "/m/07h": 2081,
      "m7": 2082,
      "/base/biblioness/bibs_location/country": 2083,
      "/m/0cqh": 2084,
      "vz": 2085,
      "/sports/sports_team/roster./american_football/football_historical_roster_position/position_s": 2086,
      "wq": 2087,
      "/m/022": 2088,
      "0c": 2089,
      "/m/014mlp": 2090,
      "bq": 2091,
      "ken": 2092,
      "nf": 2093,
      "spo": 2094,
      "/m/037": 2095,
      "spoken": 2096,
      "so": 2097,
      "/m/06mkj": 2098,
      "/base/schemastaging/organization_extra/phone_number./base/schemastaging/phone_sandbox/serv": 2099,
      "/base/schemastaging/organization_extra/phone_number./base/schemastaging/phone_sandbox/service_": 2100,
      "parent": 2101,
      "/season": 2102,
      "/administrative_parent": 2103,
      "/base/aareas/schema/administrative_area/administrative_parent": 2104,
      "yg": 2105,
      "df": 2106,
      "/m/0bq": 2107,
      "/location/country/": 2108,
      "tf": 2109,
      "kd1": 2110,
      "0p": 2111,
      "hq": 2112,
      "/m/0bdw": 2113,
      "s9p": 2114,
      "/m/05v": 2115,
      "/m/0gl": 2116,
      "54": 2117,
      "/m/06w": 2118,
      "/m/0bl": 2119,
      "/sports/sports_team/roster./american_football/football_roster_position/position": 2120,
      "ketball_": 2121,
      "/origin": 2122,
      "/music/artist/origin": 2123,
      "/x": 2124,
      "90_": 2125,
      "cup": 2126,
      "haf": 2127,
      "ric": 2128,
      "fifa": 2129,
      "uthaf": 2130,
      "/base/x": 2131,
      "_world_cup_squad": 2132,
      "2010": 2133,
      "/current_world_cup_squad": 2134,
      "worldcup": 2135,
      "southaf": 2136,
      "rica": 2137,
      "fifaworldcup": 2138,
      "/base/x2010": 2139,
      "southafrica": 2140,
      "fifaworldcupsouthafrica": 2141,
      "/base/x2010fifaworldcupsouthafrica": 2142,
      "1l": 2143,
      "vg": 2144,
      "/m/0d0vqn": 2145,
      "dz": 2146,
      "/m/0gv": 2147,
      "/m/05h": 2148,
      "/m/04jpl": 2149,
      "qq": 2150,
      "/m/05g": 2151,
      "/olympic_games": 2152,
      "jg/default_domain": 2153,
      "/user/jg/default_domain": 2154,
      "/olympic_games/sports": 2155,
      "/user/jg/default_domain/olympic_games/sports": 2156,
      "3k": 2157,
      "z4": 2158,
      "/m/09qv": 2159,
      "18": 2160,
      "/m/03d": 2161,
      "indu": 2162,
      "6nt": 2163,
      "hx": 2164,
      "/m/02hnl": 2165,
      "/film/film/c": 2166,
      "/country": 2167,
      "bg": 2168,
      "5f": 2169,
      "rr": 2170,
      "/m/06r": 2171,
      "/m/01vw": 2172,
      "/loc": 2173,
      "js": 2174,
      "/m/06y": 2175,
      "97": 2176,
      "_r": 2177,
      "zv": 2178,
      "06": 2179,
      "dp_": 2180,
      "/location/statistical_region/gdp_": 2181,
      "h./measurement_unit/dated_money_value/currency": 2182,
      "orth./measurement_unit/dated_money_value/currency": 2183,
      "_worth./measurement_unit/dated_money_value/currency": 2184,
      "/net_worth./measurement_unit/dated_money_value/currency": 2185,
      "/base/schemastaging/person": 2186,
      "_extra/net_worth./measurement_unit/dated_money_value/currency": 2187,
      "/base/schemastaging/person_extra/net_worth./measurement_unit/dated_money_value/currency": 2188,
      "dv": 2189,
      "/m/01vx": 2190,
      "bf": 2191,
      "/m/0dl": 2192,
      "/m/0bw": 2193,
      "7g": 2194,
      "al_appearance": 2195,
      "/american_football/football_team/current_roster./sports/sports_team_roster/position": 2196,
      "team_stat": 2197,
      "c8": 2198,
      "_program": 2199,
      "/tv_program": 2200,
      "dt": 2201,
      "hc": 2202,
      "/m/02vzc": 2203,
      "/m/086k": 2204,
      "/m/086k8": 2205,
      "ial_": 2206,
      "/m/0l6": 2207,
      "mm": 2208,
      "/m/0gs9p": 2209,
      "e/event": 2210,
      "tk": 2211,
      "/place": 2212,
      "/tim": 2213,
      "/m/05qh": 2214,
      "/m/013y": 2215,
      "/location/hud_county_place/place": 2216,
      "/time/event": 2217,
      "/m/0gj": 2218,
      "/m/0ck": 2219,
      "/m/0fb": 2220,
      "/m/02hcv8": 2221,
      "1k": 2222,
      "dubb": 2223,
      "dubbing": 2224,
      "/education/educational_institution/ca": 2225,
      "mpuses": 2226,
      "/education/educational_institution/campuses": 2227,
      "/locations": 2228,
      "mf": 2229,
      "yn": 2230,
      "/m/0fp": 2231,
      "/education/educational_degree/people_with_this_degree./education/education/major_field_of_study": 2232,
      "s_in_": 2233,
      "/m/0cq": 2234,
      "33": 2235,
      "./sports/sports_team_roster/team": 2236,
      "/educational_": 2237,
      "b6": 2238,
      "er/curren": 2239,
      "/m/029": 2240,
      "_play": 2241,
      "/football": 2242,
      "t_team": 2243,
      "/education/educational_institution_ca": 2244,
      "/soccer/football": 2245,
      "mpus/educational_": 2246,
      "er/current_team": 2247,
      "_player/current_team": 2248,
      "/education/educational_institution_campus/educational_": 2249,
      "/soccer/football_player/current_team": 2250,
      "/education/educational_institution_campus/educational_institution": 2251,
      "/soccer/football_player/current_team./sports/sports_team_roster/team": 2252,
      "/m/07g": 2253,
      "dc": 2254,
      "/m/02l7c": 2255,
      "/m/02l7c8": 2256,
      "xq": 2257,
      "9s": 2258,
      "/m/0gqy2": 2259,
      "48": 2260,
      "/m/07k": 2261,
      "by7": 2262,
      "/m/04m": 2263,
      "/m/0cbd": 2264,
      "/m/0_": 2265,
      "ond_": 2266,
      "/sec": 2267,
      "/location/country/sec": 2268,
      "level_divisions": 2269,
      "ond_level_divisions": 2270,
      "/location/country/second_level_divisions": 2271,
      "2n": 2272,
      "/m/039": 2273,
      "/m/016z": 2274,
      "57": 2275,
      "z0": 2276,
      "3s": 2277,
      "bz": 2278,
      "/m/04q": 2279,
      "/m/02vx4": 2280,
      "/m/0l14qv": 2281,
      "00": 2282,
      "/m/0cbd2": 2283,
      "icine": 2284,
      "/m/042": 2285,
      "/m/019f": 2286,
      "ountries_": 2287,
      "mt": 2288,
      "/m/02kdv": 2289,
      "/m/02kdv5l": 2290,
      "state": 2291,
      "/m/044": 2292,
      "/m/07l": 2293,
      "/m/088": 2294,
      "/m/01hm": 2295,
      "/m/0f4x7": 2296,
      "./people/marriage": 2297,
      "/union": 2298,
      "e_union": 2299,
      "s_of_": 2300,
      "age_union": 2301,
      "/draft": 2302,
      "this_type": 2303,
      "/people/marriage_union": 2304,
      "_type/union": 2305,
      "/sports/professional_sports_team/draft_picks./sports/sports_league_draft_pick/draft": 2306,
      "./people/marriage/location_of_ceremony": 2307,
      "s_of_this_type": 2308,
      "/people/marriage_union_type/union": 2309,
      "s_of_this_type./people/marriage/location_of_ceremony": 2310,
      "/people/marriage_union_type/unions_of_this_type./people/marriage/location_of_ceremony": 2311,
      "/m/03k9": 2312,
      "ogra": 2313,
      "/m/0170": 2314,
      "ograp": 2315,
      "24": 2316,
      "xp": 2317,
      "/m/03h6": 2318,
      "/sports/sports_team/sport": 2319,
      "l3": 2320,
      "s./film/film_film_distributor_relationship": 2321,
      "/film/film/distributor": 2322,
      "/film/film/distributors./film/film_film_distributor_relationship": 2323,
      "5g": 2324,
      "/m/03k9fj": 2325,
      "./government/government_position_held": 2326,
      "s_held": 2327,
      "/government_position": 2328,
      "ician/government_position": 2329,
      "/government/politician/government_position": 2330,
      "/m/05qhw": 2331,
      "s_held./government/government_position_held": 2332,
      "/government/politician/government_positions_held./government/government_position_held": 2333,
      "/m/07x": 2334,
      "sr": 2335,
      "/m/059r": 2336,
      "/m/0p_": 2337,
      "/m/0fq": 2338,
      "bk": 2339,
      "/m/01n7q": 2340,
      "/m/0k6nt": 2341,
      "/m/06by7": 2342,
      "/participating_c": 2343,
      "/olympics/olympic_games/participating_c": 2344,
      "ountries": 2345,
      "/olympics/olympic_games/participating_countries": 2346,
      "yw": 2347,
      "6x": 2348,
      "r_": 2349,
      "tv": 2350,
      "/m/0jgd": 2351,
      "/countries_": 2352,
      "rq6": 2353,
      "35": 2354,
      "/m/06bn": 2355,
      "/m/080": 2356,
      "/medicine": 2357,
      "/m/0gk": 2358,
      "/m/02g_6": 2359,
      "jb": 2360,
      "enue": 2361,
      "gw": 2362,
      "/m/03z": 2363,
      "/m/0154j": 2364,
      "q4": 2365,
      "/gue": 2366,
      "/m/0b90_": 2367,
      "/m/0f2": 2368,
      "/music/performance_role/gue": 2369,
      "/m/0b90_r": 2370,
      "/music/performance_role/guest": 2371,
      "/m/0nb": 2372,
      "_performances./music/recording_contribution/performance_role": 2373,
      "vlr": 2374,
      "/m/04xvlr": 2375,
      "/music/performance_role/guest_performances./music/recording_contribution/performance_role": 2376,
      "/m/02pp": 2377,
      "/m/01vvy": 2378,
      "/award/award_winning_work/awards_won./award/award_honor/honored_for": 2379,
      "/m/0gr4k": 2380,
      "./user/tsegaran/random/taxonomy_": 2381,
      "/entry": 2382,
      "3_": 2383,
      "c1": 2384,
      "jm": 2385,
      "td": 2386,
      "/taxonom": 2387,
      "/m/03gj2": 2388,
      "subject/entry": 2389,
      "/m/04n6k": 2390,
      "entry/taxonom": 2391,
      "/user/tsegaran/random/taxonomy_subject/entry": 2392,
      "./user/tsegaran/random/taxonomy_entry/taxonom": 2393,
      "/user/tsegaran/random/taxonomy_subject/entry./user/tsegaran/random/taxonomy_entry/taxonom": 2394,
      "/user/tsegaran/random/taxonomy_subject/entry./user/tsegaran/random/taxonomy_entry/taxonomy": 2395,
      "gc": 2396,
      "/m/015fr": 2397,
      "cf": 2398,
      "4x": 2399,
      "7d": 2400,
      "7r": 2401,
      "8t": 2402,
      "/military/military_conflict": 2403,
      "/combatants./military/military_combatant_group/combatants": 2404,
      "/military/military_conflict/combatants./military/military_combatant_group/combatants": 2405,
      "3n": 2406,
      "62": 2407,
      "dh": 2408,
      "jl": 2409,
      "s./celebrities": 2410,
      "/celebrities/celebrity": 2411,
      "/m/07y": 2412,
      "/m/0dxtw": 2413,
      "stic": 2414,
      "/m/05m": 2415,
      "/dome": 2416,
      "_tuition./measurement_unit/dated_money_value/currency": 2417,
      "/education/university/dome": 2418,
      "stic_tuition./measurement_unit/dated_money_value/currency": 2419,
      "/education/university/domestic_tuition./measurement_unit/dated_money_value/currency": 2420,
      "tuition./measurement_unit/dated_money_value/currency": 2421,
      "al_tuition./measurement_unit/dated_money_value/currency": 2422,
      "/m/0l8": 2423,
      "94": 2424,
      "b2": 2425,
      "/m/059rby": 2426,
      "/m/0g2": 2427,
      "/m/03h64": 2428,
      "/m/038": 2429,
      "wxp": 2430,
      "/m/0c8wxp": 2431,
      "bt": 2432,
      "/m/05r4w": 2433,
      "/m/0nbcg": 2434,
      "/m/05qd_": 2435,
      "zz": 2436,
      "/m/02c": 2437,
      "/m/062": 2438,
      "/m/019v": 2439,
      "/m/040n": 2440,
      "ppear": 2441,
      "/m/06bnz": 2442,
      "og": 2443,
      "/petb": 2444,
      "/m/03j": 2445,
      "/m/0cr": 2446,
      "/base/petb": 2447,
      "/dog": 2448,
      "/m/03rt9": 2449,
      "_breed": 2450,
      "reeds": 2451,
      "/base/petbreeds": 2452,
      "n_": 2453,
      "xn": 2454,
      "fw": 2455,
      "jp": 2456,
      "/m/035qy": 2457,
      "/m/0gs": 2458,
      "/m/05b4w": 2459,
      "/m/01hmnh": 2460,
      "h2": 2461,
      "y6": 2462,
      "ice": 2463,
      "/m/09f": 2464,
      "ild": 2465,
      "/m/019f4v": 2466,
      "ed_organization/": 2467,
      "ment./measurement_unit/dated_money_value/currency": 2468,
      "/int": 2469,
      "/organization/endow": 2470,
      "endowment./measurement_unit/dated_money_value/currency": 2471,
      "ed_organization/endowment./measurement_unit/dated_money_value/currency": 2472,
      "/organization/endowed_organization/endowment./measurement_unit/dated_money_value/currency": 2473,
      "vt": 2474,
      "/ren": 2475,
      "2./measurement_unit/dated_money_value/currency": 2476,
      "w_b": 2477,
      "0_2./measurement_unit/dated_money_value/currency": 2478,
      "/location/statistical_region/ren": 2479,
      "t50_2./measurement_unit/dated_money_value/currency": 2480,
      "/m/0ctw_b": 2481,
      "/location/statistical_region/rent50_2./measurement_unit/dated_money_value/currency": 2482,
      "r9": 2483,
      "/m/071": 2484,
      "0n": 2485,
      "_regular": 2486,
      "nc_": 2487,
      "er_relationship": 2488,
      "/base/popstra/celebrity/canoodled": 2489,
      "./base/popstra/canoodled": 2490,
      "/base/popstra/celebrity/canoodled./base/popstra/canoodled": 2491,
      "/base/popstra/celebrity/canoodled./base/popstra/canoodled/participant": 2492,
      "4rq6": 2493,
      "x8": 2494,
      "/m/02h4rq6": 2495,
      "0bm": 2496,
      "2p": 2497,
      "93": 2498,
      "sxr": 2499,
      "/m/03bx0bm": 2500,
      "/m/0gqwc": 2501,
      "/m/0gq_v": 2502,
      "/m/040njc": 2503,
      "/m/042v": 2504,
      "/crew": 2505,
      "ound": 2506,
      "/film/film/other_crew./film/film_crew_gig/crew": 2507,
      "/film/film/other_crew./film/film_crew_gig/crewmember": 2508,
      "/m/01ck": 2509,
      "/m/05d": 2510,
      "8z": 2511,
      "/m/03p": 2512,
      "/m/070": 2513,
      "/m/0h0": 2514,
      "/m/0dg": 2515,
      "/m/0cj": 2516,
      "/m/087": 2517,
      "/m/083jv": 2518,
      "k3": 2519,
      "/m/0kb": 2520,
      "8x": 2521,
      "jn": 2522,
      "story": 2523,
      "/film/film/story": 2524,
      "/m/01g6": 2525,
      "/film/film/story_by": 2526,
      "/m/026t6": 2527,
      "/spouse": 2528,
      "/people/person/spouse_s./people/marriage/spouse": 2529,
      "_bas": 2530,
      "5z": 2531,
      "/m/0gqyl": 2532,
      "g5": 2533,
      "/m/019v9k": 2534,
      "wv": 2535,
      "/m/0ckd1": 2536,
      "0f": 2537,
      "1t": 2538,
      "/m/04h": 2539,
      "4h": 2540,
      "performance_": 2541,
      "/m/016t": 2542,
      "performance_type": 2543,
      "ibl": 2544,
      "/sibl": 2545,
      "/time/event/locations": 2546,
      "gs": 2547,
      "kw": 2548,
      "rv": 2549,
      "/m/04v": 2550,
      "/list": 2551,
      "appear": 2552,
      "em/": 2553,
      "seed": 2554,
      "s./award/rank": 2555,
      "s./base/marchmadness/ncaa": 2556,
      "item/": 2557,
      "/seed": 2558,
      "ed_list": 2559,
      "ed_item/": 2560,
      "_cho": 2561,
      "ment/seed": 2562,
      "ing/list": 2563,
      "/location/vacation": 2564,
      "ers./base/popstra": 2565,
      "/base/popstra/location/vacation": 2566,
      "ment_seed": 2567,
      "/m/064_8": 2568,
      "ranked_list": 2569,
      "tourna": 2570,
      "/vacationer": 2571,
      "/vacation_cho": 2572,
      "urnament_seed": 2573,
      "/award/ranked_item/": 2574,
      "/base/marchmadness/ncaa_bas": 2575,
      "_tournament_seed": 2576,
      "ketball_tourna": 2577,
      "s_in_ranked_list": 2578,
      "ice/vacationer": 2579,
      "appears_in_ranked_list": 2580,
      "s./award/ranking/list": 2581,
      "s./base/marchmadness/ncaa_tournament_seed": 2582,
      "ment/seeds./base/marchmadness/ncaa_tournament_seed": 2583,
      "ers./base/popstra/vacation_cho": 2584,
      "/base/popstra/location/vacationers./base/popstra/vacation_cho": 2585,
      "/m/064_8sq": 2586,
      "/award/ranked_item/appears_in_ranked_list": 2587,
      "/base/marchmadness/ncaa_basketball_tourna": 2588,
      "ment/seeds./base/marchmadness/ncaa_tournament_seed/team": 2589,
      "/base/popstra/location/vacationers./base/popstra/vacation_choice/vacationer": 2590,
      "/award/ranked_item/appears_in_ranked_lists./award/ranking/list": 2591,
      "/base/marchmadness/ncaa_basketball_tournament/seeds./base/marchmadness/ncaa_tournament_seed/team": 2592,
      "1v": 2593,
      "program": 2594,
      "wy": 2595,
      "/m/017s1": 2596,
      "/tv/tv_producer/programs_produced./tv/tv_producer_term/program": 2597,
      "j9c": 2598,
      "/m/04l": 2599,
      "/m/01vj9c": 2600,
      "r51": 2601,
      "/location/statistical_region/gdp_nomin": 2602,
      "/m/01c7": 2603,
      "5p": 2604,
      "8f": 2605,
      "c0": 2606,
      "format": 2607,
      "/film/film/film_format": 2608,
      "/m/017s11": 2609,
      "1b": 2610,
      "kr": 2611,
      "teams": 2612,
      "/sports/sports_team_location/": 2613,
      "/sports/sports_team_location/teams": 2614,
      "5n": 2615,
      "/m/0gt": 2616,
      "1r": 2617,
      "hr": 2618,
      "wp": 2619,
      "/m/086": 2620,
      "/m/016tw": 2621,
      "/m/0np": 2622,
      "/m/016tw3": 2623,
      "g4": 2624,
      "/m/05y": 2625,
      "/m/03qjg": 2626,
      "/m/042v_gx": 2627,
      "8q": 2628,
      "xb": 2629,
      "/m/01vd": 2630,
      "mk": 2631,
      "cer_type": 2632,
      "producer_type": 2633,
      "5t": 2634,
      "6l": 2635,
      "77": 2636,
      "f_": 2637,
      "/m/0dd": 2638,
      "cw": 2639,
      "/m/01znc_": 2640,
      "/m/013y1f": 2641,
      "/m/04c": 2642,
      "/m/0c4": 2643,
      "hb": 2644,
      "/m/0np9r": 2645,
      "p8": 2646,
      "4p": 2647,
      "wh": 2648,
      "and_": 2649,
      "611": 2650,
      "hj": 2651,
      "sv": 2652,
      "stry": 2653,
      "ported_": 2654,
      "/m/0gr51": 2655,
      "/m/02sgy": 2656,
      "/business/business_operation/indu": 2657,
      "/m/01vx2h": 2658,
      "ported_to": 2659,
      "/business/business_operation/industry": 2660,
      "cd": 2661,
      "/m/0b_6": 2662,
      "/m/041rx": 2663,
      "9m": 2664,
      "h7": 2665,
      "/m/03h_": 2666,
      "esign_by": 2667,
      "zx": 2668,
      "/m/0bt": 2669,
      "/m/064t9": 2670,
      "/m/09l": 2671,
      "/m/016tt2": 2672,
      "7t": 2673,
      "hd": 2674,
      "sg": 2675,
      "/m/01vs": 2676,
      "/olympics/olympic_sport/athletes./olympics/olympic_athlete_affiliation/olympics": 2677,
      "/m/0gr0m": 2678,
      "c5": 2679,
      "d9": 2680,
      "8y": 2681,
      "/m/01pvk": 2682,
      "/m/01pvkk": 2683,
      "/m/09g": 2684,
      "/location/administrative_division/country": 2685,
      "/m/063": 2686,
      "27z": 2687,
      "/m/0ck27z": 2688,
      "/m/0kbw": 2689,
      "/m/02qy": 2690,
      "/m/01g63y": 2691,
      "dg": 2692,
      "m2": 2693,
      "/m/01vsy": 2694,
      "/m/045": 2695,
      "/m/0d6": 2696,
      "/m/04rzd": 2697,
      "l8": 2698,
      "/m/0h7x": 2699,
      "2f": 2700,
      "part": 2701,
      "r3": 2702,
      "party": 2703,
      "/m/018g": 2704,
      "fam": 2705,
      "hall": 2706,
      "ctee": 2707,
      "ductee": 2708,
      "/inductee": 2709,
      "/m/0kv": 2710,
      "_of_fam": 2711,
      "/award/hall": 2712,
      "/award/hall_of_fam": 2713,
      "n0": 2714,
      "/m/05pc": 2715,
      "/h": 2716,
      "_language": 2717,
      "uman": 2718,
      "/m/0p9": 2719,
      "/language/h": 2720,
      "spoken_in": 2721,
      "/countries_spoken_in": 2722,
      "_language/countries_spoken_in": 2723,
      "uman_language/countries_spoken_in": 2724,
      "/language/human_language/countries_spoken_in": 2725,
      "zh": 2726,
      "/m/09d": 2727,
      "6b": 2728,
      "/m/04t": 2729,
      "/base/schemastaging/organization_extra/phone_number./base/schemastaging/phone_sandbox/service_location": 2730,
      "/m/04dn": 2731,
      "/m/056": 2732,
      "/m/0mb": 2733,
      "wn": 2734,
      "/m/0k611": 2735,
      "inemat": 2736,
      "/film/film/cinemat": 2737,
      "ography": 2738,
      "/film/film/cinematography": 2739,
      "nx": 2740,
      "s7": 2741,
      "/m/06mzp": 2742,
      "/m/0dz3": 2743,
      "/m/0dz3r": 2744,
      "government": 2745,
      "m_of_": 2746,
      "form_of_": 2747,
      "t2t": 2748,
      "/location/country/form_of_": 2749,
      "/location/country/form_of_government": 2750,
      "sj": 2751,
      "/m/0kyk": 2752,
      "/m/0d05w": 2753,
      "/m/01z4y": 2754,
      "/m/0d05w3": 2755,
      "09n": 2756,
      "l6": 2757,
      "/m/04dn09n": 2758,
      "4c": 2759,
      "z5": 2760,
      "ransport": 2761,
      "h9": 2762,
      "/m/06p": 2763,
      "/m/0l8z1": 2764,
      "0k": 2765,
      "/m/02t_": 2766,
      "entity": 2767,
      "/people/person/employ": 2768,
      "/m/09y": 2769,
      "ory./business/employment_tenure/company": 2770,
      "ment_hist": 2771,
      "/education/university/loc": 2772,
      "/education/field_of_study/students_majoring./education/education/major_field_of_study": 2773,
      "/people/person/employment_hist": 2774,
      "/education/university/local_tuition./measurement_unit/dated_money_value/currency": 2775,
      "/people/person/employment_history./business/employment_tenure/company": 2776,
      "1g": 2777,
      "_du": 2778,
      "kk": 2779,
      "ration": 2780,
      "s./tv/tv_network": 2781,
      "/programs./tv/tv_network": 2782,
      "/tv/tv_network/programs./tv/tv_network": 2783,
      "_duration": 2784,
      "/tv/tv_network/programs./tv/tv_network_duration": 2785,
      "/tv/tv_network/programs./tv/tv_network_duration/program": 2786,
      "/m/03t": 2787,
      "/m/0kbws": 2788,
      "/m/0bp": 2789,
      "t_3": 2790,
      "/m/03sp": 2791,
      "/m/07p": 2792,
      "/m/0p9sw": 2793,
      "/m/03spz": 2794,
      "13": 2795,
      "2r": 2796,
      "79": 2797,
      "n9": 2798,
      "/m/06qd3": 2799,
      "19": 2800,
      "lf": 2801,
      "/m/0lsxr": 2802,
      "/m/027dt": 2803,
      "wf": 2804,
      "/m/0cp": 2805,
      "/m/02y_": 2806,
      "_q": 2807,
      "qk": 2808,
      "/m/06sk": 2809,
      "/m/0gg": 2810,
      "/m/06sks6": 2811,
      "/m/0jq": 2812,
      "/m/016z4k": 2813,
      "/m/018gz8": 2814,
      "k5": 2815,
      "rs": 2816,
      "29": 2817,
      "/film_distrib": 2818,
      "/film/film/distributors./film/film_film_distributor_relationship/film_distrib": 2819,
      "/film/film/distributors./film/film_film_distributor_relationship/film_distribution_medium": 2820,
      "_j": 2821,
      "apit": 2822,
      "ts": 2823,
      "er_capit": 2824,
      "er_capita": 2825,
      "/m/0jm": 2826,
      "87": 2827,
      "/m/03v": 2828,
      "/m/05w": 2829,
      "/m/01mjq": 2830,
      "/m/073": 2831,
      "/dis": 2832,
      "ease": 2833,
      "_d4": 2834,
      "al_appearances.": 2835,
      "/medicine/dis": 2836,
      "/medicine/disease": 2837,
      "/m/05n": 2838,
      "/pick": 2839,
      "ernation": 2840,
      "draft/pick": 2841,
      "/sports/sports_league_draft/pick": 2842,
      "s./sports/sports_league_draft_pick/school": 2843,
      "/internation": 2844,
      "/m/01vdm0": 2845,
      "/sports/sports_league_draft/picks./sports/sports_league_draft_pick/school": 2846,
      "h4": 2847,
      "kb": 2848,
      "/m/01c72t": 2849,
      "0w": 2850,
      "5d": 2851,
      "/m/036": 2852,
      "/m/09w": 2853,
      "/m/0l1": 2854,
      "/m/02lq": 2855,
      "mw": 2856,
      "xy": 2857,
      "/m/09v": 2858,
      "yc": 2859,
      "s./measurement_unit/dated_money_value/currency": 2860,
      "_person": 2861,
      "_regular_person": 2862,
      "2q": 2863,
      "zcr": 2864,
      "pec": 2865,
      "/spec": 2866,
      "/m/01kw": 2867,
      "g0": 2868,
      "mv": 2869,
      "/m/05jx": 2870,
      "/m/044m": 2871,
      "/m/016y": 2872,
      "/m/0b7": 2873,
      "/m/01wd": 2874,
      "/m/02jx": 2875,
      "/film/person": 2876,
      "zr4": 2877,
      "/education/field_of_study/students_majoring./education/education/student": 2878,
      "zn": 2879,
      "/m/0m_": 2880,
      "/m/06pj": 2881,
      "/m/0dv": 2882,
      "/m/0ch": 2883,
      "xm": 2884,
      "/m/06t2t": 2885,
      "country_of_": 2886,
      "/m/018j2": 2887,
      "/m/02x4w": 2888,
      "/education/educational_degree/people_with_this_degree./education/education/student": 2889,
      "/tv/tv_program/country_of_": 2890,
      "/m/0gs96": 2891,
      "/tv/tv_program/country_of_origin": 2892,
      "/m/03_w": 2893,
      "/m/05v8": 2894,
      "/m/05v8c": 2895,
      "/m/04kx": 2896,
      "/adju": 2897,
      "/m/0h7": 2898,
      "/m/02yv": 2899,
      "/olympics/olympic_participating_country/medals_won./olympics/olympic_medal_honor/medal": 2900,
      "/m/04kxsb": 2901,
      "/adjust": 2902,
      "/m/061": 2903,
      "0j": 2904,
      "x9": 2905,
      "/m/01j5": 2906,
      "/entity": 2907,
      "tu": 2908,
      "ved": 2909,
      "vol": 2910,
      "levent": 2911,
      "ralevent": 2912,
      "/m/059": 2913,
      "/cul": 2914,
      "/base/cul": 2915,
      "/m/081": 2916,
      "_invol": 2917,
      "/event/entity": 2918,
      "/m/054krc": 2919,
      "turalevent": 2920,
      "/base/culturalevent": 2921,
      "_involved": 2922,
      "/event/entity_involved": 2923,
      "/base/culturalevent/event/entity_involved": 2924,
      "3z": 2925,
      "hv": 2926,
      "/m/072": 2927,
      "/m/07_": 2928,
      "xgp": 2929,
      "/m/0h1": 2930,
      "/m/02_xgp": 2931,
      "/m/0x67": 2932,
      "/base/biblioness/bibs_location/state": 2933,
      "/m/02_xgp2": 2934,
      "se": 2935,
      "/county": 2936,
      "/m/099c": 2937,
      "/location/hud_county_place/county": 2938,
      "2c": 2939,
      "b4": 2940,
      "cz": 2941,
      "pf": 2942,
      "xl": 2943,
      "/m/016t_3": 2944,
      "/m/015p": 2945,
      "/m/01cw": 2946,
      "ities_": 2947,
      "xd": 2948,
      "z_": 2949,
      "/m/02m": 2950,
      "7f": 2951,
      "nz": 2952,
      "xr": 2953,
      "gt": 2954,
      "ql": 2955,
      "/m/01wb": 2956,
      "cs": 2957,
      "/m/01by": 2958,
      "/m/02cg": 2959,
      "/tv/tv_program/languages": 2960,
      "/m/01by1l": 2961,
      "4_": 2962,
      "ak": 2963,
      "kl": 2964,
      "reak": 2965,
      "/m/067": 2966,
      "/break": 2967,
      "/breakup": 2968,
      "ys": 2969,
      "/m/0cf": 2970,
      "/m/06n90": 2971,
      "./base/x2010fifaworldcupsouthafrica": 2972,
      "ub": 2973,
      "/world_cup_squad": 2974,
      "/m/018w": 2975,
      "_club": 2976,
      "/current_club": 2977,
      "/current_world_cup_squad./base/x2010fifaworldcupsouthafrica": 2978,
      "/current_world_cup_squad/current_club": 2979,
      "/base/x2010fifaworldcupsouthafrica/world_cup_squad": 2980,
      "/m/05jxkf": 2981,
      "/current_world_cup_squad./base/x2010fifaworldcupsouthafrica/current_world_cup_squad/current_club": 2982,
      "/base/x2010fifaworldcupsouthafrica/world_cup_squad/current_world_cup_squad./base/x2010fifaworldcupsouthafrica/current_world_cup_squad/current_club": 2983,
      "5r": 2984,
      "v4h": 2985,
      "non": 2986,
      "fit_": 2987,
      "rofit_": 2988,
      "regist": 2989,
      "_profit_": 2990,
      "/m/01nv4h": 2991,
      "/m/01f7": 2992,
      "non_profit_": 2993,
      "register": 2994,
      "6qh": 2995,
      "b1": 2996,
      "g6": 2997,
      "tl": 2998,
      "/m/053": 2999,
      "/m/0bf": 3000,
      "6z": 3001,
      "imp": 3002,
      "/m/07y_": 3003,
      "/m/0dc": 3004,
      "/m/0bk": 3005,
      "/m/015qh": 3006,
      "stiv": 3007,
      "als": 3008,
      "/m/03bw": 3009,
      "festiv": 3010,
      "/film/film/film_festiv": 3011,
      "/film/film/film_festivals": 3012,
      "m4q": 3013,
      "/m/0v": 3014,
      "/m/057": 3015,
      "/m/06g": 3016,
      "/capit": 3017,
      "/m/02d4": 3018,
      "/capital": 3019,
      "./location/administrative_division": 3020,
      "qd": 3021,
      "of./location/administrative_division": 3022,
      "/location/ca": 3023,
      "of_ad": 3024,
      "relationship/administrative_division": 3025,
      "ministrative_division": 3026,
      "_capital_": 3027,
      "/capital_": 3028,
      "/m/0l14j_": 3029,
      "pital_of_ad": 3030,
      "of./location/administrative_division_capital_": 3031,
      "/location/capital_of_ad": 3032,
      "ministrative_division/capital_": 3033,
      "of./location/administrative_division_capital_relationship/administrative_division": 3034,
      "/location/capital_of_administrative_division/capital_": 3035,
      "/location/capital_of_administrative_division/capital_of./location/administrative_division_capital_relationship/administrative_division": 3036,
      "dl": 3037,
      "km": 3038,
      "/m/06t8": 3039,
      "/m/02krf": 3040,
      "/m/02krf9": 3041,
      "66": 3042,
      "8h": 3043,
      "3hr": 3044,
      "/m/0317": 3045,
      "4z": 3046,
      "l2": 3047,
      "/m/03np": 3048,
      "/m/065y": 3049,
      "/m/03g3w": 3050,
      "/m/06nm1": 3051,
      "/m/04s": 3052,
      "/m/07w": 3053,
      "found": 3054,
      "qg": 3055,
      "/m/06l": 3056,
      "/m/060_": 3057,
      "/m/02pqp": 3058,
      "/m/0cr3d": 3059,
      "/m/02pqp12": 3060,
      "/m/016w": 3061,
      "_k": 3062,
      "xf": 3063,
      "xtg": 3064,
      "/m/06ncr": 3065,
      "s/season": 3066,
      "s./baseball/baseball_": 3067,
      "team/team_stat": 3068,
      "/baseball/baseball_team/team_stat": 3069,
      "team_stats/season": 3070,
      "s./baseball/baseball_team_stats/season": 3071,
      "/baseball/baseball_team/team_stats./baseball/baseball_team_stats/season": 3072,
      "rit": 3073,
      "er/tv_program": 3074,
      "s./tv/tv_progra": 3075,
      "m_writ": 3076,
      "/m/0c0": 3077,
      "_writ": 3078,
      "/tv/tv_writ": 3079,
      "/m/02k8": 3080,
      "er_relationship/tv_program": 3081,
      "/sibling": 3082,
      "er/tv_programs./tv/tv_progra": 3083,
      "m_writer_relationship/tv_program": 3084,
      "/tv/tv_writer/tv_programs./tv/tv_progra": 3085,
      "/tv/tv_writer/tv_programs./tv/tv_program_writer_relationship/tv_program": 3086,
      "7w": 3087,
      "/m/049": 3088,
      "/m/07y_7": 3089,
      "/m/02n4k": 3090,
      "/m/0dq_5": 3091,
      "/m/027dtxw": 3092,
      "/m/02n4kr": 3093,
      "1rw": 3094,
      "/m/0bd": 3095,
      "2_": 3096,
      "but": 3097,
      "regional_de": 3098,
      "/film/film/release_date_s./film/film_regional_release_date/film_regional_de": 3099,
      "/m/0hzl": 3100,
      "/m/01ww": 3101,
      "_venue": 3102,
      "but_venue": 3103,
      "/film/film/release_date_s./film/film_regional_release_date/film_regional_debut_venue": 3104,
      "/m/0hzlz": 3105,
      "r0": 3106,
      "/m/073h": 3107,
      "/m/0gd": 3108,
      "y7": 3109,
      "/film/dubbing": 3110,
      "al_film_": 3111,
      "_performances./film/dubbing": 3112,
      "/organization/non_profit_": 3113,
      "/m/019p": 3114,
      "dubbing_performances./film/dubbing": 3115,
      "/film/personal_film_": 3116,
      "dubbing_performances./film/dubbing_performance": 3117,
      "/film/personal_film_appearance": 3118,
      "43": 3119,
      "85": 3120,
      "x2": 3121,
      "/m/04k": 3122,
      "/m/03rj0": 3123,
      "/m/04bd": 3124,
      "/m/09k": 3125,
      "/m/0jmj": 3126,
      "/m/0s": 3127,
      "/m/02qvy": 3128,
      "/m/02qvyrt": 3129,
      "83": 3130,
      "qr": 3131,
      "wit": 3132,
      "/m/077": 3133,
      "/m/0g8": 3134,
      "founded": 3135,
      "with": 3136,
      "2m": 3137,
      "xs": 3138,
      "/m/0sw": 3139,
      "/m/043t": 3140,
      "rq5": 3141,
      "/m/06f32": 3142,
      "63": 3143,
      "/m/057x": 3144,
      "/m/094q": 3145,
      "/m/02lf": 3146,
      "/people/person/spouse_s./people/marriage/location_of_ceremony": 3147,
      "/m/024r": 3148,
      "/m/094qd5": 3149,
      "0l": 3150,
      "09z": 3151,
      "b0": 3152,
      "/m/02vk": 3153,
      "64": 3154,
      "/m/01_d4": 3155,
      "/m/070m": 3156,
      "q2": 3157,
      "x0": 3158,
      "/m/0568": 3159,
      "/m/07j": 3160,
      "/m/0cqhk0": 3161,
      "5c": 3162,
      "/m/06pj8": 3163,
      "__": 3164,
      "/m/0f4v": 3165,
      "/m/0bh8": 3166,
      "/tv/tv_producer/programs_produced./tv/tv_producer_term/producer_type": 3167,
      "/m/03c7": 3168,
      "/m/04b": 3169,
      "/m/0bz": 3170,
      "/m/02f7": 3171,
      "/m/01f8": 3172,
      "cm": 3173,
      "ns": 3174,
      "q1": 3175,
      "/m/0ds": 3176,
      "/m/01vrn": 3177,
      "/m/01g5v": 3178,
      "/m/0bynt": 3179,
      "/m/0t": 3180,
      "42k": 3181,
      "/m/05842k": 3182,
      "/government/politician/government_positions_held./government/government_position_held/legislative_sessions": 3183,
      "/m/06z6": 3184,
      "/m/016k": 3185,
      "ll": 3186,
      "/m/0mkg": 3187,
      "/m/014zcr": 3188,
      "0h": 3189,
      "/m/08n": 3190,
      "/music/group_member/membership./music/group_membership/group": 3191,
      "/m/02g_6x": 3192,
      "/m/03bwzr4": 3193,
      "h0": 3194,
      "/m/07cb": 3195,
      "/m/01r3hr": 3196,
      "/m/06c1y": 3197,
      "8c": 3198,
      "ny": 3199,
      "/m/0c1": 3200,
      "bv": 3201,
      "qj": 3202,
      "/m/0rh": 3203,
      "/m/02t": 3204,
      "/m/030_": 3205,
      "/m/06b1q": 3206,
      "tm": 3207,
      "/cont": 3208,
      "/m/034q": 3209,
      "9c1": 3210,
      "ical_party": 3211,
      "/politician": 3212,
      "/government/political_party": 3213,
      "hock": 3214,
      "5j": 3215,
      "c3": 3216,
      "/m/05s": 3217,
      "f5": 3218,
      "ing_": 3219,
      "6h": 3220,
      "award": 3221,
      "qm": 3222,
      "/m/07bd": 3223,
      "/m/0gx": 3224,
      "_friend": 3225,
      "/celebrity_friend": 3226,
      "/m/02j62": 3227,
      "/friendship/friend": 3228,
      "t36": 3229,
      "/m/02ppm4q": 3230,
      "s./celebrities/friendship/friend": 3231,
      "/celebrities/celebrity/celebrity_friend": 3232,
      "/m/07bdd_": 3233,
      "/celebrities/celebrity/celebrity_friends./celebrities/friendship/friend": 3234,
      "6v": 3235,
      "/m/05fj": 3236,
      "/m/02l4": 3237,
      "82": 3238,
      "cial_": 3239,
      "ks": 3240,
      "/m/084": 3241,
      "/m/02x4": 3242,
      "official_": 3243,
      "/location/country/official_": 3244,
      "/location/country/official_language": 3245,
      "dm": 3246,
      "/m/0bkj": 3247,
      "/m/016cl": 3248,
      "/m/0bkj86": 3249,
      "/m/016clz": 3250,
      "hi": 3251,
      "p1": 3252,
      "/phi": 3253,
      "losop": 3254,
      "gm7": 3255,
      "/m/07c52": 3256,
      "/philosop": 3257,
      "/m/075": 3258,
      "/m/07m": 3259,
      "/base/schemastaging/organization_extra/phone_number./base/schemastaging/phone_sandbox/service_language": 3260,
      "93l": 3261,
      "gv": 3262,
      "/m/0gc": 3263,
      "/m/0f7": 3264,
      "/m/02g_6j": 3265,
      "nm": 3266,
      "s_spoken": 3267,
      "/m/0151w": 3268,
      "sd7": 3269,
      "/m/02x73": 3270,
      "/people/ethnicity/language": 3271,
      "/m/02b1": 3272,
      "/m/0151w_": 3273,
      "/m/02x73k6": 3274,
      "/people/ethnicity/languages_spoken": 3275,
      "./music/recording_contribution/performance_role": 3276,
      "/m/0w": 3277,
      "/contribution": 3278,
      "/music/artist/contribution": 3279,
      "/music/artist/contribution./music/recording_contribution/performance_role": 3280,
      "cip": 3281,
      "dis": 3282,
      "lin": 3283,
      "/m/07br": 3284,
      "/award/award_category/dis": 3285,
      "/m/0jf": 3286,
      "or_subject": 3287,
      "/m/04gzd": 3288,
      "es_or_subject": 3289,
      "ciplin": 3290,
      "/m/07brj": 3291,
      "/award/award_category/disciplin": 3292,
      "es_or_subjects": 3293,
      "/award/award_category/disciplines_or_subjects": 3294,
      "b9": 3295,
      "/m/0gqz2": 3296,
      "/m/015_": 3297,
      "4w7": 3298,
      "gyv": 3299,
      "n59": 3300,
      "/m/05pcn59": 3301,
      "7sb": 3302,
      "/m/065": 3303,
      "/m/05k7sb": 3304,
      "/r": 3305,
      "ual_": 3306,
      "omant": 3307,
      "ic_relationship": 3308,
      "/sex": 3309,
      "/m/0c6qh": 3310,
      "relationships./celebrities": 3311,
      "/celebrities/celebrity/sex": 3312,
      "/romant": 3313,
      "ual_relationships./celebrities": 3314,
      "ic_relationship/celebrity": 3315,
      "/celebrities/celebrity/sexual_relationships./celebrities": 3316,
      "/romantic_relationship/celebrity": 3317,
      "/celebrities/celebrity/sexual_relationships./celebrities/romantic_relationship/celebrity": 3318,
      "2z": 3319,
      "lz": 3320,
      "s./base/petbreeds": 3321,
      "/film/film/person": 3322,
      "/m/051": 3323,
      "_city": 3324,
      "/m/0jy": 3325,
      "/m/015c": 3326,
      "/m/02qp": 3327,
      "_with_do": 3328,
      "/top_breed": 3329,
      "_relationship/dog": 3330,
      "/m/0xh": 3331,
      "/city_with_do": 3332,
      "/dog_city": 3333,
      "/base/petbreeds/city_with_do": 3334,
      "gs/top_breed": 3335,
      "al_appearances./film/personal_film_appearance": 3336,
      "s./base/petbreeds/dog_city": 3337,
      "/film/film/personal_appearances./film/personal_film_appearance": 3338,
      "_relationship/dog_breed": 3339,
      "/base/petbreeds/city_with_dogs/top_breed": 3340,
      "s./base/petbreeds/dog_city_relationship/dog_breed": 3341,
      "/film/film/personal_appearances./film/personal_film_appearance/person": 3342,
      "/base/petbreeds/city_with_dogs/top_breeds./base/petbreeds/dog_city_relationship/dog_breed": 3343,
      "com": 3344,
      "rl": 3345,
      "/m/0g7": 3346,
      "/m/0127": 3347,
      "qwt": 3348,
      "9sd7": 3349,
      "al./measurement_unit/dated_money_value/currency": 3350,
      "/m/06j": 3351,
      "/m/02w9sd7": 3352,
      "/location/statistical_region/gdp_nominal./measurement_unit/dated_money_value/currency": 3353,
      "hz": 3354,
      "/m/039c": 3355,
      "/m/0g1rw": 3356,
      "/m/01wg": 3357,
      "/m/02pq": 3358,
      "./organization/organization": 3359,
      "4d": 3360,
      "fd": 3361,
      "gk": 3362,
      "hild": 3363,
      "qt": 3364,
      "rk": 3365,
      "/m/02mj": 3366,
      "/child": 3367,
      "child": 3368,
      "/m/01wy6": 3369,
      "_relationship/child": 3370,
      "/organization/organization/child": 3371,
      "./organization/organization_relationship/child": 3372,
      "/organization/organization/child./organization/organization_relationship/child": 3373,
      "8v": 3374,
      "m34": 3375,
      "p5": 3376,
      "/m/02fqwt": 3377,
      "23": 3378,
      "3j": 3379,
      "_0": 3380,
      "fb": 3381,
      "/m/033t": 3382,
      "/m/0k2": 3383,
      "/m/03hkv": 3384,
      "/m/01bg": 3385,
      "ava": 3386,
      "food": 3387,
      "ilab": 3388,
      "/produ": 3389,
      "alfood": 3390,
      "/symp": 3391,
      "al_month": 3392,
      "/m/05tb": 3393,
      "ce_ava": 3394,
      "/m/0dt": 3395,
      "/base/loc": 3396,
      "/m/01p1v": 3397,
      "/m/02j71": 3398,
      "/m/02g_7": 3399,
      "/seasonal_month": 3400,
      "/m/060__y": 3401,
      "/m/03hkv_r": 3402,
      "/produce_ava": 3403,
      "/m/05tbn": 3404,
      "/base/localfood": 3405,
      "/m/02g_7z": 3406,
      "/produce_availab": 3407,
      "/m/02ct": 3408,
      "/m/07r1": 3409,
      "/tv/tv_regular_person": 3410,
      "/tv/tv_regular_personal_appearance": 3411,
      "/m/07z1": 3412,
      "/m/01wy": 3413,
      "/m/06t8v": 3414,
      "xj": 3415,
      "/m/0rh6k": 3416,
      "/m/03_gx": 3417,
      "/m/026n": 3418,
      "6px": 3419,
      "/m/07f1x": 3420,
      "/m/01bgqh": 3421,
      "5s": 3422,
      "fpk": 3423,
      "/m/09x": 3424,
      "/m/0fv": 3425,
      "t6j": 3426,
      "/m/03f0": 3427,
      "/m/05bt6j": 3428,
      "/m/04306": 3429,
      "/m/04nfpk": 3430,
      "/m/04306rv": 3431,
      "yy": 3432,
      "ating_in": 3433,
      "ntr": 3434,
      "/m/02qyntr": 3435,
      "/m/06z6r": 3436,
      "kz": 3437,
      "/m/0227": 3438,
      "/m/03ry": 3439,
      "/m/04_": 3440,
      "/m/0bxtg": 3441,
      "/m/0pq": 3442,
      "/m/01pb": 3443,
      "/m/01pc": 3444,
      "/m/0m2": 3445,
      "/m/01j7": 3446,
      "/m/03hl6": 3447,
      "/m/01b6": 3448,
      "/m/03hl6lc": 3449,
      "dv3": 3450,
      "/m/01pj7": 3451,
      "jd9": 3452,
      "2s": 3453,
      "design_by": 3454,
      "ost": 3455,
      "tv0": 3456,
      "venue": 3457,
      "revenue": 3458,
      "e_design_by": 3459,
      "/m/077q": 3460,
      "/m/0h95": 3461,
      "/m/028tv0": 3462,
      "ume_design_by": 3463,
      "/business/business_operation/revenue": 3464,
      "/film/film/cost": 3465,
      "/business/business_operation/revenue./measurement_unit/dated_money_value/currency": 3466,
      "/film/film/costume_design_by": 3467,
      "_state": 3468,
      "ktr": 3469,
      "qtr": 3470,
      "al_organization/": 3471,
      "man/default_domain": 3472,
      "/m/066": 3473,
      "/m/0cjy": 3474,
      "/m/0k0": 3475,
      "ueman/default_domain": 3476,
      "/m/0n5": 3477,
      "/m/02p65": 3478,
      "/m/06fvc": 3479,
      "/user/ktr": 3480,
      "member_state": 3481,
      "/international_organization/": 3482,
      "/m/0cjyzs": 3483,
      "ueman/default_domain/international_organization/": 3484,
      "/m/02p65p": 3485,
      "/user/ktrueman/default_domain/international_organization/": 3486,
      "member_states": 3487,
      "/user/ktrueman/default_domain/international_organization/member_states": 3488,
      "44": 3489,
      "80": 3490,
      "l_l": 3491,
      "x5": 3492,
      "/m/03ck": 3493,
      "/m/04lj": 3494,
      "/m/016s": 3495,
      "/m/016wzw": 3496,
      "/m/07cbcy": 3497,
      "/m/04ljl_l": 3498,
      "2d": 3499,
      "p7": 3500,
      "/m/0d8": 3501,
      "/m/0hn": 3502,
      "/m/017fp": 3503,
      "/m/023w": 3504,
      "/m/0qm": 3505,
      "/m/0219": 3506,
      "8g": 3507,
      "ww": 3508,
      "/m/097": 3509,
      "/m/06_": 3510,
      "4qm": 3511,
      "_z": 3512,
      "nfr": 3513,
      "particip": 3514,
      "/m/06j6": 3515,
      "/m/08p": 3516,
      "t_h": 3517,
      "/m/02n9n": 3518,
      "/m/01l8": 3519,
      "/m/03gvt": 3520,
      "/m/02ynfr": 3521,
      "dk_": 3522,
      "/m/06j6l": 3523,
      "/m/02n9nmz": 3524,
      "45": 3525,
      "nd": 3526,
      "t1": 3527,
      "/m/07t2": 3528,
      "/m/0kbvb": 3529,
      "/m/024t": 3530,
      "55": 3531,
      "pre": 3532,
      "/film/film/pre": 3533,
      "/m/09b": 3534,
      "/m/02qk": 3535,
      "/m/0147": 3536,
      "/m/01ls2": 3537,
      "quel": 3538,
      "n3z": 3539,
      "/film/film/prequel": 3540,
      "/m/021y": 3541,
      "3g": 3542,
      "w6": 3543,
      "/m/0fj": 3544,
      "/m/026p": 3545,
      "/m/02ll": 3546,
      "8j": 3547,
      "ayn": 3548,
      "dayn": 3549,
      "e/s": 3550,
      "eople": 3551,
      "atur": 3552,
      "/satur": 3553,
      "/m/04t36": 3554,
      "/base/satur": 3555,
      "ight": 3556,
      "/m/0jdk_": 3557,
      "live/s": 3558,
      "/m/0gr42": 3559,
      "daynight": 3560,
      "eople_with_this_": 3561,
      "/base/saturdaynight": 3562,
      "live/snl": 3563,
      "/base/saturdaynightlive/snl": 3564,
      "9v": 3565,
      "/m/0hcr": 3566,
      "/m/0154qm": 3567,
      "/m/026l": 3568,
      "/m/017jd9": 3569,
      "/m/054ks3": 3570,
      "0r": 3571,
      "/m/0988": 3572,
      "/m/05zr6": 3573,
      "/m/02lcq": 3574,
      "/m/0bwfn": 3575,
      "/m/05zr6wv": 3576,
      "/m/02lcqs": 3577,
      "/m/03b": 3578,
      "/m/03_d": 3579,
      "/m/0bs": 3580,
      "/m/0265v": 3581,
      "/m/01dw": 3582,
      "n7": 3583,
      "nq": 3584,
      "w1": 3585,
      "/m/0g5q": 3586,
      "/film/actor/film./film/performance/spec": 3587,
      "/m/0266": 3588,
      "/m/02bq": 3589,
      "/m/05b4l": 3590,
      "/m/03m6": 3591,
      "ial_performance_type": 3592,
      "/m/0xhtw": 3593,
      "/film/actor/film./film/performance/special_performance_type": 3594,
      "/m/05b4l5x": 3595,
      "st_": 3596,
      "s_c": 3597,
      "/m/03cw": 3598,
      "./location/": 3599,
      "fs": 3600,
      "jk": 3601,
      "ml": 3602,
      "r7": 3603,
      "s/e": 3604,
      "xported_to": 3605,
      "/places_": 3606,
      "s_d": 3607,
      "s_and_": 3608,
      "ports/e": 3609,
      "ports_and_": 3610,
      "/m/09_": 3611,
      "/m/09sd": 3612,
      "/m/07t6": 3613,
      "/m/0fh": 3614,
      "imports_and_": 3615,
      "/m/01gb5": 3616,
      "/location/statistical_region/places_": 3617,
      "exported_to": 3618,
      "exports/e": 3619,
      "./location/imports_and_": 3620,
      "/m/09sdmz": 3621,
      "/m/07t65": 3622,
      "/m/01gb54": 3623,
      "/location/statistical_region/places_exported_to": 3624,
      "exports/exported_to": 3625,
      "./location/imports_and_exports/exported_to": 3626,
      "/location/statistical_region/places_exported_to./location/imports_and_exports/exported_to": 3627,
      "/m/01rh": 3628,
      "/m/0277": 3629,
      "/m/0n1h": 3630,
      "/organization/organization/headquarters./location/mailing_address/country": 3631,
      "cgy": 3632,
      "cut": 3633,
      "run": 3634,
      "edit": 3635,
      "/film/film/edit": 3636,
      "/film_release_region": 3637,
      "/m/01fx": 3638,
      "t91": 3639,
      "38g": 3640,
      "runtim": 3641,
      "/film/film/edited_by": 3642,
      "come": 3643,
      "x6": 3644,
      "s_v8": 3645,
      "/m/07tg": 3646,
      "/m/01vs_v8": 3647,
      "/m/019sc": 3648,
      "operating_in": 3649,
      "/business/business_operation/operating_in": 3650,
      "come./measurement_unit/dated_money_value/currency": 3651,
      "/business/business_operation/operating_income./measurement_unit/dated_money_value/currency": 3652,
      "g2": 3653,
      "kc": 3654,
      "/m/05j": 3655,
      "/m/0k3": 3656,
      "/m/05zm34": 3657,
      "/m/018yg": 3658,
      "/m/02x1": 3659,
      "/m/05p09z": 3660,
      "/m/047g8": 3661,
      "/m/0dwt5": 3662,
      "/m/018ygt": 3663,
      "/m/05p09zm": 3664,
      "/m/047g8h": 3665,
      "6m": 3666,
      "m3": 3667,
      "q6": 3668,
      "tom": 3669,
      "v5": 3670,
      "/m/018d": 3671,
      "b8_": 3672,
      "/m/01s7": 3673,
      "52z": 3674,
      "tom/": 3675,
      "/m/07fb8_": 3676,
      "/m/0bdwqv": 3677,
      "/symptom/": 3678,
      "/m/023wyl": 3679,
      "jh": 3680,
      "yv": 3681,
      "zb": 3682,
      "/m/010": 3683,
      "/m/079": 3684,
      "ck7": 3685,
      "bqj": 3686,
      "/m/0c4z8": 3687,
      "/m/0dvmd": 3688,
      "/m/019pm_": 3689,
      "/m/07t21": 3690,
      "dyk": 3691,
      "/m/01t_": 3692,
      "/m/02rdyk": 3693,
      "/m/02vk52z": 3694,
      "/m/02rdyk7": 3695,
      "/ri": 3696,
      "/m/0c3": 3697,
      "actors": 3698,
      "_factors": 3699,
      "/m/01jr": 3700,
      "/m/02wk": 3701,
      "sk_factors": 3702,
      "411": 3703,
      "/medicine/disease/ri": 3704,
      "/m/065y4w7": 3705,
      "/medicine/disease/risk_factors": 3706,
      "w4": 3707,
      "/m/0dz": 3708,
      "/m/0167": 3709,
      "/m/017l": 3710,
      "/m/01cgz": 3711,
      "/m/02z0d": 3712,
      "/m/01xy": 3713,
      "/m/01z7": 3714,
      "/m/01s0p": 3715,
      "/sports/sports_team/roster./baseball/baseball_": 3716,
      "/m/039v1": 3717,
      "/m/03h_f": 3718,
      "/m/02z0dfh": 3719,
      "/m/01s0ps": 3720,
      "/sports/sports_team/roster./baseball/baseball_roster_position/position": 3721,
      "/m/0140": 3722,
      "/m/03v0": 3723,
      "/m/03qn": 3724,
      "/m/047yc": 3725,
      "/m/01pb34": 3726,
      "9wc": 3727,
      "e./film/film_": 3728,
      "e/inductee": 3729,
      "per_capita": 3730,
      "sz": 3731,
      "s./award/hall_of_fam": 3732,
      "e_indu": 3733,
      "ation/team": 3734,
      "/film/film/runtim": 3735,
      "al_per_capita": 3736,
      "/m/0dy": 3737,
      "tbt": 3738,
      "/m/01v1d": 3739,
      "/m/0hzc": 3740,
      "/m/0l6px": 3741,
      "ue/team": 3742,
      "/sports/sports_league/team": 3743,
      "ction/inductee": 3744,
      "s./sports/sports_league_particip": 3745,
      "/administrative_area_type": 3746,
      "/base/aareas/schema/administrative_area/administrative_area_type": 3747,
      "/m/0fbtbt": 3748,
      "/location/statistical_region/gdp_nominal_per_capita": 3749,
      "/award/hall_of_fame/inductee": 3750,
      "cut/film_release_region": 3751,
      "e./film/film_cut/film_release_region": 3752,
      "s./award/hall_of_fame_indu": 3753,
      "/film/film/runtime./film/film_cut/film_release_region": 3754,
      "/m/01v1d8": 3755,
      "/m/0hzc9wc": 3756,
      "/sports/sports_league/teams./sports/sports_league_particip": 3757,
      "/location/statistical_region/gdp_nominal_per_capita./measurement_unit/dated_money_value/currency": 3758,
      "/award/hall_of_fame/inductees./award/hall_of_fame_indu": 3759,
      "/sports/sports_league/teams./sports/sports_league_participation/team": 3760,
      "/award/hall_of_fame/inductees./award/hall_of_fame_induction/inductee": 3761,
      "l_": 3762,
      "sr1": 3763,
      "yh": 3764,
      "/m/07q": 3765,
      "/m/01rr": 3766,
      "/m/01_9c1": 3767,
      "y_c": 3768,
      "/m/0qf": 3769,
      "/m/03cl": 3770,
      "/m/05sb": 3771,
      "/m/0f6": 3772,
      "/m/0jn": 3773,
      "/m/0ks": 3774,
      "/m/0n8": 3775,
      "/m/05lb": 3776,
      "tr1": 3777,
      "/m/06w7": 3778,
      "/m/0bdx": 3779,
      "/m/02fsn": 3780,
      "5_": 3781,
      "/m/01ch": 3782,
      "/m/03v1": 3783,
      "/m/09r9": 3784,
      "/m/0bzk": 3785,
      "yp19": 3786,
      "/m/02qgq": 3787,
      "/m/02qyp19": 3788,
      "/m/03f1z": 3789,
      "/m/0dwtp": 3790,
      "/m/062z7": 3791,
      "/m/02qgqt": 3792,
      "36": 3793,
      "/m/0h6": 3794,
      "/m/026g": 3795,
      "/m/0130": 3796,
      "/m/07r1h": 3797,
      "l7": 3798,
      "/m/02qw": 3799,
      "/m/025m": 3800,
      "/m/0bxl5": 3801,
      "us_c": 3802,
      "/m/0372": 3803,
      "/count": 3804,
      "/m/095z": 3805,
      "/m/0dn": 3806,
      "/location/us_c": 3807,
      "/baske": 3808,
      "/basketball_": 3809,
      "/m/0f1": 3810,
      "tball/basketball_": 3811,
      "y_se": 3812,
      "/m/017gl": 3813,
      "/m/01mkq": 3814,
      "/sports/sports_team/roster./baske": 3815,
      "ounty/count": 3816,
      "4m9q": 3817,
      "/m/05f4m9q": 3818,
      "/location/us_county/count": 3819,
      "tball/basketball_roster_position/position": 3820,
      "y_seat": 3821,
      "/m/017gl1": 3822,
      "/sports/sports_team/roster./basketball/basketball_roster_position/position": 3823,
      "/location/us_county/county_seat": 3824,
      "q3": 3825,
      "ws": 3826,
      "/m/0gn": 3827,
      "/m/0gkd1": 3828,
      "/m/0cn": 3829,
      "1yf": 3830,
      "/m/047lj": 3831,
      "/m/0407y": 3832,
      "/m/0cj16": 3833,
      "/m/099c8n": 3834,
      "/m/0pqc5": 3835,
      "./travel": 3836,
      "de_of_": 3837,
      "et_h": 3838,
      "how": 3839,
      "mo": 3840,
      "transport": 3841,
      "/ass": 3842,
      "ation/ass": 3843,
      "ation/mo": 3844,
      "/transport": 3845,
      "_get_h": 3846,
      "ere./travel": 3847,
      "/m/015f": 3848,
      "ets./measurement_unit/dated_money_value/currency": 3849,
      "production": 3850,
      "_design_by": 3851,
      "2v0": 3852,
      "/m/05b16": 3853,
      "20h": 3854,
      "/film/film/film_production": 3855,
      "/business/business_operation/ass": 3856,
      "/travel/travel_destination/how": 3857,
      "_to_get_h": 3858,
      "de_of_transport": 3859,
      "ation/mode_of_transport": 3860,
      "/transportation/mode_of_transport": 3861,
      "ere./travel/transportation/mode_of_transport": 3862,
      "/m/05b1610": 3863,
      "/film/film/film_production_design_by": 3864,
      "/business/business_operation/assets./measurement_unit/dated_money_value/currency": 3865,
      "/travel/travel_destination/how_to_get_h": 3866,
      "ere./travel/transportation/mode_of_transportation": 3867,
      "/travel/travel_destination/how_to_get_here./travel/transportation/mode_of_transportation": 3868,
      "1_": 3869,
      "8k": 3870,
      "q9": 3871,
      "y1": 3872,
      "y4": 3873,
      "/m/0395": 3874,
      "/m/052": 3875,
      "ategory/category": 3876,
      "/award/award_category/category": 3877,
      "/m/02k54": 3878,
      "/m/05qtj": 3879,
      "/m/04rjg": 3880,
      "4nb": 3881,
      "/m/03npn": 3882,
      "/m/033tf_": 3883,
      "/m/01l849": 3884,
      "/m/0395lw": 3885,
      "/award/award_category/category_of": 3886,
      "/m/016v": 3887,
      "/m/01795": 3888,
      "/m/02r22": 3889,
      "/m/025j": 3890,
      "3ts": 3891,
      "9kh": 3892,
      "/m/05b3ts": 3893,
      "r6t": 3894,
      "s89": 3895,
      "/m/057xs89": 3896,
      "/m/02r22gf": 3897,
      "bc": 3898,
      "q5": 3899,
      "_category": 3900,
      "/conta": 3901,
      "ct_category": 3902,
      "/m/0cj2": 3903,
      "/m/0jd": 3904,
      "/m/0jhn": 3905,
      "/m/027c": 3906,
      "/m/0m7y": 3907,
      "npd": 3908,
      "/base/schemastaging/organization_extra/phone_number./base/schemastaging/phone_sandbox/conta": 3909,
      "/m/02y_rq5": 3910,
      "/m/02qpbqj": 3911,
      "/m/03_d0": 3912,
      "/m/0jhn7": 3913,
      "/base/schemastaging/organization_extra/phone_number./base/schemastaging/phone_sandbox/contact_category": 3914,
      "/region": 3915,
      "vm": 3916,
      "/m/09qw": 3917,
      "/m/01xq": 3918,
      "/m/01xqw": 3919,
      "t670": 3920,
      "/m/03ksy": 3921,
      "/m/07b_l": 3922,
      "/m/0glt670": 3923,
      "/m/09qv_s": 3924,
      "/film/film/distributors./film/film_film_distributor_relationship/region": 3925,
      "/m/07xzm": 3926,
      "/m/05fjf": 3927,
      "/m/09qwmm": 3928,
      "/m/03mp": 3929,
      "/m/03z1": 3930,
      "/m/04d": 3931,
      "/m/09pm": 3932,
      "/m/09g7": 3933,
      "/m/07tw": 3934,
      "/m/0b1": 3935,
      "/m/02lg": 3936,
      "/m/02bjr": 3937,
      "w7s": 3938,
      "wlb": 3939,
      "/m/09pmkv": 3940,
      "/m/02bjrlw": 3941,
      "/m/02cl": 3942,
      "/m/0495": 3943,
      "/m/06x": 3944,
      "/m/0dr_": 3945,
      "j50": 3946,
      "/m/026r": 3947,
      "/m/0124": 3948,
      "p_c": 3949,
      "/m/05db": 3950,
      "/m/05ztr": 3951,
      "/m/02x2": 3952,
      "/m/03cf": 3953,
      "jv5": 3954,
      "5bq": 3955,
      "/m/0l15bq": 3956,
      "/m/02yvct": 3957,
      "/m/05dbf": 3958,
      "/m/05ztrmj": 3959,
      "mn": 3960,
      "/m/03tc": 3961,
      "/m/055": 3962,
      "/m/094": 3963,
      "/m/0ft": 3964,
      "/m/016d": 3965,
      "/m/0169d": 3966,
      "/m/0kpl": 3967,
      "/m/015r": 3968,
      "/m/02kx": 3969,
      "_dy": 3970,
      "0mw": 3971,
      "s1_": 3972,
      "/m/082gq": 3973,
      "/m/0g2dz": 3974,
      "/m/03c7tr1": 3975,
      "/m/0169dl": 3976,
      "/m/04t2": 3977,
      "/m/06cgy": 3978,
      "/m/0fhp": 3979,
      "/m/0146p": 3980,
      "/m/02f72": 3981,
      "gl9": 3982,
      "vd4": 3983,
      "/m/0bfvd4": 3984,
      "/m/015_1q": 3985,
      "/m/03ryn": 3986,
      "/m/077qn": 3987,
      "/m/04t2l2": 3988,
      "/m/0146pg": 3989,
      "08": 3990,
      "/m/02cb": 3991,
      "/m/06npd": 3992,
      "/m/02qwg": 3993,
      "/m/025sc": 3994,
      "/m/01l2": 3995,
      "mdt": 3996,
      "fnb": 3997,
      "/m/0d6lp": 3998,
      "/m/0fx": 3999,
      "/m/01kp": 4000,
      "/m/0h0wc": 4001,
      "/m/07z1m": 4002,
      "/m/02ry": 4003,
      "/m/03j2": 4004,
      "for_p": 4005,
      "/m/0ds3": 4006,
      "/m/0d1p": 4007,
      "/m/01vw8": 4008,
      "/m/09n48": 4009,
      "/m/0mw": 4010,
      "/m/025t": 4011,
      "/m/02f73": 4012,
      "/m/05p1d": 4013,
      "/m/06w7v": 4014,
      "/m/0d1pc": 4015,
      "/m/05p1dby": 4016,
      "840": 4017,
      "/m/0y_": 4018,
      "/m/02tr": 4019,
      "/m/054": 4020,
      "/m/0gk4g": 4021,
      "/m/02tr7d": 4022,
      "8m": 4023,
      "kdn": 4024,
      "/m/01w0": 4025,
      "/peers": 4026,
      "/peers.": 4027,
      "/peer_relationship": 4028,
      "/m/0320": 4029,
      "/m/017gm7": 4030,
      "/m/01pgz": 4031,
      "/m/02bkdn": 4032,
      "/influence/peer_relationship": 4033,
      "/influence/influence_node/peers.": 4034,
      "f2j": 4035,
      "/m/0219x_": 4036,
      "/m/01pgzn_": 4037,
      "/influence/peer_relationship/peers": 4038,
      "/influence/influence_node/peers./influence/peer_relationship/peers": 4039,
      "/m/02gr": 4040,
      "/m/051w": 4041,
      "/m/09f2j": 4042,
      "/m/0fpj": 4043,
      "/m/01w5m": 4044,
      "gr2": 4045,
      "pm6": 4046,
      "/m/0btpm6": 4047,
      "pb": 4048,
      "symp": 4049,
      "uri": 4050,
      "/m/016f": 4051,
      "/m/0pd": 4052,
      "lace_of_buri": 4053,
      "/m/01f6": 4054,
      "bbz": 4055,
      "zd3": 4056,
      "/m/05kkh": 4057,
      "/people/deceased_person/place_of_buri": 4058,
      "/medicine/symptom/": 4059,
      "tom_of": 4060,
      "/m/03z19": 4061,
      "symptom_of": 4062,
      "/people/deceased_person/place_of_burial": 4063,
      "/medicine/symptom/symptom_of": 4064,
      "h5": 4065,
      "qc": 4066,
      "er_of_": 4067,
      "/pra": 4068,
      "icer_of_": 4069,
      "/m/05x": 4070,
      "/m/09td": 4071,
      "ctl": 4072,
      "cticer_of_": 4073,
      "/m/0gf": 4074,
      "/di": 4075,
      "/m/0hvb": 4076,
      "/m/018ctl": 4077,
      "/m/01c9": 4078,
      "/m/0237": 4079,
      "sww": 4080,
      "9lg": 4081,
      "/practicer_of_": 4082,
      "/m/09td7p": 4083,
      "/m/0hvb2": 4084,
      "/practicer_of_di": 4085,
      "4s": 4086,
      "play": 4087,
      "/pro_": 4088,
      "ed/ath": 4089,
      "/sports/sport/pro_": 4090,
      "/m/0cw": 4091,
      "tbz": 4092,
      "/m/0fz": 4093,
      "athletes.": 4094,
      "/m/07s6f": 4095,
      "/m/017_": 4096,
      "wrc": 4097,
      "sports_play": 4098,
      "/sports/pro_sports_play": 4099,
      "/m/099tbz": 4100,
      "z91": 4101,
      "/m/02x4w6g": 4102,
      "ed/athlete": 4103,
      "/sports/sport/pro_athletes.": 4104,
      "/m/07s6fsf": 4105,
      "/sports/pro_sports_played/athlete": 4106,
      "/sports/sport/pro_athletes./sports/pro_sports_played/athlete": 4107,
      "/m/020_": 4108,
      "_curren": 4109,
      "/m/07vf": 4110,
      "/m/0gx1": 4111,
      "/m/0j1yf": 4112,
      "h_q": 4113,
      "/m/02g3": 4114,
      "bnj": 4115,
      "/m/0466p": 4116,
      "/m/04f52": 4117,
      "/m/071t0": 4118,
      "/m/09889g": 4119,
      "99": 4120,
      "rat": 4121,
      "sor": 4122,
      "orities": 4123,
      "ency": 4124,
      "registr": 4125,
      "/m/06v": 4126,
      "agency": 4127,
      "/frat": 4128,
      "ernities_": 4129,
      "/m/0jz": 4130,
      "/m/03f7": 4131,
      "c62": 4132,
      "/education/university/frat": 4133,
      "and_sor": 4134,
      "registered_": 4135,
      "/m/0jmj7": 4136,
      "/m/024rgt": 4137,
      "/m/0jfx1": 4138,
      "/m/03v0t": 4139,
      "ernities_and_sor": 4140,
      "/education/university/fraternities_and_sor": 4141,
      "/education/university/fraternities_and_sororities": 4142,
      "09": 4143,
      "0s": 4144,
      "yr": 4145,
      "/m/0z4": 4146,
      "/m/03t5": 4147,
      "/m/07yl": 4148,
      "/m/0lgx": 4149,
      "/m/01cx_": 4150,
      "/m/02w7g": 4151,
      "/m/03lty": 4152,
      "/m/05gnf": 4153,
      "/m/07ylj": 4154,
      "/m/0lgxj": 4155,
      "/m/02w7gg": 4156,
      "./measurement_unit": 4157,
      "01": 4158,
      "11": 4159,
      "bs": 4160,
      "d0": 4161,
      "f4": 4162,
      "yj": 4163,
      "real": 4164,
      "ed_money_value": 4165,
      "/m/09r": 4166,
      "ment_curren": 4167,
      "pp7": 4168,
      "/m/01w5": 4169,
      "/m/01wk": 4170,
      "/m/026m": 4171,
      "/m/02l840": 4172,
      "/m/01gs": 4173,
      "/m/0n0": 4174,
      "/m/02825": 4175,
      "95y": 4176,
      "/location/country/capital": 4177,
      "c6q": 4178,
      "/location/statistical_region/gdp_real": 4179,
      "/adjusted_money_value": 4180,
      "/adjustment_curren": 4181,
      "./measurement_unit/adjusted_money_value": 4182,
      "/location/statistical_region/gdp_real./measurement_unit/adjusted_money_value": 4183,
      "/adjustment_currency": 4184,
      "/location/statistical_region/gdp_real./measurement_unit/adjusted_money_value/adjustment_currency": 4185,
      "/m/01sb": 4186,
      "/m/02mp": 4187,
      "/m/0lpj": 4188,
      "/m/02ld": 4189,
      "/m/02fq": 4190,
      "/m/06q8": 4191,
      "/m/02lq67": 4192,
      "/m/018wdw": 4193,
      "/m/01vrncs": 4194,
      "/m/01t_vv": 4195,
      "/m/0lpjn": 4196,
      "b2h": 4197,
      "q7": 4198,
      "/m/03bn": 4199,
      "/m/053y": 4200,
      "/m/06k": 4201,
      "/m/0g3": 4202,
      "/m/01vsn": 4203,
      "/m/0kf": 4204,
      "/m/02j9z": 4205,
      "/m/013b2h": 4206,
      "/m/01c6": 4207,
      "/m/0233": 4208,
      "3v6": 4209,
      "/m/081lh": 4210,
      "/m/0m7yy": 4211,
      "7nw": 4212,
      "84": 4213,
      "pg": 4214,
      "er/organization": 4215,
      "/m/02rh": 4216,
      "s_founded": 4217,
      "/m/068": 4218,
      "/m/07gq": 4219,
      "/m/01w7nw": 4220,
      "_found": 4221,
      "/m/02x17": 4222,
      "/m/01ky": 4223,
      "/organization/organization_found": 4224,
      "t9b": 4225,
      "/m/0355": 4226,
      "21g": 4227,
      "er/organizations_founded": 4228,
      "/m/07gql": 4229,
      "/m/02x17s4": 4230,
      "/organization/organization_founder/organizations_founded": 4231,
      "04": 4232,
      "h2v": 4233,
      "/m/0c33": 4234,
      "/m/0fc": 4235,
      "/m/0fvf": 4236,
      "/m/0jw": 4237,
      "/m/02qjv": 4238,
      "/m/02xry": 4239,
      "/m/047c": 4240,
      "fhx": 4241,
      "0d2": 4242,
      "/m/0fvf9q": 4243,
      "7m": 4244,
      "/m/0421": 4245,
      "/m/07r": 4246,
      "/m/0flw": 4247,
      "/m/02hsq": 4248,
      "/m/01p8": 4249,
      "/m/030h": 4250,
      "/m/03_8r": 4251,
      "bb1": 4252,
      "/m/0bdwft": 4253,
      "/m/0466p0j": 4254,
      "/m/02hsq3m": 4255,
      "846": 4256,
      "iall": 4257,
      "nc": 4258,
      "/part": 4259,
      "/m/06dv3": 4260,
      "/m/0df": 4261,
      "/base/e": 4262,
      "et/di": 4263,
      "/m/07s846": 4264,
      "/m/02ln": 4265,
      "ating/practicer_of_di": 4266,
      "/m/02fn5": 4267,
      "/location/location/part": 4268,
      "/m/01yf": 4269,
      "hy7": 4270,
      "1cm": 4271,
      "/m/02lq5w": 4272,
      "/m/02cg41": 4273,
      "/m/0dtfn": 4274,
      "y_contains": 4275,
      "ially_contains": 4276,
      "/base/eating/practicer_of_di": 4277,
      "et/diet": 4278,
      "/m/07s846j": 4279,
      "/location/location/partially_contains": 4280,
      "/base/eating/practicer_of_diet/diet": 4281,
      "_distrib": 4282,
      "eograp": 4283,
      "gg": 4284,
      "hic": 4285,
      "/geograp": 4286,
      "/m/099j": 4287,
      "/m/0d1": 4288,
      "/m/0pz91": 4289,
      "/base/popstra/celebrity/breakup": 4290,
      "/m/025mb": 4291,
      "/people/ethnicity/geograp": 4292,
      "/m/03q5t": 4293,
      "/m/01x73": 4294,
      "/m/05pd9": 4295,
      "/m/024l": 4296,
      "./base/popstra/breakup": 4297,
      "/m/05qjt": 4298,
      "5hd": 4299,
      "/m/0215hd": 4300,
      "_distribution": 4301,
      "hic_distribution": 4302,
      "/m/099jhq": 4303,
      "/base/popstra/celebrity/breakup./base/popstra/breakup": 4304,
      "/people/ethnicity/geographic_distribution": 4305,
      "/m/05pd94v": 4306,
      "/base/popstra/celebrity/breakup./base/popstra/breakup/participant": 4307,
      "l34": 4308,
      "yx": 4309,
      "/m/0z": 4310,
      "/m/01sn": 4311,
      "/m/04hw": 4312,
      "_per_capita": 4313,
      "/m/09bl": 4314,
      "/m/0d7": 4315,
      "/m/0dzl": 4316,
      "/m/0jtg": 4317,
      "/m/0184": 4318,
      "wrt": 4319,
      "/m/060bp": 4320,
      "/m/0gyh": 4321,
      "s5s": 4322,
      "g8v": 4323,
      "/m/07xl34": 4324,
      "/m/08ns5s": 4325,
      "_per_capita_in": 4326,
      "/m/09blyk": 4327,
      "/m/0jtg0": 4328,
      "9zc": 4329,
      "pq": 4330,
      "/m/07_l": 4331,
      "/m/0bj": 4332,
      "/m/085h": 4333,
      "/m/09n4nb": 4334,
      "/m/018n": 4335,
      "149": 4336,
      "/m/05qx1": 4337,
      "3q1": 4338,
      "q43": 4339,
      "/m/02llzg": 4340,
      "/m/085h1": 4341,
      "_imp": 4342,
      "y/celebrity": 4343,
      "ated": 4344,
      "ionist": 4345,
      "edy/celebrity": 4346,
      "/m/02cx": 4347,
      "ersonated": 4348,
      "/m/06s": 4349,
      "/m/0gpj": 4350,
      "/m/0dcl": 4351,
      "/base/american": 4352,
      "/m/0hp": 4353,
      "/celebrities_": 4354,
      "1ql3": 4355,
      "/m/02k_": 4356,
      "sxp": 4357,
      "ressionist": 4358,
      "impersonated": 4359,
      "comedy/celebrity": 4360,
      "/m/0661ql3": 4361,
      "/m/015rkw": 4362,
      "_impressionist": 4363,
      "/m/02cx90": 4364,
      "/m/0gpjbt": 4365,
      "/m/0dclg": 4366,
      "/base/americancomedy/celebrity": 4367,
      "/celebrities_impersonated": 4368,
      "_impressionist/celebrities_impersonated": 4369,
      "/base/americancomedy/celebrity_impressionist/celebrities_impersonated": 4370,
      "cre": 4371,
      "i_per_capita_in": 4372,
      "lar": 4373,
      "ni_per_capita_in": 4374,
      "p6": 4375,
      "progra": 4376,
      "rj": 4377,
      "s41": 4378,
      "ator": 4379,
      "m_cre": 4380,
      "_ppp": 4381,
      "ollar": 4382,
      "/m/04zx": 4383,
      "/m/01gv": 4384,
      "/tv/tv_program/progra": 4385,
      "_dollar": 4386,
      "/m/01rs41": 4387,
      "/m/03mqtr": 4388,
      "/m/0gyx4": 4389,
      "/m/0gywn": 4390,
      "/m/0dwsp": 4391,
      "nws": 4392,
      "6f8": 4393,
      "/location/statistical_region/gni_per_capita_in": 4394,
      "/m/022q": 4395,
      "/m/0735l": 4396,
      "m_creator": 4397,
      "_ppp_dollar": 4398,
      "/tv/tv_program/program_creator": 4399,
      "/location/statistical_region/gni_per_capita_in_ppp_dollar": 4400,
      "/location/statistical_region/gni_per_capita_in_ppp_dollars./measurement_unit/dated_money_value/currency": 4401,
      "7z": 4402,
      "/m/01_x": 4403,
      "/m/017g": 4404,
      "/m/02vxn": 4405,
      "/m/0133": 4406,
      "/m/03cv": 4407,
      "/m/03xq0": 4408,
      "tpx": 4409,
      "/m/0bdw6t": 4410,
      "/m/01kwld": 4411,
      "/m/0f4vbz": 4412,
      "/m/03xq0f": 4413,
      "./tv/tv_producer_term/": 4414,
      "695": 4415,
      "hs": 4416,
      "tsx": 4417,
      "/m/02c6": 4418,
      "_producer": 4419,
      "/m/0g58": 4420,
      "/m/0l9": 4421,
      "qfh": 4422,
      "/m/0pk": 4423,
      "/m/0mn": 4424,
      "/m/0136": 4425,
      "9jp": 4426,
      "/tv/tv_program/tv": 4427,
      "/m/01s695": 4428,
      "7xl": 4429,
      "/m/03m5k": 4430,
      "4r4": 4431,
      "/m/01795t": 4432,
      "/m/051wwp": 4433,
      "/m/0z4s": 4434,
      "./tv/tv_producer_term/producer_type": 4435,
      "_producer./tv/tv_producer_term/producer_type": 4436,
      "/tv/tv_program/tv_producer./tv/tv_producer_term/producer_type": 4437,
      "6q": 4438,
      "6z9": 4439,
      "fx": 4440,
      "/m/03rh": 4441,
      "/m/05sq": 4442,
      "/m/07z": 4443,
      "/m/0cb": 4444,
      "/m/016z2": 4445,
      "/m/0hv": 4446,
      "/m/0h3m": 4447,
      "/m/02rjj": 4448,
      "/m/02r0c": 4449,
      "/m/011k1": 4450,
      "/m/0gy6z9": 4451,
      "/m/0l6m5": 4452,
      "/m/056878": 4453,
      "/m/03rhqg": 4454,
      "/m/016z2j": 4455,
      "/m/02rjjll": 4456,
      "/m/02r0csl": 4457,
      "ab": 4458,
      "con": 4459,
      "dition": 4460,
      "lv7": 4461,
      "n4": 4462,
      "ot": 4463,
      "le_p": 4464,
      "/m/01bx": 4465,
      "/not": 4466,
      "/m/017j6": 4467,
      "/m/02vn": 4468,
      "/m/02nx": 4469,
      "/m/01fw": 4470,
      "/m/03qlv7": 4471,
      "/m/01m1": 4472,
      "hg9": 4473,
      "38s": 4474,
      "/m/04rrd": 4475,
      "/m/04wp": 4476,
      "/m/06cvj": 4477,
      "/m/046zh": 4478,
      "/m/01vw20h": 4479,
      "/medicine/disease/not": 4480,
      "/m/0h7h6": 4481,
      "eople_with_this_con": 4482,
      "/m/03f1zdw": 4483,
      "able_p": 4484,
      "/m/01bx35": 4485,
      "/medicine/disease/notable_p": 4486,
      "eople_with_this_condition": 4487,
      "/medicine/disease/notable_people_with_this_condition": 4488,
      "3b7": 4489,
      "8_": 4490,
      "bk0": 4491,
      "dr": 4492,
      "j4": 4493,
      "nb": 4494,
      "/m/015w": 4495,
      "/m/07s3": 4496,
      "/m/02qgyv": 4497,
      "/m/02778": 4498,
      "/m/01pcq": 4499,
      "/m/019bk0": 4500,
      "4kf": 4501,
      "/m/09yrh": 4502,
      "d4": 4503,
      "/people/sibl": 4504,
      "/m/059x": 4505,
      "/people/person/sibling": 4506,
      "_s./people/sibl": 4507,
      "ing_relationship/sibling": 4508,
      "2v2": 4509,
      "/m/0bksh": 4510,
      "/m/05sb1": 4511,
      "/m/07_l6": 4512,
      "/people/person/sibling_s./people/sibl": 4513,
      "/people/person/sibling_s./people/sibling_relationship/sibling": 4514,
      "7tq": 4515,
      "9h6": 4516,
      "h31": 4517,
      "w2": 4518,
      "/m/05gl": 4519,
      "_ph": 4520,
      "/m/0c4y": 4521,
      "/m/016zp": 4522,
      "/m/0159h6": 4523,
      "/m/015h31": 4524,
      "/m/05zvj": 4525,
      "/m/027pf": 4526,
      "/m/01lyv": 4527,
      "/m/01q_ph": 4528,
      "/m/01dnws": 4529,
      "/m/03f2_": 4530,
      "/m/0cc56": 4531,
      "/m/09fb5": 4532,
      "/m/05pcjw": 4533,
      "/m/01c6qp": 4534,
      "/m/016zp5": 4535,
      "/m/05zvj3m": 4536,
      "/m/03f2_rc": 4537,
      "/fi": 4538,
      "3fhx": 4539,
      "rst_": 4540,
      "vzf": 4541,
      "/m/02sn": 4542,
      "/film/film/dubbing_performances./film/dubbing_performance": 4543,
      "/m/0556": 4544,
      "/m/0bg": 4545,
      "/m/01wj": 4546,
      "/m/017z": 4547,
      "/m/017jv5": 4548,
      "/m/02x8n": 4549,
      "/m/01kb2": 4550,
      "2h8": 4551,
      "/m/02bf": 4552,
      "/m/02w3w": 4553,
      "/m/0xn": 4554,
      "/m/02dlh": 4555,
      "c6l": 4556,
      "g84": 4557,
      "/location/administrative_division/fi": 4558,
      "level_division_of": 4559,
      "/m/0h03fhx": 4560,
      "/m/01wbg84": 4561,
      "rst_level_division_of": 4562,
      "/film/film/dubbing_performances./film/dubbing_performance/actor": 4563,
      "/m/02x8n1n": 4564,
      "/m/01kb2j": 4565,
      "/m/02dlh2": 4566,
      "/location/administrative_division/first_level_division_of": 4567,
      "./organization/non_profit_": 4568,
      "ation/register": 4569,
      "/m/0gd_": 4570,
      "/m/0gmc": 4571,
      "/m/0881": 4572,
      "organization/registered_": 4573,
      "/m/016x": 4574,
      "/m/026mf": 4575,
      "/m/0pz7": 4576,
      "9jr": 4577,
      "/m/01hkh": 4578,
      "3t5x": 4579,
      "/m/047p7": 4580,
      "_b2": 4581,
      "kps": 4582,
      "/m/06pwq": 4583,
      "/m/0bp_b2": 4584,
      "/organization/non_profit_organization/registered_": 4585,
      "with./organization/non_profit_": 4586,
      "/m/0ds3t5x": 4587,
      "ing_agency": 4588,
      "registration/register": 4589,
      "/m/0gmcwlb": 4590,
      "/m/08815": 4591,
      "/m/0pz7h": 4592,
      "/m/01hkhq": 4593,
      "/organization/non_profit_organization/registered_with./organization/non_profit_": 4594,
      "registration/registering_agency": 4595,
      "/organization/non_profit_organization/registered_with./organization/non_profit_registration/registering_agency": 4596,
      "/dubbing_performances./film/dubbing_performance": 4597,
      "b3": 4598,
      "wk": 4599,
      "/m/02ck": 4600,
      "/m/059g": 4601,
      "/film/actor/dubbing_performances./film/dubbing_performance": 4602,
      "/m/016h": 4603,
      "/m/017149": 4604,
      "/m/02lp1": 4605,
      "/m/01c8": 4606,
      "/m/0x3b7": 4607,
      "rwf": 4608,
      "/m/0bq2g": 4609,
      "/m/04sry": 4610,
      "/film/actor/dubbing_performances./film/dubbing_performance/language": 4611,
      "fc": 4612,
      "j4r": 4613,
      "/m/027f": 4614,
      "/m/02k6": 4615,
      "/m/02gd": 4616,
      "zf_": 4617,
      "d2": 4618,
      "p4": 4619,
      "/m/05r6t": 4620,
      "/m/07d": 4621,
      "/m/07_f": 4622,
      "ct6": 4623,
      "/m/0b_7": 4624,
      "/m/016tb": 4625,
      "_tim": 4626,
      "/m/015t5": 4627,
      "/m/026c1": 4628,
      "/m/07sgf": 4629,
      "/m/03qbh": 4630,
      "location_in": 4631,
      "5xm": 4632,
      "t8j": 4633,
      "/base/aareas/schema/administrative_area/capital": 4634,
      "/m/099t8j": 4635,
      "/m/07twz": 4636,
      "_time_zones": 4637,
      "/m/015t56": 4638,
      "/m/03qbh5": 4639,
      "location_in_time_zones": 4640,
      "5g9": 4641,
      "cc": 4642,
      "/m/0_b": 4643,
      "/m/01sx": 4644,
      "/m/029q": 4645,
      "ic_title": 4646,
      "/m/05qfh": 4647,
      "/m/09c": 4648,
      "/basic_title": 4649,
      "/m/0cnl": 4650,
      "/m/08w": 4651,
      "fl9": 4652,
      "/m/02lpp7": 4653,
      "/m/03rw": 4654,
      "/m/01mgw": 4655,
      "/m/03_9r": 4656,
      "_6p": 4657,
      "/m/039bp": 4658,
      "/government/politician/government_positions_held./government/government_position_held/basic_title": 4659,
      "/m/04zx3q1": 4660,
      "d6": 4661,
      "/m/03bd": 4662,
      "/m/059f": 4663,
      "/m/07c6l": 4664,
      "/m/0gp": 4665,
      "/m/0g9z": 4666,
      "/m/0g26": 4667,
      "/m/085": 4668,
      "/m/0f50": 4669,
      "/m/02qr": 4670,
      "/m/0275": 4671,
      "/m/0m3": 4672,
      "/m/02x1d": 4673,
      "/m/01ksr1": 4674,
      "/m/01mq": 4675,
      "/m/028d": 4676,
      "kj_": 4677,
      "37m": 4678,
      "/m/02l4pj": 4679,
      "/m/0dr_4": 4680,
      "/m/03j24kf": 4681,
      "/m/0g26h": 4682,
      "/m/0f502": 4683,
      "/m/02x1dht": 4684,
      "/inst": 4685,
      "ring": 4686,
      "wt": 4687,
      "inent": 4688,
      "ance_": 4689,
      "/m/03tw": 4690,
      "/m/048l": 4691,
      "/m/0ds1": 4692,
      "of_rec": 4693,
      "urring": 4694,
      "/m/02773": 4695,
      "/m/02vxq": 4696,
      "/m/013kn": 4697,
      "cr8": 4698,
      "_event": 4699,
      "skw": 4700,
      "/m/05fkf": 4701,
      "/time/event/inst": 4702,
      "/m/0p_47": 4703,
      "within": 4704,
      "/m/039cq4": 4705,
      "ance_of_rec": 4706,
      "/m/048lv": 4707,
      "urring_event": 4708,
      "/m/02vxq9m": 4709,
      "/m/013knm": 4710,
      "/time/event/instance_of_rec": 4711,
      "/time/event/instance_of_recurring_event": 4712,
      "tt": 4713,
      "x3": 4714,
      "yn8": 4715,
      "/m/03sh": 4716,
      "/m/04jw": 4717,
      "/m/06ch": 4718,
      "/m/0gh6": 4719,
      "/m/08h": 4720,
      "vqk": 4721,
      "x_3": 4722,
      "26b_": 4723,
      "/m/099ck7": 4724,
      "0yt": 4725,
      "/m/0ch26b_": 4726,
      "/m/04x4": 4727,
      "/m/0498": 4728,
      "/m/098": 4729,
      "/m/06w8": 4730,
      "/m/0m31": 4731,
      "/m/01mhw": 4732,
      "s6_": 4733,
      "257": 4734,
      "q0z": 4735,
      "z3zq": 4736,
      "/m/05vz3zq": 4737,
      "/m/013yq": 4738,
      "/m/0498y": 4739,
      "/m/0m313": 4740,
      "/m/01mhwk": 4741,
      "/m/0r6": 4742,
      "/m/03_g": 4743,
      "/m/09hn": 4744,
      "/m/0ff": 4745,
      "/m/0171": 4746,
      "/m/034h": 4747,
      "/m/0gqxm": 4748,
      "/m/01hp": 4749,
      "/m/01mh_q": 4750,
      "x18": 4751,
      "/m/0yl": 4752,
      "m4t": 4753,
      "/m/03nqn": 4754,
      "g9y": 4755,
      "/m/0l6mp": 4756,
      "/m/0170pk": 4757,
      "/m/0m_v0": 4758,
      "/m/02x4x18": 4759,
      "/m/025sc50": 4760,
      "/m/09hnb": 4761,
      "ksx": 4762,
      "/m/0ggh": 4763,
      "/m/0bs8": 4764,
      "/m/016gr2": 4765,
      "/m/0150": 4766,
      "/m/0262": 4767,
      "/m/01c42": 4768,
      "/m/06mt91": 4769,
      "/m/023k": 4770,
      "/m/03bxz7": 4771,
      "/m/099cng": 4772,
      "/m/01c427": 4773,
      "set": 4774,
      "s/countries_": 4775,
      "er/film_": 4776,
      "/m/03pm": 4777,
      "/m/03j6": 4778,
      "/film/film_se": 4779,
      "/m/0ddd": 4780,
      "/base/locations": 4781,
      "/m/0b_dy": 4782,
      "/m/089g": 4783,
      "ed./olympics/olympic_medal_honor": 4784,
      "/m/017f": 4785,
      "/medals_award": 4786,
      "/olympics/olympic_games/medals_award": 4787,
      "/m/011yqc": 4788,
      "j_k": 4789,
      "t_design": 4790,
      "wgn": 4791,
      "esigned": 4792,
      "/m/05hj_k": 4793,
      "2p7": 4794,
      "/m/07_jd": 4795,
      "/continent": 4796,
      "s_designed": 4797,
      "/m/05glt": 4798,
      "/m/023kzp": 4799,
      "sets_designed": 4800,
      "s/countries_within": 4801,
      "er/film_sets_designed": 4802,
      "/film/film_set_design": 4803,
      "/base/locations/continent": 4804,
      "/m/089g0h": 4805,
      "ed./olympics/olympic_medal_honor/medal": 4806,
      "/olympics/olympic_games/medals_awarded./olympics/olympic_medal_honor/medal": 4807,
      "/film/film_set_designer/film_sets_designed": 4808,
      "/base/locations/continents/countries_within": 4809,
      "./government/political_party": 4810,
      "/ice_": 4811,
      "/hock": 4812,
      "ey": 4813,
      "v_d": 4814,
      "yq": 4815,
      "/m/01fl": 4816,
      "/m/03v3": 4817,
      "/m/04v8": 4818,
      "/m/049n": 4819,
      "/m/05ld": 4820,
      "/m/07l5": 4821,
      "w0c": 4822,
      "/m/01vsl": 4823,
      "this_party": 4824,
      "ey_team/current_roster./sports/sports_team_roster/position": 4825,
      "nl9": 4826,
      "_tenure/politician": 4827,
      "9tm": 4828,
      "/m/0cc5": 4829,
      "s_in_this_party": 4830,
      "/m/0bfvw2": 4831,
      "/politicians_in_this_party": 4832,
      "/government/political_party/politicians_in_this_party": 4833,
      "hockey": 4834,
      "/m/0147dk": 4835,
      "/m/0jz9f": 4836,
      "./government/political_party_tenure/politician": 4837,
      "/ice_hockey": 4838,
      "/hockey_team/current_roster./sports/sports_team_roster/position": 4839,
      "/government/political_party/politicians_in_this_party./government/political_party_tenure/politician": 4840,
      "/ice_hockey/hockey_team/current_roster./sports/sports_team_roster/position": 4841,
      "st/cont": 4842,
      "road": 4843,
      "ent/artist": 4844,
      "/broad": 4845,
      "/m/0872": 4846,
      "/m/0f0": 4847,
      "/m/0fdy": 4848,
      "/m/04rrx": 4849,
      "cast/cont": 4850,
      "/m/04wvh": 4851,
      "724": 4852,
      "/m/0dvld": 4853,
      "/m/0794g": 4854,
      "/broadcast/cont": 4855,
      "/m/0872p_c": 4856,
      "/m/0fdys": 4857,
      "/m/04wvhz": 4858,
      "/broadcast/content/artist": 4859,
      "vqf": 4860,
      "znt": 4861,
      "/m/03s": 4862,
      "/m/0gn3": 4863,
      "/m/0d2b": 4864,
      "/m/0161c": 4865,
      "/m/01vvb": 4866,
      "/m/01wv": 4867,
      "1yw": 4868,
      "/m/01qbl": 4869,
      "/m/030znt": 4870,
      "/m/047vn": 4871,
      "/m/011yp": 4872,
      "rng": 4873,
      "/m/06b_j": 4874,
      "/m/082fr": 4875,
      "/m/0fbvqf": 4876,
      "/m/0237fw": 4877,
      "/m/0c3351": 4878,
      "/m/0gn30": 4879,
      "/m/0d2b38": 4880,
      "/m/01vvb4m": 4881,
      "d7": 4882,
      "iz": 4883,
      "ial": 4884,
      "lld": 4885,
      "ation_of": 4886,
      "/m/049x": 4887,
      "/people/profession": 4888,
      "/m/096": 4889,
      "/m/06h": 4890,
      "/m/0dl5": 4891,
      "/m/0bth": 4892,
      "/m/02hv4": 4893,
      "/m/0161": 4894,
      "/m/05zlld": 4895,
      "/m/0pv": 4896,
      "/sports/sports_position/players./sports/sports_team_roster/position": 4897,
      "/m/01j_": 4898,
      "/m/01lp8": 4899,
      "grn": 4900,
      "5l_": 4901,
      "9lv": 4902,
      "v_3_": 4903,
      "/m/0fpv_3_": 4904,
      "/m/01vvycq": 4905,
      "/m/09fq": 4906,
      "/m/01vsgrn": 4907,
      "/special": 4908,
      "/m/01wd9lv": 4909,
      "/m/01xy5l_": 4910,
      "/m/047vnkj": 4911,
      "ization_of": 4912,
      "/m/049xgc": 4913,
      "/people/profession/special": 4914,
      "/m/0dl5d": 4915,
      "/m/02hv44_": 4916,
      "/m/05zlld0": 4917,
      "/people/profession/specialization_of": 4918,
      "nv": 4919,
      "wck": 4920,
      "/m/06z": 4921,
      "/m/02lfn": 4922,
      "/m/02g3v6": 4923,
      "dwq": 4924,
      "/m/06f41": 4925,
      "/m/06q1r": 4926,
      "/m/0bwh6": 4927,
      "/m/09wj5": 4928,
      "/m/04bdxl": 4929,
      "/m/025m8l": 4930,
      "/m/02lfns": 4931,
      "0z": 4932,
      "bck": 4933,
      "der": 4934,
      "her": 4935,
      "xc": 4936,
      "xan": 4937,
      "/m/0t_": 4938,
      "/ale": 4939,
      "s./tv/tv_regular_personal_appearance": 4940,
      "sts": 4941,
      "ersonality": 4942,
      "/tv_regular": 4943,
      "erests": 4944,
      "/m/0kj": 4945,
      "/tv/tv_personality": 4946,
      "/m/019n": 4947,
      "/m/05qbck": 4948,
      "/m/01t0": 4949,
      "/user/ale": 4950,
      "hy/philosop": 4951,
      "_appearances./tv/tv_regular_personal_appearance": 4952,
      "m4yw": 4953,
      "/m/03lt8": 4954,
      "/m/06b0d2": 4955,
      "/m/05hj": 4956,
      "/interests": 4957,
      "/m/0bpm4yw": 4958,
      "/m/0g824": 4959,
      "/philosophy/philosop": 4960,
      "/m/01pcq3": 4961,
      "der/philosophy/philosop": 4962,
      "her/interests": 4963,
      "xander/philosophy/philosop": 4964,
      "/tv_regular_appearances./tv/tv_regular_personal_appearance": 4965,
      "/tv/tv_personality/tv_regular_appearances./tv/tv_regular_personal_appearance": 4966,
      "/m/05qbckf": 4967,
      "/user/alexander/philosophy/philosop": 4968,
      "/m/03lt8g": 4969,
      "/tv/tv_personality/tv_regular_appearances./tv/tv_regular_personal_appearance/program": 4970,
      "/user/alexander/philosophy/philosopher/interests": 4971,
      "7_": 4972,
      "dqp": 4973,
      "lv": 4974,
      "tm4": 4975,
      "/m/0214": 4976,
      "/m/0cv3": 4977,
      "/m/01vh": 4978,
      "/m/0k4f": 4979,
      "chw": 4980,
      "/m/0mdqp": 4981,
      "/m/025n": 4982,
      "t90": 4983,
      "m4g": 4984,
      "/m/011k": 4985,
      "rn4": 4986,
      "/m/083chw": 4987,
      "1h5": 4988,
      "/m/0cv3w": 4989,
      "bo": 4990,
      "dj": 4991,
      "al_bo": 4992,
      "mp9": 4993,
      "/m/09tq": 4994,
      "/m/0fr": 4995,
      "/m/016g": 4996,
      "/m/0kp": 4997,
      "/government/governmental_bo": 4998,
      "/m/01f1": 4999,
      "/members./government/government_position_held/legislative_sessions": 5000,
      "/m/04gb7": 5001,
      "v3q": 5002,
      "565": 5003,
      "/m/0319l": 5004,
      "_7n": 5005,
      "dy/members./government/government_position_held/legislative_sessions": 5006,
      "/m/09qvc0": 5007,
      "/government/politician/government_positions_held./government/government_position_held/jurisdiction_of_office": 5008,
      "/m/0cfdd": 5009,
      "/m/0f7hc": 5010,
      "/m/09x3r": 5011,
      "/m/016vg8": 5012,
      "/m/017_qw": 5013,
      "/m/0dzlbx": 5014,
      "/m/027pfg": 5015,
      "/government/governmental_body/members./government/government_position_held/legislative_sessions": 5016,
      "jhm": 5017,
      "/m/07hw": 5018,
      "/m/07df": 5019,
      "/m/08hm": 5020,
      "/m/015pk": 5021,
      "/m/01p9": 5022,
      "/m/02x25": 5023,
      "/m/025m8": 5024,
      "9c0": 5025,
      "/m/0d0x8": 5026,
      "56b7": 5027,
      "/m/04xvh": 5028,
      "0xl": 5029,
      "/m/0cjsxp": 5030,
      "/m/09k56b7": 5031,
      "/m/01rh0w": 5032,
      "/m/020_95": 5033,
      "/m/08hsww": 5034,
      "/m/07hwkr": 5035,
      "/m/07dfk": 5036,
      "/m/08hmch": 5037,
      "/m/02x258x": 5038,
      "/m/025m8y": 5039,
      "/m/04xvh5": 5040,
      "8jw": 5041,
      "rm": 5042,
      "s2h8": 5043,
      "/m/04sh": 5044,
      "/m/06t6": 5045,
      "/m/0gkt": 5046,
      "/m/0cv": 5047,
      "/m/0bz6": 5048,
      "/m/0jzp": 5049,
      "/m/01vv": 5050,
      "/m/0hf": 5051,
      "/m/0155w": 5052,
      "/m/01531": 5053,
      "/m/018w8": 5054,
      "/m/01ps2h8": 5055,
      "/m/014g": 5056,
      "1wg": 5057,
      "4w8": 5058,
      "jwc": 5059,
      "skx": 5060,
      "/education/university/internation": 5061,
      "vc5": 5062,
      "ky3": 5063,
      "hpx": 5064,
      "/m/0828jw": 5065,
      "/m/0dgskx": 5066,
      "/m/0jqn5": 5067,
      "/m/02k84w": 5068,
      "/m/0127m7": 5069,
      "/m/01z7_f": 5070,
      "/m/0gkts9": 5071,
      "/m/0jzphpx": 5072,
      "/education/university/international_tuition./measurement_unit/dated_money_value/currency": 5073,
      "1sm": 5074,
      "fy": 5075,
      "lt": 5076,
      "pv": 5077,
      "/m/03sb": 5078,
      "/m/052h": 5079,
      "/m/06x4": 5080,
      "/m/076": 5081,
      "/m/0dzf_": 5082,
      "/m/0f_n": 5083,
      "/m/0fkv": 5084,
      "bp7": 5085,
      "byh": 5086,
      "/m/012x4": 5087,
      "/m/03gh4": 5088,
      "lyq": 5089,
      "x7f": 5090,
      "3p7": 5091,
      "1dz": 5092,
      "2lk": 5093,
      "9wd": 5094,
      "/m/07h34": 5095,
      "/m/01vw37m": 5096,
      "/m/07g1sm": 5097,
      "/m/0bt4r4": 5098,
      "/m/09b3v": 5099,
      "/m/02rh1dz": 5100,
      "/m/04hwbq": 5101,
      "/m/0f_nbyh": 5102,
      "/m/0fkvn": 5103,
      "/m/012x4t": 5104,
      "9_m": 5105,
      "mh8": 5106,
      "wd": 5107,
      "/place_": 5108,
      "/m/01pp": 5109,
      "/m/05t": 5110,
      "/m/06wrt": 5111,
      "/m/07m7": 5112,
      "/m/0d68": 5113,
      "/m/0fg": 5114,
      "/m/015q": 5115,
      "/m/0272": 5116,
      "/m/0m0": 5117,
      "/m/03rt": 5118,
      "sn8": 5119,
      "/m/01dv": 5120,
      "/organization/organization/place_": 5121,
      "x7s": 5122,
      "927": 5123,
      "z28": 5124,
      "zm5h": 5125,
      "n8b": 5126,
      "/m/03ym1": 5127,
      "/m/0789_m": 5128,
      "/m/037mh8": 5129,
      "/m/09qv3c": 5130,
      "/m/062zm5h": 5131,
      "/m/02x4wr9": 5132,
      "/m/02k856": 5133,
      "/m/02x4sn8": 5134,
      "/m/0h95927": 5135,
      "/m/0fj9f": 5136,
      "/m/07m77x": 5137,
      "/m/0d68qy": 5138,
      "/organization/organization/place_founded": 5139,
      "488": 5140,
      "7s": 5141,
      "hvp": 5142,
      "/m/049d": 5143,
      "/m/054g": 5144,
      "/m/09gq": 5145,
      "/m/07bx": 5146,
      "/m/0gmd": 5147,
      "/m/0dh": 5148,
      "/m/0c7": 5149,
      "/m/08jg": 5150,
      "/m/0j1": 5151,
      "/m/01vrz": 5152,
      "ppk": 5153,
      "/m/0lbj": 5154,
      "/m/01lb": 5155,
      "/m/03r0": 5156,
      "/m/02p7": 5157,
      "l09": 5158,
      "/m/04g5k": 5159,
      "/m/02yl": 5160,
      "5wz": 5161,
      "/m/020h2v": 5162,
      "8n7": 5163,
      "9lm": 5164,
      "/m/05f7": 5165,
      "0x5": 5166,
      "/m/0bmhvp": 5167,
      "/m/01xqqp": 5168,
      "/m/03v3xp": 5169,
      "/m/09gq0x5": 5170,
      "/m/08jgk1": 5171,
      "/m/01vrz41": 5172,
      "/m/0lbj1": 5173,
      "/m/0bmhvpr": 5174,
      "1t6": 5175,
      "h1": 5176,
      "n1": 5177,
      "qz": 5178,
      "/m/02bp": 5179,
      "/m/04sm": 5180,
      "/m/0g4": 5181,
      "/m/0gmg": 5182,
      "/m/0171cm": 5183,
      "/m/01g0": 5184,
      "/m/0343h": 5185,
      "/m/0137": 5186,
      "/m/014d": 5187,
      "/m/02f6y": 5188,
      "/m/05pdh": 5189,
      "/m/01y6": 5190,
      "/m/03hr1": 5191,
      "4vl": 5192,
      "/m/020f": 5193,
      "/m/05c1t6": 5194,
      "/m/09qrn4": 5195,
      "/m/0l6ny": 5196,
      "wnv": 5197,
      "/m/05w3f": 5198,
      "/m/0127s7": 5199,
      "/m/0k049": 5200,
      "/m/0150t6": 5201,
      "/m/0gmgwnv": 5202,
      "/m/05pdh86": 5203,
      "/m/03hr1p": 5204,
      "/m/05c1t6z": 5205,
      "./base/localfood": 5206,
      "t4": 5207,
      "le./base/localfood": 5208,
      "/m/01bn": 5209,
      "/m/03zq": 5210,
      "/m/03mdt": 5211,
      "/m/0486": 5212,
      "/m/040_": 5213,
      "_pd": 5214,
      "/m/0bs5": 5215,
      "/m/089f": 5216,
      "ity/seasonal_month": 5217,
      "/m/0168": 5218,
      "ility/seasonal_month": 5219,
      "/m/0h0yt": 5220,
      "/m/05ztj": 5221,
      "/m/0p_pd": 5222,
      "/m/019l": 5223,
      "/m/01k5": 5224,
      "/m/0gqng": 5225,
      "np0": 5226,
      "/m/04xrx": 5227,
      "5q3": 5228,
      "/m/0bdw1g": 5229,
      "/m/07024": 5230,
      "4c9": 5231,
      "/m/02l4rh": 5232,
      "/m/0g768": 5233,
      "/seasonal_month/produce_availab": 5234,
      "/base/localfood/seasonal_month/produce_availab": 5235,
      "/produce_availability/seasonal_month": 5236,
      "/m/03bnv": 5237,
      "/m/0c4ys": 5238,
      "/m/011k_j": 5239,
      "le./base/localfood/produce_availability/seasonal_month": 5240,
      "/m/03zqc1": 5241,
      "/m/0486tv": 5242,
      "/m/089fss": 5243,
      "/m/05ztjjw": 5244,
      "/base/localfood/seasonal_month/produce_available./base/localfood/produce_availability/seasonal_month": 5245,
      "/base/localfood/seasonal_month/produce_available./base/localfood/produce_availability/seasonal_months": 5246,
      "0g": 5247,
      "75": 5248,
      "aworld": 5249,
      "hint": 5250,
      "lsn": 5251,
      "xg": 5252,
      "y34": 5253,
      "arden": 5254,
      "/film/sp": 5255,
      "it_to": 5256,
      "/spl": 5257,
      "/garden": 5258,
      "/m/07nx": 5259,
      "/film_performance_type": 5260,
      "./film/performance/film": 5261,
      "/m/01vksx": 5262,
      "film_performance_type": 5263,
      "/m/0ph": 5264,
      "/m/01pq": 5265,
      "/m/0134": 5266,
      "/dataworld": 5267,
      "ecial_": 5268,
      "/m/01xn": 5269,
      "/m/047q": 5270,
      "52p6": 5271,
      "rf3": 5272,
      "cbq": 5273,
      "/m/04n52p6": 5274,
      "/m/04rlf": 5275,
      "2wm": 5276,
      "/m/03w5xm": 5277,
      "/m/0cqgl9": 5278,
      "ing_hint": 5279,
      "/m/03cw411": 5280,
      "/m/0bdx29": 5281,
      "/m/02snj9": 5282,
      "/film/special_": 5283,
      "/split_to": 5284,
      "/gardening_hint": 5285,
      "/film_performance_type./film/performance/film": 5286,
      "film_performance_type/film_performance_type./film/performance/film": 5287,
      "/dataworld/gardening_hint": 5288,
      "/film/special_film_performance_type/film_performance_type./film/performance/film": 5289,
      "/dataworld/gardening_hint/split_to": 5290,
      "0r1": 5291,
      "7h7": 5292,
      "__7": 5293,
      "/m/0286": 5294,
      "/m/0l7": 5295,
      "/m/0l98": 5296,
      "/m/017d": 5297,
      "/m/01nn": 5298,
      "/m/02zd4": 5299,
      "/m/03q0r1": 5300,
      "/m/01r93l": 5301,
      "vwz": 5302,
      "bx3": 5303,
      "5w2": 5304,
      "zwt": 5305,
      "/m/06f0d": 5306,
      "/m/09q5w2": 5307,
      "/m/07p__7": 5308,
      "/m/070m6c": 5309,
      "/m/01dw4q": 5310,
      "/m/03m6t5": 5311,
      "/m/03v1s": 5312,
      "/m/02kxbx3": 5313,
      "/m/0xnvg": 5314,
      "/m/0l98s": 5315,
      "/m/02zd460": 5316,
      "/m/06f0dc": 5317,
      "gjwc": 5318,
      "lm": 5319,
      "/m/0mp": 5320,
      "/m/033h": 5321,
      "/m/04vr": 5322,
      "/m/05kj_": 5323,
      "/m/095": 5324,
      "/m/0g_w": 5325,
      "/m/0g5p": 5326,
      "/m/0c0n": 5327,
      "/m/0btpx": 5328,
      "/m/02rdx": 5329,
      "b87": 5330,
      "/m/01cs": 5331,
      "scs": 5332,
      "/m/02fgp": 5333,
      "/m/01qscs": 5334,
      "snc": 5335,
      "/m/03qgjwc": 5336,
      "/m/02822": 5337,
      "/m/01yz": 5338,
      "hgv": 5339,
      "/m/01tf": 5340,
      "/m/03c6": 5341,
      "/m/011zd3": 5342,
      "/m/011ywj": 5343,
      "/m/060j8": 5344,
      "g7n": 5345,
      "/m/05lb87": 5346,
      "/m/0kszw": 5347,
      "/m/02fqrf": 5348,
      "/m/04vr_f": 5349,
      "/m/0c0nhgv": 5350,
      "/m/02rdxsh": 5351,
      "/m/060j8b": 5352,
      "0v": 5353,
      "gn": 5354,
      "/m/032w": 5355,
      "/m/08q": 5356,
      "/m/01vrt": 5357,
      "/m/0181": 5358,
      "/m/01gr": 5359,
      "/m/01cmp9": 5360,
      "/m/03hj5": 5361,
      "7ql": 5362,
      "51l": 5363,
      "/m/09l3p": 5364,
      "/m/08phg9": 5365,
      "/m/015f7": 5366,
      "/m/06q8hf": 5367,
      "/m/0kfv9": 5368,
      "/m/02fn5r": 5369,
      "/m/01hp22": 5370,
      "/m/0gghm": 5371,
      "/m/0214km": 5372,
      "/m/01vrt_c": 5373,
      "6s": 5374,
      "690_": 5375,
      "c2": 5376,
      "fqh": 5377,
      "tz": 5378,
      "/m/01t6": 5379,
      "/m/031y": 5380,
      "/m/04ly": 5381,
      "/m/049f": 5382,
      "/m/04hq": 5383,
      "/m/05c4": 5384,
      "/m/07w0": 5385,
      "/m/0cl": 5386,
      "/fam": 5387,
      "/m/0b_": 5388,
      "/m/016fnb": 5389,
      "ily": 5390,
      "/m/01v0": 5391,
      "/m/01718": 5392,
      "/m/02q690_": 5393,
      "/m/027g": 5394,
      "/m/01p4vl": 5395,
      "/m/0m6": 5396,
      "/m/01crd": 5397,
      "/m/02bj": 5398,
      "/music/instrument/fam": 5399,
      "/m/0yz": 5400,
      "/m/021bm": 5401,
      "/m/02dtg": 5402,
      "glj": 5403,
      "z2s": 5404,
      "9h3": 5405,
      "kfs": 5406,
      "/m/09qj50": 5407,
      "j94": 5408,
      "hxv": 5409,
      "/m/0dlglj": 5410,
      "/m/0170s4": 5411,
      "/m/0p__8": 5412,
      "/m/02x1z2s": 5413,
      "/m/03h_fk5": 5414,
      "/m/054g1r": 5415,
      "/m/07w0v": 5416,
      "/m/01crd5": 5417,
      "/music/instrument/family": 5418,
      "/m/021bmf": 5419,
      "89": 5420,
      "91": 5421,
      "ire": 5422,
      "/m/01bj": 5423,
      "/m/02qf": 5424,
      "/m/05cl": 5425,
      "/m/0571": 5426,
      "/m/05xp": 5427,
      "/m/09cr8": 5428,
      "/m/0697": 5429,
      "/m/07d3": 5430,
      "art_d": 5431,
      "/m/0g5": 5432,
      "/m/0dwr": 5433,
      "/m/018p": 5434,
      "/m/0pm": 5435,
      "/m/027h": 5436,
      "/m/0m66": 5437,
      "/m/02v1m": 5438,
      "/m/02vyw": 5439,
      "/m/02x8m": 5440,
      "/m/03qbnj": 5441,
      "ction_by": 5442,
      "/m/03fn": 5443,
      "/m/040r": 5444,
      "/m/03k50": 5445,
      "/film/film/film_art_d": 5446,
      "vp3": 5447,
      "3n1": 5448,
      "/m/0dg3n1": 5449,
      "/m/04vmp": 5450,
      "/m/043tvp3": 5451,
      "/m/070mff": 5452,
      "/m/01jrbb": 5453,
      "/m/011k1h": 5454,
      "/m/026mfs": 5455,
      "irection_by": 5456,
      "/m/0dwr4": 5457,
      "/m/0m66w": 5458,
      "/m/02v1m7": 5459,
      "/film/film/film_art_direction_by": 5460,
      "lb": 5461,
      "lk": 5462,
      "m6k": 5463,
      "/m/0g9l": 5464,
      "/m/016yp": 5465,
      "/m/0163v": 5466,
      "/m/0j6": 5467,
      "/m/0jgx": 5468,
      "/m/0h1m": 5469,
      "/m/0kjg": 5470,
      "/m/01wgc": 5471,
      "/m/02_n3z": 5472,
      "/m/027r": 5473,
      "/m/027b9": 5474,
      "/m/01lj9": 5475,
      "s08": 5476,
      "/m/09qs08": 5477,
      "/m/0gcs9": 5478,
      "/m/025jfl": 5479,
      "/m/0fhpv4": 5480,
      "/m/01c99j": 5481,
      "/m/02nxhr": 5482,
      "/m/01vsl3_": 5483,
      "/m/0g9lm2": 5484,
      "/m/016ypb": 5485,
      "/m/0kjgl": 5486,
      "/m/01wgcvn": 5487,
      "1st": 5488,
      "2z4": 5489,
      "c9": 5490,
      "mt6": 5491,
      "mt9b": 5492,
      "xz": 5493,
      "_ch": 5494,
      "/m/069": 5495,
      "/m/06j8": 5496,
      "/m/06jz": 5497,
      "/m/0gtx": 5498,
      "/m/0dp": 5499,
      "/m/0b6t": 5500,
      "/m/0f2w": 5501,
      "/m/0ly": 5502,
      "/m/0pv3": 5503,
      "/m/01c92": 5504,
      "/m/0d0kn": 5505,
      "/m/01s21": 5506,
      "/m/03hmt9b": 5507,
      "/m/011yxg": 5508,
      "/m/0dq6": 5509,
      "/m/06yxd": 5510,
      "/m/0cq7": 5511,
      "/m/01vsy7t": 5512,
      "/m/01kwsg": 5513,
      "/m/02yv6b": 5514,
      "/m/01wwvc5": 5515,
      "/m/0sz28": 5516,
      "/m/0hn10": 5517,
      "/m/0b6tzs": 5518,
      "/m/0f2wj": 5519,
      "/m/0pv3x": 5520,
      "/m/01c92g": 5521,
      "/m/01s21dg": 5522,
      "_3": 5523,
      "_4": 5524,
      "lq": 5525,
      "/m/02dw": 5526,
      "/m/0425": 5527,
      "/m/09t": 5528,
      "/m/0693l": 5529,
      "/m/0g2l": 5530,
      "/m/0gwj": 5531,
      "_ms": 5532,
      "c7p": 5533,
      "/m/0j0k": 5534,
      "/m/0hv8": 5535,
      "/m/0lx": 5536,
      "/m/01grp": 5537,
      "/m/0mx": 5538,
      "/m/0126": 5539,
      "/m/01n4w": 5540,
      "/m/01qb5": 5541,
      "yk8": 5542,
      "/m/02y8z": 5543,
      "/m/03xp8": 5544,
      "/m/054ky1": 5545,
      "/m/0kbvv": 5546,
      "/m/0h1nt": 5547,
      "/m/01vrnsk": 5548,
      "/m/015cjr": 5549,
      "/m/024tcq": 5550,
      "/m/027c95y": 5551,
      "/m/04f52jw": 5552,
      "/m/059f4": 5553,
      "/m/0161sp": 5554,
      "/m/0g2lq": 5555,
      "/m/03xp8d5": 5556,
      "76": 5557,
      "hh": 5558,
      "aract": 5559,
      "on_ch": 5560,
      "er_role": 5561,
      "er/season": 5562,
      "s./base/saturdaynightlive/snl": 5563,
      "st_memb": 5564,
      "stc3": 5565,
      "/m/02sp": 5566,
      "/m/02mx": 5567,
      "m_fh": 5568,
      "_cc": 5569,
      "/m/0d_": 5570,
      "/m/0drt": 5571,
      "/tv/n": 5572,
      "/tv_regular_person": 5573,
      "/m/0fn": 5574,
      "/m/0j8": 5575,
      "/m/0jzc": 5576,
      "_member/season": 5577,
      "ch9": 5578,
      "/m/015gr": 5579,
      "/m/02q_cc": 5580,
      "/m/01gc7": 5581,
      "/m/02vy": 5582,
      "/m/025vw": 5583,
      "/m/02kxb": 5584,
      "/m/01mk6": 5585,
      "/m/02wg": 5586,
      "/m/028k": 5587,
      "_season": 5588,
      "/m/024n3z": 5589,
      "/cast_memb": 5590,
      "/m/06ms6": 5591,
      "4q7": 5592,
      "rxgm": 5593,
      "_cast_member/season": 5594,
      "/m/043zg": 5595,
      "_tenure/cast_memb": 5596,
      "/m/03nm_fh": 5597,
      "mxq": 5598,
      "/m/0f4_l": 5599,
      "/m/0gvstc3": 5600,
      "/m/09qvf4": 5601,
      "/m/0l6vl": 5602,
      "/m/02pprs": 5603,
      "al_appearances./tv/tv_regular_personal_appearance": 5604,
      "/m/053rxgm": 5605,
      "/m/0c0zq": 5606,
      "/m/0227vl": 5607,
      "/m/01j7rd": 5608,
      "/m/026p4q7": 5609,
      "/base/saturdaynightlive/snl_cast_member/season": 5610,
      "/m/0l998": 5611,
      "/m/0h3mrc": 5612,
      "/m/05hjnw": 5613,
      "/m/0j1z8": 5614,
      "/m/04ly1": 5615,
      "/m/0gwjw0c": 5616,
      "aracter_role": 5617,
      "on_character_role": 5618,
      "s./base/saturdaynightlive/snl_season": 5619,
      "/m/02sp_v": 5620,
      "/tv/non_character_role": 5621,
      "/tv_regular_personal_appearances./tv/tv_regular_personal_appearance": 5622,
      "/m/015grj": 5623,
      "/m/02kxbwx": 5624,
      "_tenure/cast_members": 5625,
      "/base/saturdaynightlive/snl_cast_member/seasons./base/saturdaynightlive/snl_season": 5626,
      "/tv/non_character_role/tv_regular_personal_appearances./tv/tv_regular_personal_appearance": 5627,
      "/base/saturdaynightlive/snl_cast_member/seasons./base/saturdaynightlive/snl_season_tenure/cast_members": 5628,
      "/tv/non_character_role/tv_regular_personal_appearances./tv/tv_regular_personal_appearance/person": 5629,
      "352": 5630,
      "7vq": 5631,
      "_vw": 5632,
      "hkz": 5633,
      "/m/01qh": 5634,
      "/m/05m_": 5635,
      "/m/09hd": 5636,
      "/m/0d9": 5637,
      "/m/0f8": 5638,
      "/m/0fw": 5639,
      "/m/016jn": 5640,
      "y_ky": 5641,
      "/m/0h5g": 5642,
      "/m/0lv": 5643,
      "/m/01wl": 5644,
      "/m/026dg": 5645,
      "/m/02x7vq": 5646,
      "/m/01jq": 5647,
      "/m/025352": 5648,
      "z8m": 5649,
      "/m/03ln8b": 5650,
      "/m/07h565": 5651,
      "/m/0170qf": 5652,
      "/m/086sj": 5653,
      "/m/063y_ky": 5654,
      "/m/03cfjg": 5655,
      "/m/04hqz": 5656,
      "/m/027gs1_": 5657,
      "/m/016jny": 5658,
      "/m/0h5g_": 5659,
      "/m/026dg51": 5660,
      "5qb": 5661,
      "d1": 5662,
      "j3": 5663,
      "nm4t": 5664,
      "yrh": 5665,
      "/m/02mq": 5666,
      "/m/0325": 5667,
      "/m/03j0": 5668,
      "/m/0cg": 5669,
      "/m/0c40": 5670,
      "/m/0c4f": 5671,
      "/m/0jkv": 5672,
      "/m/015t7": 5673,
      "/sports/sports_position/players./american_football/football_": 5674,
      "/m/01jp": 5675,
      "/m/02f5qb": 5676,
      "/m/01hv": 5677,
      "/m/01dy7": 5678,
      "/m/05q5": 5679,
      "/m/03fyrh": 5680,
      "/m/0404j": 5681,
      "10g": 5682,
      "/m/03ndd": 5683,
      "/m/03nnm4t": 5684,
      "xwd": 5685,
      "s0w": 5686,
      "g7l": 5687,
      "/m/0dq3c": 5688,
      "d57": 5689,
      "/m/09p3": 5690,
      "/m/0_jm": 5691,
      "/m/0g2c8": 5692,
      "/m/0bdjd": 5693,
      "/m/030_1m": 5694,
      "/m/03qnc6q": 5695,
      "/m/09r9dp": 5696,
      "/m/03rwz3": 5697,
      "/m/0lx2l": 5698,
      "/m/0c4f4": 5699,
      "/m/0jkvj": 5700,
      "/m/015t7v": 5701,
      "/sports/sports_position/players./american_football/football_historical_roster_position/position_s": 5702,
      "/m/01dy7j": 5703,
      "/m/0404j37": 5704,
      "7rn": 5705,
      "h9k": 5706,
      "/m/0_7": 5707,
      "/m/01bp": 5708,
      "/m/09v8": 5709,
      "/m/06l3": 5710,
      "/m/0dry": 5711,
      "/m/0dr3": 5712,
      "/m/0c_m": 5713,
      "/m/01vtj": 5714,
      "/m/0hq": 5715,
      "/m/01540": 5716,
      "/m/0lb": 5717,
      "/m/027m": 5718,
      "/m/025r": 5719,
      "/m/02prw": 5720,
      "/m/012wg": 5721,
      "t58": 5722,
      "38b": 5723,
      "/m/064lsn": 5724,
      "9f9": 5725,
      "/m/04w7rn": 5726,
      "9xj": 5727,
      "/m/0cqh46": 5728,
      "/m/0dc_ms": 5729,
      "/m/0vmt": 5730,
      "/m/07tgn": 5731,
      "/m/0bj9k": 5732,
      "/m/07_f2": 5733,
      "/m/0pmhf": 5734,
      "/m/0dryh9k": 5735,
      "/m/0dr3sl": 5736,
      "/m/01vtj38": 5737,
      "/m/0vg": 5738,
      "/m/0210": 5739,
      "/m/02cq": 5740,
      "/m/06x7": 5741,
      "/m/0661": 5742,
      "/m/0bt7": 5743,
      "/m/0163": 5744,
      "/m/0166": 5745,
      "/m/05z96": 5746,
      "/m/07szy": 5747,
      "/m/02_7t": 5748,
      "/m/01gtc": 5749,
      "/m/019vh": 5750,
      "/m/01jw": 5751,
      "/m/01c9jp": 5752,
      "/m/01k7": 5753,
      "/m/01fp": 5754,
      "/m/02gvwz": 5755,
      "/m/01rg": 5756,
      "/m/0478_": 5757,
      "/m/024d": 5758,
      "/m/0ywrc": 5759,
      "z15s": 5760,
      "/m/0432": 5761,
      "m4p": 5762,
      "3m1": 5763,
      "/m/05cj4r": 5764,
      "/m/0bmnm": 5765,
      "/m/06rgq": 5766,
      "_rm": 5767,
      "/m/0gkz15s": 5768,
      "/m/0vgkd": 5769,
      "/m/0661m4p": 5770,
      "/m/019vhk": 5771,
      "/m/0478__m": 5772,
      "nj": 5773,
      "r2x": 5774,
      "syp": 5775,
      "ym": 5776,
      "/m/07jj": 5777,
      "/m/0ggx": 5778,
      "/m/0cmc": 5779,
      "/m/01vt": 5780,
      "/m/01wmx": 5781,
      "/m/018m": 5782,
      "/m/019r": 5783,
      "/m/013q0": 5784,
      "vqs": 5785,
      "lpb6": 5786,
      "5l9": 5787,
      "mcj": 5788,
      "6ds": 5789,
      "/m/03bx2lk": 5790,
      "/m/0gvx_": 5791,
      "4xc": 5792,
      "/m/04ls": 5793,
      "/m/015pxr": 5794,
      "/m/0svqs": 5795,
      "/m/016szr": 5796,
      "/m/06_kh": 5797,
      "/m/02cbhg": 5798,
      "/m/0ds35l9": 5799,
      "/m/054lpb6": 5800,
      "/m/02grdc": 5801,
      "/m/017j69": 5802,
      "/m/0gd_b_": 5803,
      "/m/0cc5mcj": 5804,
      "/m/07jjt": 5805,
      "/m/0ggx5q": 5806,
      "/m/01wmxfs": 5807,
      "0c7": 5808,
      "sby": 5809,
      "yz": 5810,
      "/m/05tg": 5811,
      "/m/06zt": 5812,
      "/m/07cy": 5813,
      "/m/0c5": 5814,
      "/m/0c3p7": 5815,
      "/m/081yw": 5816,
      "/m/0fpk": 5817,
      "t_z": 5818,
      "/m/0146": 5819,
      "/m/01kv4": 5820,
      "/m/012d": 5821,
      "/m/012t_z": 5822,
      "/m/02bh9": 5823,
      "/m/02zf": 5824,
      "/m/047s": 5825,
      "/m/01tnx": 5826,
      "v4g": 5827,
      "/m/03xsby": 5828,
      "vyx": 5829,
      "zy0": 5830,
      "_ym": 5831,
      "5k5": 5832,
      "/m/0cq8": 5833,
      "/m/070w7s": 5834,
      "/m/0dgd_": 5835,
      "kk4": 5836,
      "/m/0gd0c7": 5837,
      "/m/024tkd": 5838,
      "/m/07tg4": 5839,
      "/m/01tfck": 5840,
      "/m/06ztvyx": 5841,
      "/m/07cyl": 5842,
      "/m/01kv4mb": 5843,
      "/m/01tnxc": 5844,
      "/m/0gd0c7x": 5845,
      "_sn": 5846,
      "h_t": 5847,
      "yn3": 5848,
      "/m/03x7": 5849,
      "/m/04b_": 5850,
      "/m/09j": 5851,
      "/m/0j_t": 5852,
      "/m/0151": 5853,
      "/m/02l6h": 5854,
      "/m/01gt": 5855,
      "/m/0138": 5856,
      "/m/013zd": 5857,
      "/m/01hx": 5858,
      "/m/03q4n": 5859,
      "/m/01rw": 5860,
      "/m/01d0": 5861,
      "/m/0yy": 5862,
      "cbg": 5863,
      "g98": 5864,
      "/m/048q": 5865,
      "/m/05kr_": 5866,
      "smy": 5867,
      "30f": 5868,
      "/m/01cky2": 5869,
      "/m/04tgp": 5870,
      "/m/077g7n": 5871,
      "/m/0755wz": 5872,
      "/m/026g73": 5873,
      "/m/0flw86": 5874,
      "/m/02vntj": 5875,
      "/m/0lbbj": 5876,
      "/m/013zdg": 5877,
      "/m/03q4nz": 5878,
      "1jw": 5879,
      "1sq": 5880,
      "/m/02tk": 5881,
      "/m/03t2": 5882,
      "/m/04yk": 5883,
      "/m/051y": 5884,
      "/m/0dr": 5885,
      "/m/0bs0": 5886,
      "/m/0jc": 5887,
      "/m/0jv": 5888,
      "/m/0180mw": 5889,
      "/m/02_1": 5890,
      "/m/0mh": 5891,
      "/m/01l1sq": 5892,
      "sxz": 5893,
      "/m/01qv": 5894,
      "/m/01qzy": 5895,
      "dn_": 5896,
      "/m/0241jw": 5897,
      "gp26": 5898,
      "khw": 5899,
      "/m/048x": 5900,
      "/m/0bx0l": 5901,
      "9b0": 5902,
      "9p4": 5903,
      "/m/05vsxz": 5904,
      "/m/0fpgp26": 5905,
      "/m/042f": 5906,
      "/m/061dn_": 5907,
      "/m/02lfcm": 5908,
      "/m/0gnbw": 5909,
      "/m/033hn8": 5910,
      "/m/01qzyz": 5911,
      "981": 5912,
      "f0": 5913,
      "f_m": 5914,
      "q_": 5915,
      "/m/021q": 5916,
      "/m/03y_": 5917,
      "/m/04kj": 5918,
      "/m/05sx": 5919,
      "/m/0jzw": 5920,
      "/m/0ld": 5921,
      "/m/02qkt": 5922,
      "/m/01438g": 5923,
      "/m/01dp": 5924,
      "/m/01shy7": 5925,
      "5hs": 5926,
      "5hw": 5927,
      "4vxd": 5928,
      "/m/02yw": 5929,
      "/m/03cd": 5930,
      "53m": 5931,
      "/m/05f4vxd": 5932,
      "pm3": 5933,
      "/m/03y82": 5934,
      "/m/07fpm3": 5935,
      "/m/06w2": 5936,
      "/m/03_wj_": 5937,
      "/m/06151l": 5938,
      "/m/026lgs": 5939,
      "/m/01309x": 5940,
      "/m/095zlp": 5941,
      "/m/02c638": 5942,
      "/m/0hfzr": 5943,
      "/m/03y82t6": 5944,
      "023": 5945,
      "n_p": 5946,
      "/m/0521": 5947,
      "/m/09m6k": 5948,
      "/m/07gyv": 5949,
      "/m/0c00": 5950,
      "/m/0bt3": 5951,
      "t_j": 5952,
      "y_5": 5953,
      "ch7": 5954,
      "/m/05zr": 5955,
      "/m/01w60": 5956,
      "sdpk": 5957,
      "/m/02r1c": 5958,
      "/m/0258": 5959,
      "/m/0gq_d": 5960,
      "/m/01fmy": 5961,
      "/m/02bn_p": 5962,
      "/m/01q0": 5963,
      "/m/03qsdpk": 5964,
      "/m/01d38g": 5965,
      "/m/05q8p": 5966,
      "38p": 5967,
      "/m/0qcr": 5968,
      "/m/02y0": 5969,
      "/m/0y3": 5970,
      "3y3": 5971,
      "vyf": 5972,
      "gy0": 5973,
      "4yg": 5974,
      "2wc": 5975,
      "j_0n": 5976,
      "/m/03yj_0n": 5977,
      "/m/050023": 5978,
      "/m/0993r": 5979,
      "/m/0443y3": 5980,
      "wh1": 5981,
      "/m/0vzm": 5982,
      "/m/02lf70": 5983,
      "/m/05sy_5": 5984,
      "/m/02x2gy0": 5985,
      "/m/02gdjb": 5986,
      "/m/03shp": 5987,
      "/m/03j6c": 5988,
      "/m/0bth54": 5989,
      "/m/052hl": 5990,
      "/m/02bp37": 5991,
      "/m/0181dw": 5992,
      "/m/09m6kg": 5993,
      "/m/0bt3j9": 5994,
      "/m/01w60_p": 5995,
      "/m/02r1c18": 5996,
      "/m/05q8pss": 5997,
      "22w": 5998,
      "59": 5999,
      "fmm": 6000,
      "/m/0w0": 6001,
      "/m/01_f": 6002,
      "/m/01bb": 6003,
      "/m/03s0w": 6004,
      "/m/04x_3": 6005,
      "/m/059kh": 6006,
      "/m/0ggj": 6007,
      "/m/0dgq": 6008,
      "/m/0bx_": 6009,
      "/m/0fhxv": 6010,
      "/m/016kj": 6011,
      "/m/01w3v": 6012,
      "/m/0184j": 6013,
      "lcx": 6014,
      "/m/014gf": 6015,
      "/m/02f71": 6016,
      "/m/02f77": 6017,
      "/m/01hww": 6018,
      "t51": 6019,
      "pkw": 6020,
      "spq": 6021,
      "/m/0dwvl": 6022,
      "txr": 6023,
      "3r3": 6024,
      "/m/07kc_": 6025,
      "/m/080h2": 6026,
      "jml": 6027,
      "0ns": 6028,
      "/m/01ckcd": 6029,
      "/m/02mt51": 6030,
      "/m/01wy5m": 6031,
      "/m/05lb30": 6032,
      "/m/0407yfx": 6033,
      "/m/047csmy": 6034,
      "/m/02lnbg": 6035,
      "/m/01mqc_": 6036,
      "/m/0w0d": 6037,
      "/m/0ggjt": 6038,
      "/m/016kjs": 6039,
      "/m/0184jc": 6040,
      "/m/014gf8": 6041,
      "/m/02f716": 6042,
      "/m/01hww_": 6043,
      "4z6": 6044,
      "79y": 6045,
      "bbl": 6046,
      "kch7": 6047,
      "xx": 6048,
      "/m/05ty": 6049,
      "/m/07gp": 6050,
      "/m/0g6": 6051,
      "/m/0gbw": 6052,
      "/m/0cwy": 6053,
      "/m/0j43": 6054,
      "/m/0lbd": 6055,
      "/m/01pl": 6056,
      "/m/01gst": 6057,
      "/m/01gq0": 6058,
      "/m/0197tq": 6059,
      "/m/0nd": 6060,
      "/m/0d04z6": 6061,
      "/m/024bbl": 6062,
      "/m/03hkch7": 6063,
      "/m/035gj": 6064,
      "/m/01tw": 6065,
      "/m/040v": 6066,
      "swk": 6067,
      "rny": 6068,
      "/m/050ks": 6069,
      "/m/04fzk": 6070,
      "m6l": 6071,
      "/m/0bl2g": 6072,
      "97z": 6073,
      "/m/0bwfw": 6074,
      "fwd": 6075,
      "/m/09w1n": 6076,
      "qlk": 6077,
      "/m/017l96": 6078,
      "/m/01l2fn": 6079,
      "/m/017z49": 6080,
      "/m/03t22m": 6081,
      "/m/01fmys": 6082,
      "/m/05ty4m": 6083,
      "/m/07gp9": 6084,
      "/m/0gbwp": 6085,
      "/m/0cwy47": 6086,
      "/m/0j43swk": 6087,
      "/m/0lbd9": 6088,
      "/m/01gq0b": 6089,
      "/m/035gjq": 6090,
      "/m/0bwfwpj": 6091,
      "s2k": 6092,
      "/m/03ft": 6093,
      "/m/04pk": 6094,
      "/m/042x": 6095,
      "/m/06_w": 6096,
      "/m/07j8": 6097,
      "d_2": 6098,
      "/m/0jsf": 6099,
      "/m/07s8r": 6100,
      "/m/07s8h": 6101,
      "/m/017z8": 6102,
      "/m/02__7n": 6103,
      "/m/027k": 6104,
      "/m/03rbj": 6105,
      "/m/02fy": 6106,
      "/m/03mg": 6107,
      "8pf": 6108,
      "gln": 6109,
      "ffd": 6110,
      "/m/011yrp": 6111,
      "26r": 6112,
      "589": 6113,
      "qk4": 6114,
      "/m/0l1589": 6115,
      "/m/0499": 6116,
      "/m/0g5qs2k": 6117,
      "/m/026r8q": 6118,
      "/m/01xndd": 6119,
      "/m/0cmc26r": 6120,
      "/m/04pk1f": 6121,
      "/m/06_wqk4": 6122,
      "/m/0jsf6": 6123,
      "/m/07s8r0": 6124,
      "/m/07s8hms": 6125,
      "/m/017z88": 6126,
      "/m/03rbj2": 6127,
      "8wg": 6128,
      "wc7": 6129,
      "/m/01k9": 6130,
      "/m/02ch": 6131,
      "/m/0296": 6132,
      "/m/0456": 6133,
      "mpp": 6134,
      "/m/06rq": 6135,
      "/m/06zn": 6136,
      "/m/06c62": 6137,
      "/m/07w8": 6138,
      "/m/0gkv": 6139,
      "/m/0gvv": 6140,
      "/m/0g57": 6141,
      "/m/0gdh": 6142,
      "/m/0bzm": 6143,
      "/m/0jt3": 6144,
      "/m/0hx4": 6145,
      "/m/015vq": 6146,
      "/m/018y": 6147,
      "/m/02lx": 6148,
      "/m/02v5": 6149,
      "14t": 6150,
      "sn5": 6151,
      "/m/02w4v": 6152,
      "/m/05p1t": 6153,
      "/m/024mpp": 6154,
      "3d4": 6155,
      "vfw": 6156,
      "/m/02114t": 6157,
      "924": 6158,
      "/m/011_6p": 6159,
      "8nq2": 6160,
      "26ss": 6161,
      "tgs": 6162,
      "ghz": 6163,
      "0x0": 6164,
      "/m/05c26ss": 6165,
      "ngsd": 6166,
      "9ts": 6167,
      "vrl": 6168,
      "/m/0dlngsd": 6169,
      "/m/0gj8nq2": 6170,
      "/m/04mk": 6171,
      "/m/01ckrr": 6172,
      "/m/03tmr": 6173,
      "/m/067ghz": 6174,
      "/m/0bh8tgs": 6175,
      "/m/0407yj_": 6176,
      "/m/09g7vfw": 6177,
      "/m/02f73p": 6178,
      "yr4": 6179,
      "/m/0680x0": 6180,
      "/m/06j8wx": 6181,
      "/m/0gkvb7": 6182,
      "/m/0gvvm6l": 6183,
      "/m/0hx4y": 6184,
      "/m/05p1tzf": 6185,
      "23m": 6186,
      "391": 6187,
      "4dy": 6188,
      "69": 6189,
      "kj5": 6190,
      "v9q": 6191,
      "st_d": 6192,
      "/m/05np": 6193,
      "/m/05dx": 6194,
      "/m/0gb": 6195,
      "/m/0g60": 6196,
      "/m/0bv": 6197,
      "/m/0f2v0": 6198,
      "/m/016k6": 6199,
      "/m/01v9l": 6200,
      "yp5": 6201,
      "/m/01w4dy": 6202,
      "/m/01846": 6203,
      "/m/04zkj5": 6204,
      "/m/01g23m": 6205,
      "/m/03g5": 6206,
      "ntp": 6207,
      "9kd": 6208,
      "/m/040b5": 6209,
      "/m/023p": 6210,
      "/m/0q9kd": 6211,
      "7c2": 6212,
      "/m/0yx": 6213,
      "/m/03ccq": 6214,
      "/m/02dbp7": 6215,
      "/m/04w391": 6216,
      "gxx": 6217,
      "6dy": 6218,
      "kyy": 6219,
      "rpd": 6220,
      "/m/04ych": 6221,
      "/m/05h4": 6222,
      "/m/07l4z": 6223,
      "/m/01vvydl": 6224,
      "/m/0dgst_d": 6225,
      "/m/087vz": 6226,
      "/m/03h_9lg": 6227,
      "/m/016yvw": 6228,
      "/m/030_3z": 6229,
      "/m/02x17c2": 6230,
      "/m/0140t7": 6231,
      "/m/01rr9f": 6232,
      "/m/0372kf": 6233,
      "/m/02f72_": 6234,
      "/m/0421v9q": 6235,
      "/m/0kjrx": 6236,
      "/m/0ldqf": 6237,
      "/m/0g60z": 6238,
      "/m/01v9l67": 6239,
      "/m/01846t": 6240,
      "/m/040b5k": 6241,
      "/m/03ccq3s": 6242,
      "2m4": 6243,
      "6_": 6244,
      "c9r": 6245,
      "p81": 6246,
      "w3": 6247,
      "/m/05nl": 6248,
      "/m/07yk": 6249,
      "/m/07vh": 6250,
      "/m/0blp": 6251,
      "/m/08zr": 6252,
      "/m/02hy": 6253,
      "/m/01vrx": 6254,
      "rhmt": 6255,
      "/m/0275n": 6256,
      "/m/0137g": 6257,
      "/m/01c22": 6258,
      "/m/01qg": 6259,
      "/m/01qr": 6260,
      "/m/01x4": 6261,
      "/m/01sp81": 6262,
      "52t3": 6263,
      "/m/01tc9r": 6264,
      "/m/01trhmt": 6265,
      "/m/05bnp0": 6266,
      "dwhx": 6267,
      "t2w": 6268,
      "_x9": 6269,
      "670": 6270,
      "vdl": 6271,
      "fzfj": 6272,
      "/m/05lfwd": 6273,
      "/m/04psyp": 6274,
      "/m/02hczc": 6275,
      "/m/04q7r": 6276,
      "/m/08052t3": 6277,
      "/m/080dwhx": 6278,
      "/m/0382m4": 6279,
      "/m/0h7pj": 6280,
      "/m/01cwhp": 6281,
      "/m/05lb65": 6282,
      "/m/01vsnff": 6283,
      "/m/01w7nww": 6284,
      "/m/017gxw": 6285,
      "/m/014g22": 6286,
      "/m/08zrbl": 6287,
      "/m/0275n3y": 6288,
      "/m/0137g1": 6289,
      "/m/01c22t": 6290,
      "2ft": 6291,
      "673": 6292,
      "g3": 6293,
      "j61": 6294,
      "pn": 6295,
      "s95": 6296,
      "/m/04b2": 6297,
      "/m/05kfs": 6298,
      "/m/06t7": 6299,
      "thr": 6300,
      "/m/081p": 6301,
      "/m/0fm": 6302,
      "/m/0156q": 6303,
      "/m/01pw": 6304,
      "/m/0m2l": 6305,
      "/m/01cly": 6306,
      "/m/01lmj": 6307,
      "/m/0d02k": 6308,
      "/m/02wgln": 6309,
      "/m/0239kh": 6310,
      "/m/03cxs": 6311,
      "bw2": 6312,
      "/m/05kms": 6313,
      "/m/02s2ft": 6314,
      "/m/03wh8": 6315,
      "/m/06btq": 6316,
      "/m/0sxrz": 6317,
      "/m/07bch9": 6318,
      "/m/0gsg7": 6319,
      "/m/072bb1": 6320,
      "/m/02d44q": 6321,
      "/m/031778": 6322,
      "/m/02bqm0": 6323,
      "/m/09g7thr": 6324,
      "/m/0gx1673": 6325,
      "/m/02ck7w": 6326,
      "/m/015pkc": 6327,
      "/m/04b2qn": 6328,
      "/m/06t74h": 6329,
      "/m/081pw": 6330,
      "/m/01lmj3q": 6331,
      "/m/0d02km": 6332,
      "/m/03cxsvl": 6333,
      "6j": 6334,
      "fq": 6335,
      "g2b": 6336,
      "hl": 6337,
      "sch": 6338,
      "wtd": 6339,
      "s_for_p": 6340,
      "/m/052p7": 6341,
      "/m/06jn": 6342,
      "/m/0721": 6343,
      "/m/0ggq": 6344,
      "/m/0g56": 6345,
      "/m/0d9jr": 6346,
      "/m/0c6g": 6347,
      "w0j": 6348,
      "/m/0h1x": 6349,
      "/m/015qq": 6350,
      "/m/015gw": 6351,
      "/m/026_d": 6352,
      "/m/01p7y": 6353,
      "/m/01gg5": 6354,
      "/m/02vq": 6355,
      "/m/014v": 6356,
      "/m/01l9p": 6357,
      "_of_draft_pick": 6358,
      "/m/028kn": 6359,
      "league": 6360,
      "/m/01s0": 6361,
      "t9t": 6362,
      "ool_of_draft_pick": 6363,
      "9k8": 6364,
      "/m/0q5hw": 6365,
      "/m/02yx": 6366,
      "/m/03mkk4": 6367,
      "sports_league": 6368,
      "/m/0645k5": 6369,
      "zwl": 6370,
      "/m/0gr07": 6371,
      "rofessional_sports_team_": 6372,
      "/m/020ffd": 6373,
      "shh": 6374,
      "5qcw": 6375,
      "58_": 6376,
      "in_sports_league": 6377,
      "tfm": 6378,
      "/m/0fb1q": 6379,
      "/m/0p_2r": 6380,
      "/m/071vr": 6381,
      "nxx": 6382,
      "/m/0gg5qcw": 6383,
      "/m/05683p": 6384,
      "/m/0bh8yn3": 6385,
      "/m/04ykg": 6386,
      "/m/0y3_8": 6387,
      "school_of_draft_pick": 6388,
      "s_for_professional_sports_team_": 6389,
      "/m/0ggq0m": 6390,
      "/m/0g56t9t": 6391,
      "/m/0h1x5f": 6392,
      "/m/015gw6": 6393,
      "/m/01p7yb": 6394,
      "/m/01gg59": 6395,
      "/m/028knk": 6396,
      "school_of_draft_picks_for_professional_sports_team_": 6397,
      "school_of_draft_picks_for_professional_sports_team_in_sports_league": 6398,
      "cj": 6399,
      "pcx": 6400,
      "zz1": 6401,
      "/m/01cy": 6402,
      "/m/0292": 6403,
      "/m/092": 6404,
      "/m/06hg": 6405,
      "/m/0677": 6406,
      "/m/07hg": 6407,
      "/m/0f4y": 6408,
      "/m/016n": 6409,
      "/m/016sp": 6410,
      "/m/0jm_": 6411,
      "/m/0krd": 6412,
      "/m/015c4": 6413,
      "/m/0lf": 6414,
      "/m/017y": 6415,
      "rhz": 6416,
      "1q9": 6417,
      "/m/02k21g": 6418,
      "/m/02wh7": 6419,
      "/m/024qq": 6420,
      "/m/01y8": 6421,
      "/m/01yh": 6422,
      "/m/035yn8": 6423,
      "/m/04g61": 6424,
      "5w9": 6425,
      "z8_": 6426,
      "z8b": 6427,
      "zr0": 6428,
      "fj_": 6429,
      "vcd": 6430,
      "4fd": 6431,
      "1cn": 6432,
      "2xy": 6433,
      "/m/05r5w": 6434,
      "gdv": 6435,
      "1pr": 6436,
      "vdc": 6437,
      "/m/0r0": 6438,
      "6y6": 6439,
      "/m/06y57": 6440,
      "/m/0294fd": 6441,
      "jlv": 6442,
      "/m/02jxmr": 6443,
      "/m/0swbd": 6444,
      "/m/065jlv": 6445,
      "/m/01yfm8": 6446,
      "/m/02k_kn": 6447,
      "/m/0g5838s": 6448,
      "/m/03nqnk3": 6449,
      "/m/01lb14": 6450,
      "/m/05c46y6": 6451,
      "/m/06l3bl": 6452,
      "/m/016sp_": 6453,
      "/m/0krdk": 6454,
      "/m/015c4g": 6455,
      "/m/02wh75": 6456,
      "/m/024qqx": 6457,
      "0gc": 6458,
      "1tc": 6459,
      "2mq": 6460,
      "bv3": 6461,
      "l1q": 6462,
      "films": 6463,
      "/m/04lh": 6464,
      "/m/09gd": 6465,
      "/m/06s6": 6466,
      "/m/07t90": 6467,
      "/m/0c53": 6468,
      "/m/087p": 6469,
      "/m/0fd": 6470,
      "roduction": 6471,
      "j54": 6472,
      "/m/05zl0": 6473,
      "/m/0260": 6474,
      "/m/02qvdc": 6475,
      "/m/02q1tc": 6476,
      "/m/02rzd": 6477,
      "/m/01jzy": 6478,
      "/m/025v3": 6479,
      "/m/02f6x": 6480,
      "_of_films": 6481,
      "/m/02wb": 6482,
      "/m/01sl1q": 6483,
      "8lq": 6484,
      "mdw": 6485,
      "t53w": 6486,
      "panies_": 6487,
      "/m/043js": 6488,
      "/m/0209h": 6489,
      "/m/020bv3": 6490,
      "/m/06cx9": 6491,
      "/m/0dq9p": 6492,
      "/m/0824r": 6493,
      "/m/09p0": 6494,
      "ygk": 6495,
      "/m/0blg2": 6496,
      "/m/0gvt53w": 6497,
      "/m/056w": 6498,
      "/m/01f7j9": 6499,
      "companies_": 6500,
      "/m/02f72n": 6501,
      "for_production": 6502,
      "/m/030h95": 6503,
      "/m/01_x6v": 6504,
      "/m/01c8w0": 6505,
      "/m/03bdv": 6506,
      "/m/028dcg": 6507,
      "/m/0ddd0gc": 6508,
      "/m/06t61y": 6509,
      "/m/01x4sb": 6510,
      "/m/087pfc": 6511,
      "/m/02q1tc5": 6512,
      "/m/02rzdcp": 6513,
      "/m/025v3k": 6514,
      "/m/02f6xy": 6515,
      "/m/0209hj": 6516,
      "companies_for_production": 6517,
      "companies_for_production_of_films": 6518,
      "74": 6519,
      "mn8": 6520,
      "nbn": 6521,
      "tcb": 6522,
      "/m/02cy": 6523,
      "/m/05mc": 6524,
      "/m/07rd": 6525,
      "/m/0gff": 6526,
      "/m/0ds2": 6527,
      "/m/0dx8": 6528,
      "_g6": 6529,
      "/m/0fy6": 6530,
      "/m/016kh": 6531,
      "_t2": 6532,
      "/m/0h3y": 6533,
      "/m/01588": 6534,
      "/m/018gr": 6535,
      "/m/02l6dy": 6536,
      "/m/014j": 6537,
      "/m/02f2": 6538,
      "/m/01dtcb": 6539,
      "vw8n": 6540,
      "9585": 6541,
      "/m/01svw8n": 6542,
      "k02": 6543,
      "/m/021bk": 6544,
      "zqz": 6545,
      "/m/050z2": 6546,
      "1ns": 6547,
      "/m/03z9585": 6548,
      "/m/038hg": 6549,
      "/m/086qd": 6550,
      "/m/016ywr": 6551,
      "/m/02d4ct": 6552,
      "/m/07jbh": 6553,
      "/m/02bqmq": 6554,
      "/m/094jv": 6555,
      "/m/02mpyh": 6556,
      "/m/02k6rq": 6557,
      "/m/03twd6": 6558,
      "/m/01y665": 6559,
      "/m/01fpfn": 6560,
      "/m/0fpkhkz": 6561,
      "/m/02cyfz": 6562,
      "/m/07rd7": 6563,
      "/m/0gffmn8": 6564,
      "/m/016khd": 6565,
      "/m/015882": 6566,
      "/m/018grr": 6567,
      "238": 6568,
      "z_ym": 6569,
      "/m/02fl": 6570,
      "/m/051q": 6571,
      "/m/092v": 6572,
      "/m/09pj": 6573,
      "/m/07wr": 6574,
      "/m/07jq": 6575,
      "/m/0g4v": 6576,
      "/m/0dt8": 6577,
      "/m/0cc7": 6578,
      "/m/0cz_ym": 6579,
      "/m/0j_c": 6580,
      "/m/02qz": 6581,
      "/m/01pf": 6582,
      "k98": 6583,
      "/m/025b5": 6584,
      "/m/01hc": 6585,
      "/m/01r42": 6586,
      "/m/030p": 6587,
      "4qr": 6588,
      "rqd": 6589,
      "mj8": 6590,
      "_vp": 6591,
      "25y": 6592,
      "/m/011yhm": 6593,
      "/m/05fnl9": 6594,
      "/m/0dw4g": 6595,
      "hf3v": 6596,
      "/m/0cc97": 6597,
      "/m/078m": 6598,
      "hmk": 6599,
      "/m/0bq8t": 6600,
      "/m/0fphf3v": 6601,
      "/m/07x4qr": 6602,
      "/m/0f2rq": 6603,
      "/m/0kv238": 6604,
      "/m/09y20": 6605,
      "/m/027f2w": 6606,
      "/m/0j6b5": 6607,
      "/m/0325pb": 6608,
      "/m/02f2dn": 6609,
      "/m/092vkg": 6610,
      "/m/07wrz": 6611,
      "/m/0g4vmj8": 6612,
      "/m/0dt8xq": 6613,
      "/m/0cc7hmk": 6614,
      "/m/025b5y": 6615,
      "/m/01r42_g": 6616,
      "/m/0cc97st": 6617,
      "/m/0bq8tmw": 6618,
      "2sy": 6619,
      "28z": 6620,
      "5kf": 6621,
      "8gr": 6622,
      "b4g": 6623,
      "m9": 6624,
      "/m/03nt": 6625,
      "/m/049q": 6626,
      "/m/0gt_": 6627,
      "/m/0d2": 6628,
      "/m/0c9c0": 6629,
      "/m/0cx7f": 6630,
      "/m/0bbf": 6631,
      "/m/089j": 6632,
      "/m/08jy": 6633,
      "/m/0fqy": 6634,
      "/m/02h3d": 6635,
      "/m/0jrq": 6636,
      "byr": 6637,
      "/m/01vwl": 6638,
      "/m/0kft": 6639,
      "/m/0k26": 6640,
      "/m/05z7c": 6641,
      "/m/026dc": 6642,
      "/m/02q42": 6643,
      "/m/02j9lm": 6644,
      "/m/02xbyr": 6645,
      "/m/02kxw": 6646,
      "/m/02z1n": 6647,
      "/m/02ww": 6648,
      "/m/01yg9y": 6649,
      "/m/03_6y": 6650,
      "/m/0q9s": 6651,
      "921": 6652,
      "/m/0315q3": 6653,
      "cqw": 6654,
      "/m/04jpg": 6655,
      "/m/011x": 6656,
      "sl1x": 6657,
      "/m/0335": 6658,
      "/m/06fcqw": 6659,
      "ghl": 6660,
      "vjr": 6661,
      "5vm": 6662,
      "1mh": 6663,
      "/m/0ctb4g": 6664,
      "/m/07bs0": 6665,
      "/m/0cqhb3": 6666,
      "/m/03zz8b": 6667,
      "/m/05y5kf": 6668,
      "mw9": 6669,
      "/m/02ctzb": 6670,
      "/m/0265v21": 6671,
      "/m/018db8": 6672,
      "/m/01chpn": 6673,
      "/m/01w02sy": 6674,
      "/m/0dfw0": 6675,
      "/m/03_gd": 6676,
      "/m/0m63c": 6677,
      "/m/02bj6k": 6678,
      "/m/0bt7ws": 6679,
      "/m/0ndsl1x": 6680,
      "/m/07w8fz": 6681,
      "/m/015vq_": 6682,
      "/m/0bbf1f": 6683,
      "/m/089j8p": 6684,
      "/m/08jyyk": 6685,
      "/m/02h3d1": 6686,
      "/m/01vwllw": 6687,
      "/m/0k269": 6688,
      "/m/026dcvf": 6689,
      "/m/02q42j_": 6690,
      "/m/02kxwk": 6691,
      "/m/02z1nbg": 6692,
      "/m/0q9sg": 6693,
      "/m/04jpg2p": 6694,
      "pt": 6695,
      "xv": 6696,
      "/m/049g": 6697,
      "/m/07gh": 6698,
      "/m/0b13": 6699,
      "/m/0f4k": 6700,
      "c74": 6701,
      "/m/0hr": 6702,
      "/m/01w1": 6703,
      "/m/01wq": 6704,
      "/m/01w9w": 6705,
      "/m/07srw": 6706,
      "/m/018x3": 6707,
      "/m/0myk8": 6708,
      "/m/019x": 6709,
      "/m/025v": 6710,
      "/m/02ny": 6711,
      "/m/01l47": 6712,
      "/m/02bkg": 6713,
      "b7q": 6714,
      "/m/03f1": 6715,
      "bdb": 6716,
      "vqq": 6717,
      "/m/03mgx": 6718,
      "/m/04njml": 6719,
      "gm3": 6720,
      "/m/03k7": 6721,
      "/m/050l8": 6722,
      "nw5": 6723,
      "31_": 6724,
      "1k8": 6725,
      "cfv": 6726,
      "/m/0ddt_": 6727,
      "/m/024rbz": 6728,
      "/m/01rr_d": 6729,
      "/m/03clrng": 6730,
      "/m/01chc7": 6731,
      "/m/03mp9s": 6732,
      "/m/02cllz": 6733,
      "/m/01l29r": 6734,
      "/m/02f73b": 6735,
      "/m/034h1h": 6736,
      "/m/047q2wc": 6737,
      "/m/027r9t": 6738,
      "/m/05dxl5": 6739,
      "/m/06jnvs": 6740,
      "/m/0b13g7": 6741,
      "/m/01w9wwg": 6742,
      "/m/01l47f5": 6743,
      "/m/03mgx6z": 6744,
      "2j": 6745,
      "4t": 6746,
      "9t7": 6747,
      "czm": 6748,
      "gkf": 6749,
      "lr": 6750,
      "p9": 6751,
      "tx1": 6752,
      "/m/01tj": 6753,
      "/m/011w": 6754,
      "/m/02dd": 6755,
      "/m/03x1": 6756,
      "/m/04v3q": 6757,
      "/m/05th": 6758,
      "/m/064v": 6759,
      "/m/0g9wd": 6760,
      "/m/0ftl": 6761,
      "y_2": 6762,
      "/m/02_l": 6763,
      "/m/02_ss": 6764,
      "/m/02vnp": 6765,
      "/m/0nv": 6766,
      "/m/01jfr": 6767,
      "/m/02nd": 6768,
      "1yj": 6769,
      "/m/012v": 6770,
      "/m/03qmg": 6771,
      "/m/02w4b": 6772,
      "/m/047f": 6773,
      "/m/01zg98": 6774,
      "/m/01tsp": 6775,
      "/m/04gv": 6776,
      "c4s": 6777,
      "s1kt": 6778,
      "/m/021_rm": 6779,
      "kdln": 6780,
      "/m/01bczm": 6781,
      "_7k": 6782,
      "/m/03n_7k": 6783,
      "/m/011yth": 6784,
      "/m/04wtx1": 6785,
      "26c": 6786,
      "/m/0330r": 6787,
      "9tn5": 6788,
      "/m/0bq6nt": 6789,
      "/m/0blbx": 6790,
      "/m/0gvs1kt": 6791,
      "/m/0gj9tn5": 6792,
      "/m/09gkdln": 6793,
      "/m/045zr": 6794,
      "/m/044mz_": 6795,
      "/m/01j5ts": 6796,
      "/m/018wng": 6797,
      "/m/06g2d": 6798,
      "/m/01f85k": 6799,
      "/m/016ks_": 6800,
      "/m/03tcnt": 6801,
      "/m/055c8": 6802,
      "/m/01sn3": 6803,
      "/m/07s3vqk": 6804,
      "/m/06chf": 6805,
      "/m/05xpms": 6806,
      "/m/0lv1x": 6807,
      "/m/064vjs": 6808,
      "/m/0g9wdmc": 6809,
      "/m/02_ssl": 6810,
      "/m/03qmg1": 6811,
      "/m/01tspc6": 6812,
      "/m/0bq6ntw": 6813,
      "/m/06g2d1": 6814,
      "3m_": 6815,
      "39_": 6816,
      "6n": 6817,
      "fv": 6818,
      "kzs": 6819,
      "ls": 6820,
      "msd": 6821,
      "r9q": 6822,
      "/m/0zc": 6823,
      "/m/03t9": 6824,
      "/m/0326": 6825,
      "/m/04gr": 6826,
      "/m/05mp": 6827,
      "/m/051h": 6828,
      "/m/096f8": 6829,
      "/m/06v9": 6830,
      "/m/06_x9": 6831,
      "/m/07t": 6832,
      "/m/0b6": 6833,
      "/m/0fnp": 6834,
      "d_j": 6835,
      "/m/0jjy": 6836,
      "/m/0j_sn": 6837,
      "/m/0h3x": 6838,
      "/m/0kvg": 6839,
      "/m/0263": 6840,
      "/m/0187y": 6841,
      "/m/0pt": 6842,
      "/m/027y": 6843,
      "/m/01gbn": 6844,
      "/m/0mg": 6845,
      "/m/02vr7": 6846,
      "/m/014kq": 6847,
      "/m/03r8": 6848,
      "/m/02f1c": 6849,
      "/m/02fgm7": 6850,
      "/m/01fh": 6851,
      "/m/02gkzs": 6852,
      "/m/0284g": 6853,
      "/m/01d8": 6854,
      "/m/047msd": 6855,
      "8pn": 6856,
      "/m/0218": 6857,
      "/m/011yn5": 6858,
      "/m/011yd2": 6859,
      "z3nz": 6860,
      "728": 6861,
      "/m/03knl": 6862,
      "2xb": 6863,
      "/m/07f3x": 6864,
      "/m/0bx8pn": 6865,
      "ztt": 6866,
      "/m/0783m_": 6867,
      "/m/0cqh6z": 6868,
      "/m/0gkr9q": 6869,
      "/m/0gkz3nz": 6870,
      "tds": 6871,
      "/m/07pd_j": 6872,
      "/m/0b7l": 6873,
      "2zj": 6874,
      "/m/0n85g": 6875,
      "/m/02qw2xb": 6876,
      "/m/0b1y_2": 6877,
      "/m/0fx0mw": 6878,
      "/m/01kp66": 6879,
      "/m/02bfmn": 6880,
      "/m/06w839_": 6881,
      "/m/0_7w6": 6882,
      "/m/0blbxk": 6883,
      "/m/05mph": 6884,
      "/m/06_x996": 6885,
      "/m/0fnpj": 6886,
      "/m/0jjy0": 6887,
      "/m/0j_sncb": 6888,
      "/m/0h3xztt": 6889,
      "/m/0187y5": 6890,
      "/m/01gbn6": 6891,
      "/m/014kq6": 6892,
      "/m/047msdk": 6893,
      "/m/07f3xb": 6894,
      "5c5": 6895,
      "6mc": 6896,
      "fx4": 6897,
      "fmq": 6898,
      "jpm": 6899,
      "k24": 6900,
      "wvb": 6901,
      "/m/01yp": 6902,
      "/m/01ft": 6903,
      "/m/02sc": 6904,
      "/m/02mt": 6905,
      "/m/05_5": 6906,
      "/m/07tf": 6907,
      "/m/07vyf": 6908,
      "/m/07tds": 6909,
      "/m/0h5": 6910,
      "/m/0hfj": 6911,
      "/m/0l5": 6912,
      "/m/01w4c9": 6913,
      "/m/026wl": 6914,
      "/m/02qvl": 6915,
      "/m/01gss": 6916,
      "/m/02jp": 6917,
      "/m/013w7": 6918,
      "/m/0nbj": 6919,
      "/m/014zf": 6920,
      "/m/02x3l": 6921,
      "/m/01kg": 6922,
      "/m/012q": 6923,
      "/m/01ffx4": 6924,
      "/m/04g51": 6925,
      "vfq": 6926,
      "0m6": 6927,
      "/m/043g7l": 6928,
      "jv7": 6929,
      "92w": 6930,
      "/m/031k24": 6931,
      "9zdn": 6932,
      "72k": 6933,
      "/m/048t": 6934,
      "/m/046b0": 6935,
      "0xs": 6936,
      "mrk": 6937,
      "m8w": 6938,
      "/m/0r0m6": 6939,
      "/m/05ljv7": 6940,
      "/m/0ccvx": 6941,
      "/m/04pyp5": 6942,
      "/m/078bz": 6943,
      "/m/09qvms": 6944,
      "18h": 6945,
      "/m/0_92w": 6946,
      "/m/044lyq": 6947,
      "/m/0fq9zdn": 6948,
      "/m/05ml": 6949,
      "xbc": 6950,
      "/m/02cg7g": 6951,
      "/m/0227tr": 6952,
      "/m/03qnvdl": 6953,
      "/m/01wj18h": 6954,
      "/m/047p7fr": 6955,
      "/m/0gh65c5": 6956,
      "/m/0lyjf": 6957,
      "/m/016622": 6958,
      "/m/047svrl": 6959,
      "/m/0gdh5": 6960,
      "/m/019x62": 6961,
      "/m/01fh36": 6962,
      "/m/02scbv": 6963,
      "/m/02mt4k": 6964,
      "/m/07tf8": 6965,
      "/m/0hfjk": 6966,
      "/m/02qvl7": 6967,
      "/m/013w7j": 6968,
      "/m/0nbjq": 6969,
      "/m/014zfs": 6970,
      "/m/02x3lt7": 6971,
      "/m/046b0s": 6972,
      "0vz": 6973,
      "20_": 6974,
      "288": 6975,
      "5_f": 6976,
      "9bp": 6977,
      "zly": 6978,
      "/m/0vb": 6979,
      "/m/029k": 6980,
      "/m/03s9": 6981,
      "/m/0420": 6982,
      "_pj": 6983,
      "/m/09g9": 6984,
      "/m/0g5l": 6985,
      "/m/0gf2": 6986,
      "/m/0cwx": 6987,
      "/m/0c9k8": 6988,
      "/m/0bb5": 6989,
      "/m/08vr": 6990,
      "/m/0hm": 6991,
      "/m/0hz5": 6992,
      "/m/0k5g9": 6993,
      "/m/0l3": 6994,
      "/m/0lc": 6995,
      "/m/026n9": 6996,
      "/m/0p8": 6997,
      "1q6": 6998,
      "9js": 6999,
      "/m/0125x": 7000,
      "/m/02z4b": 7001,
      "sx8c": 7002,
      "/m/01z27": 7003,
      "969": 7004,
      "/m/01s9": 7005,
      "/m/03hp": 7006,
      "wxc": 7007,
      "38t": 7008,
      "vf2": 7009,
      "/m/0xzly": 7010,
      "5x_": 7011,
      "567": 7012,
      "/m/04jkp": 7013,
      "/m/011yr9": 7014,
      "q0g": 7015,
      "/m/03yvf2": 7016,
      "v1t": 7017,
      "m54": 7018,
      "m5c": 7019,
      "3x5": 7020,
      "/m/0cqhmg": 7021,
      "/m/01vw20_": 7022,
      "/m/0dl567": 7023,
      "/m/07g9f": 7024,
      "/m/0879bp": 7025,
      "/m/04lgy": 7026,
      "/m/0gtsx8c": 7027,
      "/m/051kv": 7028,
      "/m/01b66d": 7029,
      "/m/0pd64": 7030,
      "/m/0fc9js": 7031,
      "/m/09cm54": 7032,
      "/m/08wq0g": 7033,
      "/m/0275_pj": 7034,
      "/m/09fqtq": 7035,
      "/m/0m0jc": 7036,
      "/m/0bs0bh": 7037,
      "/m/0qcr0": 7038,
      "/m/0zcbl": 7039,
      "/m/0vbk": 7040,
      "/m/09g90vz": 7041,
      "/m/0gf28": 7042,
      "/m/0cwx_": 7043,
      "/m/0bb57s": 7044,
      "/m/08vr94": 7045,
      "/m/0hz55": 7046,
      "/m/026n998": 7047,
      "/m/0125xq": 7048,
      "/m/02z4b_8": 7049,
      "/m/04jkpgv": 7050,
      "/m/0879bpq": 7051,
      "1s": 7052,
      "7v": 7053,
      "_3s": 7054,
      "nk": 7055,
      "r9z": 7056,
      "r4y": 7057,
      "sgf": 7058,
      "tlh": 7059,
      "/m/02sb": 7060,
      "/m/04cr": 7061,
      "/m/090": 7062,
      "/m/09by": 7063,
      "/m/06wx": 7064,
      "/m/07xt": 7065,
      "/m/0cms": 7066,
      "/m/08r": 7067,
      "/m/0f0k": 7068,
      "/m/016l": 7069,
      "/m/016r9z": 7070,
      "/m/0j7": 7071,
      "/m/0jt": 7072,
      "/m/0js9": 7073,
      "/m/0151b": 7074,
      "/m/0ll3": 7075,
      "/m/02qvzf": 7076,
      "/m/02_2v2": 7077,
      "/m/01pk": 7078,
      "/m/01gw": 7079,
      "lc4": 7080,
      "/m/02rk": 7081,
      "/m/034b": 7082,
      "/m/02jsgf": 7083,
      "/m/0n1": 7084,
      "9r0": 7085,
      "/m/02k4g": 7086,
      "/m/02bqn": 7087,
      "qhm": 7088,
      "3tq": 7089,
      "/m/028kb": 7090,
      "/m/028r4y": 7091,
      "vwn": 7092,
      "/m/03_ly": 7093,
      "/m/035tlh": 7094,
      "/m/05b6": 7095,
      "yk0": 7096,
      "/m/02yy": 7097,
      "/m/041288": 7098,
      "vyr": 7099,
      "/m/011_3s": 7100,
      "rws1": 7101,
      "sll": 7102,
      "zqj": 7103,
      "lh7": 7104,
      "mxj": 7105,
      "/m/099vwn": 7106,
      "/m/05v10": 7107,
      "/m/0gvrws1": 7108,
      "/m/09d5h": 7109,
      "/m/077yk0": 7110,
      "/m/08nvyr": 7111,
      "/m/021yw7": 7112,
      "/m/0bdxs5": 7113,
      "/m/03v1jf": 7114,
      "/m/01243b": 7115,
      "/m/04jwly": 7116,
      "/m/0k4fz": 7117,
      "/m/04sh3": 7118,
      "/m/02ylg6": 7119,
      "/m/02vqsll": 7120,
      "/m/04lhc4": 7121,
      "/m/02sb1w": 7122,
      "/m/06wxw": 7123,
      "/m/07xtqq": 7124,
      "/m/0cms7f": 7125,
      "/m/0f0kz": 7126,
      "/m/0js9s": 7127,
      "/m/0151b0": 7128,
      "/m/02k4gv": 7129,
      "/m/02bqn1": 7130,
      "0ff": 7131,
      "0q5": 7132,
      "mr5": 7133,
      "y3": 7134,
      "y5": 7135,
      "y9": 7136,
      "yqp": 7137,
      "/m/049k": 7138,
      "/m/04sy": 7139,
      "/m/04l5": 7140,
      "/m/092b": 7141,
      "/m/06vk": 7142,
      "/m/07n": 7143,
      "/m/07wl": 7144,
      "/m/07wj": 7145,
      "/m/0gpp": 7146,
      "/m/0gx_": 7147,
      "/m/0g8r": 7148,
      "/m/0dwx": 7149,
      "/m/081mh": 7150,
      "/m/0fn5": 7151,
      "/m/0jhd": 7152,
      "/m/01vrl": 7153,
      "/m/0hskw": 7154,
      "/m/07s6p": 7155,
      "/m/01pd": 7156,
      "/m/02lp": 7157,
      "/m/02v0ff": 7158,
      "/m/02x20": 7159,
      "/m/02xx5": 7160,
      "/m/01kx_": 7161,
      "/m/025s": 7162,
      "/m/01nz": 7163,
      "2hv": 7164,
      "/m/01qr1": 7165,
      "/m/01rl": 7166,
      "/m/047tsx": 7167,
      "x1l": 7168,
      "v8m": 7169,
      "201": 7170,
      "zkr": 7171,
      "s1p": 7172,
      "gp6": 7173,
      "/m/0209xj": 7174,
      "/m/04wzr": 7175,
      "/m/04wgh": 7176,
      "/m/0gyfp": 7177,
      "/m/033q": 7178,
      "/m/05krk": 7179,
      "/m/03w1v": 7180,
      "3qj": 7181,
      "2yr": 7182,
      "3cn": 7183,
      "vk2": 7184,
      "/m/032j": 7185,
      "30k": 7186,
      "/m/01vwyqp": 7187,
      "/m/07k2mq": 7188,
      "/m/01vvyvk": 7189,
      "/m/07ymr5": 7190,
      "hj4": 7191,
      "/m/09d28z": 7192,
      "/m/0mbct": 7193,
      "/m/0gx_p": 7194,
      "/m/02wkmx": 7195,
      "/m/01z7s_": 7196,
      "/m/0h6r5": 7197,
      "/m/027c924": 7198,
      "/m/04954": 7199,
      "/m/03pmty": 7200,
      "/m/02fgpf": 7201,
      "/m/0dq630k": 7202,
      "/m/02wgk1": 7203,
      "/m/019rg5": 7204,
      "/m/02zfdp": 7205,
      "/m/092bf5": 7206,
      "/m/06vkl": 7207,
      "/m/0gx_st": 7208,
      "/m/0g8rj": 7209,
      "/m/0dwxr": 7210,
      "/m/0fn5bx": 7211,
      "/m/07s6prs": 7212,
      "/m/01kx_81": 7213,
      "/m/01qr1_": 7214,
      "/m/047tsx3": 7215,
      "/m/0gyfp9c": 7216,
      "/m/03w1v2": 7217,
      "3zy": 7218,
      "3s2": 7219,
      "5v8": 7220,
      "__v": 7221,
      "dq": 7222,
      "g2x": 7223,
      "ljd": 7224,
      "vrq": 7225,
      "x7x": 7226,
      "xdg": 7227,
      "yhv": 7228,
      "/m/01_p": 7229,
      "/m/02s6": 7230,
      "/m/037q": 7231,
      "/m/04fh": 7232,
      "/m/05wq": 7233,
      "/m/09pl": 7234,
      "/m/0738": 7235,
      "th9": 7236,
      "/m/0b6c": 7237,
      "/m/0j8f": 7238,
      "/m/0hg": 7239,
      "qfz": 7240,
      "/m/01wcp": 7241,
      "/m/01w724": 7242,
      "/m/027p": 7243,
      "/m/01ptsx": 7244,
      "/m/02lj": 7245,
      "/m/02rn": 7246,
      "/m/02r8h": 7247,
      "/m/02vr3": 7248,
      "/m/013n": 7249,
      "/m/0n2": 7250,
      "9r2": 7251,
      "/m/01271": 7252,
      "/m/01rzqj": 7253,
      "/m/01xdf": 7254,
      "/m/030hc": 7255,
      "/m/01ycbq": 7256,
      "t6k": 7257,
      "wrb": 7258,
      "/m/03h3v": 7259,
      "/m/035g": 7260,
      "/m/05b__v": 7261,
      "/m/040fb": 7262,
      "/m/040fv": 7263,
      "/m/023vrq": 7264,
      "s9n": 7265,
      "/m/03nsm": 7266,
      "/m/04w_7": 7267,
      "/m/048wrb": 7268,
      "/m/054knh": 7269,
      "/m/04pk9": 7270,
      "/m/0785v8": 7271,
      "tk_": 7272,
      "/m/038g2x": 7273,
      "2fs": 7274,
      "/m/059_c": 7275,
      "/m/01ww2fs": 7276,
      "/m/04__f": 7277,
      "/m/03ckxdg": 7278,
      "/m/0d8qb": 7279,
      "/m/08pth9": 7280,
      "/m/01rhl": 7281,
      "/m/0140g4": 7282,
      "/m/06vbd": 7283,
      "/m/016xh5": 7284,
      "/m/0g9zljd": 7285,
      "/m/011ypx": 7286,
      "/m/03rtmz": 7287,
      "/m/04smkr": 7288,
      "/m/040_9": 7289,
      "/m/01_p6t": 7290,
      "/m/05wqr1": 7291,
      "/m/0b6css": 7292,
      "/m/0j8f09z": 7293,
      "/m/01wcp_g": 7294,
      "/m/02r8hh_": 7295,
      "/m/02vr3gz": 7296,
      "/m/01271h": 7297,
      "/m/01xdf5": 7298,
      "/m/030hcs": 7299,
      "/m/03h3vtz": 7300,
      "/m/05b__vr": 7301,
      "/m/03nsm5x": 7302,
      "17c": 7303,
      "7bj": 7304,
      "986": 7305,
      "k7c": 7306,
      "r9j": 7307,
      "szl": 7308,
      "x61": 7309,
      "z7q": 7310,
      "zz7": 7311,
      "/m/01tb": 7312,
      "/m/01_n": 7313,
      "/m/022y": 7314,
      "/m/033w": 7315,
      "/m/03kx": 7316,
      "/m/041y": 7317,
      "/m/0410": 7318,
      "/m/049_": 7319,
      "/m/09th": 7320,
      "/m/09v3": 7321,
      "/m/09sr": 7322,
      "/m/0653m": 7323,
      "/m/07v": 7324,
      "/m/07t_": 7325,
      "/m/07kj": 7326,
      "mbl": 7327,
      "/m/0bjr": 7328,
      "/m/0b44": 7329,
      "/m/081k8": 7330,
      "/m/0h53": 7331,
      "/m/0h1c": 7332,
      "/m/0lkm": 7333,
      "/m/026mj": 7334,
      "/m/07sbb": 7335,
      "/m/0pc62": 7336,
      "/m/027986": 7337,
      "/m/01p7": 7338,
      "/m/0mc": 7339,
      "lc_": 7340,
      "/m/034x61": 7341,
      "/m/02jr": 7342,
      "/m/02j3d4": 7343,
      "xtl": 7344,
      "/m/012g": 7345,
      "/m/012vd": 7346,
      "/m/02bg5": 7347,
      "/m/01hw": 7348,
      "/m/05p92": 7349,
      "/m/028_y": 7350,
      "/m/06mmb": 7351,
      "nl7": 7352,
      "jjy": 7353,
      "/m/0q9zc": 7354,
      "/m/041c4": 7355,
      "sw9": 7356,
      "_vz": 7357,
      "/m/02dr9j": 7358,
      "/m/011zf": 7359,
      "/m/03l2n": 7360,
      "/m/011yg9": 7361,
      "/m/0gy7bj": 7362,
      "/m/05k17c": 7363,
      "bm8q": 7364,
      "m8b": 7365,
      "/m/05lf_": 7366,
      "/m/05r7t": 7367,
      "/m/04pb": 7368,
      "/m/0sx8l": 7369,
      "/m/06wbm8q": 7370,
      "/m/06rvn": 7371,
      "jsg": 7372,
      "/m/0f2tj": 7373,
      "/m/087wc7": 7374,
      "/m/086nl7": 7375,
      "/m/04cbbz": 7376,
      "_q8": 7377,
      "/m/044mvs": 7378,
      "/m/03_wtr": 7379,
      "/m/072x7s": 7380,
      "/m/0w7c": 7381,
      "/m/01wgxtl": 7382,
      "/m/02mjmr": 7383,
      "/m/016srn": 7384,
      "/m/0fhzwl": 7385,
      "/m/016tb7": 7386,
      "/m/0_b9f": 7387,
      "/m/0cnl1c": 7388,
      "/m/0ds11z": 7389,
      "/m/040rmy": 7390,
      "/m/01tbp": 7391,
      "/m/01_njt": 7392,
      "/m/022yb4": 7393,
      "/m/033w9g": 7394,
      "/m/041y2": 7395,
      "/m/049_zz": 7396,
      "/m/09sr0": 7397,
      "/m/07kjk7c": 7398,
      "/m/0bjrnt": 7399,
      "/m/0b44shh": 7400,
      "/m/0h1cdwq": 7401,
      "/m/07sbbz2": 7402,
      "/m/027986c": 7403,
      "/m/012vd6": 7404,
      "/m/02bg55": 7405,
      "/m/05p92jn": 7406,
      "/m/028_yv": 7407,
      "/m/011zf2": 7408,
      "/m/0gy7bj4": 7409,
      "/m/087wc7n": 7410,
      "15": 7411,
      "17x": 7412,
      "_1d": 7413,
      "l_t2": 7414,
      "mh": 7415,
      "xsv": 7416,
      "/m/04cf": 7417,
      "/m/0640": 7418,
      "/m/0gs1_": 7419,
      "/m/0gwgn": 7420,
      "/m/0dsc": 7421,
      "/m/0c2": 7422,
      "/m/0cmf": 7423,
      "/m/0bb": 7424,
      "/m/0b73": 7425,
      "/m/0b_5": 7426,
      "/m/08k": 7427,
      "/m/0fth": 7428,
      "/m/0f5x": 7429,
      "/m/0168l": 7430,
      "/m/0hv4": 7431,
      "/m/0k_": 7432,
      "/m/0l12": 7433,
      "/m/01wxy": 7434,
      "/m/07swvb": 7435,
      "/m/02_f": 7436,
      "/m/01gf": 7437,
      "/m/0n6f8": 7438,
      "/m/014z8": 7439,
      "/m/01l3m": 7440,
      "/m/01l78": 7441,
      "1wkq": 7442,
      "/m/02ky34": 7443,
      "/m/0d05q": 7444,
      "/m/02g9p4": 7445,
      "/m/0285c": 7446,
      "/m/01d1st": 7447,
      "/m/01slc": 7448,
      "/m/03hxsv": 7449,
      "bb6": 7450,
      "0m0": 7451,
      "/m/06n7h7": 7452,
      "/m/04jspq": 7453,
      "/m/011yl_": 7454,
      "t7b": 7455,
      "jdr": 7456,
      "/m/05cw8": 7457,
      "/m/0by17x": 7458,
      "/m/0by1wkq": 7459,
      "/m/05g3b": 7460,
      "3k7": 7461,
      "/m/0dll_t2": 7462,
      "/m/0391": 7463,
      "/m/07lt7b": 7464,
      "/m/0fq7d": 7465,
      "0f7": 7466,
      "/m/04lqv": 7467,
      "/m/0ddkf": 7468,
      "/m/031786": 7469,
      "/m/0swff": 7470,
      "/m/05fjy": 7471,
      "/m/0cnl09": 7472,
      "/m/02cl1": 7473,
      "/m/0ds33": 7474,
      "/m/030hbp": 7475,
      "/m/0gmd3k7": 7476,
      "/m/02f6ym": 7477,
      "/m/0210hf": 7478,
      "/m/01pl14": 7479,
      "/m/01pk8v": 7480,
      "/m/0gwgn1k": 7481,
      "/m/0dscrwf": 7482,
      "/m/0cmf0m0": 7483,
      "/m/0b73_1d": 7484,
      "/m/0b_5d": 7485,
      "/m/0f5xn": 7486,
      "/m/0168ls": 7487,
      "/m/0hv4t": 7488,
      "/m/0l12d": 7489,
      "/m/01wxyx1": 7490,
      "/m/014z8v": 7491,
      "/m/01l3mk3": 7492,
      "/m/01l78d": 7493,
      "/m/02ky346": 7494,
      "/m/0d05q4": 7495,
      "/m/0by17xn": 7496,
      "/m/0fq7dv_": 7497,
      "0t91": 7498,
      "1lp": 7499,
      "1sg": 7500,
      "36c": 7501,
      "8wk": 7502,
      "_r5": 7503,
      "fvc": 7504,
      "n81": 7505,
      "p3": 7506,
      "szf": 7507,
      "/m/072k": 7508,
      "/m/0d3": 7509,
      "/m/0dbp": 7510,
      "/m/0d6d": 7511,
      "/m/0dj7": 7512,
      "_mj": 7513,
      "/m/0fn8": 7514,
      "/m/016t0": 7515,
      "/m/016_mj": 7516,
      "/m/01vn3": 7517,
      "j5x": 7518,
      "/m/01wp8": 7519,
      "/m/026dx": 7520,
      "/m/0278x": 7521,
      "/m/02lyr4": 7522,
      "/m/019cr": 7523,
      "/m/0192l": 7524,
      "/m/02vj": 7525,
      "/m/01kf": 7526,
      "/m/01k_r5": 7527,
      "/m/02nwxc": 7528,
      "/m/01qd": 7529,
      "/m/01mw1": 7530,
      "/m/01rn": 7531,
      "/m/02wszf": 7532,
      "/m/0248": 7533,
      "/m/01swck": 7534,
      "8lb": 7535,
      "/m/06mfvc": 7536,
      "/m/035zr0": 7537,
      "/m/040db": 7538,
      "/m/0401sg": 7539,
      "ykc": 7540,
      "42t": 7541,
      "/m/064nh": 7542,
      "/m/02d42t": 7543,
      "/m/03xf_m": 7544,
      "/m/011j5x": 7545,
      "qp3": 7546,
      "9l_": 7547,
      "zl1": 7548,
      "/m/03yf": 7549,
      "3ls": 7550,
      "/m/0blq0z": 7551,
      "/m/04mn81": 7552,
      "/m/0cj36c": 7553,
      "/m/01vsykc": 7554,
      "/m/01vsy95": 7555,
      "/m/0cp0t91": 7556,
      "_q_": 7557,
      "/m/044mrh": 7558,
      "/m/01f7dd": 7559,
      "/m/0jyb4": 7560,
      "/m/03cl8lb": 7561,
      "/m/016fjj": 7562,
      "/m/01vsn38": 7563,
      "/m/018n6m": 7564,
      "/m/059g4": 7565,
      "/m/07sgfvl": 7566,
      "/m/01713c": 7567,
      "/m/01g03q": 7568,
      "/m/01bns_": 7569,
      "/m/01_f_5": 7570,
      "/m/05h43ls": 7571,
      "/m/0blpg": 7572,
      "/m/0m2l9": 7573,
      "/m/051hrr": 7574,
      "/m/072kp": 7575,
[...]
